<pad>	0
<unk>	0
<s>	0
</s>	0
<USER>	0
<ASSISTANT>	0
<SYSTEM>	0
、	-2.71436
。	-3.07202
▁	-3.22205
の	-3.88336
は	-3.98316
?	-4.55503
が	-4.67094
と	-4.72778
を	-4.79291
に	-4.92126
:	-5.03653
で	-5.07156
や	-5.2056
・	-5.23398
です	-5.2615
か	-5.57953
(	-5.57974
ます	-5.66526
)	-5.6968
」	-5.72597
▁-	-5.80852
.	-5.8512
し	-5.99509
1	-6.03788
2	-6.04653
「	-6.0655
から	-6.20071
には	-6.23819
ました	-6.24324
する	-6.35971
または	-6.4111
-	-6.46698
年	-6.49725
など	-6.52867
3	-6.54425
また	-6.54526
ですか	-6.59534
s	-6.61015
であり	-6.61029
も	-6.62252
この	-6.6291
る	-6.63235
た	-6.73625
として	-6.73646
▁=	-6.78014
て	-6.78845
では	-6.81153
などの	-6.81191
_	-6.82169
があります	-6.82418
します	-6.84206
]	-6.85516
その	-6.85756
!	-6.88149
,	-6.89294
な	-6.91193
5	-6.92073
ています	-6.92164
』	-6.92472
した	-6.93349
4	-6.93698
/	-6.945
▁2.	-6.94852
▁1.	-6.96498
つの	-6.99507
▁3.	-7.01129
月	-7.01588
これは	-7.03672
彼は	-7.11117
および	-7.11983
x	-7.13052
によって	-7.13895
して	-7.14039
である	-7.16704
は何ですか	-7.17297
ことができます	-7.17823
こと	-7.20036
▁[	-7.21023
そして	-7.21881
ス	-7.22233
▁この	-7.22962
▁4.	-7.25001
年に	-7.25218
す	-7.26378
a	-7.2638
他の	-7.27658
『	-7.28481
人	-7.28666
された	-7.28895
という	-7.29811
これらの	-7.30663
い	-7.30848
C	-7.31274
私は	-7.32458
"	-7.32842
m	-7.34646
を使用して	-7.34664
しました	-7.35646
▁「	-7.36213
新しい	-7.36236
てください	-7.36449
多くの	-7.37046
ために	-7.37375
より	-7.39529
さらに	-7.39778
P	-7.39806
>	-7.40485
のですか	-7.40489
▁5.	-7.41654
について	-7.42455
10	-7.42459
▁はい	-7.42725
6	-7.45648
7	-7.46979
'	-7.47479
り	-7.47738
的な	-7.49155
でした	-7.49244
▁"	-7.52169
できます	-7.54158
f	-7.54423
D	-7.55528
データ	-7.55904
方法	-7.56832
▁*	-7.58072
により	-7.59661
しています	-7.60179
S	-7.60365
それは	-7.61497
され	-7.61799
▁#	-7.62303
▁|	-7.62802
さまざまな	-7.62917
n	-7.63694
A	-7.64317
システム	-7.65054
ましたか	-7.65202
r	-7.65295
AI	-7.65339
あなたの	-7.66141
ため	-7.66251
時間	-7.66292
つ	-7.66476
e	-7.66662
彼らは	-7.67195
水	-7.67377
日	-7.6756
y	-7.68108
大	-7.69602
情報	-7.70407
しかし	-7.71018
彼の	-7.71805
ており	-7.71816
してください	-7.72087
ただ	-7.73669
特定の	-7.74081
もの	-7.74417
はどのような	-7.75352
どのような	-7.75624
することができます	-7.75769
力	-7.75917
できる	-7.76425
く	-7.76953
ための	-7.76994
ア	-7.77448
▁+	-7.78176
本	-7.78457
▁<	-7.78499
すべての	-7.78589
ト	-7.79209
8	-7.79981
ラ	-7.80001
中	-7.809
b	-7.81391
への	-7.81838
c	-7.82828
性	-7.82844
それ	-7.83058
i	-7.83071
に関する	-7.83381
まで	-7.83406
ル	-7.83422
▁a	-7.83526
いくつかの	-7.84517
技術	-7.85515
▁```	-7.85564
▁de	-7.86623
o	-7.87243
必要があります	-7.87385
機能	-7.87979
ク	-7.88119
国	-7.88351
▁'	-7.89924
ゲーム	-7.90458
これにより	-7.90714
B	-7.90815
があり	-7.90893
のために	-7.92216
による	-7.92535
されました	-7.92827
=	-7.92869
9	-7.9395
名	-7.967
、「	-7.96793
その後	-7.97003
問題	-7.97248
ている	-7.97404
各	-7.97511
t	-7.98579
F	-7.9899
ロ	-7.99032
▁6.	-7.99146
するために	-7.99566
d	-8.00817
がある	-8.0136
▁[]	-8.01403
すること	-8.02303
#	-8.02538
山	-8.02576
市	-8.02601
マ	-8.02702
活動	-8.02763
を持つ	-8.03464
ますか	-8.03883
たり	-8.04558
ー	-8.04795
最も	-8.05184
家	-8.05621
ない	-8.06001
リ	-8.06043
▁{	-8.0658
されています	-8.06627
異なる	-8.06774
すか	-8.06993
場合	-8.07453
環境	-8.07624
音楽	-8.07756
にも	-8.0807
u	-8.08197
される	-8.08319
ように	-8.08597
文	-8.08663
能力	-8.08753
的	-8.09018
たとえば	-8.09341
ド	-8.09348
場所	-8.09429
研究	-8.09787
▁the	-8.09863
あなたが	-8.10388
プログラム	-8.10396
彼らの	-8.10518
さ	-8.10614
自分の	-8.10933
;	-8.10976
コード	-8.11914
Python	-8.12125
私の	-8.12698
R	-8.12774
サービス	-8.13128
何ですか	-8.13203
g	-8.14157
に対する	-8.14232
川	-8.14838
モデル	-8.15133
コ	-8.15456
h	-8.15663
世界	-8.16117
を含む	-8.16507
一	-8.1658
行動	-8.16672
高	-8.1672
何	-8.17125
が含まれます	-8.17521
教育	-8.17609
▁私は	-8.17721
について教えてください	-8.17878
行	-8.18074
法	-8.18102
値	-8.1811
でも	-8.18166
町	-8.18252
数	-8.18881
作品	-8.19307
▁『	-8.19844
光	-8.20142
特に	-8.20624
カ	-8.20735
重要な	-8.20883
ていました	-8.21132
プロセス	-8.214
者	-8.22152
E	-8.22293
ことです	-8.22719
にある	-8.23062
よりも	-8.23217
学習	-8.23345
している	-8.23361
12	-8.23682
`	-8.23759
って	-8.23859
年の	-8.23896
リスト	-8.23933
▁7.	-8.24415
み	-8.24479
どの	-8.24555
ズ	-8.24671
[	-8.24683
製品	-8.24833
小さな	-8.24902
されます	-8.25005
き	-8.25207
G	-8.25965
における	-8.26187
▁**	-8.2645
▁in	-8.26877
化	-8.27084
ことで	-8.27359
に対して	-8.27471
良い	-8.27642
地	-8.2767
映画	-8.27757
結果	-8.27867
曲	-8.28676
関数	-8.29178
分	-8.29188
タ	-8.29901
は何	-8.29939
が必要です	-8.30024
手	-8.30066
ナ	-8.30386
M	-8.30455
人の	-8.30631
社会	-8.30644
生	-8.30702
p	-8.30935
エ	-8.31606
上	-8.31769
あなたは	-8.318
長	-8.31995
プロジェクト	-8.32598
に基づいて	-8.32714
日に	-8.32821
った	-8.32824
後	-8.32978
アプリケーション	-8.33017
エネルギー	-8.33096
ことができる	-8.3313
がありますか	-8.33682
オプション	-8.33691
大きな	-8.33844
別の	-8.33869
ら	-8.34002
日本	-8.34479
ツール	-8.3453
20	-8.34613
質問	-8.34776
状況	-8.34921
▁2	-8.35052
ことを	-8.35164
ン	-8.35272
▁la	-8.35354
非常に	-8.3555
出	-8.35582
する必要があります	-8.35788
レ	-8.35811
度	-8.36286
心	-8.36514
ある	-8.36681
アルゴリズム	-8.36849
▁}	-8.36893
はありますか	-8.36923
したがって	-8.37367
回	-8.37412
フ	-8.37892
になります	-8.38148
イ	-8.38224
テキスト	-8.38487
彼女は	-8.39208
オ	-8.39277
色	-8.39337
ダ	-8.39713
を教えてください	-8.40152
約	-8.40171
海	-8.40816
デザイン	-8.40965
どんな	-8.41
経験	-8.41006
▁`	-8.41183
チーム	-8.41779
▁b	-8.41787
ム	-8.42572
されている	-8.42635
er	-8.42646
開発	-8.43473
要素	-8.43503
適切な	-8.43768
言語	-8.43903
▁C	-8.44352
道	-8.44394
▁A	-8.45103
k	-8.45391
を提供する	-8.45425
を通じて	-8.45901
を使って	-8.46069
常に	-8.46201
それが	-8.46533
線	-8.469
点	-8.46955
▁$	-8.47162
T	-8.472
シ	-8.47758
▁彼は	-8.47954
ブ	-8.48162
田	-8.48191
動物	-8.48274
I	-8.48898
を提供します	-8.49049
0	-8.49074
▁なぜ	-8.49182
たのですか	-8.4948
文化	-8.495
構造	-8.49573
ドル	-8.49774
現在	-8.49812
例	-8.49831
でしたか	-8.5004
物語	-8.50105
画像	-8.50362
州	-8.50418
するための	-8.50462
バ	-8.5087
使用	-8.50873
管理	-8.51167
デ	-8.512
30	-8.51271
入力	-8.51309
▁que	-8.5153
かもしれません	-8.5176
目標	-8.51776
説明	-8.51873
組織	-8.51899
▁1	-8.52109
バー	-8.52158
▁\	-8.52357
理解	-8.52642
のような	-8.52825
同じ	-8.52865
とは何ですか	-8.52969
車	-8.53008
のある	-8.53296
下	-8.53462
▁8.	-8.53652
11	-8.53656
後に	-8.53666
トレーニング	-8.53974
ことは	-8.54011
H	-8.54053
島	-8.54145
▁S	-8.54605
都市	-8.54643
になる	-8.54804
可能性があります	-8.55039
ビジネス	-8.55092
感情	-8.55275
子	-8.55458
う	-8.55484
スキル	-8.55885
イベント	-8.55953
中に	-8.56002
形	-8.56014
関係	-8.56102
愛	-8.56163
からの	-8.56428
方	-8.56468
どのように	-8.57029
現在の	-8.57043
健康	-8.5711
en	-8.57206
処理	-8.57804
一方	-8.57836
最初の	-8.58013
オブジェクト	-8.58217
学	-8.58297
アイデア	-8.58329
三	-8.58331
木	-8.58453
ソフトウェア	-8.58636
ること	-8.58704
何か	-8.59199
駅	-8.59267
ウェブサイト	-8.59406
歌	-8.59407
式	-8.59556
タスク	-8.59622
のための	-8.59623
星	-8.59689
}	-8.59732
つまり	-8.59768
グループ	-8.59808
第	-8.60083
ジ	-8.60683
んです	-8.60756
計画	-8.61127
):	-8.61165
大学	-8.61202
なんです	-8.61388
);	-8.61465
通常	-8.61521
内	-8.61533
分析	-8.61664
サ	-8.61679
運動	-8.61773
目	-8.61785
において	-8.61956
旅行	-8.6203
体	-8.62065
は次のとおりです	-8.62322
それを	-8.62344
▁B	-8.62438
ません	-8.62566
キャラクター	-8.63389
お	-8.63401
様々な	-8.63418
X	-8.63463
理由	-8.63522
▁c	-8.63575
での	-8.63597
を作成する	-8.63654
の中で	-8.64147
のに役立ちます	-8.64294
変更	-8.6434
15	-8.64364
新	-8.64375
的に	-8.64454
例えば	-8.64592
リー	-8.64697
より多くの	-8.64789
無	-8.64889
ながら	-8.64946
にとって	-8.6502
仕事	-8.6508
次の	-8.6516
はありません	-8.65293
金	-8.65412
人間	-8.65624
前に	-8.65635
地域	-8.65716
19	-8.65736
N	-8.65742
王	-8.65821
▁先生	-8.6584
ミ	-8.65852
もあります	-8.66002
ノ	-8.66161
ウ	-8.6618
可能な	-8.66215
私	-8.66363
物	-8.66731
不	-8.66797
彼が	-8.66836
複数の	-8.67163
れ	-8.6723
したり	-8.67276
テ	-8.67621
ファイル	-8.67659
料理	-8.6783
ることができます	-8.67852
計算	-8.67936
私が	-8.68051
小	-8.68068
知識	-8.68069
コンテンツ	-8.68326
▁与えられた	-8.68386
素晴らしい	-8.68554
とは	-8.68654
話	-8.68684
クラス	-8.68956
ん	-8.69008
ま	-8.69033
部	-8.69108
を使用する	-8.69276
ましょう	-8.69403
企業	-8.69679
ニ	-8.69682
います	-8.69753
を提供し	-8.69813
経済	-8.69883
="	-8.70156
O	-8.70249
時	-8.70282
name	-8.7046
一部の	-8.70591
を説明してください	-8.70854
を持っています	-8.70916
前	-8.71162
表現	-8.71631
in	-8.71682
言葉	-8.71752
ネットワーク	-8.71931
具体的な	-8.72386
元	-8.72394
戦略	-8.72408
医療	-8.72468
の使用	-8.72536
種	-8.72871
L	-8.73235
語	-8.73299
答え	-8.73367
▁I	-8.73384
ッ	-8.73693
ing	-8.73752
Web	-8.73778
K	-8.73799
材料	-8.73973
はどの	-8.73981
と呼ばれる	-8.73992
▁if	-8.74084
を持ち	-8.74252
キ	-8.74417
人間の	-8.74489
め	-8.74515
宇宙	-8.74754
ユーザー	-8.74807
のように	-8.74912
を作成してください	-8.74926
市場	-8.75026
戦	-8.75027
顧客	-8.75028
ではなく	-8.75065
▁以下の	-8.7518
についての	-8.75347
V	-8.75349
場合は	-8.7552
目的	-8.75716
私たちは	-8.75735
の場合	-8.75767
ガ	-8.75926
ポイント	-8.76208
テスト	-8.76318
北	-8.76321
南	-8.76357
ものです	-8.76463
彼女の	-8.7662
li	-8.76637
空	-8.76833
会社	-8.76852
100	-8.76876
たんです	-8.77126
▁そして	-8.77169
24	-8.77199
シリーズ	-8.77238
地球	-8.77339
▁(	-8.77489
名前	-8.77515
西	-8.77737
デバイス	-8.77805
J	-8.78
チ	-8.78069
彼らが	-8.78194
見	-8.78492
変数	-8.78594
にあります	-8.78622
神	-8.78623
東	-8.78727
ことが重要です	-8.78867
植物	-8.78917
音	-8.79214
スト	-8.79246
部分	-8.79332
その他の	-8.79347
温度	-8.79447
▁``	-8.79462
会	-8.79536
▁and	-8.79545
イン	-8.79768
速度	-8.79835
に関連する	-8.80006
リソース	-8.80239
村	-8.80276
さん	-8.80427
ず	-8.8053
ディ	-8.80583
外	-8.80627
私たちの	-8.80686
グ	-8.80771
()	-8.80843
▁return	-8.80934
るんです	-8.8094
文字	-8.80999
ハ	-8.81401
▁9.	-8.81606
人々	-8.8172
Google	-8.81746
方法で	-8.81851
詩	-8.82059
特徴	-8.82076
惑星	-8.82199
ed	-8.82315
人々が	-8.82522
だ	-8.82551
▁f	-8.82638
産業	-8.82897
自然	-8.83185
://	-8.83218
量	-8.83225
コミュニケーション	-8.83246
複雑な	-8.8345
野	-8.83529
用	-8.83567
内の	-8.83623
一般的な	-8.83731
高い	-8.83765
▁もちろん	-8.84203
位	-8.84599
プ	-8.84649
の名前	-8.84694
つは	-8.84705
セ	-8.84762
コミュニティ	-8.84892
スタイル	-8.84932
軍	-8.84943
評価	-8.85106
流	-8.85239
U	-8.85239
決定	-8.85453
できますか	-8.85501
マン	-8.8552
科学	-8.85521
手順	-8.85559
ここに	-8.85805
▁for	-8.86013
を見つける	-8.8606
優れた	-8.86216
いる	-8.86443
パターン	-8.86454
影響	-8.86634
花	-8.86682
個人	-8.86997
デジタル	-8.87167
ではありません	-8.87216
はどんな	-8.87234
番組	-8.87297
ループ	-8.87301
とき	-8.87399
ザ	-8.87517
主に	-8.8753
作	-8.87727
条件	-8.88048
▁un	-8.88172
必要な	-8.88212
パン	-8.8826
非	-8.88293
▁y	-8.88357
ビデオ	-8.88401
出力	-8.88582
単語	-8.88626
価格	-8.88758
サポート	-8.88789
l	-8.88824
型	-8.88876
...	-8.89053
意味	-8.89177
制限	-8.89251
&	-8.89257
人物	-8.89476
石	-8.89621
人生	-8.89689
年から	-8.9001
ページ	-8.90054
となりました	-8.90177
すぐに	-8.90194
野菜	-8.90254
サイト	-8.90255
さんは	-8.90256
テレビ	-8.90326
▁en	-8.90402
数字	-8.90548
食事	-8.90737
いた	-8.91048
キー	-8.91146
よ	-8.91177
as	-8.91215
z	-8.91236
体験	-8.91261
上の	-8.91305
▁3	-8.91443
を書いてください	-8.91466
サイズ	-8.91562
ことがあります	-8.91916
com	-8.91988
頭	-8.92136
プラットフォーム	-8.92295
はいつ	-8.92426
操作	-8.92441
コンピューター	-8.92487
Y	-8.92569
課題	-8.92748
彼	-8.92753
を持っている	-8.92994
だけでなく	-8.93067
よう	-8.93072
W	-8.93196
白	-8.93345
▁5	-8.93568
カー	-8.93758
反応	-8.94001
予測	-8.94033
を作成します	-8.94055
メ	-8.94104
リスク	-8.94176
状態	-8.94458
層	-8.94476
がありました	-8.94517
ステップ	-8.94531
それら	-8.94757
on	-8.94898
スポーツ	-8.94966
アメリカ	-8.95097
面	-8.95098
社	-8.95123
責任	-8.95136
あなた	-8.95346
最後に	-8.95381
存在	-8.95811
パッケージ	-8.95899
することで	-8.96055
調査	-8.96413
でしょう	-8.96414
18	-8.96444
放送	-8.9651
設計	-8.96633
インターネット	-8.96713
選手	-8.96719
区	-8.96754
年には	-8.96966
これには	-8.97116
はどこ	-8.97139
を作成し	-8.97171
ほど	-8.97353
▁el	-8.97366
塩	-8.97785
同	-8.97918
選択	-8.97939
おり	-8.97975
へ	-8.98062
成長	-8.98081
▁10.	-8.98114
モ	-8.982
ていた	-8.98339
自己	-8.98347
サーバー	-8.98385
機会	-8.9839
強力な	-8.98456
強い	-8.98859
ラー	-8.99
るため	-8.99037
ゴ	-8.99055
生活	-8.99091
〜	-8.99686
**	-8.99702
アル	-8.99722
▁of	-8.99728
ネ	-8.99829
なら	-8.99897
セキュリティ	-8.9994
人工知能	-9.00032
ことが	-9.00178
県	-9.00238
攻撃	-9.00328
テーブル	-9.00352
数学	-9.00353
の数	-9.00432
位置	-9.00841
オンライン	-9.00856
要約する	-9.00877
熱	-9.01012
よく	-9.0108
アプローチ	-9.01104
郡	-9.01192
17	-9.01254
主	-9.01309
賞	-9.01396
のみ	-9.01433
合	-9.01543
コンピュータ	-9.01547
メッセージ	-9.01658
独自の	-9.01753
船	-9.01835
テクノロジー	-9.01851
es	-9.02095
al	-9.02119
人口	-9.0226
を指します	-9.02307
▁se	-9.02326
実験	-9.02425
発	-9.02582
カップ	-9.02616
データを	-9.02649
最初に	-9.0267
列	-9.02742
女性	-9.02761
波	-9.02877
作業	-9.02931
ティ	-9.03023
わ	-9.03149
パ	-9.0315
ですが	-9.0319
ツ	-9.03318
だった	-9.03425
スペース	-9.03476
▁D	-9.0348
商品	-9.03717
制御	-9.03765
空気	-9.03813
原	-9.03843
ット	-9.03979
食品	-9.03991
場	-9.04109
最大	-9.04234
いつ	-9.04244
所	-9.04312
となっています	-9.0432
ライブラリ	-9.04366
させ	-9.04376
率	-9.0442
有名な	-9.04895
のリスト	-9.05167
</	-9.05168
タイトル	-9.05356
ね	-9.05393
表	-9.05419
間	-9.05433
人が	-9.05468
設定	-9.05469
これ	-9.05632
パフォーマンス	-9.05719
全	-9.05797
変化	-9.05989
美しい	-9.06108
正しい	-9.06121
タイプ	-9.06236
14	-9.0625
▁これらの	-9.06364
考え	-9.06447
最終的に	-9.06642
年間	-9.06714
▁to	-9.06715
ると	-9.06737
16	-9.06764
v	-9.06966
であるため	-9.06969
最高の	-9.06985
13	-9.07061
すると	-9.07117
勇敢な	-9.07126
中国	-9.0713
ルール	-9.07253
|	-9.07268
気	-9.07273
学生	-9.07446
広告	-9.07738
写真	-9.07748
はどのように	-9.07787
▁</	-9.07804
▁しかし	-9.07996
なぜ	-9.08025
赤	-9.08156
利益	-9.08224
一緒に	-9.08353
もう	-9.08523
書	-9.0855
w	-9.08615
小説	-9.08647
接続	-9.08653
号	-9.08679
の一部	-9.0869
▁n	-9.08714
とされています	-9.08736
▁0	-9.08823
葉	-9.08825
馬	-9.08833
本当に	-9.09002
議論	-9.09147
25	-9.09409
え	-9.09457
支援	-9.09596
要因	-9.09733
実	-9.09782
学校	-9.09812
リング	-9.09909
プロ	-9.09909
簡単な	-9.09959
アルバム	-9.10079
ことができ	-9.1022
40	-9.10489
▁LA	-9.10494
データの	-9.10507
解決	-9.10764
実行	-9.1086
他の人	-9.10928
記事	-9.11056
を示す	-9.11076
なかった	-9.11101
あり	-9.11208
▁/	-9.11251
場合があります	-9.11353
ので	-9.11413
▁DO	-9.11423
すべて	-9.1164
数値	-9.11645
の特徴	-9.11666
改善	-9.11721
ていますか	-9.11781
ストーリー	-9.11901
http	-9.12213
50	-9.12424
ソーシャルメディア	-9.12499
歴史	-9.12518
▁FA	-9.12727
城	-9.12804
風	-9.12817
になり	-9.12838
立	-9.13086
正	-9.13245
保護	-9.13401
発見	-9.13431
を理解し	-9.1344
販売	-9.13572
▁x	-9.13636
間の	-9.13705
▁SI	-9.13858
によると	-9.14123
\	-9.14234
主な	-9.14286
----------------	-9.14312
ライン	-9.14553
アクセス	-9.14611
us	-9.14688
であること	-9.14911
▁Python	-9.15026
の両方	-9.15058
は通常	-9.15106
代	-9.15328
▁T	-9.15354
彼ら	-9.15372
空間	-9.15395
そうです	-9.15455
トピック	-9.15484
追加	-9.15513
特性	-9.15556
ください	-9.15662
バージョン	-9.15693
▁M	-9.1572
入	-9.15733
ター	-9.15735
家族	-9.15749
データベース	-9.15776
効果	-9.15806
▁//	-9.15812
フランス	-9.15897
感	-9.16003
解決策	-9.16097
費用	-9.16108
調整	-9.16137
',	-9.16224
どこ	-9.16262
を備えた	-9.16366
理論	-9.16474
役	-9.16546
は非常に	-9.16572
喜び	-9.16676
次に	-9.16678
ar	-9.16758
アプリ	-9.16847
公	-9.16887
分野	-9.16907
基本的な	-9.16937
については	-9.16938
の例	-9.17018
ソース	-9.17112
青	-9.17192
可能性	-9.17291
多	-9.17392
re	-9.17479
▁R	-9.17713
テーマ	-9.17742
an	-9.17794
The	-9.17845
練習	-9.17909
構成	-9.17922
is	-9.17949
プログラミング言語	-9.181
ピ	-9.18204
:**	-9.18281
の開発	-9.18324
ック	-9.1835
一般的に	-9.18364
人々は	-9.18472
二	-9.18474
コン	-9.18544
とその	-9.18559
死	-9.18618
概念	-9.18655
に応じて	-9.18675
▁これは	-9.19198
幅広い	-9.1928
鳥	-9.19335
する方法	-9.19402
っています	-9.19486
▁>	-9.19577
▁それは	-9.1966
今	-9.19768
口	-9.19819
和	-9.19855
▁私の	-9.19876
粒子	-9.19893
利用	-9.19912
させる	-9.20014
ユーザーが	-9.20068
現在は	-9.20148
月に	-9.20214
定	-9.20298
番目の	-9.20305
深い	-9.20424
親	-9.20441
▁G	-9.20443
意見	-9.20515
to	-9.20526
着	-9.20617
東京	-9.20986
▁こんにちは	-9.20995
",	-9.21078
真	-9.21232
卵	-9.21267
js	-9.21304
投資	-9.21422
アン	-9.2161
戦争	-9.21731
▁F	-9.21777
期間	-9.21794
価値	-9.21965
品	-9.21969
会話	-9.22004
もっと	-9.22018
たい	-9.22099
関連する	-9.22171
レシピ	-9.22237
それぞれ	-9.22277
詳細	-9.2237
投票	-9.22373
私に	-9.22377
安全	-9.22535
ときに	-9.22537
となります	-9.22564
利点	-9.22889
肉	-9.22981
果物	-9.22992
食べ物	-9.2302
確認	-9.23094
▁no	-9.23159
明	-9.23168
重	-9.23517
ゼ	-9.23591
の結果	-9.23832
機械学習	-9.23983
直	-9.24009
バス	-9.24011
万	-9.2402
レベル	-9.24149
にはどうすればよいですか	-9.24149
提案	-9.24207
メール	-9.24319
実際の	-9.24334
文字列	-9.24341
保存	-9.24531
html	-9.24698
le	-9.24762
の作成	-9.24872
美	-9.24919
ドイツ	-9.2494
分類	-9.24972
低	-9.24985
官	-9.24989
生産	-9.25146
%	-9.25236
るのですか	-9.25243
より良い	-9.25245
これが	-9.25334
統合	-9.25381
簡単に	-9.25428
プログラミング	-9.25448
セット	-9.25451
黒	-9.25508
む	-9.25547
芸術	-9.25571
ボ	-9.25575
ち	-9.25608
ジョン	-9.25838
の問題	-9.25867
足	-9.26071
していました	-9.26113
気候変動	-9.26235
完全に	-9.26376
データセット	-9.26442
マー	-9.26465
かどうか	-9.26621
事件	-9.26738
▁su	-9.26764
努力	-9.26866
の間に	-9.26886
建物	-9.26899
自由	-9.26973
現実	-9.27057
▁P	-9.27097
▁d	-9.27115
そ	-9.27235
クラブ	-9.27377
平	-9.27381
領域	-9.2739
しばしば	-9.27466
だけ	-9.27547
機	-9.27589
信号	-9.27595
こ	-9.27774
ロー	-9.27875
▁彼女は	-9.27946
ことを意味します	-9.27964
太陽	-9.28015
▁•	-9.28073
▁print	-9.28189
るために	-9.282
予算	-9.28225
を使用します	-9.28258
成功	-9.28495
作成	-9.28519
が必要	-9.28546
の歴史	-9.2858
os	-9.28612
かつ	-9.28677
▁g	-9.28901
夜	-9.28986
開	-9.29009
しており	-9.29009
座	-9.29042
ペ	-9.29081
用の	-9.2912
認識	-9.29132
cm	-9.29149
事実	-9.29302
人は	-9.29369
j	-9.29446
そう	-9.29461
成	-9.29475
中央	-9.29482
ります	-9.29595
定義	-9.29666
を使用し	-9.29715
フィードバック	-9.29733
アイテム	-9.29746
声	-9.29799
代わりに	-9.29987
中の	-9.30151
ではない	-9.30186
少なくとも	-9.30266
必要に応じて	-9.30272
になりました	-9.30341
▁p	-9.30364
っ	-9.30566
ヤ	-9.30577
ビ	-9.30752
方法は	-9.30756
ファン	-9.30928
氏	-9.30939
っている	-9.31095
こともできます	-9.31512
コスト	-9.31524
的で	-9.31536
犬	-9.31588
エラー	-9.31664
壁	-9.3167
ケ	-9.3172
FC	-9.3187
脳	-9.31908
の種類	-9.31939
検索	-9.31988
天	-9.32011
▁es	-9.32119
配列	-9.32259
▁V	-9.32425
時に	-9.32494
スクリプト	-9.32576
")	-9.32577
以下の	-9.32616
システムは	-9.32648
友人	-9.32712
け	-9.32717
文章	-9.32731
移動	-9.32763
円	-9.32902
男	-9.32915
最適化	-9.32936
平均	-9.32951
患者	-9.32967
味	-9.32984
睡眠	-9.33014
関連	-9.33018
メモリ	-9.33024
公園	-9.33026
病気	-9.33031
は誰ですか	-9.33074
したい	-9.33113
製造	-9.33116
地元の	-9.33121
道路	-9.33193
ましたが	-9.33235
200	-9.33301
で知られています	-9.33391
何を	-9.33403
抵抗	-9.33587
▁m	-9.33642
角	-9.33695
ご	-9.33742
背景	-9.33747
スイッチ	-9.33755
あ	-9.33797
電子	-9.33997
総	-9.34046
旅	-9.34165
び	-9.34355
英語	-9.34566
^2	-9.34573
**:	-9.34611
んだ	-9.34702
API	-9.34759
結合	-9.34792
などがあります	-9.34972
器	-9.35069
た後	-9.35097
できない	-9.35101
走	-9.35109
フェ	-9.35121
雲	-9.35129
橋	-9.35152
シーン	-9.35181
電気	-9.35225
▁on	-9.35309
▁4	-9.35435
開始	-9.35579
▁6	-9.35702
何が	-9.35806
夢	-9.35814
取引	-9.35836
寺	-9.35853
しましたか	-9.35858
▁my	-9.35896
▁i	-9.35932
少し	-9.3594
進	-9.3594
を行う	-9.35954
通	-9.35957
時代	-9.36066
をより	-9.36108
最新の	-9.36128
系	-9.36227
ロボット	-9.36239
ラン	-9.36315
正確な	-9.36419
に位置しています	-9.36431
火	-9.36481
▁あなたの	-9.36485
両方の	-9.36524
それらを	-9.36556
紙	-9.36556
リーグ	-9.36574
再び	-9.36632
彼女	-9.36657
知	-9.36721
と一緒に	-9.36749
協力	-9.36764
リンク	-9.37026
使用する	-9.37076
国際	-9.37193
版	-9.37212
期	-9.37249
まず	-9.37256
カメラ	-9.37329
高度な	-9.3735
個	-9.37449
細胞	-9.37508
化学	-9.37547
ra	-9.37698
ソ	-9.37761
私たちが	-9.3792
鉄	-9.37942
宮	-9.38044
岩	-9.38049
基準	-9.38063
教師	-9.38065
▁E	-9.38165
解	-9.38266
リン	-9.38268
スター	-9.38474
▁with	-9.38476
フィールド	-9.38563
おそらく	-9.38636
法律	-9.38637
の向上	-9.38713
機械	-9.38776
を生成してください	-9.38849
先	-9.39016
動	-9.39084
ような	-9.3909
代表	-9.39093
危険	-9.39101
ユーザーの	-9.39113
ラベル	-9.39223
企業は	-9.3934
興味	-9.39357
アクティビティ	-9.39547
("	-9.3955
」、「	-9.39595
となる	-9.39709
を使用すること	-9.39731
いて	-9.39733
の増加	-9.39899
エル	-9.39919
追加の	-9.3997
再	-9.40019
未来	-9.40031
ようです	-9.40068
銀河	-9.40262
店	-9.40468
))	-9.40554
を理解する	-9.40589
上で	-9.40667
lo	-9.40726
を見	-9.40779
日本の	-9.40941
メディア	-9.41049
イギリス	-9.41056
一連の	-9.4106
消費	-9.41074
森	-9.41112
長い	-9.41133
交通	-9.41173
購入	-9.41255
言語モデル	-9.41324
方程式	-9.41326
猫	-9.41339
が含まれています	-9.41342
同時に	-9.41345
に依存します	-9.4142
32	-9.41442
80	-9.41495
子供	-9.41541
職	-9.41551
特別な	-9.41859
毎日	-9.41884
動き	-9.41927
朝	-9.41933
そのような	-9.42052
$	-9.42099
そのため	-9.42107
電話	-9.42247
トップ	-9.42288
gitlab	-9.42437
まだ	-9.42461
年齢	-9.42569
ブロック	-9.42574
送信	-9.42575
参加	-9.42787
源	-9.42837
シート	-9.42892
:「	-9.42928
のでしょうか	-9.43031
実装	-9.43062
食	-9.43097
測定	-9.43151
競争	-9.43253
body	-9.43279
記録	-9.43351
農業	-9.43355
人気	-9.43357
指示	-9.43363
監督	-9.43433
広く	-9.43445
たら	-9.43476
されており	-9.43617
いました	-9.43734
">	-9.43848
制	-9.43906
建設	-9.43911
▁v	-9.43968
好み	-9.43988
エンジン	-9.44054
を特定し	-9.44072
初	-9.44073
q	-9.44082
個人的な	-9.4411
暗い	-9.44144
www	-9.44148
ía	-9.44223
)=	-9.44263
応答	-9.44538
最	-9.44568
アシスタント	-9.44657
▁r	-9.44691
しましょう	-9.44717
内で	-9.44785
シングル	-9.44853
機関	-9.44887
現象	-9.44931
谷	-9.44934
魚	-9.44936
体重	-9.44958
ロン	-9.45011
られ	-9.45191
1,	-9.45212
ニー	-9.45339
演奏	-9.45356
あなたに	-9.45449
強く	-9.45454
政治	-9.45499
市民	-9.45554
形式	-9.45555
治療	-9.45668
シー	-9.45827
ことをお勧めします	-9.45925
ニュース	-9.45995
ナー	-9.46001
▁あなたは	-9.46087
サン	-9.46128
れば	-9.46164
人々の	-9.46183
ジャンル	-9.46227
60	-9.46277
施設	-9.46599
br	-9.46609
でしょうか	-9.46704
ソン	-9.468
ita	-9.46833
を通して	-9.46841
国の	-9.46849
を作る	-9.4689
主要な	-9.46894
▁第	-9.46904
られた	-9.46955
潜在的な	-9.46972
人気のある	-9.47018
ブランド	-9.47061
社会的	-9.47194
アルゴリズムは	-9.47247
id	-9.4725
じ	-9.47257
通信	-9.47343
真実	-9.47348
米国	-9.47391
▁def	-9.47403
アクション	-9.47488
両	-9.47626
可能性のある	-9.47674
していますか	-9.4768
集	-9.47846
自動化	-9.47873
プレイ	-9.47926
進歩	-9.47929
ガス	-9.48002
主人公	-9.48005
を表す	-9.48053
大統領	-9.48134
番号	-9.48146
にもかかわらず	-9.48149
宗教	-9.48152
ch	-9.48154
手法	-9.4824
▁new	-9.48296
視点	-9.48748
相	-9.48895
主義	-9.48909
選択肢	-9.48985
なる	-9.49002
内容	-9.49014
タイ	-9.49055
▁AI	-9.49075
可能性がある	-9.49255
意思決定	-9.49456
維持	-9.49457
制作	-9.49547
となり	-9.49573
効果的な	-9.4977
資源	-9.49779
生物	-9.49787
トマト	-9.49791
側面	-9.498
していた	-9.49821
ば	-9.49835
定期的に	-9.49939
出身です	-9.49944
友達	-9.49967
の値	-9.50043
ドラマ	-9.50062
の存在	-9.50222
せ	-9.50288
最高	-9.50358
の主な	-9.5041
▁import	-9.50433
することが重要です	-9.50503
げ	-9.50534
質	-9.50609
ターゲット	-9.5062
*	-9.50632
の重要性	-9.50667
▁s	-9.50696
カード	-9.50754
パス	-9.50783
なく	-9.50808
['	-9.50864
古	-9.50986
政府	-9.51022
注意	-9.51275
ール	-9.51288
金融	-9.51289
▁N	-9.51318
になった	-9.51354
期待	-9.51361
障害	-9.51412
雪	-9.51466
俳優	-9.51469
登録	-9.51469
を説明する	-9.51531
んで	-9.51644
を書く	-9.51645
を学ぶ	-9.51732
事	-9.51883
のに役立つ	-9.51919
当	-9.52057
経済的	-9.52059
勝	-9.52075
ことはできません	-9.52078
混乱	-9.52089
ベ	-9.52142
の研究	-9.52315
団体	-9.52345
th	-9.52385
からです	-9.52477
対応	-9.52483
を行い	-9.52485
の影響	-9.52536
HTML	-9.52577
ó	-9.52698
骨	-9.5272
会議	-9.52725
世	-9.52752
▁10	-9.52756
ギ	-9.52784
準備	-9.52865
それらの	-9.52882
方法です	-9.52901
文学	-9.52937
を与え	-9.52975
io	-9.53045
マーケティング	-9.53096
')	-9.53255
世界の	-9.53255
▁++	-9.53438
st	-9.53488
ホ	-9.53523
希望	-9.53552
小学校	-9.53726
有	-9.5378
2000	-9.53841
出来事	-9.53862
規制	-9.53871
たちは	-9.53881
安	-9.53899
共有	-9.53939
家の	-9.53943
個人の	-9.54007
史	-9.54026
を介して	-9.54032
明確な	-9.54044
CO	-9.54047
短い	-9.54079
アメリカの	-9.54196
拡大	-9.54305
それぞれの	-9.54336
電	-9.54344
側	-9.54382
完全な	-9.54408
最も重要な	-9.54426
翻訳	-9.54516
戦い	-9.54523
自	-9.54726
国家	-9.54865
は約	-9.54873
今日	-9.54885
リクエスト	-9.54902
EIN	-9.54922
必要	-9.54937
ポ	-9.55136
文脈	-9.55196
▁is	-9.55205
という意味	-9.55251
室	-9.55374
分離	-9.55448
することです	-9.55464
展開	-9.55526
ことに	-9.55554
▁次の	-9.55569
シュ	-9.55696
を受け	-9.55696
尾	-9.55781
回答	-9.55782
を引き起こし	-9.55792
するのに役立ちます	-9.5583
古い	-9.55907
プレイヤーは	-9.55995
哲学	-9.56021
医師	-9.56149
がない	-9.56205
役割	-9.56287
ごとに	-9.56369
作曲	-9.56391
ir	-9.564
ありません	-9.56431
▁H	-9.56483
自分自身	-9.56499
+	-9.56522
オープンソース	-9.56537
レストラン	-9.56576
かった	-9.56594
したか	-9.56631
ソリューション	-9.56663
スケジュール	-9.56664
コンポーネント	-9.56664
要件	-9.56664
用語	-9.56699
生成	-9.56716
魅力的な	-9.56721
の利点	-9.56808
公開	-9.56995
でしたが	-9.57003
効率	-9.57018
ボール	-9.57068
主張	-9.57102
を開発する	-9.57125
python	-9.5713
を返します	-9.57219
を生成する	-9.57274
am	-9.57406
コマンド	-9.57697
進化	-9.57702
地球の	-9.57751
局	-9.57752
-1	-9.57765
独立	-9.57855
エン	-9.57858
ていません	-9.57971
▁==	-9.58158
解釈	-9.58164
ta	-9.58201
チェック	-9.58257
の間で	-9.58336
台	-9.58401
単純な	-9.58487
若い	-9.585
意識	-9.5851
来	-9.5851
明るい	-9.58547
これらは	-9.58606
と考えられています	-9.58615
get	-9.58643
▁los	-9.58685
を減らし	-9.58724
車両	-9.58739
te	-9.58743
伝統的な	-9.58993
ここで	-9.59067
インストール	-9.59084
科	-9.59108
支配	-9.59128
近	-9.59169
ライブ	-9.59204
ないでください	-9.59257
ヒ	-9.59264
ヨーロッパ	-9.59298
指	-9.59345
原子	-9.59349
既存の	-9.59358
根	-9.59358
政策	-9.59361
シーズン	-9.59367
▁love	-9.59375
作曲家	-9.59454
ング	-9.59535
に参加し	-9.59551
消費者	-9.59569
てきました	-9.59856
ませんでした	-9.59877
とても	-9.60064
することは	-9.60082
楽しい	-9.60235
薬	-9.60246
館	-9.60247
多様な	-9.60281
サンプル	-9.60289
段階	-9.60342
にはどのような	-9.60446
コース	-9.60475
のいくつか	-9.6071
拡張	-9.60755
更新	-9.60764
同様の	-9.60835
契約	-9.60994
21	-9.61095
ファ	-9.61112
事業	-9.61117
はどれくらい	-9.61118
情報を	-9.61119
大きく	-9.61182
幸福	-9.61199
array	-9.61213
具体的には	-9.61284
ドキュメント	-9.61315
▁con	-9.61511
距離	-9.61548
▁int	-9.61757
ストレス	-9.61795
次	-9.61911
違い	-9.61926
することができ	-9.61946
職業	-9.62152
ほとんどの	-9.62339
権	-9.62387
を見つけ	-9.62504
キャリア	-9.62656
を選択する	-9.62717
27	-9.62724
監視	-9.62774
個の	-9.62816
▁const	-9.62831
ジャガイモ	-9.62905
倍	-9.62958
分間	-9.63053
ストレージ	-9.63066
々	-9.63072
モジュール	-9.63085
思考	-9.63087
を提供しています	-9.63143
アップ	-9.6317
やその他の	-9.6329
以下は	-9.63304
街	-9.63425
土地	-9.63611
2012	-9.63647
につながる可能性があります	-9.63707
番	-9.63943
になる可能性があります	-9.63991
参照	-9.64035
ユニークな	-9.64055
液体	-9.6406
私たち	-9.64091
2008	-9.64096
ロード	-9.64101
バンド	-9.64132
白い	-9.64156
現代	-9.64261
義	-9.6432
必要がある	-9.64336
を利用して	-9.6439
ていない	-9.6439
時間を	-9.64429
別	-9.64433
を決定する	-9.64458
、『	-9.64476
専門家	-9.64504
たち	-9.64525
種類の	-9.64552
紹介	-9.64585
助け	-9.64615
われ	-9.64647
28	-9.64732
サー	-9.6497
員	-9.64971
ることができる	-9.64987
乗	-9.65109
▁あなたが	-9.65112
統計	-9.65192
ビー	-9.65239
et	-9.65249
ゴール	-9.65303
直接	-9.65318
以上	-9.65321
リア	-9.65357
と同じ	-9.65363
のない	-9.65368
鉄道	-9.65388
切	-9.65505
ベース	-9.65522
ユーザーに	-9.65578
を加え	-9.65622
分布	-9.65659
la	-9.65715
を減らす	-9.65763
結論	-9.65911
を使用すると	-9.6593
成績	-9.6595
雨	-9.65956
輸送	-9.65973
リンゴ	-9.65989
た場合	-9.66041
を見て	-9.66044
教	-9.66091
教え	-9.66122
ここでは	-9.66135
大会	-9.66136
▁以下は	-9.66222
敵	-9.66499
恐怖	-9.66514
▁h	-9.66533
を生成します	-9.66678
試合	-9.66847
大規模な	-9.66928
院	-9.66976
門	-9.6705
緑	-9.67068
ルー	-9.67138
シンプルな	-9.67215
の変化	-9.67244
▁¡	-9.67302
失	-9.6733
日から	-9.67416
屋	-9.67474
フォーム	-9.6754
製品の	-9.67555
以前の	-9.6756
多く	-9.67677
落	-9.67688
する必要がある	-9.67755
マーク	-9.67782
四	-9.67786
を促進する	-9.67788
グラフィック	-9.67829
タイプの	-9.67895
残	-9.67914
収入	-9.67941
クエリ	-9.67942
砂糖	-9.67944
ia	-9.67954
生命	-9.67967
に必要な	-9.68014
することもできます	-9.68029
23	-9.68062
地区	-9.68099
を維持し	-9.68107
▁X	-9.68169
の改善	-9.68229
ジェ	-9.68262
de	-9.68323
をどのように	-9.68384
申し訳ありませんが	-9.68387
ワ	-9.6839
しか	-9.68393
勉強	-9.68448
感覚	-9.68526
瞬間	-9.68653
するには	-9.6868
過去	-9.68707
漫画	-9.68761
懸念	-9.68839
雰囲気	-9.68943
パー	-9.68944
ポジティブな	-9.68976
専門	-9.68976
自分	-9.69055
質量	-9.69068
あります	-9.69204
300	-9.69221
を見る	-9.69313
重要です	-9.69349
▁<<	-9.69376
▁これらは	-9.69417
従業員	-9.69495
高校	-9.69507
命	-9.69532
▁your	-9.69639
」「	-9.69762
と見なされ	-9.69763
任	-9.69883
サッカー	-9.69899
込み	-9.69913
るように	-9.69928
省	-9.6993
たこと	-9.69943
に基づく	-9.6995
オン	-9.69963
インド	-9.69981
ri	-9.70005
黄色	-9.70032
に参加する	-9.70079
公式	-9.70167
秘密	-9.70228
フレーズ	-9.70428
調理	-9.70461
▁o	-9.7051
対	-9.70525
悪	-9.70532
大学で	-9.70541
編集	-9.70601
切り	-9.70653
時代の	-9.70696
低い	-9.70711
に影響を与える	-9.70717
400	-9.70762
関心	-9.7078
を感じ	-9.70824
それらは	-9.70838
ter	-9.70887
適応	-9.70899
松	-9.7091
▁bruj	-9.70959
流れ	-9.70996
られる	-9.71008
いつも	-9.71062
22	-9.71071
できるように	-9.71094
将来の	-9.71138
変換	-9.71202
インデックス	-9.7133
男性	-9.71331
楽曲	-9.7136
('	-9.71394
りました	-9.71401
をする	-9.71507
特定	-9.71538
王国	-9.71562
があった	-9.716
元の	-9.71649
システムの	-9.71776
売	-9.71912
士	-9.7195
el	-9.71954
候補者	-9.71986
キング	-9.72011
2013	-9.72094
外部	-9.72135
▁K	-9.7218
つながり	-9.72206
モン	-9.72221
こともあります	-9.72225
部屋	-9.72282
▁いいえ	-9.72669
どこにありますか	-9.72722
の可能性	-9.72725
作家	-9.72798
テクニック	-9.72872
90	-9.72902
を提案し	-9.72959
信頼	-9.72997
len	-9.72997
板	-9.73028
投稿	-9.7304
フォーマット	-9.73041
戦闘	-9.73041
include	-9.73046
すでに	-9.73049
エリア	-9.73081
電力	-9.73097
をもたらす	-9.73125
{	-9.73177
1.	-9.73209
の間の	-9.73215
多数の	-9.73219
を得る	-9.73235
▁彼の	-9.73472
取り組み	-9.73607
守	-9.73646
銀行	-9.73705
トン	-9.73766
最大の	-9.73795
の作品	-9.73937
ウェブサイトの	-9.73989
団	-9.74019
母	-9.7406
head	-9.74075
を取り	-9.74081
運転	-9.741
GUIX	-9.74102
形状	-9.74115
革新的な	-9.74137
ro	-9.74254
る可能性があります	-9.74299
二酸化炭素	-9.743
趣味	-9.74349
file	-9.74368
チェ	-9.74371
といった	-9.74395
ことにより	-9.7449
なければなりません	-9.74658
半	-9.74702
でき	-9.74793
CD	-9.74847
500	-9.74874
キャンペーン	-9.74905
論	-9.74929
米	-9.74936
教授	-9.7499
予定	-9.7499
身	-9.75019
を持って	-9.75062
汚染	-9.75077
与えられた	-9.75099
あなたを	-9.75123
効率的な	-9.75131
核	-9.75152
冬	-9.75162
ウイルス	-9.75163
議会	-9.75163
衛星	-9.7517
ることで	-9.75314
その結果	-9.75442
べき	-9.75556
2019	-9.75561
産	-9.75719
分子	-9.75775
ったり	-9.75799
安全な	-9.75858
ファイルを	-9.7587
レス	-9.75876
▁確かに	-9.76054
始め	-9.76059
建築	-9.76106
ようにしてください	-9.7611
ベル	-9.7611
プラスチック	-9.76134
楽器	-9.76136
記憶	-9.76173
左	-9.76187
ヒント	-9.76221
林	-9.76224
宗	-9.76231
ユニット	-9.76237
生き物	-9.76246
税金	-9.76254
土	-9.76268
ゼロ	-9.76302
現代の	-9.76415
されていません	-9.76424
コーヒー	-9.76519
data	-9.76541
比較	-9.76639
タスクを	-9.76708
示	-9.76887
▁La	-9.76906
工学	-9.76916
方向	-9.7696
を改善し	-9.76968
▁その	-9.76983
▁現在	-9.77014
結婚	-9.77117
最終	-9.77149
オーストラリア	-9.77168
の違いは何ですか	-9.77189
急	-9.77215
政	-9.77273
再生可能エネルギー	-9.77322
アジア	-9.77329
ビーチ	-9.77329
ドライバー	-9.77329
どうすれば	-9.77335
者は	-9.77342
悪い	-9.77377
失敗	-9.77378
tr	-9.77507
▁8	-9.7761
を与える	-9.77625
がある場合	-9.77626
ヴィ	-9.77674
最適な	-9.77678
(1	-9.777
or	-9.77718
物質	-9.77747
なります	-9.77777
セクション	-9.77882
労働	-9.77905
org	-9.77935
私はあなたが	-9.78003
ió	-9.78005
ig	-9.78054
for	-9.78098
の組み合わせ	-9.78182
十分な	-9.78201
定期的な	-9.78243
が高い	-9.78349
オープン	-9.78405
機器	-9.7841
に従って	-9.78417
酸素	-9.78427
対話	-9.78444
ねえ	-9.78447
ビル	-9.78454
フリー	-9.78511
user	-9.78512
2007	-9.78525
ジャ	-9.78534
最後の	-9.7861
検出	-9.7866
整数	-9.78664
内部	-9.78703
印刷	-9.78773
に基づいています	-9.78797
交換	-9.78931
魔法の	-9.79006
指導	-9.79022
電子メール	-9.79111
しますか	-9.79127
un	-9.79174
結	-9.79338
アカウント	-9.79354
他にも	-9.79398
どちら	-9.79401
証拠	-9.79404
▁私が	-9.79441
大量の	-9.79441
がいました	-9.79523
翼	-9.79527
店舗	-9.79532
携帯電話	-9.79535
支払い	-9.79572
にはどんな	-9.79593
学者	-9.79626
重力	-9.79637
45	-9.79642
級	-9.79647
どれくらい	-9.79648
メンバー	-9.79678
アート	-9.79691
オープンアシスタント	-9.79695
レビュー	-9.79714
歌詞	-9.79777
ent	-9.79805
深く	-9.7981
物体	-9.79847
柔軟性	-9.79936
物理学	-9.79972
品質	-9.79993
▁W	-9.80016
プラ	-9.8003
ためです	-9.80033
があるため	-9.80053
性別	-9.80058
に加えて	-9.80102
do	-9.80193
交	-9.8027
中学校	-9.80352
を共有し	-9.80361
はより	-9.80396
バイ	-9.80415
ニーズ	-9.80418
を引き起こす	-9.80428
説	-9.80591
▁you	-9.80611
兄弟	-9.80629
é	-9.80634
▁me	-9.8064
マネージャー	-9.80644
井	-9.80647
羽	-9.80655
経	-9.80657
Windows	-9.80658
▁Fuegoazul	-9.80659
タンパク質	-9.80659
湖	-9.8066
認証	-9.80662
アニメーション	-9.80662
引用	-9.80664
フィ	-9.80695
ということです	-9.807
教えてください	-9.80713
▁del	-9.80721
へのアクセス	-9.80873
ってどんな	-9.8095
などが	-9.80972
ユーザーは	-9.80975
より大きな	-9.81023
地方	-9.81037
楽	-9.81043
修正	-9.8112
世界中の	-9.81127
2016	-9.81147
年まで	-9.81177
アドバイス	-9.8122
勝利	-9.81369
検索エンジン	-9.81558
を必要とする	-9.81616
伝統	-9.81741
ブル	-9.81753
アフリカ	-9.81763
あらゆる	-9.81788
ミッション	-9.81789
改革	-9.81793
メンテナンス	-9.81795
装置	-9.81796
3,	-9.81819
や他の	-9.8186
ネット	-9.81863
しない	-9.81919
私を	-9.81948
危険な	-9.81948
フランスの	-9.81974
ほとんど	-9.81981
に所属しています	-9.82046
右	-9.82051
終了	-9.82054
全体	-9.82056
キーボード	-9.82171
彼を	-9.82171
26	-9.82351
構築	-9.82361
気候	-9.82412
ジュ	-9.82434
▁name	-9.82439
目の	-9.82458
ヘ	-9.82503
観察	-9.82508
派	-9.82563
プレイヤーが	-9.82628
コピー	-9.82741
を避け	-9.82752
程度	-9.82769
に関する情報	-9.82773
代替	-9.82785
相互作用	-9.82803
の違い	-9.82806
オペレーティングシステム	-9.82809
レン	-9.82833
なしで	-9.82875
の関係	-9.82901
節	-9.82915
蔵	-9.82926
初めて	-9.82928
草	-9.8293
プレゼンテーション	-9.82944
ピアノ	-9.82948
行為	-9.82949
固定	-9.8295
いますか	-9.82952
タイム	-9.82953
日の	-9.82959
▁para	-9.82973
によって異なります	-9.82997
イタリア	-9.83027
少年	-9.83038
it	-9.8307
従来の	-9.83071
興味深い	-9.83297
える	-9.83306
で構成されています	-9.83329
モデルは	-9.83362
ロック	-9.8339
最終的には	-9.8349
がいくつかあります	-9.83539
発展	-9.83622
彼に	-9.83734
貢献	-9.83764
誰	-9.83777
までの	-9.83817
は以下の通りです	-9.83896
形態	-9.83976
組	-9.8399
の高い	-9.84016
ろ	-9.84054
害	-9.84061
徳	-9.84075
は日本の	-9.84078
艦	-9.8408
顔	-9.84093
用途	-9.84099
絵画	-9.84112
トラック	-9.84113
ギター	-9.84118
label	-9.84141
ul	-9.8415
トーン	-9.84166
誰が	-9.84168
個々の	-9.84171
バランス	-9.84175
<	-9.84188
の意味	-9.84237
(2	-9.84248
幅	-9.84301
ベースの	-9.84387
スペイン	-9.84482
メイン	-9.84516
情熱	-9.84569
ユ	-9.84608
報告	-9.84617
高さ	-9.84621
信念	-9.84654
を促進し	-9.84666
セル	-9.84672
▁las	-9.84683
変	-9.84713
乾燥	-9.84775
▁Y	-9.84778
▁std	-9.84898
雇用	-9.84923
正しく	-9.84942
高速	-9.85025
帯	-9.85167
実際に	-9.85168
枝	-9.85203
ホーム	-9.85223
センター	-9.85233
35	-9.85273
窓	-9.85284
▁e	-9.85285
配信	-9.85302
前の	-9.85415
オブジェクトの	-9.85426
ップ	-9.85448
の長さ	-9.85453
のことです	-9.85472
唯一の	-9.85537
生徒	-9.85548
ッド	-9.85562
権利	-9.85567
の目的	-9.85577
としては	-9.85594
一般に	-9.85614
要約	-9.85637
を提供することができます	-9.85644
保	-9.85667
付け	-9.85672
ありますか	-9.85709
注文	-9.85717
出演	-9.85735
がありますが	-9.85757
の主要な	-9.85797
顧客の	-9.85802
単一の	-9.8584
調	-9.859
校	-9.85934
適用	-9.85995
レース	-9.86009
Linux	-9.86066
の説明	-9.86101
ゲームの	-9.8615
関数は	-9.86155
▁as	-9.8618
株式	-9.86228
提供	-9.86244
のため	-9.86268
ヴァ	-9.86274
ライト	-9.8631
動作	-9.86335
満	-9.86404
ブラウザ	-9.86435
成功した	-9.8645
党	-9.86464
イメージ	-9.86474
クライアント	-9.86476
精度	-9.86482
リサイクル	-9.86493
自体	-9.86508
進行	-9.86511
人類	-9.86532
笑い	-9.86587
困難	-9.86589
加	-9.86625
2015	-9.86646
労働者	-9.8666
に向かって	-9.86671
アニメ	-9.86715
習慣	-9.86743
ために使用されます	-9.86785
することができる	-9.86806
論文	-9.86838
ウェブ	-9.86913
2010	-9.87047
シャ	-9.8706
▁彼らは	-9.8707
分野で	-9.87155
ウィ	-9.87188
極	-9.87218
人です	-9.87278
業	-9.87282
2022	-9.87366
ハイ	-9.87379
▁新しい	-9.87411
お金	-9.87453
意	-9.87554
▁2)	-9.87569
木材	-9.87578
退	-9.87615
密	-9.87634
油	-9.87647
を作成できます	-9.87649
ラジオ	-9.8766
判断	-9.87669
ガイド	-9.87675
五	-9.87677
ヘリコプター	-9.87679
娘	-9.87679
Docker	-9.87679
気温	-9.87681
金属	-9.87696
ce	-9.87708
それとも	-9.87721
合計	-9.8778
ハリー	-9.87783
際に	-9.87785
なぜなら	-9.87796
ところ	-9.8784
協会	-9.87974
を提供してください	-9.88021
試験	-9.88028
顧客サービス	-9.88035
は誰	-9.8808
を分析し	-9.88094
を持っていました	-9.8822
採用	-9.88264
である場合	-9.88346
の量	-9.88421
何も	-9.88474
を計算する	-9.88516
としても	-9.88614
続け	-9.88623
time	-9.88715
造	-9.88815
等	-9.8882
沢	-9.88876
超	-9.88887
脂肪	-9.88893
図書館	-9.88898
歯	-9.88899
工場	-9.88905
note	-9.88905
ボックス	-9.88905
リーダー	-9.8891
夏の	-9.88926
使われ	-9.88997
ケース	-9.89011
最初は	-9.89167
基本	-9.89169
ことができますか	-9.89258
億	-9.89365
の経験	-9.89419
取得	-9.89432
ているんです	-9.8946
フィート	-9.89489
以下	-9.89663
!」	-9.89665
の原因	-9.89685
29	-9.89757
地域の	-9.89782
放	-9.89784
法的	-9.89889
犯罪	-9.89924
ma	-9.89925
アーティスト	-9.90006
原則	-9.90008
黄	-9.9003
感謝	-9.90033
ローマ	-9.90054
原因	-9.90087
平和	-9.90093
観客	-9.90116
首	-9.90121
事故	-9.90125
像	-9.90125
停止	-9.9013
博物館	-9.90132
プロトコル	-9.90133
瞑想	-9.90133
☆	-9.90134
ペット	-9.90142
単位	-9.90145
ソート	-9.90153
3.	-9.90154
密度	-9.90157
2009	-9.90197
がいます	-9.90239
重要	-9.90283
を実行する	-9.90284
が必要な	-9.90363
▁Web	-9.90427
カル	-9.90461
me	-9.90563
るか	-9.90677
全体的な	-9.90743
コア	-9.90837
▁al	-9.90945
コードを	-9.91026
することはできません	-9.91051
選挙	-9.91069
を使用できます	-9.91113
基	-9.91115
実際には	-9.91127
などで	-9.91172
群	-9.91196
リス	-9.9124
現	-9.91246
絵	-9.91296
2020	-9.91303
活動を	-9.9132
接	-9.91337
▁http	-9.91352
財務	-9.91357
嵐	-9.91378
友情	-9.91384
公共	-9.91387
症状	-9.91389
を特定してください	-9.91455
▁この曲は	-9.91467
を明確に	-9.91471
輝き	-9.91473
を作り出し	-9.91519
読者	-9.91538
2005	-9.91562
▁now	-9.91574
界	-9.91582
に行く	-9.9159
世紀	-9.91633
の力	-9.91647
優勝	-9.91652
();	-9.91657
ことを願っています	-9.91686
取り	-9.91689
宇宙の	-9.91722
▁ア	-9.91879
トラ	-9.91899
全ての	-9.9196
はどのくらい	-9.92015
に基づいた	-9.92018
食べる	-9.92191
生まれ	-9.92235
されていますか	-9.92296
時には	-9.92335
と言われています	-9.92371
フル	-9.92391
選	-9.92443
GPS	-9.92446
5,	-9.92453
企業が	-9.92472
完了	-9.92583
差	-9.92605
__	-9.92628
がどのように	-9.92631
偽	-9.92637
跡	-9.92644
00	-9.92645
きます	-9.92646
紛争	-9.92647
GPU	-9.92648
箱	-9.9265
▁昔々	-9.9265
スケール	-9.92658
広	-9.92662
成果	-9.92697
達成	-9.92706
il	-9.92731
歌手	-9.92848
健康的な	-9.92854
役職	-9.92856
▁double	-9.92884
を示し	-9.92928
ード	-9.92931
強	-9.92971
この場合	-9.93052
を開発し	-9.93075
指定	-9.931
つです	-9.93178
▁w	-9.93306
レー	-9.93341
することをお勧めします	-9.93341
ガン	-9.93506
路	-9.93533
警察	-9.93557
を探し	-9.93581
ru	-9.93666
ないため	-9.93713
これら	-9.93717
されていない	-9.93737
JavaScript	-9.9378
▁O	-9.93798
運	-9.93819
春	-9.93835
2021	-9.93837
税	-9.93891
頻繁に	-9.93923
継承	-9.93931
迷路	-9.93933
痛み	-9.93942
貴重な	-9.93954
レイ	-9.94
結論として	-9.94092
季節	-9.94141
ID	-9.94148
実現	-9.94251
タグ	-9.94278
するため	-9.94634
夏	-9.94667
中心	-9.94683
を形成し	-9.94705
あたり	-9.94795
手段	-9.94807
思い出	-9.94825
文書	-9.94857
ゾーン	-9.94868
会社の	-9.94899
できません	-9.94996
mm	-9.95078
パリ	-9.95081
通り	-9.95131
民	-9.95134
決意	-9.95142
在	-9.95144
Apple	-9.95145
ut	-9.95179
軍事	-9.95206
持続可能な	-9.95217
人に	-9.95224
勇気	-9.95226
に関係なく	-9.95228
玉ねぎ	-9.9523
ナビゲーション	-9.95233
ホテル	-9.95233
マップ	-9.95255
を改善する	-9.95272
家庭	-9.95313
ST	-9.95377
ケア	-9.9538
満足	-9.95456
ac	-9.95503
を特定する	-9.95553
の最初の	-9.95572
に大きな影響を与え	-9.95584
▁ジョン	-9.95635
を持っていますか	-9.95676
繰り返し	-9.95752
人々に	-9.95798
▁World	-9.95802
の上に	-9.95806
▁API	-9.95981
すべてが	-9.96013
アー	-9.96026
食べ	-9.96072
理	-9.96093
立ち	-9.96103
を中心に	-9.9613
したこと	-9.96146
チャットボット	-9.96282
▁一方	-9.96331
画	-9.96375
大気	-9.96404
を返す	-9.96418
構文	-9.9642
最良の	-9.96508
ポート	-9.96511
資格	-9.96511
Microsoft	-9.96514
他に	-9.96514
港	-9.96523
に到達する	-9.96523
を高める	-9.96534
集中	-9.9654
インタビュー	-9.96543
ミュージック	-9.96543
おいしい	-9.96544
衝突	-9.96545
×	-9.96546
ツアー	-9.96557
奇妙な	-9.96565
カテゴリー	-9.96575
に影響を与え	-9.96578
path	-9.9661
株式会社	-9.96611
em	-9.96654
2017	-9.96691
ート	-9.96728
▁残念ながら	-9.9679
ノート	-9.96811
▁最後に	-9.96854
2014	-9.96885
舞台	-9.96891
▁main	-9.96894
以上の	-9.96911
色の	-9.96913
範囲	-9.96955
▁材料	-9.97011
無料	-9.97018
物理的な	-9.97048
標準	-9.97074
の下で	-9.97097
▁今	-9.97148
2011	-9.97241
はまだ	-9.97291
発明	-9.97357
信頼できる	-9.97477
に使用される	-9.97524
要求	-9.97527
章	-9.97622
を設定する	-9.97638
を求める	-9.97641
アンド	-9.97682
でもあります	-9.97685
断	-9.97783
バル	-9.97821
分散	-9.97825
活躍	-9.97847
筋肉	-9.97849
Amazon	-9.97878
があれば	-9.97883
輝く	-9.97892
長期的な	-9.97899
ボート	-9.97906
とともに	-9.97909
を務めました	-9.97924
はい	-9.97939
創造性	-9.97951
2006	-9.9799
スコア	-9.97993
活用	-9.98027
水を	-9.98033
上げ	-9.98036
政治家	-9.98112
訓練	-9.98124
ボード	-9.98127
全国	-9.98188
どれ	-9.98215
トリック	-9.98249
使用される	-9.98262
▁全体的に	-9.98289
ルート	-9.98314
ライ	-9.98321
1:	-9.98325
詳細な	-9.98339
精神	-9.98342
マル	-9.98357
70	-9.98395
のパフォーマンス	-9.98411
カラー	-9.98483
属	-9.98531
始めました	-9.98534
の役割	-9.98573
を始め	-9.98636
コンテキスト	-9.98649
始める	-9.98662
はどのようなもの	-9.98667
増	-9.98805
どのような経歴を持ってい	-9.98813
op	-9.9883
生産性	-9.98869
スライス	-9.98927
計	-9.98973
かもしれない	-9.98982
のメンバー	-9.99044
を学び	-9.99045
説明してください	-9.9907
動詞	-9.99113
ベクトル	-9.99129
帝国	-9.99134
メソッド	-9.99163
貿易	-9.99187
影	-9.99226
住民	-9.99228
トルコ	-9.99231
伝説	-9.99236
鶏肉	-9.9924
コメント	-9.99251
買	-9.9928
fuego	-9.99288
受信	-9.99297
Excel	-9.99307
されていました	-9.99394
py	-9.99422
ic	-9.99504
1/2	-9.99512
▁20	-9.99571
を高め	-9.99598
端	-9.99706
プロジェクトの	-9.99899
チェス	-9.99901
▁この映画は	-9.99901
ものを	-9.99918
▁be	-9.99961
の範囲	-9.99963
2)	-10.0002
トレンド	-10.0003
夫	-10.0008
分解	-10.0008
状	-10.0011
を簡単に	-10.0012
重量	-10.0014
単に	-10.0028
の合計	-10.0031
リズム	-10.0035
パワー	-10.0035
▁さらに	-10.0041
利用可能な	-10.0044
を維持する	-10.005
ab	-10.005
周	-10.0053
競技	-10.0058
と比較して	-10.0058
辺	-10.0058
緊張	-10.0059
冷却	-10.0059
GPT	-10.006
相関	-10.006
徐々に	-10.006
を認識し	-10.0061
成分	-10.0067
として知られています	-10.0069
するように	-10.0069
input	-10.0073
Java	-10.0074
問題を	-10.0075
させます	-10.0078
れた	-10.0081
kg	-10.0086
を使用した	-10.0087
収集	-10.0089
と呼ばれ	-10.0096
ますが	-10.0098
プレイヤー	-10.0101
ヌ	-10.0107
行う	-10.0107
を選択します	-10.0109
の構造	-10.0119
量子	-10.0122
31	-10.0122
の物語	-10.0123
魔法	-10.0126
ティー	-10.0128
役立つ	-10.0135
と思います	-10.0139
▁sin	-10.014
高く	-10.0144
伝	-10.0145
シン	-10.0149
業界	-10.0151
°	-10.0152
書き	-10.0153
の仕事	-10.0153
との関係	-10.0157
アウト	-10.0169
どこで	-10.0173
として知られる	-10.0178
を示します	-10.0179
で最も	-10.0183
のすべての	-10.0184
転	-10.0184
時期	-10.0185
日付	-10.0186
類	-10.0186
IV	-10.0186
需要	-10.0188
過	-10.0195
▁WordPress	-10.0195
によれば	-10.0196
逆	-10.0196
だったんです	-10.0197
副	-10.0199
飲み物	-10.0199
フレームワーク	-10.0199
tatara	-10.0199
数は	-10.0201
の中心	-10.0201
のうち	-10.0203
se	-10.0204
▁ありがとう	-10.0205
話す	-10.0208
の間	-10.021
CSS	-10.021
性質	-10.021
族	-10.0215
を伝える	-10.0219
初期	-10.0229
展示	-10.0231
長さ	-10.0241
2018	-10.0243
多くの場合	-10.0246
ぶ	-10.0252
栄養	-10.0256
創造的な	-10.0257
-3	-10.0262
しないでください	-10.0264
供給	-10.0264
リラックス	-10.0267
を避ける	-10.027
6,	-10.0271
-4	-10.0273
自動	-10.0275
高等学校	-10.0275
ブー	-10.028
大陸	-10.0285
自分自身の	-10.0289
する能力	-10.0292
任意の	-10.0294
られました	-10.0296
片	-10.0301
の利用	-10.0303
▁df	-10.0307
ve	-10.0307
を使う	-10.0312
次のように	-10.0314
no	-10.0315
部門	-10.0316
酸	-10.032
観測	-10.0327
連続	-10.0327
利	-10.0331
報	-10.0335
未	-10.0338
するか	-10.0338
富	-10.0339
資料	-10.0339
商業	-10.0339
チョコレート	-10.034
両親	-10.0341
パーティー	-10.0342
スペイン語	-10.0342
ダー	-10.0342
マイル	-10.0343
ない場合	-10.035
得	-10.0357
キリスト教	-10.0358
Q	-10.0359
内に	-10.0361
こんにちは	-10.037
古代	-10.0391
神社	-10.0398
取	-10.0398
まれ	-10.04
▁7	-10.0402
のテーマ	-10.0413
場所に	-10.0416
言及	-10.0418
ex	-10.042
で使用される	-10.0426
2:	-10.0426
万人	-10.0433
対象	-10.0434
上昇	-10.0438
かつて	-10.0454
記	-10.0459
制度	-10.046
中国の	-10.046
he	-10.0468
面白い	-10.0469
主題	-10.047
▁una	-10.0472
トリ	-10.0472
治	-10.0472
コードの	-10.0474
武	-10.0478
政治的	-10.0479
スピーチ	-10.048
診断	-10.0481
呼吸	-10.0482
広がり	-10.0482
床	-10.0482
江	-10.0482
姿	-10.0482
収益	-10.0483
才能	-10.0483
新聞	-10.0483
悲しみ	-10.0483
アルコール	-10.0483
包括的な	-10.0483
領土	-10.0484
インチ	-10.0488
48	-10.0497
なので	-10.0498
▁body	-10.0499
を食べ	-10.05
世界で	-10.0501
を求め	-10.0509
企業の	-10.0516
てもらえますか	-10.052
言	-10.0521
私はあなたに	-10.0527
誰もが	-10.0533
正確に	-10.0538
64	-10.0548
もありました	-10.055
形式で	-10.0554
許可	-10.0557
路線	-10.0559
図	-10.0563
信	-10.0564
とも	-10.0565
女	-10.0568
無料の	-10.057
ビジョン	-10.057
co	-10.0575
ガー	-10.0576
遊	-10.0588
は何でしたか	-10.0603
互いに	-10.0604
たい場合は	-10.0605
マイ	-10.0618
好	-10.0619
務	-10.0621
崎	-10.0622
カテゴリ	-10.0624
毛	-10.0626
聖	-10.0626
コンテナ	-10.0628
三角形	-10.0628
チーズ	-10.0628
問題解決	-10.0631
べきです	-10.0634
火星	-10.0636
▁結果	-10.0639
post	-10.0644
▁'1.	-10.0649
合い	-10.0651
話し	-10.0657
set	-10.0658
安定性	-10.0667
進む	-10.0672
市の	-10.0672
すれば	-10.0677
▁Linux	-10.0677
提供する	-10.0679
心配	-10.0694
枚	-10.0696
が好きです	-10.0696
かけ	-10.0697
int	-10.0703
がなく	-10.0703
炭素	-10.0709
音楽の	-10.0721
順	-10.0725
冗談	-10.0725
最近	-10.0732
につながる	-10.0733
5%	-10.0733
を持つこと	-10.0734
を保護する	-10.0735
一部	-10.0737
所有	-10.0739
した場合	-10.074
彼女が	-10.074
を集め	-10.0742
将来	-10.0743
ハン	-10.075
かなり	-10.075
▁L	-10.0751
音声	-10.0752
字	-10.0754
できること	-10.0766
req	-10.0767
インターフェイス	-10.0768
従	-10.0769
息	-10.077
革命	-10.077
河	-10.0772
声明	-10.0772
があるんです	-10.0772
公共交通機関	-10.0775
言い換え	-10.0775
優先順位	-10.0775
横浜	-10.0775
女優	-10.0775
土壌	-10.0775
を使った	-10.0775
恐れ	-10.0775
アリス	-10.0781
はしばしば	-10.0782
ようとする	-10.0783
続ける	-10.0784
ダム	-10.0785
を意味する	-10.0792
する前に	-10.0793
ポジション	-10.0795
の一種です	-10.0798
のリスク	-10.0799
そこに	-10.0802
お互い	-10.0804
list	-10.0819
color	-10.0823
可能性があるため	-10.0825
df	-10.0826
がより	-10.0829
を示しています	-10.0835
思い	-10.0835
運営	-10.0837
▁まず	-10.0838
されて	-10.0859
の代わりに	-10.0859
あまり	-10.0861
){	-10.0862
英国	-10.0864
を説明し	-10.0866
多様性	-10.087
歴史的な	-10.0882
不安	-10.0901
球	-10.0905
植民地	-10.091
がある場合は	-10.0911
line	-10.0914
ぐ	-10.0916
豊かな	-10.0918
若者	-10.0922
装飾	-10.0923
プラグイン	-10.0923
旧	-10.0923
鹿	-10.0924
業績	-10.0924
容器	-10.0924
共感	-10.0925
ゲスト	-10.0925
実践	-10.0926
東京都	-10.0926
角度	-10.0929
以外の	-10.0929
者が	-10.0931
なり	-10.0933
ることは	-10.0933
住宅	-10.0935
化された	-10.0936
カリ	-10.0944
▁%	-10.0947
世界で最も	-10.0948
女の子	-10.0949
を探す	-10.0952
視	-10.0957
探索	-10.0958
尋ね	-10.0963
を行います	-10.0967
散歩	-10.0971
を支援する	-10.0978
est	-10.0988
可能	-10.099
プロセスです	-10.0994
2001	-10.0995
北部	-10.1006
さて	-10.1007
人生の	-10.101
行政	-10.101
を指す	-10.1011
の活動	-10.1014
ドア	-10.1017
興奮	-10.1018
付き	-10.1027
の一つは	-10.1029
ある日	-10.1032
ずに	-10.1032
▁次に	-10.1032
なければならない	-10.1034
数学的	-10.1035
メニュー	-10.1039
すべき	-10.104
は常に	-10.1051
庭	-10.1054
プラン	-10.1056
プレー	-10.1062
素	-10.1066
読み	-10.107
紀	-10.1073
撃	-10.1074
志	-10.1075
偏見	-10.1076
マイナー	-10.1076
▁else	-10.1077
モード	-10.1079
係数	-10.108
国民	-10.108
態度	-10.108
の詳細	-10.1081
遠く	-10.1083
ロゴ	-10.1085
オブ	-10.1087
send	-10.1088
パック	-10.109
指定された	-10.1093
豊	-10.1097
バン	-10.1111
適切に	-10.1113
の人口は	-10.1114
明らかに	-10.1119
be	-10.1126
ないように	-10.113
バナナ	-10.1133
メートル	-10.1135
ために必要な	-10.1141
の例です	-10.1143
▁más	-10.1146
ーズ	-10.1147
レコード	-10.1148
どう	-10.1154
支出	-10.1157
ッシュ	-10.1163
スペインの	-10.1164
手紙	-10.1168
はどうですか	-10.1173
には何	-10.1176
異	-10.1194
清	-10.1195
AR	-10.1195
をインストール	-10.1196
▁この番組は	-10.1207
者の	-10.1207
久	-10.1208
歳	-10.121
クリック	-10.1212
際	-10.1214
の基礎	-10.1217
連	-10.1219
><	-10.1221
離れ	-10.1222
丸	-10.1222
症例	-10.1223
津	-10.1225
ひ	-10.1225
ることがあります	-10.1227
クラウド	-10.1228
ハードウェア	-10.1229
過程	-10.1229
–	-10.1229
スタッフ	-10.1229
メカニズム	-10.1229
推奨事項	-10.1229
シンボル	-10.1229
映像	-10.1229
自然言語処理	-10.123
外観	-10.123
自動車	-10.1231
強度	-10.1232
1990	-10.1234
ているのですか	-10.1235
の中	-10.1235
があること	-10.1235
快適な	-10.1237
サラ	-10.1238
神話	-10.1239
グラ	-10.1245
2004	-10.1251
第二	-10.1253
たとき	-10.1257
▁2020	-10.1259
の理解	-10.1266
探求	-10.1269
医学	-10.1274
確率	-10.1277
アメリカ合衆国	-10.1279
コントロール	-10.1283
常	-10.1288
色は	-10.1292
に従う	-10.1292
Z	-10.1296
の家	-10.1298
ていること	-10.1305
先生	-10.131
面積	-10.1316
チームが	-10.1316
安全で	-10.1317
真の	-10.1322
33	-10.1325
ことも	-10.1334
を行っています	-10.1334
ている場合	-10.1342
という名前	-10.1343
ーナ	-10.1343
このような	-10.1347
ロシア	-10.1348
im	-10.135
の生活	-10.1354
従業員の	-10.1357
反	-10.1358
されたんです	-10.1358
形成	-10.1362
科学者	-10.1369
大きい	-10.1376
十	-10.1381
▁100	-10.1382
穴	-10.1383
交渉	-10.1385
雄	-10.1385
軸	-10.1385
江戸	-10.1385
激しい	-10.1385
Rust	-10.1385
危機	-10.1385
ダウン	-10.1386
ドラゴン	-10.1386
オーケストラ	-10.1386
地球温暖化	-10.1386
飛行機	-10.1386
の一つ	-10.1386
▁brujas	-10.1388
食物	-10.1388
性格	-10.1389
タン	-10.1396
ことを確認してください	-10.1396
マスター	-10.1401
黒い	-10.1402
に焦点を当て	-10.1408
節約	-10.1409
if	-10.1416
身体的	-10.142
のタイトル	-10.1429
だけです	-10.1429
ランド	-10.1433
IP	-10.1435
を表します	-10.1439
効果的に	-10.1439
再生	-10.1443
▁get	-10.1446
▁app	-10.1448
上に	-10.1453
表記	-10.1457
2,	-10.146
不足	-10.1467
はどこにある	-10.1468
になっています	-10.1471
授業	-10.1471
決	-10.1476
殺	-10.1482
を確認する	-10.1488
単	-10.1491
ba	-10.1492
海外	-10.1493
間で	-10.1494
付	-10.1495
");	-10.1499
推定	-10.1501
格	-10.1509
英語の	-10.1513
後の	-10.1522
に変換し	-10.1527
引	-10.1527
除	-10.1529
傾向	-10.1531
画面	-10.1533
隊	-10.1538
の名前は	-10.1538
ケーキ	-10.1543
横	-10.1544
チュートリアル	-10.1544
Adobe	-10.1544
ミュージシャン	-10.1544
ファッション	-10.1544
ケーブル	-10.1544
素材	-10.1545
戦術	-10.1545
あるいは	-10.1545
野球	-10.1546
サラダ	-10.1547
チャート	-10.1548
南部	-10.1551
▁人工知能	-10.1555
を防ぐ	-10.1557
だけで	-10.1558
」(	-10.1562
全体として	-10.1562
量の	-10.1566
da	-10.1567
No	-10.1568
深刻な	-10.1569
のレベル	-10.157
暗号化	-10.1573
移	-10.1574
訪問	-10.1576
困難な	-10.1578
▁私たちは	-10.1578
at	-10.1581
ミス	-10.159
▁1)	-10.1602
の世界	-10.1604
Mi	-10.1613
を構築し	-10.1614
に直面し	-10.1615
過去の	-10.1619
の概要	-10.162
ゲ	-10.1624
夕食	-10.1624
port	-10.164
記述	-10.1647
の平均	-10.1648
を取得する	-10.1649
出身で	-10.1653
プライバシー	-10.1654
画像を	-10.1657
自分が	-10.1657
表面	-10.1661
発達	-10.1668
収	-10.1672
▁code	-10.1675
どのような人物	-10.168
長く	-10.1684
light	-10.1685
特	-10.1687
仮想	-10.1693
オフ	-10.1698
キーワード	-10.17
商	-10.17
製作	-10.1704
対策	-10.1704
エイリアン	-10.1705
ブログ	-10.1705
フルーツ	-10.1705
献身	-10.1705
Hello	-10.1705
みじん切り	-10.1705
エピソード	-10.1705
軌道	-10.1705
バイアス	-10.1706
雑誌	-10.1706
▁plt	-10.1706
育	-10.1708
ca	-10.1708
ダンス	-10.171
1998	-10.1711
出版	-10.1716
を選ぶ	-10.1716
列車	-10.1723
ペン	-10.1724
ワイン	-10.1728
▁Come	-10.1731
をもたらします	-10.1732
挙げてください	-10.174
使用できる	-10.174
▁Al	-10.1742
大阪	-10.1756
を説明できますか	-10.1757
額	-10.1758
たため	-10.1761
概要	-10.1763
を作り	-10.1771
自分たちの	-10.1773
私はあなたの	-10.1778
なっています	-10.1778
太陽光	-10.178
に関しては	-10.1783
ゲームは	-10.1786
を提供すること	-10.1788
アドレス	-10.1794
を引き起こす可能性があります	-10.1803
挑戦	-10.1806
身体	-10.1813
自分自身を	-10.1821
籍	-10.1822
都	-10.1822
ke	-10.1824
自由に	-10.1829
の観点から	-10.183
予約	-10.1838
安全に	-10.1844
方法を	-10.1847
以降	-10.1848
ell	-10.185
SD	-10.1852
盤	-10.1857
注	-10.1859
批判	-10.1865
布	-10.1866
敗	-10.1867
吉	-10.1868
チャット	-10.1868
氷	-10.1869
サウンド	-10.1869
コラボレーション	-10.1869
ChatGpt	-10.1869
テスラ	-10.1869
テンプレート	-10.1869
ローカル	-10.187
時点で	-10.1871
突然	-10.1873
依存	-10.1876
お客様	-10.1876
sort	-10.1877
サブ	-10.1879
週間	-10.1879
以前に	-10.188
集中力	-10.1884
気分	-10.1897
自然な	-10.1898
^	-10.1903
国内	-10.1905
のアイデア	-10.1914
ほぼ	-10.1915
に適した	-10.1922
個人が	-10.1923
る必要があります	-10.1929
をもたらし	-10.1933
one	-10.1942
詳しく	-10.1951
ことができません	-10.1953
app	-10.1954
消え	-10.1955
共	-10.1956
を選択し	-10.1957
に関して	-10.1957
交流	-10.1958
上記の	-10.1964
星の	-10.1969
FTP	-10.1969
消	-10.1974
入り	-10.1983
ノー	-10.1984
の高さ	-10.1986
チームは	-10.1994
効果的	-10.1998
れる	-10.2
が含まれ	-10.2002
演	-10.2004
自信	-10.2006
若	-10.2011
に最適な	-10.2017
さんの	-10.2018
異なります	-10.2024
らせ	-10.2025
イギリスの	-10.2027
の距離	-10.2027
ぎ	-10.2028
増加	-10.2028
ヒット	-10.203
園	-10.2032
司	-10.2033
越	-10.2034
メリット	-10.2034
強さ	-10.2034
百	-10.2035
雷	-10.2035
飛行	-10.2035
シミュレーション	-10.2036
メーカー	-10.2036
URL	-10.2036
柔らかく	-10.2036
エージェント	-10.2036
執筆	-10.2036
に向けて	-10.2036
書籍	-10.2036
することを	-10.2037
名詞	-10.2037
製品やサービス	-10.2037
電流	-10.2038
回路	-10.2038
ボブ	-10.2041
ために使用される	-10.2047
中で	-10.205
政府は	-10.2052
したのですか	-10.2054
慎重に	-10.2055
が低い	-10.206
被害	-10.206
メン	-10.206
のいずれか	-10.206
年代	-10.2064
これを	-10.2065
▁現在の	-10.2075
を向上させる	-10.2076
レベルで	-10.2077
につながります	-10.208
デル	-10.2081
されていた	-10.2086
共通の	-10.2092
▁具体的な	-10.2093
費	-10.2094
京都	-10.2095
を構築する	-10.2097
という名前の	-10.2097
mo	-10.21
太陽の	-10.2106
▁si	-10.2118
せずに	-10.2121
ているため	-10.2123
ne	-10.213
所属	-10.2134
つき	-10.2138
▁Pro	-10.214
つの主要な	-10.2142
ブリ	-10.2147
場所で	-10.2148
科学的	-10.2157
本の	-10.2159
難しい	-10.2159
ことを忘れないでください	-10.2165
反復	-10.2167
病院	-10.2167
気持ち	-10.2168
相談	-10.2168
の定義	-10.217
トークン	-10.2173
はずです	-10.218
込む	-10.2185
ロス	-10.2186
に合わせて	-10.219
ワン	-10.2192
SS	-10.2193
カロリー	-10.2193
休憩	-10.2194
観	-10.2196
を参照	-10.2199
血	-10.2199
条	-10.22
ショッピング	-10.2201
藤	-10.2203
寝	-10.2205
タマネギ	-10.2206
title	-10.2206
グルコース	-10.2206
腕	-10.2206
チャンネル	-10.2206
地震	-10.2206
1/4	-10.2207
デュ	-10.2207
応用	-10.2207
差別	-10.2209
json	-10.221
ソング	-10.221
ノード	-10.2211
などの他の	-10.2212
string	-10.2213
豊富な	-10.2214
作られた	-10.2221
内側	-10.2223
一覧	-10.2229
水の	-10.223
を与えます	-10.2234
一人	-10.2238
働く	-10.2249
という言葉	-10.2249
を作成すること	-10.2265
ブラ	-10.2265
誰かが	-10.2278
SE	-10.2278
を研究する	-10.2279
が高く	-10.2281
家に	-10.229
▁Assistant	-10.2293
間に	-10.2302
役立ちます	-10.2303
の場合は	-10.2303
ことができました	-10.2304
の第	-10.2304
add	-10.2305
のではなく	-10.2307
されること	-10.2311
時代に	-10.2315
YouTube	-10.2316
ですね	-10.2323
もちろん	-10.2325
小さじ	-10.2326
全体的に	-10.2328
の目的は	-10.2332
起	-10.2333
決して	-10.2338
時間と	-10.234
チャ	-10.2345
分の	-10.2353
環境で	-10.2355
の質問	-10.2356
安定	-10.2356
教会	-10.2358
▁16	-10.236
がありません	-10.236
の一つです	-10.2362
より複雑な	-10.2363
幸せ	-10.2364
具	-10.2367
時間の経過とともに	-10.2369
巻	-10.237
サイ	-10.2371
領	-10.2371
ゾ	-10.2373
型の	-10.2374
比	-10.2375
病	-10.2375
加速	-10.2375
糖尿病	-10.2377
スーパー	-10.2377
sh	-10.2377
銃	-10.2377
砂	-10.2377
ニューラルネットワーク	-10.2377
学部	-10.2378
貧困	-10.2378
耳	-10.2378
アボカド	-10.2378
プロモーション	-10.2378
を経て	-10.2378
業務	-10.2378
統一	-10.2379
寺院	-10.238
フォント	-10.2381
ブラック	-10.2385
の減少	-10.2387
通常は	-10.2388
low	-10.2388
を超える	-10.2391
が向上し	-10.2392
プロセスを	-10.2394
権力	-10.2394
ものに	-10.2396
を訪れ	-10.2396
を完全に	-10.2397
4,	-10.2397
を加えます	-10.2409
形で	-10.2414
使われる	-10.2415
良	-10.2417
自転車	-10.2421
オンラインで	-10.2422
焼き	-10.2424
留	-10.2425
無限の	-10.2427
自身の	-10.2428
ナス	-10.243
バラ	-10.244
▁ただ	-10.2449
を守る	-10.2449
一般	-10.2454
信頼性	-10.2454
デビュー	-10.2472
ドイツの	-10.2486
撮影	-10.2488
を研究し	-10.2489
世界に	-10.2492
って何	-10.25
ジョージ	-10.2501
75	-10.2508
main	-10.2509
引き	-10.2512
は何の	-10.2514
皮膚	-10.2517
ディー	-10.2517
かれ	-10.2518
時間の	-10.2518
カン	-10.252
明治	-10.2523
テン	-10.2533
をしています	-10.2535
政府の	-10.2537
文を	-10.2538
▁最初の	-10.2539
キン	-10.2541
ステ	-10.2542
ニューヨーク	-10.2546
象	-10.255
難	-10.2551
載	-10.2552
SQL	-10.2553
驚くべき	-10.2553
script	-10.2553
キッチン	-10.2553
小麦粉	-10.2553
▁Person	-10.2553
アナ	-10.2554
世代	-10.2554
回復	-10.2555
天気	-10.2556
マシン	-10.2558
ようになりました	-10.256
アイ	-10.2561
out	-10.2562
に使用されます	-10.2565
▁映画	-10.2568
様	-10.257
オリジナル	-10.2571
and	-10.2574
成長し	-10.2583
を伝え	-10.259
ブルー	-10.2593
ist	-10.2599
他人	-10.2602
名は	-10.2605
一日	-10.2605
2003	-10.2608
ッカー	-10.2609
方法について	-10.261
を見つけてください	-10.2613
配置	-10.2616
答えは	-10.2619
であった	-10.2622
せん	-10.2623
とはどのような	-10.2627
することにより	-10.2627
ったのですか	-10.2628
きました	-10.2629
見る	-10.2632
が含まれている	-10.2636
run	-10.2637
ていましたが	-10.264
完全	-10.2641
物語は	-10.2645
楽しみ	-10.2647
資金	-10.2647
um	-10.2647
を提供できます	-10.2667
迅速に	-10.2672
生まれた	-10.2679
自動的に	-10.2694
書かれた	-10.2698
尊敬	-10.2702
を解決する	-10.2703
はいつですか	-10.2713
研究者	-10.2716
保証	-10.2718
申請	-10.2719
千	-10.2723
銀	-10.2724
豆	-10.2725
循環	-10.2726
予想	-10.2727
フラ	-10.2729
仮定	-10.2729
表示	-10.273
絶	-10.2731
ヨーロッパの	-10.2731
生態系	-10.2732
オフィス	-10.2732
ビットコイン	-10.2732
北海道	-10.2732
ゆ	-10.2732
ビタミン	-10.2732
昭和	-10.2732
パートナー	-10.2732
キューブ	-10.2732
有料	-10.2733
巨大な	-10.2734
持続可能性	-10.2734
ポンド	-10.2735
区別	-10.2735
師	-10.2736
コート	-10.2739
る場合	-10.2741
結果を	-10.2745
それらが	-10.2748
ペア	-10.2748
有機	-10.275
文化的	-10.2751
▁Re	-10.2757
鍋	-10.2758
とは異なり	-10.2759
の前に	-10.277
破壊	-10.2774
お気に入りの	-10.2774
誰か	-10.2775
実際	-10.2776
セン	-10.2781
ローン	-10.2783
をサポートする	-10.2783
目的地	-10.2785
文法	-10.2789
ないこと	-10.2793
ーション	-10.2797
落ち	-10.2809
航空機	-10.281
チームの	-10.281
▁por	-10.2811
対処	-10.2813
を正確に	-10.2817
地域で	-10.2819
発売	-10.282
ante	-10.2821
であるか	-10.2825
する可能性があります	-10.2829
排出	-10.2831
傷	-10.2832
としての	-10.2835
起こる	-10.2842
を確立し	-10.2843
を用いて	-10.2846
通常の	-10.2847
限り	-10.285
関連性	-10.2852
を表現する	-10.2852
はわかりません	-10.2861
モバイル	-10.2865
匹の	-10.2866
頃	-10.287
リストを作成してください	-10.2871
渡	-10.2871
回転	-10.2874
ap	-10.2878
朝食	-10.2878
オオカミ	-10.2881
削除	-10.2886
▁2023	-10.2891
まり	-10.2892
想像	-10.2893
の位置	-10.2899
世紀の	-10.29
にアクセスし	-10.2902
グラフ	-10.2902
のおかげで	-10.2905
日本では	-10.2906
復	-10.2906
修	-10.2908
線形	-10.2909
生地	-10.291
以来	-10.291
宝	-10.2911
妻	-10.2911
輪	-10.2912
グリーン	-10.2913
剤	-10.2913
七面鳥	-10.2913
スピード	-10.2914
小さい	-10.2914
損害	-10.2914
魂	-10.2914
DVD	-10.2914
必ずしも	-10.2914
タブレット	-10.2914
ニンニク	-10.2914
命令	-10.2914
階級	-10.2914
ロケット	-10.2915
集団	-10.2915
フィルター	-10.2915
▁11	-10.2917
森林	-10.2917
得点	-10.2918
▁あなた	-10.2919
メント	-10.292
そこで	-10.292
ly	-10.292
を調査し	-10.2924
をしたり	-10.2927
マリ	-10.2927
太陽が	-10.2928
の後	-10.2931
が与えられた場合	-10.2933
の中に	-10.2937
にかけて	-10.2938
帰	-10.2938
オー	-10.2943
の形成	-10.2945
自分で	-10.2952
194	-10.2959
49	-10.2967
学び	-10.2972
送	-10.2974
短	-10.2976
学ぶ	-10.2978
を取得し	-10.2995
が出	-10.2995
2002	-10.2996
っていた	-10.2996
世紀に	-10.3011
di	-10.3013
-2	-10.3021
技術は	-10.3021
廃棄物	-10.3022
ものであり	-10.3025
▁---	-10.3027
の設計	-10.303
生き	-10.3037
委員会	-10.3041
他	-10.3044
0,	-10.3045
チャー	-10.3047
段落	-10.3047
一方で	-10.3051
の一人	-10.3054
を作成するための	-10.3054
材	-10.3058
言う	-10.3059
に似た	-10.3063
IC	-10.3066
同様に	-10.3073
ていますが	-10.3075
たいと思っています	-10.3077
著者	-10.3077
データが	-10.3078
▁id	-10.3081
半分	-10.3081
秒	-10.3081
劇場	-10.3087
広範な	-10.3093
ラップトップ	-10.3093
東部	-10.3093
膨大な	-10.3094
推測	-10.3095
豚	-10.3098
パスワード	-10.3098
佐	-10.3098
没	-10.3098
当時	-10.3098
ニュー	-10.3098
疑問	-10.3099
アイデンティティ	-10.3099
ヘッダー	-10.3099
Android	-10.3099
ルーチン	-10.3099
コーチ	-10.31
▁どの	-10.311
ゆっくりと	-10.3112
size	-10.3113
に適しています	-10.3119
1999	-10.312
開発者	-10.312
PC	-10.3122
発売されました	-10.3124
▁9	-10.3124
データ分析	-10.3127
くて	-10.3128
を表しています	-10.3131
rt	-10.3132
にあり	-10.3135
明確で	-10.3141
を受ける	-10.3141
テレビ番組	-10.3144
▁result	-10.315
str	-10.3152
を使用することで	-10.3153
どのようにして	-10.3162
2>	-10.3162
ことによって	-10.3169
形式の	-10.3169
ることが	-10.317
を調整する	-10.318
の場所	-10.3188
識別	-10.319
圏	-10.3191
▁このゲーム	-10.3191
感情的な	-10.3197
を決定し	-10.3207
の低下	-10.3211
読	-10.3214
相手	-10.3214
▁11.	-10.322
のセット	-10.3224
と感じ	-10.3233
できるようにする	-10.3234
全て	-10.3242
このプロセス	-10.3243
▁pygame	-10.3244
を助け	-10.3247
ヨ	-10.325
クリス	-10.3252
にします	-10.3255
▁U	-10.3262
緊急	-10.3265
コメディ	-10.327
散	-10.3273
はなぜ	-10.3273
シナリオ	-10.3275
らない	-10.3278
を計画し	-10.3279
仲間	-10.3279
栄養素	-10.328
保険	-10.3281
▁char	-10.3284
御	-10.3285
ホワイト	-10.3285
が非常に	-10.3286
鶏	-10.3286
エジプト	-10.3287
を開始し	-10.3288
index	-10.3288
枠	-10.3288
プロパティ	-10.3288
共同	-10.3288
にわたって	-10.3288
基盤	-10.3288
毛皮	-10.3288
合成	-10.3288
義務	-10.3289
ジャンプ	-10.3289
ウェブページ	-10.3291
遅れ	-10.3293
しく	-10.3293
を行うことができます	-10.3297
に満ちた	-10.3297
を増やし	-10.33
一定の	-10.3301
km	-10.3307
ミー	-10.331
去	-10.331
の提供	-10.3311
検証	-10.3314
海洋	-10.3316
誰ですか	-10.3316
可能性があり	-10.3324
sp	-10.3324
と共に	-10.3325
しましたが	-10.333
すぎ	-10.333
を入れ	-10.3339
numbers	-10.3342
▁ステップ	-10.3343
ベン	-10.335
をかけ	-10.3352
の出身地はどこで	-10.3355
速く	-10.3356
広がる	-10.3358
である可能性があります	-10.3361
を含め	-10.3361
du	-10.3363
シャー	-10.337
リリース	-10.3371
を発見し	-10.3376
の発展	-10.3376
キャ	-10.338
シンプルで	-10.3382
と呼ばれます	-10.3397
問題を解決する	-10.3401
▁file	-10.3402
OS	-10.3404
劇	-10.3407
支持	-10.3409
顧客が	-10.3411
▁そうです	-10.3412
の価値	-10.342
min	-10.3422
オレンジ	-10.3426
を避けるために	-10.3433
評	-10.3443
軽	-10.3448
を持っていた	-10.3449
▁ni	-10.345
▁12	-10.345
190	-10.3454
破	-10.3463
シェ	-10.3464
速	-10.3467
第二次世界大戦	-10.3467
を経験し	-10.3469
平等	-10.3469
ame	-10.3469
ができます	-10.347
茶	-10.3472
仮説	-10.3475
プロデューサー	-10.3477
てきた	-10.3478
連合	-10.3479
炎	-10.3479
善	-10.348
飛び	-10.348
紀元前	-10.348
収穫	-10.348
ステージ	-10.348
スマートフォン	-10.348
照明	-10.348
ロンドン	-10.3481
ヘッド	-10.3481
電圧	-10.3481
置く	-10.3482
カバー	-10.3482
女子	-10.3482
バター	-10.3483
の機会	-10.3484
を評価する	-10.3486
外側	-10.3487
見出し	-10.3489
楽しく	-10.3489
父親	-10.3491
新鮮な	-10.3491
▁0;	-10.3492
ディスク	-10.3492
テオ	-10.3492
ふ	-10.3494
カスタマイズ	-10.3496
[1]	-10.3497
はすべて	-10.3497
透明性	-10.3503
ウス	-10.3515
コンテンツを	-10.3518
で構成され	-10.3523
od	-10.3523
するなど	-10.3524
全体の	-10.3527
67	-10.3527
運用	-10.3529
についても	-10.3534
私たちに	-10.3534
フロー	-10.3536
少ない	-10.3537
ありがとう	-10.354
影響力	-10.354
場合に	-10.354
向け	-10.3541
の一	-10.355
映画の	-10.3553
AN	-10.3553
年代に	-10.3553
彼らに	-10.3555
世界的な	-10.3556
に位置し	-10.3558
好きな	-10.3571
車の	-10.3572
を楽しむ	-10.3576
だと	-10.3576
もし	-10.3581
up	-10.3582
具体的に	-10.3589
地元	-10.359
できるようにします	-10.359
顧客に	-10.3591
150	-10.3592
を知る	-10.3595
市内	-10.3601
ie	-10.3603
34	-10.3603
していません	-10.3605
始まり	-10.3607
子供が	-10.361
ていく	-10.361
▁今日	-10.3613
デン	-10.3613
に対処する	-10.3614
▁from	-10.3614
を考慮し	-10.3621
を予測する	-10.3621
経済学	-10.3622
、[	-10.3622
▁大さじ	-10.3622
の下	-10.3622
->	-10.3623
ダイ	-10.3627
スタ	-10.3627
損傷	-10.3629
主人公の	-10.3633
影響を与え	-10.3634
酸化	-10.3635
していない	-10.3638
だと思います	-10.3639
倫理的	-10.3641
my	-10.3642
作物	-10.3645
セットアップ	-10.3648
移行	-10.3649
能	-10.3652
ect	-10.3654
反対	-10.3654
ハル	-10.3657
感染	-10.3659
すぎる	-10.3662
防	-10.3671
堂	-10.3671
望ましい	-10.3673
舞	-10.3675
を評価し	-10.3675
綿	-10.3676
Irfanview	-10.3676
メキシコ	-10.3676
池	-10.3676
八	-10.3676
の欠如	-10.3676
庁	-10.3676
給与	-10.3676
JSON	-10.3676
塔	-10.3676
リーダーシップ	-10.3676
架空の	-10.3676
打ち	-10.3676
住所	-10.3677
共和国	-10.3678
神経	-10.3678
ニア	-10.3679
の概念	-10.3679
を確保する	-10.3679
限られた	-10.3679
グリル	-10.368
家具	-10.3681
と呼ばれています	-10.3687
視聴者	-10.3688
▁not	-10.3688
組み合わせ	-10.3689
が最も	-10.369
クマ	-10.3691
マルチ	-10.3695
存在する	-10.3699
▁18	-10.3701
るまで	-10.3702
海軍	-10.3703
皮肉	-10.3707
を次に示します	-10.3711
▁En	-10.3713
隠	-10.3715
行動を	-10.3716
に役立ちます	-10.3724
を獲得し	-10.3742
持ち	-10.3742
に役立つ	-10.3746
を探索し	-10.3749
洞察	-10.3773
ロール	-10.3773
を可能にする	-10.3773
man	-10.3775
近くの	-10.3778
']	-10.3785
モチベーション	-10.3788
を追跡し	-10.3793
なし	-10.3797
深	-10.38
助	-10.3803
正義	-10.3806
que	-10.3806
を受けた	-10.3808
投げ	-10.3809
詩人	-10.381
1000	-10.3811
緑の	-10.3814
▁color	-10.3814
ョ	-10.3815
を挙げてください	-10.3816
ことを示しています	-10.3819
出身の	-10.3822
める	-10.3829
卒業	-10.3839
▁res	-10.384
最も人気のある	-10.3841
プル	-10.3841
ッチ	-10.3852
太陽系	-10.3856
あなたの名前	-10.3857
)」	-10.3857
AV	-10.3862
特別	-10.3862
を購入する	-10.3863
▁これ	-10.3864
理解し	-10.387
始めます	-10.387
スマート	-10.3871
58	-10.3871
改	-10.3872
護	-10.3875
芸	-10.3875
仏	-10.3875
議員	-10.3875
短所	-10.3876
バッテリー	-10.3876
インフラストラクチャ	-10.3876
同僚	-10.3876
うまく	-10.3876
hello	-10.3876
哺乳動物	-10.3876
及び	-10.3876
何らかの	-10.3876
熊	-10.3876
財産	-10.3876
遊び	-10.3877
主演	-10.3878
母親	-10.3878
可能な限り	-10.3878
対立	-10.3878
肯定的な	-10.3878
の原則	-10.3879
WordPress	-10.3879
ホスト	-10.3879
▁bpy	-10.388
SEO	-10.388
身長	-10.3881
美術	-10.3881
行われた	-10.3883
理想的な	-10.3885
どのくらいの	-10.3888
情報源	-10.3888
冷	-10.3896
積極的に	-10.3901
の分析	-10.3903
に貢献し	-10.3905
指導者	-10.3907
ラス	-10.3911
ことを示す	-10.392
を行いました	-10.3924
いつでも	-10.3927
続く	-10.3928
関	-10.3935
タスクに	-10.3942
吸収	-10.3944
以前は	-10.3945
▁15	-10.3947
感じ	-10.3948
1)	-10.3951
▁この映画の	-10.3951
タスクの	-10.3955
向けの	-10.3957
が存在する	-10.3958
パラメーター	-10.396
ディレクトリ	-10.396
変動	-10.396
印象	-10.3962
lib	-10.3962
迫	-10.3969
はどうなっていま	-10.398
で生まれました	-10.3987
BA	-10.3994
を共有する	-10.3994
日光	-10.3995
の戦い	-10.4004
クロス	-10.4005
回の	-10.4011
ファー	-10.4014
クラ	-10.4017
ウェイ	-10.402
)^2	-10.402
歳の	-10.4025
について話し	-10.4025
í	-10.4028
シティ	-10.403
数の	-10.403
の保護	-10.4035
広い	-10.4035
オリーブオイル	-10.4035
創	-10.4043
次元	-10.4044
働き	-10.4048
を意味します	-10.4051
ベスト	-10.4064
編	-10.4067
▁range	-10.4067
明るく	-10.4068
選手権	-10.4069
日本で	-10.4074
いい	-10.4075
管	-10.4078
幸	-10.4079
巣	-10.408
モデリング	-10.408
ざ	-10.408
化合物	-10.408
ブラジル	-10.408
風力タービン	-10.408
プレーヤー	-10.408
NLP	-10.408
が挙げられます	-10.408
転送	-10.408
しながら	-10.4081
遺伝子	-10.4081
ピーマン	-10.4082
押し	-10.4083
移民	-10.4083
最小	-10.4084
(3	-10.4085
ガラス	-10.4085
ビデオゲーム	-10.4085
当時の	-10.4086
ボン	-10.4087
祖父	-10.4088
つ以上の	-10.4088
カスタマーサービス	-10.4091
レモン	-10.4094
を計算します	-10.4096
▁1:	-10.4099
証明	-10.4101
ニング	-10.4103
夜の	-10.411
読み取り	-10.4111
2023	-10.4112
点で	-10.4112
人工	-10.4113
amp	-10.4116
損失	-10.4117
した後	-10.412
イエス	-10.4121
ピー	-10.4133
る前に	-10.4134
化し	-10.4135
残りの	-10.4136
事前に	-10.4138
画像の	-10.414
景	-10.4145
動機	-10.4147
泡	-10.4151
歴史的	-10.4156
='	-10.416
は主に	-10.4161
せず	-10.4162
著	-10.4166
年度	-10.4166
ユーロ	-10.418
LE	-10.4198
と同様に	-10.4201
追跡	-10.4206
を増やす	-10.4206
一度	-10.421
ya	-10.4211
トー	-10.4211
されると	-10.4215
の要素	-10.4215
不可欠	-10.4215
として使用され	-10.422
-5	-10.4224
であると	-10.4224
を変え	-10.4225
が可能です	-10.423
優	-10.423
線の	-10.4233
例です	-10.4234
ことはありますか	-10.4236
ダウンロード	-10.4237
ウィンドウ	-10.424
ことができるように	-10.4244
99	-10.4248
vi	-10.4251
パイ	-10.4259
していること	-10.426
人間が	-10.426
800	-10.4262
静かな	-10.4262
コーディング	-10.4271
選択した	-10.4271
ブロックチェーン	-10.4272
▁sqrt	-10.4275
爪	-10.4276
祭	-10.4278
を完了	-10.4279
件	-10.4283
フィルム	-10.4284
題	-10.4284
サイクル	-10.4285
戸	-10.4285
さらなる	-10.4285
階	-10.4285
ありがとうございます	-10.4287
湾	-10.4287
脅威	-10.4288
プロンプト	-10.4288
燃料	-10.4288
パンデミック	-10.4288
力を	-10.4288
広大な	-10.4288
信仰	-10.4288
報酬	-10.4288
形容詞	-10.4288
規則	-10.4288
浦	-10.4288
代謝	-10.4289
丘	-10.4289
衣服	-10.4289
Kailh	-10.4289
Twitter	-10.4289
キノコ	-10.4289
スポンジ	-10.4289
Instagram	-10.4289
警告	-10.4289
捕	-10.4289
胡	-10.4289
HTTP	-10.4289
シェル	-10.4289
姿勢	-10.4289
ユーザーエクスペリエンス	-10.429
アヒル	-10.429
RAM	-10.429
▁Bruja	-10.4291
自治体	-10.4291
アメリカ革命	-10.4291
濃度	-10.4291
▁J	-10.4292
もう少し	-10.4292
時々	-10.4292
フード	-10.4293
ポール	-10.4293
ルイス	-10.4295
有効な	-10.4297
カット	-10.4299
を考慮して	-10.43
国立	-10.4301
向	-10.4302
のサイズ	-10.4308
▁すべての	-10.4308
曜日	-10.4309
倫理	-10.431
Flask	-10.4311
クラウドコンピューティング	-10.4313
製	-10.4314
▁このアルバムは	-10.4316
キャンプ	-10.4325
さんが	-10.4327
として活動しています	-10.4328
含みます	-10.4329
たちが	-10.4332
put	-10.4337
面積は	-10.4339
dist	-10.434
工	-10.4344
に住む	-10.4345
lat	-10.4348
理由は	-10.4352
物理的	-10.4356
レッド	-10.4365
完成	-10.4365
入れ	-10.4376
rect	-10.4381
小さく	-10.4383
の起源	-10.4384
を向上させ	-10.4387
本当の	-10.439
につながり	-10.439
ント	-10.4393
ant	-10.4395
を受けました	-10.4399
に入る	-10.4404
なども	-10.4406
初の	-10.4406
バック	-10.4406
テキストを	-10.4407
人々と	-10.4408
ry	-10.441
ドレス	-10.4418
誘	-10.4419
環境に	-10.4422
を探求し	-10.4422
を指し	-10.4423
付けられ	-10.4425
コール	-10.4426
に存在する	-10.4429
が少ない	-10.444
▁data	-10.4442
最も一般的な	-10.4449
ておらず	-10.445
植物の	-10.4453
太	-10.4454
父	-10.4454
作り	-10.4456
ip	-10.4464
なって	-10.4466
を生み出し	-10.4467
ニコラ	-10.4475
▁Flask	-10.4479
なしに	-10.4479
継続的な	-10.448
を務め	-10.4482
月の	-10.4483
を管理し	-10.4489
エンジニアリング	-10.4491
特殊	-10.4491
を始める	-10.4491
親切	-10.4493
岡	-10.4495
▁No	-10.4495
急速に	-10.4498
ワールド	-10.45
に従い	-10.45
エッセイ	-10.45
厳しい	-10.45
罪	-10.45
頂	-10.4501
に合わせた	-10.4501
オーディオ	-10.4501
であれば	-10.4501
皿	-10.4501
風景	-10.4501
美味しい	-10.4501
蓄積	-10.4501
貞	-10.4501
醤油	-10.4501
を設定し	-10.4501
描画	-10.4501
週末	-10.4501
の背後にある	-10.4501
仕様	-10.4502
勤務	-10.4502
物事	-10.4502
仏教	-10.4502
カウンセリング	-10.4502
華氏	-10.4502
ノイズ	-10.4502
レイアウト	-10.4502
ポップ	-10.4502
センサー	-10.4503
のことを指し	-10.4503
の生産	-10.4504
チェリー	-10.4504
の販売	-10.4505
SCP	-10.4506
インタラクティブな	-10.4506
に対応する	-10.4506
ナッツ	-10.4506
積	-10.4507
木々	-10.4507
否定的な	-10.4507
症	-10.4508
ベルト	-10.451
1980	-10.4511
安定した	-10.4513
画家	-10.452
55	-10.4522
ポスト	-10.4526
Infinitesimals	-10.453
いている	-10.4538
確かに	-10.4538
何の	-10.454
ように見える	-10.4541
合わせ	-10.4546
が多く	-10.4554
行われ	-10.4557
んですね	-10.4559
持っている	-10.4559
を処理する	-10.456
それから	-10.457
自宅	-10.4574
大気汚染	-10.4575
いない	-10.4575
レット	-10.4576
独立した	-10.4582
革新	-10.4588
牛乳	-10.4588
のニーズ	-10.459
近く	-10.4591
状況で	-10.4592
英国の	-10.4593
になると	-10.4596
秋	-10.4598
的かつ	-10.4603
コー	-10.4604
摂取	-10.4606
を扱う	-10.4606
ion	-10.461
ero	-10.4621
ボル	-10.4627
トレ	-10.4627
デビューしました	-10.4629
の構築	-10.463
効率的に	-10.4635
研究所	-10.4636
起き	-10.4639
週	-10.4641
ーン	-10.4645
に移	-10.4645
っていました	-10.4649
知られ	-10.465
たくさん	-10.4653
思	-10.4654
の専門家	-10.4659
割り当て	-10.4663
使われます	-10.4665
▁Ma	-10.467
行き	-10.467
目標を達成	-10.4672
書かれ	-10.4675
使	-10.4675
信じ	-10.4677
を保護し	-10.4677
を見せ	-10.4679
が異なる	-10.4683
時の	-10.4684
称	-10.4684
リード	-10.4687
の機能	-10.4688
の法則	-10.4689
を得て	-10.4689
総合	-10.469
連邦	-10.4693
到達	-10.4693
ive	-10.4701
脱	-10.4704
古代の	-10.4705
方向に	-10.4706
に満ち	-10.4706
乱	-10.4706
ランダム	-10.4708
演技	-10.4709
を強調し	-10.4711
、19	-10.4712
洋	-10.4713
配	-10.4713
▁###	-10.4715
余	-10.4716
時計	-10.4716
功績	-10.4716
存在し	-10.4716
正式な	-10.4718
溶け	-10.4718
イノベーション	-10.4719
オランダ	-10.4719
誌	-10.4719
example	-10.4719
承認	-10.4719
IRS	-10.4719
姓	-10.4719
典型的な	-10.4719
▁like	-10.4719
ドングル	-10.4719
コショウ	-10.4719
お知らせください	-10.4719
資産	-10.4719
配達	-10.4719
貴族	-10.4719
悪魔	-10.4719
イングランド	-10.4719
少女	-10.4719
の首都	-10.4719
ステーション	-10.4719
レイヤー	-10.4719
を生成し	-10.4719
section	-10.472
切断	-10.472
を表し	-10.4721
ミーム	-10.4721
集合	-10.4721
種類	-10.4721
フォード	-10.4721
ジョーク	-10.4721
マウス	-10.4722
必要がありますか	-10.4727
cars	-10.4728
方式	-10.4731
素早く	-10.4733
ためには	-10.4735
ジャック	-10.4736
犬の	-10.474
ストア	-10.4741
対応する	-10.4748
間違い	-10.4748
180	-10.4749
受け入れ	-10.475
を持っており	-10.4753
継続	-10.4757
スク	-10.4761
Open	-10.4763
異常	-10.4763
を実施し	-10.4769
オオカミは	-10.4772
GB	-10.4773
磁石	-10.478
▁小さじ	-10.4784
考えてください	-10.4786
▁適切な	-10.4801
を確認します	-10.4805
つけ	-10.4813
ドン	-10.4814
サム	-10.482
すことができます	-10.4823
がないため	-10.4823
ックス	-10.4824
利用可能	-10.4827
age	-10.4831
ven	-10.4835
グループの	-10.4838
を定義する	-10.4842
cal	-10.4843
したりする	-10.4843
に集中	-10.4845
の成功	-10.4845
複雑さ	-10.4845
デザイナー	-10.4846
を表示する	-10.4846
ich	-10.4847
を修正	-10.485
▁t	-10.4852
実行する	-10.4854
考慮すべき	-10.4855
オーブン	-10.4856
の感覚	-10.4859
体の	-10.4864
▁te	-10.4872
--	-10.4872
提供された	-10.4875
ライフ	-10.4877
亡くなりました	-10.488
行われました	-10.4881
の基本的な	-10.4886
十分に	-10.4888
必要があり	-10.4891
栽培	-10.4893
世の	-10.4896
▁Open	-10.4896
65	-10.4896
永遠に	-10.4896
猫の	-10.4904
子供の	-10.4907
を制御する	-10.4911
ドー	-10.4913
装	-10.4916
を追加します	-10.4918
られています	-10.4919
成功する	-10.4919
肌	-10.492
あなた自身の	-10.4921
料	-10.4922
クロ	-10.4924
の分野で	-10.4926
通知	-10.4929
陽	-10.493
京	-10.4931
比較的	-10.4932
編成	-10.4932
再利用	-10.4933
航空	-10.4933
▁In	-10.4934
日々	-10.4935
を見つけて	-10.4935
ショー	-10.4936
ウォー	-10.4936
セント	-10.4937
プロバイダー	-10.4937
福	-10.4938
泉	-10.4938
房	-10.4938
Ex	-10.4938
呼	-10.4939
クリーニング	-10.4939
以前	-10.4939
措置	-10.494
菌	-10.4941
毎週	-10.4941
に比べて	-10.4941
ズッキーニ	-10.4941
ダイヤモンド	-10.4941
負担	-10.4941
返信	-10.4941
株価	-10.4941
world	-10.4941
ツイート	-10.4941
ワシントン	-10.4941
詐欺	-10.4941
髪	-10.4941
チャレンジ	-10.4941
メンティー	-10.4941
充電	-10.4941
規定	-10.4941
割引	-10.4941
ボタン	-10.4941
介入	-10.4942
データサイエンス	-10.4942
生息地	-10.4942
運命	-10.4942
ベッド	-10.4942
動画	-10.4942
サントス	-10.4942
1997	-10.4943
当局	-10.4943
キロメートル	-10.4943
良好な	-10.4943
どれほど	-10.4943
長い間	-10.4944
のはなぜですか	-10.4945
レポート	-10.4946
レーザー	-10.4946
遠い	-10.4946
1970	-10.4947
圧力	-10.4948
完璧な	-10.4949
グローバルな	-10.495
よりもはるかに	-10.4954
学生の	-10.4956
▁このコードは	-10.4956
最終的な	-10.4961
の大	-10.4963
営業	-10.4963
天文学	-10.4963
はどう	-10.4964
憲法	-10.4965
海の	-10.4965
愛と	-10.4966
ハウス	-10.497
-19	-10.4974
row	-10.4974
></	-10.4974
次のような	-10.498
値が	-10.4981
log	-10.4983
数式	-10.4985
ルト	-10.4987
Lambda	-10.4989
▁この文章	-10.499
またはその他の	-10.4996
ジョ	-10.4996
を再	-10.5
人たち	-10.5
を管理する	-10.5004
のコスト	-10.5006
def	-10.5006
が多い	-10.5007
を達成する	-10.502
観光	-10.5025
てから	-10.5025
少	-10.5033
ate	-10.5043
交響曲	-10.5045
解放	-10.5046
を加えて	-10.5047
BT	-10.5052
するまで	-10.5053
折り	-10.506
キス	-10.5064
系の	-10.5067
価値観	-10.5069
ていて	-10.507
ロボットは	-10.5071
はどこに位置していま	-10.5071
取る	-10.5074
複雑	-10.5075
に近い	-10.5081
英語で	-10.5083
に入り	-10.5083
削減	-10.5087
アプリケーションの	-10.5088
の流れ	-10.5088
に含まれる	-10.5091
に依存する	-10.5091
離	-10.5096
に入	-10.5098
医	-10.5099
尊重	-10.5104
+0	-10.5105
固	-10.5106
を測定する	-10.5111
直接的な	-10.5112
崩壊	-10.5115
と言う	-10.5115
を続け	-10.5117
者に	-10.5119
▁このアルバム	-10.5121
背	-10.5123
朝の	-10.5125
高価	-10.5129
TV	-10.513
高品質の	-10.5132
▁与えられた文	-10.5132
インスピレーション	-10.5134
温	-10.5135
▁アクション	-10.5135
金額	-10.5139
社会の	-10.514
推進	-10.5146
意図	-10.515
建	-10.515
に尋ねる	-10.515
3:	-10.5153
プロフェッショナル	-10.5158
筋	-10.516
裏	-10.516
ヴェ	-10.5161
作品です	-10.5162
貸	-10.5164
質問をする	-10.5164
項	-10.5165
料金	-10.5165
新たな	-10.5166
滅	-10.5167
靴	-10.5168
優しい	-10.5168
博士	-10.5168
六	-10.5168
ボトル	-10.5168
旗	-10.5168
ジェームズ	-10.5168
上院議員	-10.5168
りんご	-10.5168
砲	-10.5168
米国の	-10.5168
カレンダー	-10.5168
email	-10.5168
CPU	-10.5168
評判	-10.5168
コレクション	-10.5168
正方形	-10.5168
検査	-10.5168
欠陥	-10.5168
通貨	-10.5169
重複	-10.5169
刻んだ	-10.5169
ディスプレイ	-10.5169
実用的な	-10.5169
優しく	-10.5169
美しく	-10.5169
ベルリン	-10.517
空港	-10.517
項目	-10.517
疲れ	-10.5171
の混合物	-10.5172
プロット	-10.5173
昇	-10.5173
変化し	-10.5175
驚き	-10.5175
速い	-10.5176
強化	-10.5178
文明	-10.5179
に変換する	-10.5181
ヨガ	-10.5181
王子	-10.5182
を強化し	-10.5182
出口	-10.5183
となった	-10.5184
ウェ	-10.5184
歴	-10.5185
たちの	-10.5185
途中で	-10.5186
にアクセスできます	-10.5189
という言葉は	-10.519
37	-10.5192
を紹介します	-10.5194
ことを目的としてい	-10.5194
訪問者	-10.5198
トレーニングデータ	-10.5202
ものは何ですか	-10.5204
ることができ	-10.5207
性と	-10.5207
ション	-10.5209
専門知識	-10.5211
を維持するために	-10.5214
を形成する	-10.5215
アリ	-10.5216
オリンピック	-10.5217
object	-10.5217
リオ	-10.522
早く	-10.522
モー	-10.522
鍵	-10.5221
牛	-10.5226
マックス	-10.5227
macd	-10.5227
二次方程式	-10.5229
大さじ	-10.5231
text	-10.5233
日に発売され	-10.5233
const	-10.5233
を感じる	-10.5234
ホール	-10.5237
場所です	-10.5239
▁De	-10.5244
ど	-10.525
学校で	-10.5251
が少なく	-10.5253
試	-10.526
mi	-10.5264
▁夕食	-10.5265
レート	-10.5265
いています	-10.5266
可能性が高い	-10.5267
職場	-10.5269
になっている	-10.527
しません	-10.5272
und	-10.5272
hi	-10.5275
▁Google	-10.5276
pe	-10.5277
を変更する	-10.5277
を作成するために	-10.5279
戻	-10.5282
に触れ	-10.5283
並	-10.5285
キューバ	-10.5286
std	-10.5289
発行	-10.5291
番目に	-10.5299
されない	-10.5305
▁機械学習	-10.5306
変化する	-10.5307
▁ああ	-10.5308
を購入し	-10.5309
一つの	-10.5309
書いた	-10.5312
を書いて	-10.532
▁años	-10.5323
することなく	-10.5326
の基本	-10.5328
住	-10.5328
アルゴリズムの	-10.5331
見られる	-10.5335
でさえ	-10.5341
最近の	-10.5346
ラップ	-10.5348
圧	-10.5348
の影響を受け	-10.5352
を超えて	-10.5355
を出	-10.5357
皮	-10.5357
今日の	-10.536
ag	-10.5364
限定	-10.5368
推論	-10.5369
ことも重要です	-10.5369
装備	-10.5371
▁day	-10.5375
自然の	-10.5377
トルティーヤ	-10.5377
生徒が	-10.5379
を見つけることができます	-10.5383
諸	-10.5383
たいです	-10.5384
域	-10.5387
藩	-10.5388
繁殖	-10.5391
乳	-10.5391
が得られます	-10.5392
後で	-10.5392
に所属し	-10.5393
予	-10.5395
恵	-10.5397
テル	-10.5397
兵	-10.5398
華	-10.54
を深め	-10.54
賀	-10.54
宿	-10.54
リモート	-10.54
裁判所	-10.5401
エクササイズ	-10.5401
に移動し	-10.5401
半径	-10.5401
リポジトリ	-10.5401
事務所	-10.5401
兼	-10.5401
アルゼンチン	-10.5401
ターゲットオーディエンス	-10.5401
龍	-10.5401
フィンランド	-10.5401
死刑	-10.5401
ご飯	-10.5401
シャワー	-10.5401
配送	-10.5401
もう一度	-10.5402
台湾	-10.5402
公演	-10.5402
軍隊	-10.5403
1996	-10.5403
チャンス	-10.5403
道具	-10.5404
出し	-10.5405
ピース	-10.5405
何度も	-10.5406
サイド	-10.5406
西部	-10.5407
を検討してください	-10.5409
外部性	-10.5413
患者の	-10.5419
地形	-10.5419
の音楽	-10.542
ありますが	-10.542
の状態	-10.5423
問題の	-10.5425
が行われ	-10.5428
を設計し	-10.5443
導入	-10.5444
っており	-10.5447
情報や	-10.545
ha	-10.5454
num	-10.5455
res	-10.5456
行く	-10.5456
続けます	-10.5462
を確認し	-10.5462
機械学習アルゴリズム	-10.5462
ディング	-10.5463
はなく	-10.5472
正常	-10.5477
保持	-10.5485
どのくらい	-10.5486
を提供	-10.5488
オーブンを	-10.5489
US	-10.5491
を受け取る	-10.5492
pa	-10.5492
▁current	-10.5494
の設定	-10.5496
最新	-10.5499
":	-10.5503
使用され	-10.5503
美しさ	-10.5504
政府が	-10.5507
未知の	-10.5507
頼	-10.551
の各	-10.551
を使用しています	-10.5511
訪れ	-10.5512
IA	-10.5513
});	-10.5513
na	-10.5514
複雑で	-10.5516
買い物	-10.5517
受	-10.5521
近年	-10.5526
使用されています	-10.5527
起こった	-10.5527
大型	-10.5532
トム	-10.5536
の質	-10.5544
する場合	-10.5544
に最適です	-10.5545
が存在します	-10.5546
日常	-10.5547
るべきです	-10.5549
工業	-10.555
ることです	-10.555
とはどういう意味ですか	-10.555
のレシピ	-10.555
受け	-10.5551
挿入	-10.5554
推奨	-10.5557
たことがあります	-10.5559
タブ	-10.5564
カイ	-10.5565
▁ハ	-10.5568
利用できる	-10.557
受け入れられ	-10.5572
の導関数	-10.5575
するのに役立つ	-10.5587
好き	-10.5588
何人	-10.5593
一般的	-10.5598
第一	-10.5603
は彼の	-10.5605
周囲	-10.5609
にアクセスする	-10.561
das	-10.5611
待	-10.5613
▁1/2	-10.5614
インターフェース	-10.5615
二人	-10.5615
ref	-10.5618
獲得	-10.562
gr	-10.5623
ピンク	-10.5625
▁サン	-10.5626
標準偏差	-10.5628
飲	-10.5628
を作り出す	-10.5628
read	-10.563
脚	-10.5633
バイナリ	-10.5634
読書	-10.5634
粉	-10.5635
抗力	-10.5636
ように見えます	-10.5637
▁poder	-10.5637
皇	-10.5637
大幅に	-10.5638
制定	-10.5638
居	-10.5638
肺	-10.5638
暖かい	-10.5638
解析	-10.5638
エジソン	-10.5639
Dvorak	-10.5639
ステートメント	-10.5639
沿岸	-10.5639
を促す	-10.5639
手がかり	-10.5639
にんにく	-10.5639
企画	-10.5639
郷	-10.5639
量子力学	-10.5639
バスケットボール	-10.5639
夕方	-10.5639
順序	-10.5639
洪水	-10.5639
温泉	-10.5639
政党	-10.564
夕日	-10.564
教室	-10.5641
バッグ	-10.5641
AWS	-10.5642
午後	-10.5642
を引き	-10.5643
移転	-10.5644
▁このドラマは	-10.5645
部品	-10.5645
出場	-10.5648
ヶ月	-10.5651
を決定します	-10.5653
を支配し	-10.5654
を見つけました	-10.5658
向上	-10.5664
ard	-10.5664
ニック	-10.5664
▁2021	-10.5665
▁And	-10.5668
を説明します	-10.5669
▁卵	-10.5669
の木	-10.567
98	-10.5671
▁__	-10.5671
all	-10.5675
説明していただけますか	-10.5677
共有する	-10.568
を取る	-10.5681
オブジェクトが	-10.5685
になること	-10.5687
追	-10.5694
を理解すること	-10.5703
を確立する	-10.5703
るようになりました	-10.5704
を変える	-10.5705
IT	-10.5707
ade	-10.5712
▁親愛なる	-10.5715
過剰	-10.5719
わかりません	-10.5723
らず	-10.5727
▁この曲の	-10.5727
いいえ	-10.573
取られ	-10.5731
が特徴です	-10.5733
簡単で	-10.5735
ことなく	-10.5737
MX	-10.5741
に連絡	-10.5743
に取り組む	-10.5744
するのに	-10.5746
静	-10.5748
46	-10.5751
にありました	-10.5751
的であり	-10.5754
サイズの	-10.576
の大きさ	-10.5765
ビン	-10.5767
、`	-10.5769
ボールを	-10.5769
の総	-10.5774
壮大な	-10.5775
成人	-10.5776
に等しい	-10.5777
実績	-10.5779
61	-10.5783
\\	-10.5785
参加者	-10.5789
誕生日	-10.5792
に関連しています	-10.5793
持	-10.5797
するために使用されます	-10.58
ことはありません	-10.5801
上部	-10.5805
ホー	-10.5806
+1	-10.5814
早	-10.5818
景色	-10.5821
▁come	-10.5822
を調整し	-10.5823
マックスは	-10.5823
スティック	-10.5824
などのさまざまな	-10.5827
ダン	-10.5828
を付け	-10.5831
の上	-10.5834
▁Pi	-10.5835
もので	-10.5838
の準備	-10.5838
兄	-10.5839
認定	-10.5841
ポリ	-10.5842
問題を解決し	-10.5845
を開始する	-10.5851
負の	-10.5854
寄	-10.5855
起きて	-10.5856
を作成して	-10.5857
▁最近	-10.5861
有効	-10.5865
インポート	-10.5867
並べ替え	-10.587
アメリカ合衆国の	-10.5871
選出され	-10.5873
知的	-10.5876
コンピューティング	-10.5877
傘	-10.5878
養	-10.588
創造	-10.5882
招待	-10.5882
コミットメント	-10.5882
塚	-10.5882
浜	-10.5882
まったく	-10.5882
縁	-10.5882
洞	-10.5882
1993	-10.5883
コンサート	-10.5883
プロセッサ	-10.5883
軟	-10.5883
message	-10.5883
愛知県	-10.5883
Facebook	-10.5883
モスクワ	-10.5883
エキサイティングな	-10.5883
児童	-10.5883
クリスマス	-10.5883
摂氏	-10.5883
想定	-10.5883
注ぎ	-10.5883
経路	-10.5884
質問に答え	-10.5884
愛情	-10.5884
gov	-10.5885
作り方	-10.5885
原理	-10.5885
北条	-10.5885
面接	-10.5885
ホット	-10.5886
を考えると	-10.5887
を追加する	-10.5887
見解	-10.5888
専門的な	-10.5889
DNA	-10.5891
self	-10.5894
▁np	-10.5896
社長	-10.5896
solo	-10.5896
支	-10.5897
パラ	-10.5899
の期間	-10.59
勝ち	-10.59
歩いて	-10.5904
ラム	-10.5905
node	-10.5909
戦後	-10.5911
ot	-10.5912
降り	-10.5914
dev	-10.5917
日目	-10.5918
海岸	-10.5918
どの程度	-10.5919
▁3)	-10.592
の特性	-10.5924
私はあなた	-10.5926
を使用	-10.5933
▁(2	-10.5933
▁12.	-10.5933
てみてください	-10.5935
時代には	-10.5937
個人情報	-10.5937
ai	-10.5937
を向上させることができます	-10.5938
場面	-10.594
術	-10.5949
era	-10.5951
宣言	-10.5951
マス	-10.5953
number	-10.5968
作られ	-10.5976
▁k	-10.5976
を拡大し	-10.5976
return	-10.5984
試み	-10.5991
友	-10.5992
の複雑さ	-10.5992
周り	-10.5994
であることを	-10.5995
私はそれを	-10.5996
nt	-10.6
を伴う	-10.6001
の理論	-10.6006
ることを	-10.601
に出	-10.6011
▁void	-10.6013
イヤー	-10.6015
ジャー	-10.6015
光の	-10.6016
それで	-10.6017
ルド	-10.6024
することによって	-10.6024
仕事を	-10.6028
見え	-10.6034
世界中で	-10.6035
できるため	-10.6046
を上げ	-10.6047
PE	-10.6056
面で	-10.606
サーバーの	-10.6064
▁text	-10.6065
の議論	-10.6067
知っている	-10.6067
入手	-10.6068
の選択	-10.607
今日は	-10.6074
エイ	-10.6076
として活躍し	-10.6081
しようとする	-10.6082
グローバル	-10.6085
チン	-10.6088
周辺	-10.6089
で構成される	-10.6091
彼の作品	-10.6094
特徴的な	-10.6096
服	-10.61
への影響	-10.61
なん	-10.6102
の一般的な	-10.6102
目に	-10.6106
振	-10.6115
2-	-10.612
望	-10.6121
はるかに	-10.6122
算	-10.6123
主要	-10.6124
放射	-10.6126
パーソナライズされた	-10.6127
鼻	-10.6128
盗	-10.6129
客	-10.6129
覧	-10.613
テレ	-10.613
暗闇	-10.6131
純	-10.6131
築	-10.6131
声優	-10.6132
聴	-10.6132
祝	-10.6132
廃	-10.6132
LUA	-10.6132
スポット	-10.6132
ボウルに	-10.6132
負荷	-10.6132
ソフト	-10.6132
姉妹	-10.6132
倉	-10.6132
印	-10.6132
兵器	-10.6133
スコット	-10.6133
滑	-10.6133
環	-10.6133
開口部	-10.6133
おもちゃ	-10.6133
神秘的な	-10.6133
stream	-10.6133
▁encend	-10.6133
プライベート	-10.6133
込まれ	-10.6133
スムージー	-10.6133
設備	-10.6133
コンセプト	-10.6133
民主主義	-10.6133
観光客	-10.6133
▁nada	-10.6133
遺産	-10.6133
プログラマー	-10.6133
知覚	-10.6133
電球	-10.6134
▁poderes	-10.6134
メジャー	-10.6134
に沿って	-10.6135
合意	-10.6135
外交	-10.6136
ようになります	-10.6137
寒い	-10.6137
ベリー	-10.6137
直線	-10.6138
を確保するために	-10.6139
周りの	-10.614
Wi	-10.6141
軽い	-10.6141
ュ	-10.6142
野生	-10.6143
テープ	-10.6145
樹	-10.6147
▁コーラス	-10.6149
指数	-10.6151
動物の	-10.6154
を考え	-10.6158
ターン	-10.616
知っていますか	-10.6165
の制限	-10.6166
軽く	-10.617
▁ftp	-10.617
を探索する	-10.6171
フィー	-10.6177
";	-10.6178
力と	-10.618
一般的には	-10.6184
およびその他の	-10.6184
データを収集	-10.6185
道を	-10.6191
接触	-10.6192
の家族	-10.6194
objects	-10.6194
底	-10.62
につれて	-10.6203
▁2:	-10.6205
したら	-10.622
を提案します	-10.622
短く	-10.6225
と言います	-10.6229
ポン	-10.623
hu	-10.6233
▁do	-10.6234
au	-10.6234
の権利	-10.624
▁'(	-10.6241
登	-10.6244
!』	-10.6246
printf	-10.6249
古典的な	-10.6252
楽しむ	-10.6261
ときは	-10.6265
0)	-10.6266
が行われました	-10.6266
7,	-10.6266
論理	-10.6267
実施	-10.6268
協力して	-10.627
正確性	-10.627
明確に	-10.6272
発見されました	-10.6272
地上	-10.6273
はない	-10.6281
パラメータ	-10.6282
願	-10.6284
、18	-10.6294
卵を	-10.6296
プラットフォームで	-10.6296
38	-10.6299
都市の	-10.6302
を好む	-10.6307
があるかどうか	-10.6307
と彼の	-10.6313
の成長	-10.6313
を描いています	-10.6315
言った	-10.6316
もあり	-10.6321
はとても	-10.633
をサポートし	-10.633
が同じ	-10.6331
人工知能は	-10.6336
使用することができます	-10.6336
さえ	-10.6339
AS	-10.6339
':	-10.6341
達	-10.6343
物理	-10.6345
獲物	-10.6345
CM	-10.6346
精神的	-10.6346
ったこと	-10.6348
マージ	-10.6353
の効果	-10.6354
アメリカで	-10.6355
イタリアの	-10.6358
ずつ	-10.6359
エネルギー源	-10.6367
わかりました	-10.6369
普通	-10.637
このコード	-10.6372
の作品は	-10.6374
のバランス	-10.6374
▁フ	-10.6377
と信じています	-10.6378
に非常に	-10.6378
二つの	-10.6378
作詞	-10.638
英	-10.638
忍耐	-10.638
手袋	-10.6382
人間は	-10.6383
ことを示唆しています	-10.6384
べ	-10.6384
便	-10.6387
する際に	-10.6387
忠	-10.6388
バーチャル	-10.6388
殿	-10.6388
インセンティブ	-10.6388
裕	-10.6389
ディープラーニング	-10.6389
アインシュタイン	-10.6389
絆	-10.6389
ほうれん草	-10.6389
iPhone	-10.6389
うつ病	-10.6389
ニンジン	-10.6389
を学びました	-10.6389
辞書	-10.639
赤ちゃん	-10.639
民族	-10.639
九州	-10.639
ナイト	-10.639
元素	-10.6391
最低	-10.6392
バイオ	-10.6392
▁Perm	-10.6392
タイヤ	-10.6392
回帰	-10.6392
open	-10.6393
二重	-10.6393
76	-10.6394
空の	-10.6396
間隔	-10.6396
一部の人々は	-10.6396
ブック	-10.6397
ていたんです	-10.6398
next	-10.6401
ento	-10.6402
韓国	-10.6406
終え	-10.6406
認知	-10.6407
別名	-10.6409
誘導	-10.641
風力	-10.6412
レンズ	-10.6413
まとめる	-10.6415
の形	-10.6417
IN	-10.6419
性的	-10.6419
旅行者	-10.6423
に影響を与える可能性があります	-10.6423
緑色	-10.6424
tm	-10.6428
引退後	-10.6431
:$	-10.6432
問題は	-10.6436
ラブ	-10.6436
らし	-10.6437
認められ	-10.6437
:[	-10.6439
▁col	-10.644
しなければなりません	-10.644
ことに注意してください	-10.6443
ER	-10.6443
設置され	-10.6444
が存在し	-10.6446
を提供できますか	-10.6446
を選び	-10.6447
そうですね	-10.6448
お金を	-10.645
ボディ	-10.645
女王	-10.646
」-	-10.646
を残し	-10.6461
を認識する	-10.6464
空に	-10.6464
を含める	-10.6465
end	-10.6468
国は	-10.6468
死亡	-10.6474
の管理	-10.6481
ミニ	-10.6485
エンゲージメント	-10.6487
幸せな	-10.6489
59	-10.6493
▁私たちの	-10.6494
鳥の	-10.6494
▁cm	-10.6496
に集中し	-10.65
どこに	-10.6501
を読む	-10.6502
▁type	-10.6504
を活用して	-10.6504
が提供する	-10.6505
予防	-10.6506
の試合	-10.6509
切れ	-10.6511
続けました	-10.6512
OR	-10.6512
レベルの	-10.6514
の認識	-10.6518
知識と	-10.6519
エネルギーの	-10.6521
ってください	-10.6524
-0	-10.6527
マフィン	-10.6531
フラン	-10.6534
ケン	-10.6537
を使用する必要があります	-10.654
周辺には	-10.6541
を見つけること	-10.6542
ight	-10.6544
この関数は	-10.6544
課	-10.6546
を最適化する	-10.6547
を見つけるために	-10.6548
のようなものです	-10.6549
go	-10.6549
の端	-10.655
の操作	-10.6553
恋	-10.6554
irs	-10.6556
フロド	-10.6557
aby	-10.6558
の製造	-10.6559
法人	-10.6559
▁MX	-10.6567
oc	-10.6568
世界を	-10.657
立場	-10.657
カール	-10.6571
求	-10.6575
つの異なる	-10.6575
技術的	-10.6581
家族の	-10.6584
倒	-10.6585
の建設	-10.6592
▁let	-10.6594
炒めます	-10.6595
▁set	-10.6595
彼らを	-10.66
太陽は	-10.6604
ビジネスの	-10.6611
日常生活	-10.6612
わけではありません	-10.6613
グリ	-10.6613
向けに	-10.6614
をして	-10.662
をもたらしました	-10.6624
彩	-10.6627
考慮	-10.6627
有害	-10.6628
遠	-10.663
▁Co	-10.6633
を作ること	-10.6634
フォー	-10.6635
を認め	-10.6637
の構成	-10.6637
るかもしれません	-10.6637
ことが多いです	-10.6637
焦点	-10.6639
経営	-10.664
席	-10.664
に所属していました	-10.6641
どのような活動をしてい	-10.6642
コードは	-10.6642
もある	-10.6643
航	-10.6645
沈	-10.6646
糖	-10.6647
染	-10.6647
フォン	-10.6648
補	-10.6648
履歴	-10.665
竹	-10.6651
とも呼ばれる	-10.6651
封	-10.6651
祖	-10.6651
始めた	-10.6651
違反	-10.6651
給	-10.6651
ファンタジー	-10.6651
酒	-10.6652
混合	-10.6652
記念	-10.6652
天然	-10.6652
贈り物	-10.6652
インタラクション	-10.6652
position	-10.6652
ぼ	-10.6652
坂	-10.6652
保守	-10.6652
緩和	-10.6652
一貫した	-10.6652
有権者	-10.6652
Bash	-10.6652
句	-10.6652
既知の	-10.6652
怪我	-10.6652
ペロブスカイト太陽電池	-10.6652
レンタル	-10.6652
昆虫	-10.6652
好奇心	-10.6652
ギャップ	-10.6652
ミュージカル	-10.6652
武器	-10.6652
パネル	-10.6653
▁some	-10.6653
ウィングレット	-10.6653
REST	-10.6653
ポーランド	-10.6653
不動産	-10.6653
▁como	-10.6653
細胞分裂	-10.6653
農場	-10.6653
ハイキング	-10.6654
望む	-10.6654
の動き	-10.6654
延長	-10.6654
status	-10.6655
大麻	-10.6655
毎月	-10.6657
元々	-10.6657
チームメンバー	-10.6657
▁j	-10.6658
向き	-10.6658
るもの	-10.6658
ハード	-10.6658
怒り	-10.6658
▁Microsoft	-10.6659
大学院	-10.6659
ment	-10.666
ファイルの	-10.6661
1960	-10.6663
ブルース	-10.6663
ついに	-10.6666
ジー	-10.6666
▁塩	-10.6667
ティング	-10.6668
哲学者	-10.6671
できた	-10.6671
たもの	-10.6672
技術が	-10.6672
火山	-10.6672
に焦点を当てた	-10.6673
の発生	-10.6674
を描いた	-10.6675
Fi	-10.6681
生地を	-10.6684
おく	-10.6685
IS	-10.6687
質問をし	-10.6692
を満たす	-10.6696
ワード	-10.6697
修理	-10.6698
ll	-10.67
EU	-10.6701
アルバムです	-10.6713
ance	-10.6721
ここ	-10.6722
頃に	-10.6723
スタート	-10.6729
に到着し	-10.6731
シア	-10.6734
RE	-10.6735
理由で	-10.6738
違いは	-10.674
を見つけます	-10.6755
1>	-10.6757
化する	-10.6759
▁FTP	-10.6759
を利用する	-10.6761
の選択は	-10.6767
47	-10.677
▁python	-10.678
▁var	-10.6784
選ばれ	-10.6786
を務めた	-10.6786
したい場合	-10.6794
古典	-10.6795
学校の	-10.6799
スパ	-10.6803
に使用する	-10.6806
Ro	-10.6812
を取得します	-10.6812
風の	-10.6813
どうして	-10.6814
qu	-10.6814
当初は	-10.6815
明日	-10.6818
を解く	-10.6822
▁上記の	-10.6822
杯	-10.6826
陸	-10.6831
アルゴリズムが	-10.6835
ation	-10.6835
をお勧めしますか	-10.6836
arr	-10.6838
略	-10.6841
の変更	-10.6842
もらえますか	-10.6844
状態で	-10.685
できるようになります	-10.6853
青い	-10.6856
初期の	-10.6856
加え	-10.6861
ようとします	-10.6869
var	-10.6871
▁この作品は	-10.6872
▁re	-10.6873
量子コンピューター	-10.6876
6.	-10.6879
シオ	-10.6883
のポジション	-10.6883
のセル	-10.6885
モノ	-10.6885
日まで	-10.6886
子供は	-10.6888
も行ってい	-10.6891
使用できます	-10.6892
科学的な	-10.6892
抜	-10.6893
張	-10.6894
mp	-10.6895
に達する	-10.6898
:\	-10.6899
69	-10.6907
府	-10.6908
剣	-10.691
案	-10.6912
を作成するには	-10.6912
の主な違いは	-10.6913
情	-10.6916
発生する	-10.6916
単なる	-10.6916
マクロ	-10.6916
令	-10.6918
告	-10.6919
フォルダ	-10.6919
を比較し	-10.6919
欠	-10.692
可	-10.692
フランス語	-10.692
霊	-10.692
迷	-10.6921
伊	-10.6921
チャンピオン	-10.6922
康	-10.6922
繊維	-10.6922
エンターテインメント	-10.6922
レッスン	-10.6923
迅速な	-10.6923
1995	-10.6923
Gmail	-10.6923
コンパイル	-10.6923
進捗状況	-10.6923
胸	-10.6923
貼り付け	-10.6923
プロフィール	-10.6923
Cherry	-10.6923
どうやって	-10.6923
ビジュアル	-10.6923
太郎	-10.6923
グラフィックス	-10.6923
過ぎ	-10.6923
クリーム	-10.6923
に分類してください	-10.6923
解散	-10.6924
スナック	-10.6924
首相	-10.6924
意義	-10.6924
1984	-10.6924
を実行し	-10.6924
メロディー	-10.6925
シャツ	-10.6925
1989	-10.6926
素数	-10.6926
地理的	-10.6926
条約	-10.6926
username	-10.6927
の味	-10.6927
スパイス	-10.6927
毎年	-10.6927
わずか	-10.6928
マッチ	-10.6928
オンラインショッピング	-10.6928
を持っていません	-10.6929
前作	-10.6933
DIS	-10.6934
個人的	-10.6938
を示してください	-10.6939
に位置する	-10.694
▁Apple	-10.6941
システムで	-10.6941
の種	-10.6942
web	-10.6943
の記録	-10.6943
街は	-10.6946
固体	-10.6946
混ぜます	-10.6946
会社名	-10.695
天体	-10.6952
覚	-10.6956
▁朝食	-10.6959
国で	-10.6961
を予測し	-10.6962
▁Z	-10.6962
代表的な	-10.6963
不平等	-10.6964
けど	-10.6972
選挙で	-10.6978
所有者	-10.699
を向上させるために	-10.6997
▁もし	-10.7001
が必要な場合は	-10.7003
の音	-10.7007
乗り	-10.7011
統治	-10.7013
を提供することで	-10.7017
多くの人々が	-10.7024
ハー	-10.7026
すべてを	-10.7027
を使い	-10.7028
たいと思います	-10.7028
ラウンド	-10.7031
はどのようになっていま	-10.7033
日食	-10.7036
かなりの	-10.7037
ML	-10.7038
確立	-10.7042
たときに	-10.7043
道徳的	-10.7044
市場の失敗	-10.7046
▁light	-10.705
と言った	-10.7051
人民	-10.7054
環境に優しい	-10.7056
によって引き起こされ	-10.7059
得られ	-10.7068
実行される	-10.7068
リュー	-10.7069
チャットボットは	-10.7071
影響を与える	-10.7072
だけが	-10.7073
@	-10.7074
type	-10.7077
メッセージを	-10.7079
言語の	-10.7086
減少	-10.7087
で使用されます	-10.709
利用できます	-10.7105
5°	-10.7106
毎日の	-10.711
起源	-10.7124
焼	-10.7128
に不可欠	-10.7132
リフ	-10.7132
番組の	-10.7133
大量のデータ	-10.7137
航海	-10.7139
聞こえる	-10.7146
の神	-10.7149
整理	-10.7156
細	-10.7156
製の	-10.7157
調理し	-10.7157
不可能	-10.7158
容	-10.7166
-8	-10.717
クル	-10.717
3)	-10.7172
▁Java	-10.7172
ein	-10.7173
続けています	-10.7177
を見ました	-10.7182
設	-10.7182
ショ	-10.7185
モデルが	-10.7188
ボランティア	-10.7189
原作	-10.719
を維持	-10.7191
闘	-10.7192
メモ	-10.7192
DA	-10.7194
段	-10.7196
走り	-10.7196
より正確な	-10.7197
弟	-10.7198
打	-10.7198
我	-10.7199
サーバーレスアーキテクチャ	-10.72
有用な	-10.72
肩	-10.72
範	-10.72
決定を下す	-10.72
セッション	-10.72
デザート	-10.72
授与され	-10.72
滞在	-10.72
斜	-10.72
穏やかな	-10.72
column	-10.72
4-4-4-4-4-4-4-4-	-10.72
茎	-10.72
柔らかい	-10.72
矢	-10.72
スウェーデン	-10.72
NextCloud	-10.72
と比べて	-10.72
みんな	-10.72
君主	-10.72
アナウンサー	-10.72
MongoDB	-10.72
NHK	-10.72
グリッド	-10.72
双	-10.72
奥	-10.72
里	-10.72
食料	-10.72
柱	-10.72
タウン	-10.72
バックエンド	-10.7201
豆腐	-10.7201
▁cuando	-10.7201
録音	-10.7201
II	-10.7201
決断	-10.7201
決勝	-10.7201
スキーム	-10.7202
カリフォルニア州	-10.7202
普遍的な	-10.7202
国境	-10.7202
話題	-10.7203
引き続き	-10.7203
最も近い	-10.7204
悲しい	-10.7204
環境への影響	-10.7205
GAN	-10.7205
まあ	-10.7207
はほとんど	-10.7208
広島	-10.7209
Node	-10.721
ドライブ	-10.7211
有害な	-10.7211
見つか	-10.7211
重み	-10.7212
に焦点を当てる	-10.7212
の歴史について教えてください	-10.7213
中断	-10.7214
騒音	-10.7214
アメリカン	-10.7214
inger	-10.7216
サイン	-10.7217
演出	-10.7217
印象的な	-10.7218
への投資	-10.7218
サッカー選手	-10.7218
を監視し	-10.7219
オーバー	-10.7221
上位	-10.7223
100%	-10.7224
効率性	-10.7226
世は	-10.7227
してほしい	-10.7231
ジェイ	-10.7232
無限	-10.7233
赤い	-10.7235
5000	-10.7238
の本名は	-10.724
▁どういたしまして	-10.7242
見られ	-10.7242
▁このアルバムの	-10.7243
イド	-10.7248
elif	-10.7253
生徒たち	-10.7254
ente	-10.7257
endl	-10.7259
にはいくつかの	-10.7259
詳細に	-10.7262
les	-10.7266
より速く	-10.7267
her	-10.7267
を発見する	-10.7273
が描かれています	-10.7274
区間	-10.7276
その中に	-10.7278
たくさんの	-10.7279
夜に	-10.728
人気の	-10.7281
茶色	-10.7281
空中	-10.7282
の生成	-10.7283
をいくつか	-10.7286
に対応し	-10.7287
193	-10.7287
いくつか	-10.7289
戦で	-10.7289
会長	-10.729
暗	-10.7291
の対象	-10.7294
発見された	-10.7295
に大きな	-10.7295
▁tu	-10.73
ier	-10.7305
▁たとえば	-10.7305
』、『	-10.7309
風味	-10.7309
大学の	-10.731
ロースト	-10.7317
山の	-10.7317
のキャリア	-10.7328
ach	-10.7332
rand	-10.7332
関与	-10.7334
喜	-10.7336
SF	-10.7339
ギリシャ	-10.7343
を挙げ	-10.7344
以下に	-10.7344
日中	-10.7344
cha	-10.7347
喜んで	-10.7347
オブジェクトを	-10.7354
クト	-10.7355
高レベルの	-10.7356
と協力して	-10.736
したもの	-10.7363
と言われ	-10.7365
について話す	-10.7366
検討	-10.737
動作する	-10.7375
ポー	-10.7378
持ってい	-10.7378
効率的	-10.7379
NT	-10.738
のスキル	-10.738
MS	-10.7381
▁ある日	-10.7385
風が	-10.7386
述べています	-10.7392
データは	-10.7394
▁&	-10.7395
今では	-10.7395
ために使用できる	-10.7398
強力で	-10.74
豊富	-10.7404
過去に	-10.7405
あなたの質問	-10.7408
映画です	-10.741
tic	-10.7411
に由来してい	-10.7413
それぞれが	-10.7414
を務めています	-10.7414
移動する	-10.7416
のグループ	-10.7419
▁この映画	-10.7423
番目	-10.7423
言語で	-10.7428
連載	-10.7428
スティ	-10.7429
遅く	-10.743
を調べ	-10.7433
SC	-10.7435
ファイルに	-10.7436
---------------	-10.7436
ビュー	-10.7437
クリ	-10.7438
関数を	-10.7443
▁root	-10.7445
スキー	-10.7445
エア	-10.7445
LI	-10.7445
勢	-10.7447
営	-10.745
はどうなっ	-10.7451
これを行う	-10.7451
ファイ	-10.7459
銅	-10.746
香り	-10.7461
妖精	-10.7463
終	-10.7464
▁ソーシャルメディア	-10.7468
▁Excel	-10.747
しているんです	-10.747
約束	-10.747
農	-10.7471
DC	-10.7473
簡潔	-10.7475
露	-10.7476
完璧	-10.7476
弾	-10.7476
ポジティブ	-10.7476
つく	-10.7478
郎	-10.7479
香	-10.7479
としています	-10.748
を支援し	-10.7481
痛	-10.7482
の必要性	-10.7482
包	-10.7483
興	-10.7483
で生まれ	-10.7483
pres	-10.7483
ソーシャル	-10.7483
一貫性	-10.7484
スプレッドシート	-10.7484
重大な	-10.7484
永	-10.7485
変革	-10.7485
アップデート	-10.7486
トラフィック	-10.7486
潮	-10.7486
反射	-10.7486
float	-10.7486
▁azul	-10.7486
オープニング	-10.7486
ESP	-10.7486
滝	-10.7486
SMTP	-10.7486
望遠鏡	-10.7486
桁	-10.7486
スケーラビリティ	-10.7486
ライセンス	-10.7486
インターンシップ	-10.7486
太陽電池	-10.7486
特典	-10.7486
演劇	-10.7487
が何であるか	-10.7487
資本主義	-10.7487
キャッチ	-10.7487
バックアップ	-10.7487
再帰	-10.7487
強制	-10.7488
端末	-10.7488
コードの進行	-10.7488
モンスター	-10.7488
電源	-10.7489
同等	-10.7489
満足度	-10.749
と言えます	-10.749
演じ	-10.749
基本的に	-10.7491
屋外	-10.7491
広範囲	-10.7491
既に	-10.7491
を考慮する	-10.7492
JR	-10.7494
わずかに	-10.7494
オート	-10.75
pas	-10.7502
データエンジニア	-10.7503
次のとおりです	-10.7506
▁この漫画	-10.7509
成長と	-10.7509
game	-10.7509
ブロックチェーン技術	-10.751
業界で	-10.7515
時間が	-10.7516
リアルタイムで	-10.7517
夜空	-10.7519
ことがわかります	-10.7522
言葉で	-10.7523
というタイトル	-10.7524
残り	-10.7527
に加え	-10.7528
アラン	-10.7529
44	-10.7535
を通って	-10.7537
賞を受賞しました	-10.754
ヴ	-10.754
インスリン	-10.7541
ために使用できます	-10.7541
ブレ	-10.7544
の使用は	-10.7545
のに十分な	-10.7546
186	-10.7548
データ型	-10.7549
aba	-10.755
ではありませんでした	-10.7557
に興味を持っている	-10.7564
なければ	-10.7565
▁この道路	-10.7569
▁fue	-10.7575
はどのような特徴がありま	-10.7581
api	-10.7581
露出	-10.7587
36	-10.7587
UT	-10.7588
がん	-10.7592
ポイントを獲得	-10.7593
を考慮する必要があります	-10.7597
Es	-10.7598
クリア	-10.76
ませんか	-10.76
として活躍しました	-10.7602
要	-10.7603
サイトの	-10.7608
状態に	-10.7608
ーター	-10.7609
著作	-10.7617
を実施する	-10.7619
材料を	-10.7622
ジョー	-10.7624
▁end	-10.7624
ることが重要です	-10.7624
になるまで	-10.7627
名称	-10.7631
情報が	-10.7632
眠る	-10.7638
ネー	-10.7639
TO	-10.7639
枚の	-10.764
比喩	-10.7642
新しいデータ	-10.7643
しなければならない	-10.7647
航空機の	-10.765
▁最終的に	-10.7651
RA	-10.7655
人種	-10.7656
ティック	-10.7657
最初	-10.7658
とはどんな	-10.7658
脳の	-10.7661
ice	-10.7665
を探	-10.7665
キャベツ	-10.7671
型糖尿病は	-10.7674
猫が	-10.7675
キャラクターが	-10.7677
この曲	-10.7679
であるという	-10.7679
エンド	-10.768
始まりました	-10.768
La	-10.7683
どうすればよいですか	-10.7685
▁Me	-10.7691
を卒業後	-10.7691
プロジェクトに	-10.7696
ルス	-10.7698
記載	-10.77
書かれています	-10.7702
静かで	-10.7704
提出	-10.7705
便利	-10.7706
させること	-10.7706
the	-10.7709
老	-10.7711
難易度	-10.7713
を提供するために	-10.7715
ベー	-10.7718
ランキング	-10.772
86	-10.7721
カナダ	-10.7722
へと	-10.7723
が完全に	-10.7726
に属しています	-10.7726
書く	-10.7734
デイ	-10.7735
に貢献する	-10.7736
手の	-10.7736
39	-10.7736
お茶	-10.7738
をより良く	-10.7745
続き	-10.7746
+2	-10.7747
放送されました	-10.7748
To	-10.7748
手で	-10.7751
のストーリー	-10.7751
彼女を	-10.7753
,000	-10.7755
異常な	-10.7757
アーキテクチャ	-10.7768
苦	-10.7771
ライフスタイル	-10.7771
てくれ	-10.7772
証	-10.7777
混	-10.7778
介	-10.7778
特定のニーズ	-10.7778
丁目	-10.7778
書き換え	-10.7778
芽	-10.7779
結晶	-10.7779
どういう	-10.7779
ミックス	-10.778
季	-10.778
筆	-10.778
快	-10.778
ヒュー	-10.778
トランス	-10.778
オーストリア	-10.778
エンティティ	-10.778
オイル	-10.778
思いやり	-10.778
推薦	-10.778
派遣	-10.778
蓋	-10.778
必須	-10.778
txt	-10.778
ヴォ	-10.778
の促進	-10.778
を取り除き	-10.778
ステータス	-10.778
弁護士	-10.778
discriminant	-10.778
NASA	-10.778
アクセサリー	-10.778
当事者	-10.778
防御	-10.7781
権限	-10.7781
反省	-10.7781
っていう	-10.7781
意志	-10.7781
顧客満足度	-10.7782
長期的に	-10.7782
チームワーク	-10.7782
デス	-10.7782
学術	-10.7782
誤った	-10.7782
プリント	-10.7783
部隊	-10.7783
電話番号	-10.7783
手術	-10.7783
ユーザーインターフェイス	-10.7783
[0]	-10.7783
チップ	-10.7784
Libre	-10.7784
光合成	-10.7784
シップ	-10.7784
見つけ	-10.7784
フォーク	-10.7785
を計算してください	-10.7785
スペル	-10.7785
グラム	-10.7786
やすく	-10.7786
強み	-10.7786
を参照してください	-10.7788
積分	-10.7789
を添えた	-10.7789
から始めて	-10.7789
続い	-10.779
経済成長	-10.7791
バット	-10.7792
を引き付け	-10.7796
号線	-10.7797
を制限する	-10.7802
視覚的な	-10.7803
欠点	-10.7804
適	-10.7805
を確保し	-10.7807
NA	-10.7807
流体	-10.7808
心から	-10.7812
は分かりません	-10.7816
を知り	-10.7817
▁<!	-10.7818
ダル	-10.7819
には多くの	-10.782
するために必要な	-10.7821
しても	-10.7823
んでいます	-10.784
使う	-10.784
スタン	-10.7842
迅速かつ	-10.7842
3-	-10.7843
謎	-10.7847
それでも	-10.7851
▁ジョージ	-10.7852
社会的な	-10.7853
木星	-10.7853
ことに気づきました	-10.7859
状の	-10.7859
産物	-10.786
減らすことができます	-10.786
経済的な	-10.7861
▁point	-10.7861
▁Love	-10.7862
あなたがあなたの	-10.7863
ran	-10.7863
の下に	-10.7867
▁2022	-10.7868
地域に	-10.7869
に戻り	-10.7871
EC	-10.7872
べきですか	-10.7877
▁toda	-10.7878
▁オンライン	-10.7879
43	-10.788
にあった	-10.7882
の最後の	-10.7882
彼の作品は	-10.7882
リック	-10.7883
10%	-10.7885
のに役立つことを願っています	-10.7886
言語です	-10.7889
dis	-10.789
意味で	-10.7892
地面	-10.7894
計算できます	-10.7896
から始まります	-10.79
永遠の	-10.79
リリースされた	-10.7901
を効果的に	-10.7902
を覚え	-10.7904
ツリー	-10.7905
ts	-10.791
シリーズは	-10.7912
ストラ	-10.7913
pi	-10.7913
製品を	-10.7919
熟	-10.792
回り	-10.7922
禁止	-10.7922
持つ	-10.7922
相互	-10.7924
ワー	-10.7924
▁2-	-10.7926
感じる	-10.7928
人形	-10.7929
定数	-10.7934
配布	-10.7935
来る	-10.7938
ting	-10.7941
の名前は何ですか	-10.7943
が重要です	-10.7946
の王	-10.7948
んでいる	-10.7949
ようにします	-10.7949
てくれる	-10.7953
▁オ	-10.7958
ことは困難です	-10.796
説明する	-10.796
子供たちに	-10.7961
ite	-10.7961
理論物理学	-10.7964
á	-10.7964
▁cout	-10.7966
コンピューターサイエンス	-10.7968
したいと思います	-10.797
セイ	-10.7973
▁次の文	-10.7973
いるんです	-10.7973
ニン	-10.7975
るでしょう	-10.798
シーケンス	-10.7981
ものでした	-10.7981
True	-10.7983
に感謝し	-10.7984
ジャン	-10.7985
体を	-10.7991
を持ちます	-10.7991
勝つ	-10.7991
あなたのために	-10.7996
▁彼	-10.7996
▁このアルバムには	-10.7998
訴	-10.7999
出会い	-10.8002
の実践	-10.8004
防止	-10.8004
をお勧めします	-10.8006
を追跡する	-10.801
あった	-10.8016
不満	-10.8018
精神的な	-10.802
が収録されています	-10.8022
描かれています	-10.8026
ものである	-10.8031
を受け取り	-10.8033
降	-10.8034
岸	-10.8036
ッツ	-10.8039
連携	-10.804
活	-10.804
リラックスした	-10.8042
以外にも	-10.8047
▁hist	-10.8051
を防ぐために	-10.8057
起こります	-10.8059
を開き	-10.8061
meta	-10.8063
している場合	-10.8065
を送信する	-10.8068
皆	-10.8072
創業	-10.8073
ゲームです	-10.8073
ns	-10.8074
ディス	-10.8074
短縮	-10.8075
習	-10.8076
フレーム	-10.8077
発音	-10.8078
チュー	-10.8078
タブー	-10.8078
ツールを使用して	-10.8078
一致	-10.8078
▁SEO	-10.8079
済	-10.8079
動的	-10.808
射	-10.808
問い合わせ	-10.8081
閉	-10.8082
講	-10.8082
太平洋	-10.8082
血液	-10.8082
しばらく	-10.8082
オブジェクト指向の	-10.8083
Netflix	-10.8083
荒	-10.8083
インスタンス	-10.8083
模様	-10.8083
プロデュース	-10.8083
Raspberry	-10.8083
尿	-10.8083
docker	-10.8083
▁public	-10.8083
content	-10.8083
▁muy	-10.8083
七	-10.8083
励まし	-10.8083
暗号通貨	-10.8083
弁	-10.8083
スタジオ	-10.8083
防衛	-10.8083
メアリー	-10.8083
誤解	-10.8083
之	-10.8083
フォーラム	-10.8083
lon	-10.8083
化石燃料	-10.8083
count	-10.8083
一貫して	-10.8084
死ぬ	-10.8084
カフェイン	-10.8084
チェーンルール	-10.8084
反対側	-10.8084
ショット	-10.8084
知恵	-10.8084
の自由	-10.8085
調和	-10.8086
手続き	-10.8086
駆動	-10.8086
セー	-10.8087
アルファ	-10.8087
マージン	-10.8087
歩く	-10.8087
ポスター	-10.8088
両方とも	-10.8088
▁Fre	-10.8089
障害物	-10.809
報道	-10.809
TE	-10.809
cmap	-10.8091
に住んでいた	-10.8091
男子	-10.8092
遺伝的	-10.8092
が提供され	-10.8092
私たちの生活	-10.8094
ごみ	-10.8095
属性	-10.8095
アップル	-10.8096
示されています	-10.8098
さまざまな種類の	-10.8098
宇宙船	-10.8102
を軽減する	-10.8103
に接続する	-10.8104
普通の	-10.8105
▁インターネット	-10.8106
ロシアの	-10.8106
あまりにも	-10.8106
の進歩	-10.8107
傾向があります	-10.8108
されているんです	-10.8108
両方	-10.8109
知性	-10.8111
よく混ぜ	-10.8112
ことになります	-10.8114
を表現し	-10.8115
交通手段	-10.8116
揺れ	-10.8117
を識別し	-10.8121
疑い	-10.8122
何かを	-10.813
BS	-10.8133
つの単語	-10.8133
ミゲル	-10.8135
落とし	-10.8136
を創造	-10.8137
投資家	-10.8141
適切	-10.8143
の支援	-10.8144
分野です	-10.8146
▁だから	-10.8146
提案された	-10.8146
が困難	-10.8147
選ばれた	-10.8147
設置	-10.8149
が行われる	-10.8154
見える	-10.8156
car	-10.8157
自身	-10.8158
を読んで	-10.8158
eron	-10.8159
猫は	-10.8163
自分自身に	-10.8165
はいくら	-10.8168
末	-10.817
を構成する	-10.8171
オス	-10.8172
を作ることができます	-10.8173
関わり	-10.8174
成長する	-10.8176
▁u	-10.8181
を目指し	-10.8181
の方が	-10.8181
ることもあります	-10.8195
ストーリーは	-10.8196
簡単です	-10.8199
どんな内容	-10.82
を獲得する	-10.82
まま	-10.82
はいつ行われ	-10.82
モデルを	-10.8206
を支払う	-10.8207
を持つことができます	-10.8207
化され	-10.8208
導	-10.8211
当初	-10.8217
AP	-10.8217
パーク	-10.8218
視覚的	-10.8219
日間	-10.8224
ian	-10.8225
刺激	-10.8225
ber	-10.8227
可能です	-10.8229
求め	-10.8233
ケイ	-10.8238
は一般的に	-10.8242
が行われています	-10.8244
設立されました	-10.8251
複数	-10.8251
伝え	-10.8251
クス	-10.8253
を受けて	-10.8253
探検	-10.8255
を失い	-10.8258
nums	-10.8261
道徳	-10.8262
によって引き起こされる	-10.8263
的および	-10.8267
方程式の	-10.8267
の終わり	-10.827
を減らすために	-10.8277
ライム	-10.8277
盛	-10.8284
の導入	-10.8285
を得ることができます	-10.8286
するときに	-10.8294
スロー	-10.8294
を保存する	-10.8295
▁ジョンは	-10.83
使用されている	-10.8301
ロッ	-10.8303
日です	-10.8304
高度	-10.8304
を達成するために	-10.8306
保つ	-10.8306
9,	-10.8306
result	-10.831
簡単	-10.8311
point	-10.8311
AC	-10.8313
を測定し	-10.8313
++	-10.8315
電磁	-10.8318
ガード	-10.832
この情報	-10.8321
下で	-10.8321
進んでい	-10.8327
ord	-10.8332
に追加する	-10.8332
ツールです	-10.8339
カート	-10.834
育成	-10.8342
引退	-10.8345
自然言語	-10.8346
を練習し	-10.8352
利点があります	-10.8352
地下	-10.8353
はどのようにして	-10.8355
月から	-10.8361
生存	-10.8362
終了しました	-10.8365
市場で	-10.8366
についてもっと	-10.8369
の歴史は	-10.8376
見られます	-10.8376
犯罪者	-10.8378
紫	-10.8378
▁以下の文	-10.8379
を克服する	-10.8381
DE	-10.8385
温室効果ガス	-10.8385
アクティブ	-10.8385
SA	-10.8386
を迎え	-10.8387
備	-10.8388
物語です	-10.8389
助けを求め	-10.839
短編小説	-10.8391
長所と短所	-10.8391
遺	-10.8392
を開く	-10.8393
一致する	-10.8393
エクスペリエンス	-10.8394
雑	-10.8394
爆発	-10.8394
幹	-10.8394
スープ	-10.8394
バリエーション	-10.8395
結び	-10.8395
児	-10.8395
セグメント	-10.8395
弦	-10.8395
墓	-10.8395
ワークシート	-10.8395
水分補給	-10.8396
妹	-10.8396
予選	-10.8396
▁magia	-10.8396
eighth	-10.8396
指揮者	-10.8396
勾配	-10.8396
▁cumpl	-10.8396
クーデター	-10.8396
沼	-10.8396
組み込み	-10.8396
魔女	-10.8396
に相当します	-10.8396
キログラム	-10.8396
ベジタリアン	-10.8396
岳	-10.8396
ビートルズ	-10.8396
飛ぶ	-10.8396
を要約してください	-10.8396
～	-10.8396
を目指す	-10.8396
をインポートします	-10.8396
帽子	-10.8396
bash	-10.8396
期限	-10.8396
協定	-10.8396
揚げ	-10.8396
登場人物	-10.8396
裁判官	-10.8396
有限	-10.8396
薬剤	-10.8397
をリストアップしてください	-10.8397
を見ることができます	-10.8397
パイプ	-10.8397
著書	-10.8397
呼吸器	-10.8397
1994	-10.8398
賞賛	-10.8398
階層	-10.8398
体が	-10.8398
場合によっては	-10.8398
宝石	-10.8398
ロボット工学	-10.8398
利点と短所	-10.8398
諸島	-10.8398
モーター	-10.8398
除外	-10.8399
交差点	-10.8399
相関関係	-10.84
プール	-10.8401
遊ぶ	-10.8401
誤り	-10.8401
グレート	-10.8402
公正な	-10.8403
隠された	-10.8406
便利な	-10.8407
負	-10.8407
mit	-10.8408
引数	-10.8408
TA	-10.8408
スミス	-10.841
DFA	-10.841
1991	-10.8411
を変更し	-10.8413
安全性	-10.8416
見つけることができます	-10.8418
意味のある	-10.8418
計算されます	-10.8419
チリ	-10.8422
を生み出す	-10.8423
無線	-10.8423
42	-10.8425
を買い	-10.8427
を保ち	-10.8428
法則	-10.8429
するという	-10.8429
建築家	-10.843
性能	-10.8432
を紹介し	-10.8432
の一部です	-10.8432
に焦点を当てています	-10.8436
があるかもしれません	-10.8437
誤	-10.8438
以内	-10.8439
▁これが	-10.8439
ない場合は	-10.844
オーク	-10.8442
に参加しました	-10.8443
んですよ	-10.8443
データ構造	-10.8451
を助ける	-10.8458
古墳	-10.8461
地名	-10.8465
含まれ	-10.8467
られます	-10.8471
が容易になり	-10.8476
終了し	-10.8478
週に	-10.8482
するにはどうすればよいですか	-10.8483
に登場する	-10.8485
サーバーに	-10.8487
瞬間に	-10.8488
笑	-10.8488
を与えることができます	-10.849
中央に	-10.8492
のにも役立ち	-10.8493
を保つ	-10.85
を見つけることができる	-10.8501
ual	-10.8504
ミング	-10.8506
を保持し	-10.8514
に戻る	-10.8519
700	-10.8523
必要はありません	-10.8524
再生可能エネルギー源	-10.853
ホル	-10.8533
を実装し	-10.8538
ように設計されています	-10.8541
ンド	-10.8549
大きさ	-10.855
街の	-10.8553
ユニークで	-10.8554
なりました	-10.8556
のに最適な	-10.8557
ock	-10.8563
開催され	-10.8564
を実行します	-10.8568
▁object	-10.8571
後ろ	-10.8574
ワークロード	-10.858
カップの	-10.8581
議	-10.8587
このタイプの	-10.8588
を聞いて	-10.8591
に直接	-10.8593
置	-10.8598
188	-10.8599
▁html	-10.8599
居住	-10.8599
動的な	-10.86
を知っている	-10.8601
を助けることができます	-10.8603
なくなり	-10.8604
▁sum	-10.8615
▁50	-10.8616
発生します	-10.8617
▁HTML	-10.8618
機能します	-10.8624
作用	-10.8624
の監督	-10.8625
最適	-10.8625
十分	-10.8626
に使用され	-10.8627
生まれました	-10.8627
たいですか	-10.863
を可能にします	-10.8631
yo	-10.8631
を推奨	-10.8632
または他の	-10.8633
▁2019	-10.8636
をしていました	-10.8637
より高い	-10.8637
ことはできますか	-10.8638
注目され	-10.8638
で働く	-10.8638
MACD	-10.8639
詳細な情報	-10.8644
謎の	-10.8645
は同じ	-10.8648
を準備する	-10.865
を組み合わせた	-10.8652
を活用し	-10.8653
78	-10.8654
部屋の	-10.8655
お互いに	-10.8658
0.0	-10.8658
などの要因	-10.8659
せる	-10.866
委員	-10.8671
▁0:	-10.8672
除去	-10.8678
効果的なコミュニケーション	-10.8683
▁max	-10.8683
歩	-10.8689
を記録し	-10.8689
を最小限に抑える	-10.8689
輝	-10.869
が含まれる場合	-10.869
できず	-10.8692
が作成され	-10.8692
やり取り	-10.8694
url	-10.8695
Mac	-10.8703
(7	-10.8704
正確で	-10.8704
市にあります	-10.8705
ペース	-10.8706
終わり	-10.8707
の性質	-10.8707
訓練された	-10.8707
の表面	-10.8708
エンジニア	-10.8709
小規模	-10.871
美術館	-10.871
幼	-10.8711
孫	-10.8714
焼く	-10.8714
分裂	-10.8714
が行われます	-10.8714
▁テスト	-10.8718
吸	-10.8718
漢	-10.8718
被	-10.8718
ハンバーガー	-10.8718
苦しみ	-10.8718
札	-10.8718
ジャングル	-10.8718
代替品	-10.8718
COVID	-10.8718
敏	-10.8718
コロンビア	-10.8718
maze	-10.8718
組み立て	-10.8718
アルファベット	-10.8718
連盟	-10.8718
余分な	-10.8718
鏡	-10.8718
公共の	-10.8718
自動運転車	-10.8718
英雄	-10.8718
フランシス	-10.8719
昼食	-10.8719
権威	-10.8719
たびに	-10.8719
楽しめる	-10.8719
ハードドライブ	-10.8719
寄付	-10.8719
策定	-10.8719
修復	-10.8719
諦め	-10.8719
刑事	-10.8719
兵士	-10.8719
野生生物	-10.8719
おやつ	-10.8719
exit	-10.8719
を設定します	-10.8719
よく使用されます	-10.872
天皇	-10.872
あらゆる種類の	-10.872
ソーシャルネットワーク	-10.872
起業家	-10.872
恋愛	-10.872
済み	-10.8721
1992	-10.8721
ワールドカップ	-10.8721
マイクロ	-10.8721
ゲート	-10.8722
正直	-10.8722
スクリーン	-10.8722
サーバ	-10.8722
フォルダー	-10.8722
初代	-10.8723
ビット	-10.8723
薬物	-10.8724
同期	-10.8724
王女	-10.8725
植物は	-10.8726
用品	-10.8726
デー	-10.8726
tasks	-10.8726
が増え	-10.8726
当たり	-10.8728
UI	-10.8729
オプション取引	-10.8729
学校は	-10.873
小惑星	-10.8732
それ自体	-10.8732
ランダムな	-10.8733
カレー	-10.8735
一番	-10.8735
植物が	-10.8737
を分析して	-10.8737
度の	-10.8738
ているか	-10.874
をとる	-10.874
人権	-10.8742
PSC	-10.8747
重い	-10.8747
動詞の	-10.8747
岐阜県	-10.875
を行っ	-10.8751
▁このシングル	-10.8751
どうなりますか	-10.8754
割り	-10.8754
ワーク	-10.8757
date	-10.8759
ことを意味し	-10.8759
を加える	-10.8759
の実装	-10.876
再現	-10.876
データポイント	-10.8762
▁num	-10.8763
どこの出身	-10.8764
は何のために	-10.8766
第三	-10.8766
作品で	-10.8767
Cell	-10.8767
杯の	-10.8769
と同じように	-10.877
▁St	-10.8776
ten	-10.8777
が形成され	-10.8778
められ	-10.8779
技術の進歩	-10.8781
に入れ	-10.8783
を広げ	-10.8784
がなければ	-10.8785
集まり	-10.8788
と思う	-10.8788
生き残る	-10.8788
を獲得しました	-10.8791
今年の	-10.8791
ことに注意することが重要で	-10.8793
を自動的に	-10.8793
▁Home	-10.8795
平面	-10.8796
登山	-10.8797
デザインは	-10.8801
ロボ	-10.8805
▁flask	-10.8808
リソースの	-10.8811
lf	-10.8811
と考える	-10.8812
始まった	-10.8813
家で	-10.8813
を設置する	-10.8814
曲が収録されています	-10.8814
our	-10.8821
ゲームで	-10.8824
イラスト	-10.8824
置いて	-10.8827
と呼ばれていました	-10.883
ボー	-10.8832
の父	-10.8839
▁number	-10.8841
探	-10.8841
でない	-10.8842
56	-10.8842
高度に	-10.8845
に到達し	-10.8845
を担当し	-10.8851
私の心	-10.8855
進化し	-10.8856
どちらも	-10.8858
▁誰が	-10.8859
良く	-10.8859
データや	-10.886
をよりよく	-10.8863
どういう意味ですか	-10.8864
▁value	-10.8867
によるものです	-10.8872
過ごす	-10.8873
関わってい	-10.8874
ウム	-10.8875
を見つけた	-10.8875
しているため	-10.8877
▁while	-10.8878
大人	-10.8879
ませんが	-10.8891
▁PLL	-10.8892
los	-10.8893
のひとつ	-10.8894
をもって	-10.8895
年代の	-10.8896
学生が	-10.8896
を検索し	-10.8896
描写	-10.8902
BC	-10.8902
名古屋	-10.8903
と考えられ	-10.8903
を導き	-10.8903
ext	-10.8905
中間	-10.8905
いません	-10.8906
グレー	-10.8907
開催	-10.8909
しているのですか	-10.891
EL	-10.8914
eat	-10.8928
テイ	-10.8935
An	-10.8938
細胞の	-10.8939
徒	-10.8943
えます	-10.895
ary	-10.8953
ラル	-10.8953
54	-10.8953
88	-10.8955
cos	-10.8958
▁We	-10.8963
反乱	-10.8965
の子	-10.8965
消化	-10.8966
どの国	-10.8976
ies	-10.8978
▁math	-10.8988
残念ながら	-10.899
の中でも	-10.899
double	-10.899
知りたいです	-10.8991
は不明です	-10.8992
によって異なる	-10.8993
new	-10.8993
start	-10.8994
を定期的に	-10.8994
しないように	-10.8994
らないように	-10.8995
になるように	-10.8999
▁tan	-10.9003
掃除	-10.9006
笑顔	-10.9007
を試す	-10.901
sum	-10.901
use	-10.9017
人間関係	-10.9021
存在しない	-10.9021
の実施	-10.9023
城の	-10.9024
容量	-10.9028
なければならなかった	-10.9029
株	-10.9031
きれい	-10.9033
方法があります	-10.9034
があなた	-10.9035
対戦	-10.9037
付ける	-10.9038
できなかった	-10.904
を残しました	-10.9041
刊	-10.9042
に行った	-10.9042
を以下に示します	-10.9044
投	-10.9045
応	-10.9047
袋	-10.9048
延	-10.9048
腹	-10.9048
思想	-10.9048
ウィリアム	-10.9049
慶	-10.9049
選択を	-10.9049
湯	-10.905
虫	-10.905
天の川	-10.905
ブライアン	-10.905
キュ	-10.905
君	-10.905
納	-10.9051
煙	-10.9051
灯	-10.9051
セクター	-10.9051
地平線	-10.9051
ゴジラ	-10.9051
干渉	-10.9051
貧しい	-10.9051
眼	-10.9051
ちょっと	-10.9052
暖かく	-10.9052
であっても	-10.9052
サンフランシスコ	-10.9052
▁Premiere	-10.9052
前向きな	-10.9052
▁follow	-10.9052
超大国	-10.9052
▁require	-10.9052
阿	-10.9052
ハッシュタグ	-10.9052
ことがよくあります	-10.9052
仁	-10.9052
どのように機能しますか	-10.9052
弘	-10.9052
ヘリウム	-10.9052
切り替え	-10.9052
パーセプトロン	-10.9052
#(	-10.9052
大阪府	-10.9052
ビッグ	-10.9052
食物繊維	-10.9052
言えば	-10.9052
1982	-10.9052
ナショナル	-10.9052
遺跡	-10.9052
ロマンチックな	-10.9052
工事	-10.9053
コーナー	-10.9053
適合	-10.9053
演算子	-10.9053
デンマーク	-10.9053
衛生	-10.9053
任務	-10.9053
餌	-10.9053
学問	-10.9053
レタス	-10.9053
▁エレ	-10.9054
脆弱性	-10.9054
con	-10.9055
現場	-10.9055
ポーン	-10.9055
染色体	-10.9056
合理的な	-10.9056
▁todo	-10.9056
USB	-10.9057
会員	-10.9057
と思われる	-10.9057
の形で	-10.9057
ヴァン	-10.9057
弱い	-10.9057
経験豊富な	-10.9059
ピザ	-10.9059
インターネット接続	-10.9059
機械学習モデル	-10.906
長距離	-10.9061
星座	-10.9061
マスク	-10.9062
価値のある	-10.9063
色合い	-10.9063
早期	-10.9063
扱い	-10.9064
トリミング	-10.9064
耐性	-10.9065
としても知られています	-10.9065
たいのですが	-10.9065
のほんの一部です	-10.907
へのリンク	-10.9071
電車	-10.9071
リサイズ	-10.9075
そこでは	-10.9076
市立	-10.9076
低く	-10.9077
の需要	-10.9077
を作るために	-10.9079
▁プログラミング	-10.9081
ón	-10.9082
祈り	-10.9082
開発者は	-10.9082
変え	-10.9083
年以降	-10.9083
ハム	-10.9089
どの国の	-10.9091
だから	-10.9091
初めての	-10.9092
国道	-10.9093
mg	-10.9094
9%	-10.9095
メイ	-10.9096
に適応する	-10.9097
視聴	-10.9097
もありません	-10.9099
リウス	-10.91
必要なもの	-10.91
システムを	-10.91
現在も	-10.9104
中心部	-10.9104
ボウル	-10.9105
を奨励し	-10.9106
を改善するために	-10.9107
していて	-10.911
Th	-10.9112
の旅	-10.9118
〜』	-10.9119
与えられます	-10.9121
しやすく	-10.9122
を生産する	-10.9122
▁str	-10.9123
を作ります	-10.9124
GT	-10.9128
小学校の	-10.9129
art	-10.9129
を起こし	-10.9129
III	-10.913
▁ser	-10.9131
で行われる	-10.9133
発表されました	-10.9136
調べ	-10.9139
を発表しました	-10.9139
が減少し	-10.9141
パテを	-10.9144
データを分析し	-10.9145
が入	-10.9146
の舞台	-10.9147
▁最近の	-10.9148
短期	-10.9152
一歩	-10.9154
▁src	-10.9158
から始まり	-10.9159
が生じ	-10.916
いつですか	-10.9165
軽減	-10.9168
話者	-10.917
獣	-10.9171
▁スライド	-10.9173
屋内	-10.9181
人生で	-10.9182
アンドレ	-10.9183
技術的な	-10.9183
ction	-10.9188
が発生し	-10.9191
は比較的	-10.9194
たりする	-10.9196
お手伝い	-10.9201
としても活動し	-10.9202
生きる	-10.9202
を実装する	-10.9204
ck	-10.9204
が欲しい	-10.9204
提供しています	-10.9207
機能を	-10.9208
見ることができます	-10.9209
に関連して	-10.921
の象徴	-10.9215
ようにしましょう	-10.9216
をチェックし	-10.9216
の名称	-10.9221
信じられないほどの	-10.9221
が生まれ	-10.9222
目的と	-10.9223
を出し	-10.9224
を満たし	-10.9224
ine	-10.9225
96	-10.9225
るべき	-10.9226
を掛け	-10.9228
の運営	-10.9239
スクリプトは	-10.924
止	-10.9241
てしまいました	-10.9242
てしまう	-10.9243
が低く	-10.9243
▁Con	-10.9244
▁obj	-10.9245
したいですか	-10.9249
一つ	-10.925
私はこの	-10.925
の息子	-10.9253
加工	-10.9254
周辺の	-10.9254
めて	-10.9256
再起動	-10.9256
ことを検討	-10.9257
コス	-10.9258
暗く	-10.9258
優先	-10.9259
クレ	-10.926
120	-10.9262
の提案	-10.9267
加熱	-10.9268
情報を提供する	-10.9269
はどこの	-10.927
ers	-10.9271
jo	-10.9272
を保存し	-10.9272
獣医	-10.9273
過ごし	-10.9274
現れ	-10.9277
に保ち	-10.928
より簡単に	-10.928
受賞	-10.9281
aya	-10.9284
やすい	-10.9285
に与える	-10.9286
を更新し	-10.9287
で行われました	-10.929
他の多くの	-10.9291
を進め	-10.9293
都市で	-10.9294
可能性があること	-10.9295
公式の	-10.9297
それらの間	-10.9297
のを助ける	-10.93
秘密の	-10.9301
、2016	-10.9303
が得られる	-10.9306
にのみ	-10.9316
いいですか	-10.9317
誰も	-10.9317
Go	-10.9319
の地位	-10.932
個人的な好み	-10.9321
▁14	-10.9321
重要な要素	-10.9322
聴衆	-10.9323
関数を使用して	-10.9326
160	-10.9327
担当	-10.9327
▁Lo	-10.9332
▁カルロス	-10.9334
登場し	-10.9334
▁are	-10.9335
が現れ	-10.9336
▁手順	-10.934
va	-10.9341
鮮やかな	-10.9342
の一種	-10.9344
ftp	-10.9344
について学ぶ	-10.9345
600	-10.9346
をすべて	-10.9349
派の	-10.9349
長崎	-10.9351
反映	-10.9353
マリア	-10.9353
整備	-10.9354
now	-10.9356
スタック	-10.936
を実現する	-10.9361
視覚化	-10.9362
卒業後	-10.9362
こう	-10.9364
新しい技術	-10.9364
生成されます	-10.9367
考え方	-10.9367
多数	-10.9372
Re	-10.9374
合併	-10.9374
ib	-10.9376
しようとしている	-10.9381
彫刻	-10.9384
ことを学び	-10.9385
腐敗	-10.9387
安価	-10.9387
冷たい	-10.9388
液	-10.9388
本拠地	-10.9389
退職	-10.9389
互換性	-10.939
をクリックします	-10.939
考	-10.939
公平	-10.9391
米国で	-10.9391
毒	-10.9392
専	-10.9393
モバイルアプリ	-10.9393
晩	-10.9393
ジュース	-10.9393
歌い	-10.9393
捨て	-10.9394
西洋	-10.9394
カリフォルニア	-10.9394
境界	-10.9395
暦	-10.9395
キャンバス	-10.9395
評価され	-10.9395
膜	-10.9396
ドワーフ	-10.9396
煮	-10.9396
Sheet	-10.9396
措置を講じ	-10.9396
垂直農場	-10.9396
エッジ	-10.9396
休暇	-10.9396
そこから	-10.9396
を必要とせず	-10.9396
霧	-10.9396
→	-10.9396
隣接する	-10.9396
イニシアチブ	-10.9396
詳しい	-10.9396
スタジアム	-10.9396
”	-10.9396
がどのように機能するか	-10.9396
ロサンゼルス	-10.9396
Nvidia	-10.9396
を防ぎ	-10.9396
canvas	-10.9396
銭	-10.9396
缶	-10.9396
保管	-10.9396
伏	-10.9396
根本的な	-10.9397
アナログ	-10.9397
フォローアップ	-10.9397
孤立	-10.9397
顕著	-10.9397
亜	-10.9397
レンズ豆	-10.9397
天候	-10.9397
OCT	-10.9397
どのポジションでプレーしてい	-10.9397
信頼性の高い	-10.9397
将軍	-10.9397
ジュニア	-10.9397
億ユーロ	-10.9397
庭園	-10.9397
方針	-10.9397
宇宙生物学	-10.9398
を卒業しました	-10.9398
偽造	-10.9398
動向	-10.9398
湿度	-10.9398
発症	-10.9398
略語	-10.9399
屋根	-10.9399
ボット	-10.9399
ライター	-10.9399
発生した	-10.9399
書類	-10.9399
拡張現実	-10.94
メトリック	-10.94
ライオン	-10.9401
テレビドラマ	-10.9402
牛肉	-10.9402
特に役立ちます	-10.9403
透明な	-10.9403
Enter	-10.9403
El	-10.9403
なくても	-10.9404
ネガティブな	-10.9405
命名	-10.9405
1983	-10.9405
殺人	-10.9405
1988	-10.9406
祭り	-10.9406
それは非常に	-10.9407
パート	-10.9407
を描く	-10.9407
としても知られる	-10.9408
を行うこと	-10.9408
key	-10.9408
Le	-10.9408
垂直	-10.9409
取り付け	-10.941
作戦	-10.941
片側	-10.9412
ge	-10.9417
担当者	-10.9419
メンタルヘルス	-10.9419
Date	-10.9424
固有の	-10.9426
スキルと	-10.9426
大正	-10.9427
を検出し	-10.9428
実践的な	-10.9429
変わり	-10.943
の評価	-10.943
RO	-10.9431
蒸発	-10.9435
基本的な概念	-10.9437
出発	-10.9437
▁JavaScript	-10.9438
ルイ	-10.9438
他に何か	-10.944
に達し	-10.9441
ユーザーフレンドリー	-10.9441
提供される	-10.9442
収め	-10.9444
アシスタントとして	-10.9445
をお楽しみください	-10.9446
を作りました	-10.9447
の未来	-10.9447
91	-10.9449
歳で亡くなりました	-10.9449
が必要ですか	-10.9451
塗り	-10.9451
を格納する	-10.9452
ことさえ	-10.9454
▁start	-10.9457
に行き	-10.9461
表示される	-10.9464
規模	-10.9465
魅力的で	-10.9471
IM	-10.9473
存在します	-10.9479
FAX	-10.9483
何でも	-10.9484
ための最良の方法	-10.9485
連絡先	-10.9487
反乱軍	-10.9488
匹	-10.9489
適用される	-10.949
だろう	-10.9491
という用語は	-10.9492
▁¿	-10.9493
会社は	-10.9494
磁気	-10.9495
の兆候	-10.9495
接続された	-10.9496
を探している	-10.9497
すが	-10.9501
文章に	-10.9504
森の	-10.9504
年前に	-10.9508
ho	-10.9509
の写真	-10.9521
できました	-10.9522
を操作し	-10.9523
▁request	-10.9523
を避けてください	-10.9525
を練習する	-10.953
を検出する	-10.9533
収録曲	-10.9537
▁一般に	-10.954
繁栄	-10.9543
が好きで	-10.9546
タッチ	-10.9549
めます	-10.9549
に属する	-10.955
置きます	-10.955
ナポレオン	-10.9553
の多い	-10.9553
してみてください	-10.9553
を分析する	-10.9554
提供します	-10.9555
を高めることができます	-10.9556
は文章には記載されていません	-10.9559
視覚	-10.9561
覆	-10.9562
に電話	-10.9566
1,000	-10.957
一度に	-10.9571
▁フランス	-10.9572
▁ジョ	-10.9572
ノン	-10.9572
中世	-10.9574
を促進します	-10.9576
を探しています	-10.9579
を確認してください	-10.9579
語り	-10.9582
通過	-10.9591
必要です	-10.9593
▁この小説は	-10.9596
▁25	-10.96
読む	-10.9601
で知られ	-10.9602
無視	-10.9609
68	-10.9609
にアクセスできる	-10.961
66	-10.9614
目的で	-10.9615
tar	-10.9616
▁go	-10.9618
流れる	-10.9619
の森	-10.9623
と書かれています	-10.9626
覚え	-10.9626
されるため	-10.9628
人でした	-10.9628
パル	-10.9631
の仕組み	-10.9632
届け	-10.9634
▁Mad	-10.9634
▁mi	-10.9638
であることを忘れないでください	-10.9642
を削除し	-10.9644
使用された	-10.9645
車両の	-10.965
本当	-10.965
2&	-10.965
を持っていること	-10.9652
体は	-10.9656
ネス	-10.966
▁2018	-10.9669
red	-10.967
メル	-10.9671
▁Q	-10.9673
下げ	-10.9673
あなたはあなたの	-10.9673
ブランドの	-10.9674
割	-10.9675
持っています	-10.9677
に予熱し	-10.968
耐久性	-10.9683
ユー	-10.9688
時刻	-10.9692
データを収集し	-10.9692
に置き	-10.9693
追い	-10.9694
サル	-10.9697
外国	-10.9702
der	-10.9705
で割り切れる	-10.9707
ニエル	-10.9707
In	-10.9708
signal	-10.9713
デジタルマーケティング	-10.9718
る場合があります	-10.9718
関西	-10.9719
移動し	-10.9723
システムが	-10.9724
▁input	-10.9725
ela	-10.9728
指標	-10.973
と確信しています	-10.9736
クラシック	-10.9738
お客様の	-10.9739
栄	-10.974
▁fi	-10.9741
詞	-10.9744
開業	-10.9746
コミック	-10.9746
ソフトウェア開発	-10.9748
果	-10.9748
際には	-10.975
効	-10.975
陰	-10.975
を持った	-10.9751
福祉	-10.9751
想	-10.9751
冠	-10.9751
将	-10.9751
ようになった	-10.9751
建造	-10.9752
火災	-10.9752
健	-10.9753
肥	-10.9753
妊娠	-10.9753
ツバメ	-10.9753
偉大な	-10.9753
ペーパー	-10.9753
クジラ	-10.9753
輸入	-10.9753
沖	-10.9753
逮捕され	-10.9753
磨	-10.9753
を拒否し	-10.9753
独特の	-10.9753
ヨーグルト	-10.9753
禁	-10.9753
スピーカー	-10.9753
応募	-10.9753
使いやすさ	-10.9753
韻	-10.9753
使いやすい	-10.9754
ストレッチ	-10.9754
可用性	-10.9754
衰退	-10.9754
不確実性	-10.9754
享	-10.9754
を捉え	-10.9754
ハイブリッド	-10.9754
モニター	-10.9754
宇宙飛行士	-10.9754
month	-10.9754
クッキー	-10.9754
プロダクション	-10.9754
いじめ	-10.9754
独占	-10.9754
ペッパー	-10.9754
伯	-10.9754
花嫁	-10.9754
スケート	-10.9754
休息	-10.9754
食料品	-10.9754
が必要になる場合があります	-10.9754
であろうと	-10.9754
ミーティング	-10.9754
避難	-10.9754
転換	-10.9754
フォーカス	-10.9754
スコットランド	-10.9754
セロリ	-10.9754
肥満	-10.9754
文献	-10.9754
リフレッシュ	-10.9754
に合った	-10.9754
可能であれば	-10.9754
拠点	-10.9754
クラスタリング	-10.9754
幸運	-10.9754
座席	-10.9755
通称	-10.9755
時系列	-10.9755
を分類してください	-10.9755
銃器	-10.9756
千葉	-10.9756
div	-10.9756
チキン	-10.9757
愛称	-10.9757
ように感じ	-10.9757
寒さ	-10.9757
青少年	-10.9757
route	-10.9757
UTF	-10.9758
復元	-10.9759
健康で	-10.976
パッケージ定義	-10.9761
現地	-10.9761
生物学的	-10.9761
ツァ	-10.9762
シェア	-10.9762
和音	-10.9762
▁speed	-10.9764
▁Set	-10.9765
小規模な	-10.9765
と思われます	-10.9765
労働力	-10.9765
一日中	-10.9766
を改善するための	-10.9766
種類があります	-10.9766
サメ	-10.9768
準備を	-10.9768
想像力	-10.9769
描かれ	-10.977
ビス	-10.9771
責任ある	-10.9771
ことに決めました	-10.9772
分散型	-10.9773
環境保護	-10.9773
dir	-10.9774
必要性	-10.9774
されているため	-10.9775
FA	-10.9775
部長	-10.9776
国際的な	-10.9781
キロ	-10.9783
行われています	-10.9785
ことが知られています	-10.9787
の主題	-10.9787
を繰り返します	-10.9788
189	-10.9794
My	-10.9794
を建て	-10.9796
る方法	-10.9796
に適している	-10.9799
雇用主	-10.9799
に参加すること	-10.9799
試合に出場し	-10.9804
▁le	-10.9805
タンク	-10.9806
を探検し	-10.9806
は決して	-10.9807
の削減	-10.9809
が起こり	-10.9812
モール	-10.9812
に就任しました	-10.9812
発生する可能性があります	-10.9813
許容	-10.9814
を使用することをお勧めします	-10.9816
▁You	-10.9819
の鍵	-10.982
ピン	-10.9822
ランチ	-10.9822
顧客と	-10.9823
End	-10.9824
▁スペイン	-10.9825
放送されていました	-10.9825
が増加する	-10.9829
ことに留意	-10.9833
72	-10.9834
もはや	-10.9834
表示する	-10.9837
が行われた	-10.9837
▁sus	-10.9838
インフルエンサー	-10.9839
▁we	-10.9843
色が	-10.9844
を監視する	-10.9847
行うことができます	-10.9848
の計画	-10.9848
オープンアシスタントは	-10.9856
家族は	-10.9858
▁他に	-10.986
などのタスク	-10.9863
ものと	-10.9863
を作成できますか	-10.987
▁友達	-10.9874
の立場	-10.9875
たりすること	-10.9877
を定義します	-10.9878
この地域	-10.988
絶対	-10.9883
生物多様性	-10.9884
使用されます	-10.9884
伝える	-10.9884
長時間	-10.9885
陸軍	-10.9886
億人	-10.9888
渡す	-10.9888
願い	-10.9899
することができますか	-10.9899
それほど	-10.9901
トス	-10.9904
ける	-10.9906
ドラ	-10.9907
までに	-10.9908
▁Ho	-10.9908
止ま	-10.9909
大量	-10.991
の一部として	-10.9912
▁stack	-10.9915
▁1,	-10.9916
専用	-10.9917
長期	-10.992
▁チャットボット	-10.9922
スイス	-10.9922
に取り組んでい	-10.9923
を楽しみ	-10.9927
ak	-10.9933
が適切に	-10.9935
が発生する	-10.994
聞いて	-10.9943
活動しています	-10.9946
トロン	-10.9956
ese	-10.9957
くらい	-10.9958
専用の	-10.996
数多くの	-10.9962
ジン	-10.9963
FW	-10.9966
以外に	-10.9967
に近づき	-10.9967
が使用されます	-10.9968
をとり	-10.997
▁so	-10.9974
ライス	-10.9977
子供たちは	-10.9977
によるもの	-10.9981
ということ	-10.9988
からも	-10.9989
をありがとう	-10.9992
97	-10.9994
共通	-10.9998
ソー	-11
づけ	-11.0001
から学び	-11.0001
車を	-11.0001
ことができない	-11.0003
続	-11.0005
を割り当て	-11.0006
▁私たちが	-11.0007
ユーザーと	-11.0007
大会で	-11.0008
ls	-11.0009
一定	-11.0014
をクリックする	-11.002
モル	-11.002
平方	-11.0022
取り入れ	-11.0023
行われる	-11.0025
しよう	-11.0028
快適	-11.003
方法はありますか	-11.0031
長方形の	-11.0031
年以上	-11.0033
の比較	-11.0033
分割	-11.0038
子どもたち	-11.0038
▁False	-11.004
を取り入れ	-11.0046
眠	-11.0046
称賛	-11.0046
グロ	-11.0047
公開されました	-11.005
^3	-11.0053
業界の	-11.0055
を上げる	-11.0057
見た	-11.0062
ヘル	-11.0064
オール	-11.0065
情報を提供し	-11.0067
の値を	-11.0069
孤独	-11.007
巻き	-11.007
に移動する	-11.007
▁Infinitesimals	-11.0074
▁So	-11.0074
水平	-11.0076
son	-11.0079
ble	-11.0081
の性能	-11.0085
私には	-11.0086
提	-11.0087
飛	-11.009
▁2,	-11.0091
購入する	-11.0093
リザ	-11.0095
他の人に	-11.0096
確実に	-11.0097
を手伝う	-11.0098
アニ	-11.01
コーラス	-11.01
関連しています	-11.0102
に役立ち	-11.0106
を教えてもらえますか	-11.0108
になって	-11.0108
が私	-11.0108
寒	-11.0109
GO	-11.0111
合格	-11.0112
チームを	-11.0114
の始まり	-11.0115
で作られ	-11.0115
aw	-11.0116
ml	-11.0117
統	-11.0117
唐辛子	-11.0117
精	-11.0118
▁このゲームは	-11.0118
映	-11.0119
着用	-11.0119
について詳しく教えてください	-11.012
突	-11.0121
自治	-11.0121
災害	-11.0122
自律	-11.0122
を使用してください	-11.0123
還	-11.0123
砂漠	-11.0123
ヒーロー	-11.0124
票	-11.0124
虚	-11.0124
ショップ	-11.0124
稲	-11.0124
ターミナル	-11.0124
静けさ	-11.0124
甲	-11.0124
抽象的な	-11.0124
トランザクション	-11.0124
“	-11.0124
フィリピン	-11.0124
ポッドキャスト	-11.0124
礼	-11.0124
コンソール	-11.0124
肖像画	-11.0124
ポートフォリオ	-11.0124
は必要ありません	-11.0124
Type	-11.0124
publish	-11.0124
IoT	-11.0124
仮面ライダー	-11.0124
衣装	-11.0124
遠征	-11.0124
POSIX	-11.0124
を歴任し	-11.0124
変わった	-11.0124
コンパイラ	-11.0124
予期せぬ	-11.0124
box	-11.0124
1985	-11.0124
微積分	-11.0124
クイック	-11.0124
ストリップ	-11.0124
ポッター	-11.0124
が住んでいました	-11.0124
デスクトップ	-11.0124
交響楽団	-11.0124
機構	-11.0124
観光スポット	-11.0124
service	-11.0125
芸能	-11.0125
説得力のある	-11.0125
ヒラリー	-11.0125
キャッシュ	-11.0125
使える	-11.0125
uarter	-11.0125
ギュ	-11.0125
親友	-11.0125
ウィーン	-11.0125
輸出	-11.0126
付近	-11.0126
ライバル	-11.0126
that	-11.0126
待ち	-11.0126
さんです	-11.0126
理解しやすい	-11.0126
メンター	-11.0126
フラット	-11.0127
選んだ	-11.0127
記号	-11.0127
狭い	-11.0127
インフラ	-11.0127
メッシュ	-11.0127
この記事	-11.0127
▁4)	-11.0127
ピーター	-11.0127
保全	-11.0128
コスト削減	-11.0128
全身	-11.0128
様式	-11.0128
熱帯	-11.0128
直感的な	-11.0128
厚い	-11.0129
平成	-11.0129
フェンス	-11.0129
オーム	-11.013
積極的な	-11.013
せよ	-11.013
小売	-11.013
成立	-11.013
Create	-11.0131
わからない	-11.0131
純粋な	-11.0132
を守るために	-11.0133
ロバート	-11.0135
主語	-11.0136
の出現	-11.0137
考える	-11.0137
赤道	-11.0139
時間帯	-11.0139
達成され	-11.014
Star	-11.014
モナ	-11.0143
マグ	-11.0144
▁pd	-11.0145
開発者が	-11.0145
勝者	-11.0145
医者	-11.0145
動く	-11.0146
争い	-11.0147
日本語	-11.0147
ことを知っていました	-11.0148
ッグ	-11.015
1950	-11.015
84	-11.0151
の条件	-11.0152
ヨーロッパで	-11.0152
倫理的な	-11.0153
1%	-11.0153
ことがわかりました	-11.0158
ドール	-11.0159
を必要とします	-11.0161
by	-11.0163
はいくつ	-11.0164
ない限り	-11.0166
▁signal	-11.0167
世界中	-11.0168
県にあります	-11.0169
365	-11.0169
を受け入れ	-11.0171
効果的な方法	-11.0172
することができました	-11.0172
を提供するため	-11.0172
ろうと	-11.0173
市長	-11.0174
ことができませんでした	-11.0175
学びます	-11.0176
知られている	-11.0176
つの方法	-11.0176
とそれ	-11.0176
プリ	-11.0177
に保存され	-11.0185
完成した	-11.0187
魅力的	-11.0192
はどの地域	-11.0193
が生じます	-11.0197
▁gitlab	-11.02
の実行	-11.0201
整理し	-11.0202
の末	-11.0204
以下の手順	-11.0206
に仕え	-11.0207
バリ	-11.0208
のを手伝って	-11.0212
50°	-11.022
mar	-11.0221
顧客は	-11.0221
を書き	-11.0223
に適用され	-11.0223
ゾーンシステム	-11.0223
愛する	-11.0225
収録されています	-11.0226
1500	-11.0227
の景色	-11.0228
イズ	-11.0229
を開いて	-11.0231
死者	-11.0235
が表示されます	-11.0239
初心者	-11.024
デモ	-11.024
はあまり	-11.0249
異なる場合があります	-11.0254
るようにします	-11.0258
ペルー	-11.0258
バッ	-11.0259
と同時に	-11.0261
作成されます	-11.0262
を比較する	-11.0262
付きの	-11.0262
を導く	-11.0264
ストレスを軽減	-11.0265
技術を使用して	-11.0266
ためのいくつかの	-11.0269
ビジネスは	-11.0269
裁判	-11.0271
する場合は	-11.0274
出して	-11.0278
ダース	-11.0279
を削除する	-11.028
ものではありません	-11.0281
▁package	-11.0284
AB	-11.0287
ple	-11.0291
いつ設立され	-11.0291
の両方で	-11.0294
つずつ	-11.0295
生きている	-11.0295
に取り組み	-11.0301
を追い	-11.0306
form	-11.0306
水中	-11.0306
学会	-11.0308
を保護するために	-11.0311
掛け	-11.0311
の例として	-11.0313
浸	-11.0317
鉄の塔	-11.0317
を回避	-11.0317
カラ	-11.0319
▁フアン	-11.0323
排除	-11.0324
や文化	-11.0324
▁この例では	-11.0324
追求	-11.0325
よね	-11.0328
自分たち	-11.0328
▁Ge	-11.0329
上がり	-11.0331
弱	-11.0332
を考える	-11.0334
▁arr	-11.0335
要する	-11.0336
を観察する	-11.0336
を追加して	-11.0337
に置き換える	-11.0337
ルナ	-11.0338
到着	-11.0344
今後	-11.0346
不明	-11.0349
子さん	-11.035
つの国	-11.0356
何をしてい	-11.0359
する機会	-11.036
ポル	-11.0368
化されました	-11.0369
of	-11.0377
ans	-11.0378
250	-11.038
の最適化	-11.0383
作った	-11.0391
ことを知っています	-11.0392
の普及	-11.0392
作成された	-11.0392
イベントや	-11.0394
▁アメリカ合衆国	-11.0395
Un	-11.0395
DJ	-11.0396
汚染物質	-11.0397
方面	-11.04
起こ	-11.0406
リリースされました	-11.041
その後も	-11.0412
の学位	-11.0413
という事実	-11.0413
の発見	-11.0415
を可能にし	-11.0418
連絡	-11.042
恐竜	-11.0421
▁Point	-11.0422
ゴン	-11.043
ことはありませんでした	-11.0431
▁El	-11.0434
ミン	-11.0435
ビア	-11.0436
を観察し	-11.0438
lic	-11.0442
▁この道路は	-11.0442
疑	-11.0458
エディ	-11.046
bin	-11.046
を行っていました	-11.0461
を組み合わせ	-11.0467
理想	-11.0469
とされる	-11.0471
壁に	-11.0471
のサポート	-11.0472
るよう	-11.0474
が与えられた	-11.0475
コンピュータが	-11.0477
ram	-11.048
のようなもの	-11.048
0%	-11.0482
ンダー	-11.0482
質問に答える	-11.0482
不正	-11.0482
侵入	-11.0483
制限は	-11.0484
をクリックして	-11.0485
フアンは	-11.0485
の大部分	-11.0486
乾燥した	-11.0486
冷蔵庫	-11.0487
▁レモン	-11.0489
を提供できる	-11.049
▁オリーブオイル	-11.049
示す	-11.0491
かどうかを判断する	-11.0491
に適応し	-11.0492
ave	-11.0492
として知られ	-11.0492
に直面する	-11.0494
タスクを実行する	-11.0497
speed	-11.0497
継	-11.0498
し続ける	-11.0502
イブ	-11.0503
問	-11.0505
初め	-11.0505
茂	-11.0506
融合	-11.0506
複製	-11.0506
ポルトガル	-11.0507
偏	-11.0507
欲望	-11.0507
玉	-11.0508
フットボール	-11.0508
豪	-11.0508
喫煙	-11.0508
麦	-11.0508
▁disco	-11.0508
Webpack	-11.0508
ギャツビー	-11.0508
考慮事項	-11.0508
volume	-11.0508
ポータブル	-11.0508
隅	-11.0508
ギャラリー	-11.0508
ダメージ	-11.0508
scene	-11.0508
price	-11.0509
ベクター	-11.0509
モニタリング	-11.0509
駐	-11.0509
の喪失	-11.0509
template	-11.0509
∠	-11.0509
▁clase	-11.0509
▁Every	-11.0509
▁Verse	-11.0509
この映画は	-11.0509
圧倒され	-11.0509
涙	-11.0509
ブラウン	-11.0509
一時的に	-11.0509
パプリカ	-11.0509
三角測量	-11.0509
嘉	-11.0509
5〜7	-11.0509
桜	-11.0509
温かい	-11.0509
Pygame	-11.0509
でプレーしていました	-11.0509
ばかり	-11.0509
ファミリー	-11.0509
ジャーナリスト	-11.0509
トーマス	-11.0509
Django	-11.0509
pepper	-11.0509
ダイナミクス	-11.0509
ポリシー	-11.0509
フィクション	-11.0509
Service	-11.0509
傑作	-11.0509
トイレ	-11.0509
潜在的に	-11.0509
UNIX	-11.0509
▁cinturón	-11.0509
スペクトル	-11.0509
チケット	-11.0509
近似	-11.0509
ボーカル	-11.0509
盗難	-11.0509
細菌	-11.0509
ニューロン	-11.0509
永久	-11.0509
を採用し	-11.0509
ariable	-11.0509
間違いなく	-11.051
sí	-11.051
男の子	-11.051
劇団	-11.051
振動	-11.051
トッピング	-11.051
低温	-11.051
にわたる	-11.051
なさい	-11.051
水泳	-11.051
借手	-11.0511
ユーザーインターフェース	-11.0511
知らない	-11.0511
キャスト	-11.0512
電子機器	-11.0512
本物の	-11.0512
宝物	-11.0512
クミン	-11.0513
タイムライン	-11.0513
ジェット	-11.0513
分配	-11.0513
オファー	-11.0513
tenía	-11.0513
適量	-11.0513
洗練された	-11.0513
LECT	-11.0514
もう一つの	-11.0514
植物油	-11.0514
北極	-11.0514
このプロセスは	-11.0514
ハンド	-11.0515
吹き	-11.0515
燃え	-11.0516
ダブル	-11.0516
件名	-11.0516
アンダー	-11.0516
流通	-11.0517
で知られる	-11.0517
場合には	-11.0517
可能性が高くなります	-11.0521
を助けるために	-11.0523
航空会社	-11.0523
わずかな	-11.0524
不必要な	-11.0524
FROM	-11.0524
セミ	-11.0525
にありますか	-11.0525
売上	-11.0526
静かに	-11.0527
できるだけ	-11.0527
解体	-11.0527
バグ	-11.0528
year	-11.0528
個人は	-11.053
ベア	-11.0532
を実行するための	-11.0533
の本社は	-11.0534
Arch	-11.0536
コイン	-11.0536
ほか	-11.0541
中立	-11.0542
▁converti	-11.0543
="#	-11.0544
に関する研究	-11.0545
書き直してください	-11.0546
ファイル名	-11.0547
をテストし	-11.0548
楽し	-11.055
分かれ	-11.055
曲線	-11.0559
芸術家	-11.0559
周囲の	-11.0563
マーケティング戦略	-11.0563
ando	-11.0565
速度で	-11.0565
▁km	-11.0566
宇宙で	-11.0567
ud	-11.0569
UX	-11.0569
時間管理	-11.0569
学歴	-11.0569
を運ぶ	-11.057
創造的	-11.057
回数	-11.0571
だからです	-11.0577
数学的な	-11.0579
論理的な	-11.058
この分野	-11.0583
▁Machine	-11.0583
52	-11.0585
機械学習の	-11.0587
の美しさ	-11.0589
代目	-11.059
に伴い	-11.0591
の制作	-11.0591
を訪れる	-11.0593
削減する	-11.0594
清水	-11.0596
94	-11.0598
について説明し	-11.0598
sell	-11.0599
経験から	-11.06
を支持する	-11.0601
できる限り	-11.0603
アルゴリズムを使用して	-11.0605
他の惑星	-11.0608
大規模	-11.0608
本体	-11.0608
ているので	-11.0609
表面に	-11.061
強力なツール	-11.0613
するために使用される	-11.0613
愛する人	-11.0613
を使用したり	-11.0614
チョ	-11.0619
賞を受賞し	-11.0619
されるまで	-11.062
利用者	-11.0623
と呼ばれるもの	-11.0625
に対処し	-11.063
会社です	-11.0631
を行った	-11.0633
に与える影響	-11.0634
px	-11.0636
学んだ	-11.0636
この本は	-11.0637
を改善することができます	-11.0637
たので	-11.0637
づ	-11.0637
いたり	-11.0644
を手に入れる	-11.0644
を愛し	-11.0646
てしまった	-11.0646
▁element	-11.065
一般化	-11.0651
から離れ	-11.0653
を最適化し	-11.0656
を務めていました	-11.0659
ることなく	-11.066
の表現	-11.0661
ラリー	-11.0663
を演奏する	-11.067
が使用され	-11.0671
を得るために	-11.0672
の概念は	-11.0682
▁response	-11.0683
触	-11.0685
▁@	-11.0687
ee	-11.0687
派生	-11.0691
軍人	-11.0694
厚く	-11.07
る場所	-11.0703
商品を	-11.0714
持続	-11.0715
Pl	-11.0718
ナポレオンは	-11.0719
を決め	-11.0722
の助けを借りて	-11.0725
を強調する	-11.0726
場合もあります	-11.0728
ide	-11.073
つもり	-11.073
0.5	-11.0731
一人で	-11.0741
計画を立て	-11.0745
ことを確認し	-11.075
学んでい	-11.0751
建てられ	-11.0753
▁バナナ	-11.0756
の著者	-11.0758
作成され	-11.0764
ado	-11.0766
するとき	-11.0768
人気があり	-11.0769
ack	-11.077
ゲームエンジン	-11.0772
過剰な	-11.0774
▁猫は	-11.0774
LO	-11.0775
⠀⠀⠀⠀⠀	-11.0777
やる気	-11.0779
を出力する	-11.0781
を構成し	-11.0783
起きた	-11.0787
▁list	-11.079
qui	-11.0792
ンズ	-11.0792
できませんでした	-11.0793
tor	-11.0798
here	-11.0798
の要約	-11.0803
07	-11.0803
地位	-11.0804
▁macd	-11.0804
ないことを	-11.0806
バーグ	-11.0807
の死後	-11.0809
教える	-11.081
を適用する	-11.0817
時期に	-11.0817
等しい	-11.0818
最良の方法は	-11.0819
去り	-11.0822
関係者	-11.0823
▁TV	-11.0823
に行って	-11.0832
で有名な	-11.0833
ボードゲーム	-11.0834
司法	-11.0834
ka	-11.0835
を取ること	-11.0835
念	-11.0838
に従うこと	-11.0842
ミゲルは	-11.0842
することを意味します	-11.0843
スキャン	-11.0843
沖縄	-11.0844
豊かで	-11.0848
私たちを	-11.085
なることがあります	-11.0851
数量	-11.0855
子供たち	-11.0858
クション	-11.0859
成功し	-11.0862
実施され	-11.0864
未満	-11.0865
▁all	-11.0866
つであり	-11.0868
イエスは	-11.0874
として働き	-11.0874
炒め	-11.0874
発生し	-11.0876
彼はまた	-11.0881
依頼	-11.0883
説明します	-11.0883
放出	-11.0886
のリストを	-11.0886
を使うこと	-11.0887
しっかりと	-11.0888
の移動	-11.0891
を押し	-11.0893
的なもの	-11.0893
国々	-11.0894
する可能性	-11.0897
帝	-11.0897
弱点	-11.0897
VE	-11.0898
活躍しました	-11.0898
簡潔な	-11.09
ヤン	-11.0903
奇	-11.0904
典	-11.0905
立て	-11.0905
効率と	-11.0905
▁vec	-11.0906
に配置され	-11.0906
ción	-11.0906
採	-11.0907
バランスの取れた	-11.0907
重要性	-11.0908
振る舞い	-11.0908
Autohotkey	-11.0908
アイスクリーム	-11.0908
漂	-11.0908
Ruby	-11.0908
ちょうど	-11.0908
先延ばし	-11.0908
駐車場	-11.0908
美味しく	-11.0908
ストリーミング	-11.0908
フォト	-11.0908
鶴	-11.0908
プロトタイプ	-11.0908
主催	-11.0908
ポテト	-11.0909
フィットネス	-11.0909
奇跡	-11.0909
▁escoba	-11.0909
トーナメント	-11.0909
shift	-11.0909
淡	-11.0909
1987	-11.0909
そうでなければ	-11.0909
規律	-11.0909
コントラスト	-11.0909
ソーラーパネル	-11.0909
GitLab	-11.0909
vering	-11.0909
抗力係数	-11.0909
迅速で	-11.0909
gcd	-11.0909
使用して	-11.0909
PHP	-11.0909
を除く	-11.0909
叙	-11.0909
ネズミ	-11.0909
何世紀にもわたって	-11.0909
意欲	-11.0909
燃焼	-11.0909
ランニング	-11.0909
激しく	-11.0909
高品質な	-11.0909
午前	-11.0909
ベイダー	-11.0909
uperior	-11.0909
振りかけ	-11.0909
柄	-11.0909
が考えられます	-11.0909
ノートパソコン	-11.0909
寿命	-11.0909
炭水化物	-11.0909
▁shape	-11.0909
定期	-11.0909
寸法	-11.0909
home	-11.0909
害虫	-11.0909
スローガン	-11.0909
最初のステップは	-11.0909
ブラックホール	-11.0909
低減	-11.0909
ホルモン	-11.0909
名誉	-11.0909
ジェーン	-11.091
対照的に	-11.091
お問い合わせ	-11.091
と思った	-11.091
アイコン	-11.0911
仮想現実	-11.0911
弟子	-11.0911
トースト	-11.0911
MySQL	-11.0911
遅い	-11.0912
メタル	-11.0912
学園	-11.0912
error	-11.0912
▁logr	-11.0912
Photoshop	-11.0912
不思議な	-11.0913
結び目	-11.0913
▁Calculate	-11.0913
フィット	-11.0913
ナルト	-11.0913
ren	-11.0913
と関連	-11.0913
パッケージマネージャー	-11.0913
でプレーしました	-11.0914
ペースト	-11.0914
トーク	-11.0915
の人口は約	-11.0915
NBA	-11.0915
時間がかかる	-11.0915
バブル	-11.0915
このようにして	-11.0916
numpy	-11.0916
地図	-11.0916
時間をかけて	-11.0917
の中には	-11.0917
問題解決能力	-11.0917
900	-11.0918
上院	-11.0918
積み	-11.0918
るという	-11.0919
働い	-11.0919
水循環	-11.0919
ドメイン	-11.0919
日間の	-11.0919
夜中に	-11.092
領主	-11.092
体系	-11.0921
他者	-11.0921
としても活動しています	-11.0921
プレート	-11.0922
絵本	-11.0923
心理学	-11.0923
世間	-11.0924
が可能になり	-11.0924
左側	-11.0925
ティム	-11.0926
年間約	-11.0926
提示され	-11.0926
高価な	-11.0926
Name	-11.0927
▁Red	-11.0927
使い	-11.0928
▁13.	-11.0928
オーストラリアの	-11.0928
1975	-11.093
努力を	-11.0931
側に	-11.0932
年に設立されました	-11.0934
▁人工知能の	-11.0935
最も高い	-11.0936
科目	-11.0938
基礎となる	-11.0938
カップル	-11.094
種子	-11.0941
亡くなった	-11.0941
色で	-11.0949
関数です	-11.0951
個体	-11.0951
も含まれています	-11.0951
▁or	-11.0958
DF	-11.0958
てくれます	-11.096
両国	-11.096
ile	-11.0961
を理解するために	-11.0962
63	-11.0965
地理	-11.0965
人気があります	-11.0967
ON	-11.0969
祝福	-11.0973
最も古い	-11.0974
の後に	-11.0975
▁GPS	-11.0978
翌日	-11.0979
と結婚し	-11.098
自信を持って	-11.098
放送されています	-11.0981
司教	-11.0981
由来	-11.0982
を生み出します	-11.0984
小型	-11.0988
のまま	-11.0992
最新情報	-11.0993
ダーク	-11.0997
を宣伝する	-11.0997
改善された	-11.0998
東京大学	-11.1002
pl	-11.1004
たりすることができます	-11.1009
▁by	-11.1009
の略称	-11.1011
:</	-11.1012
室内	-11.1014
ジェンダー	-11.1015
▁クリア	-11.1021
最近では	-11.1027
を保持する	-11.1027
者であり	-11.1033
ことができるため	-11.1034
使用されていました	-11.1034
イス	-11.1035
贈	-11.1036
▁ジャン	-11.1036
▁left	-11.1038
ビデオゲームを作成する	-11.1042
▁Gran	-11.1045
があるので	-11.1046
のシーケンス	-11.1047
char	-11.1048
以外	-11.1049
利益をもたらす	-11.1052
▁it	-11.1056
を持っているため	-11.1062
券	-11.1064
英語を学ぶ	-11.1066
として使われ	-11.1066
人々にとって	-11.1071
渡り	-11.1071
を必要とし	-11.1072
てほしい	-11.1072
犬は	-11.1073
科学者は	-11.1075
歳で	-11.1077
off	-11.1078
の周りに	-11.1078
プレ	-11.1079
city	-11.1079
アレ	-11.1085
世界では	-11.1088
たのでしょうか	-11.1088
▁"""	-11.1091
を守り	-11.1093
に存在し	-11.1097
に変え	-11.1099
がまだ	-11.1099
更新された	-11.11
理解する	-11.1102
ソースコード	-11.1103
メールアドレス	-11.1106
訓練され	-11.1118
避け	-11.1122
重要である	-11.1125
忘れ	-11.1126
▁function	-11.1126
文化的な	-11.1129
render	-11.1129
トピックに関する	-11.113
古く	-11.1134
が与えられ	-11.1134
されたら	-11.1137
と想像してください	-11.1138
スイスの	-11.1139
された場合	-11.1142
ることができますか	-11.1144
従業員が	-11.1145
どこの国	-11.1146
に戻し	-11.1147
人数	-11.1147
どこにある	-11.1149
鍵です	-11.1151
をシミュレート	-11.1151
いった	-11.1153
par	-11.1155
著者の	-11.1163
ドルです	-11.1166
あなたの仕事	-11.1168
高等	-11.1169
ピッチ	-11.1169
プラス	-11.1171
で有名です	-11.1171
期に	-11.1173
ようとしています	-11.1174
⠀⠀⠀	-11.1178
als	-11.1179
クライ	-11.1183
の方向	-11.1183
ストーン	-11.1189
磁場	-11.1193
DR	-11.1193
▁password	-11.1196
候補者が	-11.1208
平和と	-11.1208
AL	-11.1208
が含まれる	-11.1208
▁牛	-11.1211
が上昇し	-11.1212
実行できる	-11.1212
協	-11.1214
コーヒーは	-11.1214
つのポイント	-11.1216
色と	-11.122
それ以上	-11.1223
▁このスクリプト	-11.1225
発行され	-11.1226
直感	-11.1228
▁マイケル	-11.1232
混ぜ合わせ	-11.1233
▁II	-11.1233
主観的	-11.1241
無料で	-11.1242
聴覚	-11.1244
暗号	-11.1251
容易	-11.1251
機械学習アルゴリズムは	-11.1253
の影響で	-11.1254
機能があります	-11.1254
を設立し	-11.1256
EV	-11.1261
に連絡し	-11.1261
を維持すること	-11.1266
補助	-11.1266
を提供することです	-11.1267
在庫	-11.127
187	-11.127
の一覧	-11.127
管理者	-11.1274
▁era	-11.1274
地球から	-11.1279
密接	-11.128
校長	-11.1284
中央の	-11.1286
ルマン	-11.1292
脈	-11.1297
くれませんか	-11.1297
ィ	-11.1299
ヶ	-11.1299
のようで	-11.1299
を実施すること	-11.1301
act	-11.1303
水道	-11.1306
を描いて	-11.1306
続きます	-11.1309
ことが不可欠	-11.131
濃	-11.1313
インタラクティブ	-11.1315
ネガティブ	-11.1315
退屈	-11.1315
ペル	-11.1317
飾	-11.1318
しさ	-11.1319
抗	-11.1319
mos	-11.132
麻	-11.132
演じる	-11.1321
技	-11.1321
チェーン	-11.1321
奪	-11.1321
執	-11.1322
気象	-11.1322
貴	-11.1322
共産主義	-11.1322
メロディ	-11.1322
血圧	-11.1323
照	-11.1323
了	-11.1324
炉	-11.1324
とは異なる	-11.1324
アカデミー	-11.1324
を促し	-11.1324
規範	-11.1324
触覚	-11.1324
社交	-11.1324
クレジット	-11.1325
嘘	-11.1325
竜	-11.1325
屈	-11.1325
交互に	-11.1325
狼	-11.1325
診	-11.1325
鎮	-11.1325
網	-11.1325
ベネズエラ	-11.1325
塾	-11.1325
秩序	-11.1325
フロント	-11.1325
潜水艦	-11.1325
room	-11.1325
クリエイティブ	-11.1325
シフト	-11.1325
巡	-11.1325
忠誠心	-11.1325
中華人民共和国	-11.1325
容疑者	-11.1325
雨が降る	-11.1325
▁Browser	-11.1325
丹	-11.1325
Davinci	-11.1325
srv	-11.1325
▁Brujería	-11.1325
▁Consejo	-11.1325
▁Decana	-11.1325
▁fatuo	-11.1325
▁lead	-11.1325
エンターテイメント	-11.1325
化石燃料の燃焼	-11.1325
鋼	-11.1325
▁dedos	-11.1325
柔軟な	-11.1325
タクシー	-11.1325
ブロッコリー	-11.1325
ナンバー	-11.1325
ネイティブ	-11.1325
間違った	-11.1325
スケーリング	-11.1325
▁オレンジ	-11.1325
有酸素運動	-11.1325
frac	-11.1325
友人や家族	-11.1325
酵素	-11.1325
孝	-11.1325
Quantum	-11.1325
新人	-11.1325
使いやすく	-11.1325
虹	-11.1325
いただきありがとうございます	-11.1325
fruit	-11.1325
ずっと	-11.1325
POP	-11.1325
に立ち向かう	-11.1325
畑	-11.1325
クライマックス	-11.1325
を救う	-11.1325
判別	-11.1326
絶滅	-11.1326
ペルシャ	-11.1326
に包まれ	-11.1326
演習	-11.1326
▁lw	-11.1326
を残す	-11.1326
類似性スコア	-11.1326
ボーナス	-11.1326
サークル	-11.1326
副作用	-11.1326
翌朝	-11.1326
神奈川県	-11.1326
農民	-11.1326
悪意のある	-11.1326
健康的なライフスタイル	-11.1326
css	-11.1326
リスニング	-11.1326
知能	-11.1326
欧州	-11.1326
追放	-11.1326
風邪	-11.1326
血糖値	-11.1326
も務めてい	-11.1327
分岐	-11.1327
トラブル	-11.1327
▁1]	-11.1327
役立つことを願っています	-11.1327
Composer	-11.1327
出典	-11.1328
電気自動車	-11.1328
執行	-11.1328
ポインター	-11.1328
山脈	-11.1328
養子	-11.1329
ヤード	-11.1329
データパイプライン	-11.1329
敗北	-11.1329
暑い	-11.1329
1978	-11.1329
体温	-11.1329
▁0.5	-11.1329
ネイル	-11.1329
Close	-11.1329
ユーモラスな	-11.133
ウェン	-11.133
1976	-11.133
近代	-11.133
河川	-11.133
中毒	-11.133
系列	-11.1331
作動力	-11.1331
をいくつか紹介します	-11.1332
重ね	-11.1333
上演	-11.1333
スカ	-11.1333
マイク	-11.1333
太陽エネルギー	-11.1334
路地	-11.1334
絞り	-11.1334
それ以来	-11.1335
地球上で	-11.1335
83	-11.1335
ハンドル	-11.1336
品種	-11.1336
加速度	-11.1336
ローター	-11.1337
持続可能で	-11.1338
注意が必要です	-11.1338
ゴミ	-11.1338
LED	-11.1338
自由主義	-11.1339
1986	-11.134
顧客体験	-11.134
スカイ	-11.1341
確立された	-11.1341
アイドル	-11.1341
の構文	-11.1342
を引き出す	-11.1345
紫色	-11.1347
に関連している	-11.1348
ツー	-11.1348
に続いて	-11.1349
形成される	-11.1351
ストリーム	-11.1351
sqrt	-11.1352
range	-11.1352
にどのような影響を与え	-11.1354
映画監督	-11.1354
全日本	-11.1354
right	-11.1356
確実	-11.1356
歩き	-11.1357
みな	-11.1358
まとめ	-11.1359
が向上する	-11.136
高速な	-11.1362
を元に	-11.1364
gist	-11.1364
年にかけて	-11.1364
犯人	-11.1366
▁この番組	-11.1367
を割り当てます	-11.1367
に入れます	-11.137
▁System	-11.137
▁14.	-11.1372
(15	-11.1373
つの文	-11.1373
を探求する	-11.1374
データに基づいて	-11.1377
新しい概念	-11.1378
誰でも	-11.1378
より効率的な	-11.1378
はすでに	-11.1379
を添え	-11.1379
熱い	-11.1382
に限定され	-11.1385
フィン	-11.1385
から始める	-11.1386
してきた	-11.1389
を入力し	-11.1391
を組み合わせて	-11.1391
いる場合	-11.1395
戦う	-11.1396
の皮	-11.1397
やるべき	-11.1397
ヴァー	-11.1403
てしまいます	-11.1405
そのまま	-11.1407
女性は	-11.1409
全体を	-11.141
の品質	-11.141
で使用されています	-11.1411
者たち	-11.1411
の平方根	-11.1411
シル	-11.1415
ng	-11.1416
放送時間	-11.1418
この問題	-11.142
war	-11.142
ダウンロードし	-11.1421
直感的で	-11.1423
base	-11.1423
タス	-11.1426
が可能になります	-11.1426
gre	-11.1434
木製の	-11.1434
廃止	-11.1438
目標を設定し	-11.1441
ブルック	-11.1442
ヴェル	-11.1442
誰かに	-11.1444
の戦いで	-11.1448
só	-11.1449
7%	-11.145
にアクセスして	-11.145
物質の	-11.1452
ために重要です	-11.1453
の際に	-11.1458
を直接	-11.1459
${	-11.146
助教授	-11.1461
に投資すること	-11.1464
問題を解決するために	-11.1464
日あたり	-11.1464
▁True	-11.1465
カス	-11.1468
を迅速に	-11.1471
を入手する	-11.1471
3%	-11.1472
成熟	-11.1474
普及	-11.1474
人であり	-11.1478
を築き	-11.148
を適用し	-11.148
悪化	-11.1482
エネルギー効率	-11.1482
Get	-11.1485
ている人	-11.1488
ページに	-11.149
作られました	-11.1491
されたり	-11.1494
フィル	-11.1498
設立された	-11.15
近い	-11.1501
行われます	-11.1504
に感謝します	-11.1505
そうする	-11.1506
よい	-11.1507
▁class	-11.151
範囲の	-11.1511
▁^	-11.1511
秋の	-11.1513
];	-11.1513
本部	-11.1514
ニュ	-11.1516
言うこと	-11.1522
データから	-11.1529
ギリシャの	-11.1531
▁temp	-11.1534
鉄の塔は	-11.1537
新しい世界	-11.1538
を買う	-11.1538
がたくさんあります	-11.1544
を経験する	-11.1545
Me	-11.1546
様子	-11.1547
を築く	-11.1554
あなたはそれ	-11.1556
と主張し	-11.1557
を追加すること	-11.1559
を明らかにし	-11.1561
量を減らす	-11.1562
day	-11.1564
ore	-11.1567
を達成し	-11.1567
コモ	-11.1568
gan	-11.1568
中世の	-11.157
存在しています	-11.157
確保	-11.1575
導き	-11.1576
りません	-11.1577
状態です	-11.1578
ray	-11.158
が使われています	-11.1581
の一部である	-11.1584
0000	-11.1585
使用されました	-11.1587
を実行できます	-11.1588
電子書籍	-11.1588
審	-11.1594
評価します	-11.1594
というフレーズ	-11.1597
光景	-11.1597
光年	-11.1604
▁5)	-11.1614
として機能し	-11.1617
廃止されました	-11.1617
微	-11.1622
になるでしょう	-11.1624
であるかどうか	-11.1625
地面に	-11.1625
この方法は	-11.1628
サービスを提供する	-11.1636
駅から	-11.1637
を主張し	-11.1637
学区	-11.1644
使用した	-11.1645
アジェンダ	-11.1645
ていませんでした	-11.1648
人もいます	-11.1648
効果があります	-11.1648
des	-11.1655
トリー	-11.166
間の関係	-11.166
生じる	-11.1665
を強化する	-11.1666
▁Lambda	-11.1666
ようになっています	-11.1669
聞く	-11.1673
洗	-11.1676
▁server	-11.1683
▁Po	-11.1685
誤って	-11.1685
クリー	-11.1688
つま	-11.1689
二人の	-11.1692
公正	-11.1692
させました	-11.1692
限	-11.1695
均等に	-11.1697
薄	-11.1698
重要な役割を果たし	-11.1702
が増加し	-11.1703
オリジナルの	-11.1703
ャ	-11.1711
するにつれて	-11.1713
コンピューターは	-11.1716
活性	-11.1716
ヘルスケア	-11.1718
ケル	-11.1718
ことを覚えておくことが重要で	-11.1719
プレイヤーの	-11.1721
候補	-11.1722
戻り	-11.1722
の欠点	-11.1724
も務めました	-11.1728
オブジェクトに	-11.1728
活動していました	-11.1734
てうれしいです	-11.1737
中華民国	-11.174
二次	-11.1742
使い方	-11.1744
亡	-11.1745
序	-11.1745
この状況	-11.1746
爆	-11.1747
リオン	-11.1747
''	-11.1748
▁Se	-11.1748
策	-11.1749
はじめ	-11.175
ぜ	-11.175
客観的	-11.175
bb	-11.1751
突然の	-11.1751
ナイフ	-11.1751
態	-11.1753
複合	-11.1753
因	-11.1753
PS	-11.1754
で遊ぶ	-11.1754
合う	-11.1755
臣	-11.1755
▁Photoshop	-11.1756
致	-11.1756
出身地	-11.1756
ポインタ	-11.1757
定理	-11.1757
完	-11.1757
扱われ	-11.1757
フィルタ	-11.1758
寛	-11.1759
演算	-11.1759
唐	-11.1759
揚	-11.1759
ロイヤルティ	-11.1759
荘	-11.1759
類似性	-11.1759
おすすめ	-11.1759
福岡	-11.1759
談	-11.1759
チャールズ	-11.176
駒	-11.176
妙	-11.176
キツネ	-11.176
操縦	-11.176
秀	-11.176
カリキュラム	-11.176
幽霊	-11.176
臨	-11.176
目覚め	-11.176
ロジック	-11.176
伴	-11.176
バランスのとれた	-11.176
1977	-11.176
弓	-11.176
陵	-11.176
批判的思考	-11.176
ウサギ	-11.176
カウンター	-11.176
フライパン	-11.176
リマインダー	-11.176
釣り	-11.176
磯砂山	-11.176
jpg	-11.176
真ん中	-11.176
マガジン	-11.176
は文章には書かれていません	-11.176
シグナル	-11.176
バルセロナ	-11.176
審査	-11.176
浸透	-11.176
style	-11.176
▁build	-11.176
腸	-11.176
What	-11.176
寛容	-11.176
最大限に	-11.176
恐ろしい	-11.176
Number	-11.176
フォワード	-11.176
マネジメント	-11.176
ダイナミック	-11.176
ロックンロール	-11.176
類似点	-11.176
Cloud	-11.176
鷲ヶ岳	-11.176
ノルウェー	-11.176
全粒穀物	-11.176
皮をむいて	-11.176
OOP	-11.176
世紀後半	-11.176
コリアンダー	-11.176
卓	-11.176
珍しい	-11.176
込んだ	-11.176
商品やサービス	-11.176
皇帝	-11.176
観光名所	-11.176
IMAP	-11.176
を覆う	-11.176
綱	-11.176
1974	-11.176
ウィキペディア	-11.176
ミルクパウダー	-11.176
端子速度	-11.176
へようこそ	-11.176
カーネルトリック	-11.176
クリスチャン	-11.176
講師	-11.176
ユーモア	-11.176
三角形の面積	-11.176
前提	-11.176
手頃な価格	-11.176
雅	-11.1761
1962	-11.1761
過度の	-11.1761
image	-11.1761
偶数	-11.1761
unning	-11.1761
エディター	-11.1761
体操	-11.1761
使命	-11.1761
ベクトルの合計	-11.1762
富士	-11.1762
ハワイ	-11.1762
分間焼き	-11.1762
context	-11.1762
かかります	-11.1762
沿い	-11.1762
職務	-11.1763
ミルク	-11.1763
技法	-11.1763
身体の	-11.1763
ネーム	-11.1763
書記	-11.1763
鉱山	-11.1764
解説	-11.1764
高性能	-11.1764
ドーム	-11.1765
会計	-11.1765
の妻	-11.1765
タイマー	-11.1765
同士	-11.1765
化学反応	-11.1765
有益な	-11.1766
▁hac	-11.1767
定期的な運動	-11.1767
ピント	-11.1768
▁this	-11.1768
▁!=	-11.1771
lst	-11.1771
を調べる	-11.1773
水素	-11.1773
制約	-11.1773
画像認識	-11.1774
ローマの	-11.1774
を反映する	-11.1775
Pod	-11.1775
顧客サポート	-11.1776
天文	-11.1777
ていきます	-11.1777
matrix	-11.1778
原点	-11.1778
▁なぜこの	-11.1778
ヒットし	-11.1779
数千	-11.1779
わず	-11.178
ニューヨーク市	-11.178
自身が	-11.178
スプレー	-11.1782
を備え	-11.1783
グラス	-11.1784
から来た	-11.1784
置き	-11.1787
と信じてい	-11.1789
ジム	-11.1789
振り	-11.1789
それに応じて	-11.179
を探してください	-11.179
失われた	-11.179
はかつて	-11.1791
について説明してください	-11.1791
の変動	-11.1793
を取り除く	-11.1793
不適切な	-11.1793
を求めて	-11.1796
を区別する	-11.1798
両側	-11.18
政治的な	-11.1801
不可能な	-11.1803
放送されていた	-11.1806
を通過する	-11.1807
を書きます	-11.1807
を食べること	-11.1808
を継続的に	-11.1809
atch	-11.1809
に分類されます	-11.1811
の本質	-11.1813
特徴量	-11.1815
カナダの	-11.1816
に変換します	-11.1818
不十分な	-11.1818
dx	-11.182
に生まれました	-11.182
を残します	-11.1822
編集者	-11.1826
置き換え	-11.1827
億ドル	-11.1828
と推定され	-11.1831
出かけ	-11.1832
0.1	-11.1834
を追求する	-11.1837
max	-11.184
かどうかを判断	-11.184
スパイ	-11.1841
を導入し	-11.1841
パズル	-11.1843
あなたの人生	-11.1845
▁0.0	-11.1845
のに対し	-11.1846
かどうかを	-11.1847
wh	-11.1857
を教える	-11.186
探し	-11.1861
カモ	-11.1861
南アメリカ	-11.1864
▁以下の文を	-11.1864
ones	-11.1864
後期	-11.1865
子供たちが	-11.1867
なぜですか	-11.1868
▁MACD	-11.1869
▁YouTube	-11.1869
敵の	-11.187
ネイ	-11.1872
を選択すること	-11.1875
述べ	-11.1875
関係する	-11.1878
(0,	-11.1879
パターンや	-11.1881
VI	-11.1881
青色	-11.1882
誕生	-11.1883
▁find	-11.1883
しやすい	-11.1885
陸上	-11.1887
リストから	-11.1887
ベイ	-11.1889
を指定する	-11.1889
シス	-11.1891
にならない	-11.1892
の学区	-11.1895
かつては	-11.1896
子会社	-11.1903
拡散	-11.1904
ヴィー	-11.1906
の半分	-11.1908
を無視し	-11.191
最小限の	-11.1913
を試して	-11.1914
田市	-11.1915
の追加	-11.1915
も行われ	-11.1916
年生の	-11.192
それを行う	-11.1921
切ります	-11.1921
たのです	-11.1922
を記述する	-11.1922
に関与し	-11.1924
▁キャベツ	-11.1925
ong	-11.1929
を聞く	-11.1931
ミュ	-11.1935
▁at	-11.1936
したのは	-11.1936
ear	-11.1939
粉末	-11.194
Oh	-11.1941
/2	-11.1946
政権	-11.1948
される可能性があります	-11.1952
を失います	-11.1961
tat	-11.1962
を体験する	-11.1965
これらの要素	-11.1967
を出力してください	-11.1969
▁15.	-11.1974
を果たしました	-11.1975
レベルに	-11.1977
▁New	-11.1979
キャプチャ	-11.198
ファイルシステム	-11.1981
と思って	-11.1981
を持っていない	-11.1981
を入力してください	-11.1981
業者	-11.1984
を決める	-11.1985
厚	-11.1985
に出場しました	-11.1993
ano	-11.1994
と分析	-11.1995
声で	-11.1997
ことを確認する必要があります	-11.1998
ソーシャルメディアは	-11.2
の専門	-11.2
出身	-11.2006
助けを求める	-11.2007
日本人	-11.2007
ソロ	-11.2007
効率的で	-11.2008
で調理	-11.2009
データを処理	-11.2009
実行できます	-11.2013
1;	-11.2015
▁Li	-11.2019
レーター	-11.2021
会社が	-11.2023
データ収集	-11.2027
同じ意味	-11.2027
たい場合	-11.2028
特徴があります	-11.2033
その中で	-11.2035
:{	-11.2039
大きなボウルに	-11.2041
私にとって	-11.2044
cho	-11.2044
日に生まれ	-11.2046
第一に	-11.2047
AW	-11.2052
で活動し	-11.2054
何歳	-11.2055
で亡くなりました	-11.2057
初期化	-11.2058
をテストする	-11.2058
知り	-11.206
を置き	-11.2061
▁Blue	-11.2061
の起源は	-11.2061
可能で	-11.2065
を止め	-11.2065
||	-11.2066
を指定し	-11.2072
いくつかの重要な	-11.2075
楽しんでいる	-11.2076
ことに留意することが重要で	-11.2078
プロセスであり	-11.2079
MI	-11.2084
気候変動の影響	-11.2084
発生	-11.2084
に変更されました	-11.2086
の設立	-11.2087
報告書	-11.2088
ill	-11.2092
水分	-11.2094
襲	-11.2098
の積	-11.2098
であることが	-11.2103
を試し	-11.2103
格納	-11.2104
どんな施設	-11.2107
よりも多くの	-11.2111
ストン	-11.2115
table	-11.2121
全員	-11.2124
という用語	-11.2125
に挑戦し	-11.2127
2%	-11.213
書いています	-11.2133
翌	-11.2134
ラント	-11.2135
されていること	-11.2136
を提供して	-11.2136
ディア	-11.2139
使用しない	-11.214
はどんな場所	-11.2141
外部の	-11.2143
マインドフルネス	-11.2144
に属し	-11.215
私は私の	-11.2154
ドリ	-11.2156
船が	-11.2158
▁この学校	-11.2159
ほ	-11.2159
の一つで	-11.2161
選手です	-11.2161
クラウドコンピューティングは	-11.2162
を尋ね	-11.2164
に分割し	-11.2165
聞き	-11.2169
マッ	-11.2169
光線	-11.2171
ユーザーから	-11.2172
休憩を取る	-11.2173
を述べ	-11.2173
ハウ	-11.2176
ワイ	-11.2177
正確	-11.2179
ことが大切	-11.2179
含	-11.2179
かき混ぜ	-11.2179
はいくつの	-11.2179
仕	-11.2181
途中	-11.2184
監督の	-11.2185
と考えています	-11.2188
col	-11.2188
部屋に	-11.2188
ang	-11.219
厳	-11.219
データサイエンティスト	-11.2191
与	-11.2191
で使用されている	-11.2193
92	-11.2196
できるようになりました	-11.2196
sign	-11.2198
遺伝	-11.2198
設立	-11.22
対比	-11.22
良い選択肢	-11.2201
イントロ	-11.2201
エレガント	-11.2203
名誉教授	-11.2203
仲	-11.2203
程	-11.2204
アラ	-11.2206
価	-11.2206
吹	-11.2207
握	-11.2209
の深さ	-11.2209
指摘	-11.2211
簡素化	-11.2212
戯	-11.2212
清掃	-11.2213
益	-11.2213
摩	-11.2213
察	-11.2214
鎖	-11.2214
ベトナム	-11.2214
替	-11.2214
激	-11.2214
シカゴ	-11.2214
封じ込め	-11.2214
バックグラウンド	-11.2214
マイクロコントローラー	-11.2214
位置数値システム	-11.2214
泊	-11.2214
に魅了され	-11.2214
訳	-11.2214
歪	-11.2214
サプライチェーン	-11.2214
顕	-11.2214
出会った	-11.2214
によって特徴付けられ	-11.2214
サンドイッチ	-11.2214
オックスフォード	-11.2214
を持たない	-11.2214
ナトリウム	-11.2214
アルバート	-11.2214
杭	-11.2214
ChatGPT	-11.2214
ピクニック	-11.2214
伝承	-11.2214
時間が経つにつれ	-11.2214
絶えず	-11.2214
Ableton	-11.2214
すみません	-11.2214
依然として	-11.2214
主流のメディア	-11.2214
を身につけ	-11.2214
役割を果たす	-11.2214
調味料	-11.2214
イデオロギー	-11.2214
生年月日	-11.2215
gradient	-11.2215
質問がある場合は	-11.2215
laravel	-11.2215
width	-11.2215
サンゴ礁	-11.2215
揃	-11.2215
錆	-11.2215
NTFS	-11.2215
length	-11.2215
project	-11.2215
カプセル化	-11.2215
奨	-11.2215
▁buy	-11.2215
十分な睡眠をとる	-11.2215
Samsung	-11.2215
Speed	-11.2215
の台頭	-11.2215
をよりよく理解する	-11.2215
チューニング	-11.2215
予防接種	-11.2215
味わい	-11.2215
FFT	-11.2215
ヒストグラム	-11.2215
▁hora	-11.2215
マニュアル	-11.2215
抗議	-11.2215
▁store	-11.2215
可視化	-11.2215
display	-11.2215
たとえ	-11.2215
フォロワー	-11.2215
粘	-11.2215
優雅さ	-11.2215
満足のいく	-11.2215
森林伐採	-11.2215
糸	-11.2215
蜂蜜	-11.2215
チャネル	-11.2215
徹底的な	-11.2215
ハーモニー	-11.2215
エルサレム	-11.2215
ジャケット	-11.2215
ポケット	-11.2215
粗	-11.2215
抑圧	-11.2215
正式に	-11.2215
肥料	-11.2215
っぽ	-11.2215
救済	-11.2215
縮小	-11.2215
グルテン	-11.2215
イチゴ	-11.2215
特技	-11.2215
埼玉県	-11.2215
論争	-11.2215
復活	-11.2215
2〜3	-11.2215
太陽光発電	-11.2215
ルーカス	-11.2215
今すぐ	-11.2215
景観	-11.2215
を提示します	-11.2215
後悔	-11.2215
中火で	-11.2215
相続	-11.2215
内閣	-11.2216
乗客	-11.2216
ubble	-11.2216
アウトドア	-11.2216
借金	-11.2216
ローダー	-11.2216
障壁	-11.2216
田舎	-11.2216
誠実さ	-11.2216
クラウドベースの	-11.2216
自然災害	-11.2216
バッハ	-11.2216
ながらも	-11.2217
履歴書	-11.2217
もしそう	-11.2217
団結	-11.2217
▁Doc	-11.2217
パッチ	-11.2217
届く	-11.2218
幅広く	-11.2218
ストリート	-11.2218
を選択できます	-11.2218
三郎	-11.2218
相対	-11.2218
体積	-11.2219
出版社	-11.2219
口調	-11.2219
ガイドライン	-11.2219
神戸	-11.2219
新しく	-11.2219
識別子	-11.2219
地球が平ら	-11.2219
スタンド	-11.222
ウォーズ	-11.222
ネオン	-11.222
をやめ	-11.222
-1)	-11.222
量子計算	-11.222
を引き起こすことがあります	-11.222
ある種の	-11.222
メッセージング	-11.2221
を示しました	-11.2221
大規模な言語モデル	-11.2221
ロビン	-11.2221
バッシュ	-11.2222
当社	-11.2222
ビング	-11.2222
本を読む	-11.2222
書店	-11.2223
カラム	-11.2223
複合関数	-11.2223
ピーク	-11.2223
ボウ	-11.2223
お願いします	-11.2223
押	-11.2224
▁マリー	-11.2224
クールな	-11.2224
本社	-11.2224
帰国	-11.2224
レオン	-11.2226
再利用可能な	-11.2226
最も重要なことは	-11.2228
を備えてい	-11.2229
シャル	-11.2229
ビルド	-11.2229
待つ	-11.223
ベルク	-11.2231
日生まれ	-11.2232
パスタ	-11.2232
若い女性	-11.2232
コードブロック	-11.2232
指名	-11.2233
SI	-11.2233
の形状	-11.2233
標準的な	-11.2235
人格	-11.2235
教えてもらえますか	-11.2236
ツェ	-11.2237
たかった	-11.2237
世界観	-11.2238
収録	-11.2239
労働市場	-11.2239
準備ができています	-11.2239
sock	-11.2239
温室効果ガスの排出	-11.2241
春の	-11.2241
寄せ	-11.2243
土曜日	-11.2243
back	-11.2244
fill	-11.2245
取り出し	-11.2245
誇り	-11.2246
を担当しています	-11.2247
nd	-11.2247
これがあなた	-11.225
第三者	-11.2251
ログ	-11.2252
平和な	-11.2252
やがて	-11.2259
をまとめる	-11.2259
に分割する	-11.226
という点で	-11.2261
トピックについて	-11.2264
方法を使用して	-11.2269
ME	-11.2269
を提供していただけますか	-11.2276
マインド	-11.2277
ues	-11.2277
中期	-11.2277
に移動します	-11.2277
ウェブサイトや	-11.2278
▁guix	-11.2284
event	-11.2285
サンタ	-11.2287
全体に	-11.2287
座って	-11.2287
尊	-11.2288
Do	-11.2289
で表され	-11.229
中村	-11.2291
彼は彼の	-11.2291
発売され	-11.2292
与え	-11.2293
ron	-11.2295
しょう	-11.2295
伝導	-11.2299
うこと	-11.23
考えて	-11.23
進み	-11.2301
▁tiene	-11.2302
特定の種類の	-11.2304
展開され	-11.2306
必要とする	-11.2307
を支配する	-11.2307
フリ	-11.2308
有名	-11.231
▁much	-11.231
と思いますか	-11.2311
いくつかのオプション	-11.2312
どんな活動をしてい	-11.2313
店に	-11.2315
歳です	-11.2316
さまざまな要因	-11.2316
root	-11.2317
Dis	-11.2317
耐え	-11.2317
でのみ	-11.2317
で作られた	-11.2318
わた	-11.2321
が続きます	-11.2321
天国	-11.2323
の時代	-11.2325
ティア	-11.2326
活動を行っています	-11.2329
を操作する	-11.2334
写真家	-11.2336
独立して	-11.2336
One	-11.2338
pp	-11.2338
取った	-11.2341
を最小限に抑え	-11.2342
の近くに	-11.2343
(){	-11.2343
を私に説明	-11.2344
健康な	-11.2349
は記載されていません	-11.235
の終わりに	-11.235
▁Un	-11.2351
有名です	-11.2352
はありませんでした	-11.2353
を拡大する	-11.2357
ガラ	-11.2358
になることができます	-11.2358
カウント	-11.236
理論的	-11.2366
コードです	-11.2366
その影響	-11.2368
進出	-11.237
各要素	-11.237
をカバーする	-11.2372
を制御し	-11.2373
の研究者	-11.2374
何回	-11.2377
ラボ	-11.238
リル	-11.2383
コンピューターに	-11.2383
を実践し	-11.2387
再度	-11.2388
ままです	-11.239
reat	-11.2393
医療システム	-11.2396
地元の人々	-11.24
知りたい	-11.2402
が発生します	-11.2404
そのうち	-11.2407
5,000	-11.2407
あなた自身	-11.2416
構成ファイル	-11.2417
情報に基づいて	-11.2418
することがあります	-11.2419
科の	-11.2419
健康問題	-11.2423
大人の	-11.2423
の公式ウェブサイト	-11.2424
会い	-11.2425
鳥たち	-11.2425
でなければなりません	-11.2427
選手が	-11.2427
ゲー	-11.2428
達成できる	-11.2429
-17	-11.2437
LA	-11.2439
EN	-11.2445
ure	-11.2445
'][	-11.2447
試合で	-11.2448
精神的健康	-11.2448
することは困難です	-11.2449
手動で	-11.2449
争	-11.2452
型糖尿病	-11.2454
の源	-11.2456
を重視し	-11.2458
詳しく説明	-11.2459
いただけますか	-11.2459
掲載され	-11.2459
が見え	-11.2465
ジョセフ	-11.2471
開催されました	-11.2473
強調	-11.2477
改善し	-11.2477
全体的な健康	-11.2478
標準の	-11.2479
グレ	-11.2482
らえ	-11.2482
習得	-11.2483
に行きます	-11.2485
▁<!-	-11.2486
フアン	-11.2487
いくつ	-11.2488
エラ	-11.2488
のリストを作成します	-11.2488
コードを書く	-11.2492
統計的	-11.2497
統合された	-11.2498
有糸分裂	-11.2499
発売された	-11.2499
落ちる	-11.2502
微分	-11.2503
いくつかのステップ	-11.2505
価値があります	-11.2515
全体で	-11.2517
獲得した	-11.2517
少なく	-11.2518
リアル	-11.2519
違いがあります	-11.2519
ook	-11.252
克服	-11.2522
リラックスして	-11.2522
テロ	-11.2531
出演者	-11.2534
このトピック	-11.2535
185	-11.2535
殺され	-11.2537
で発生する	-11.2539
を始めました	-11.2544
▁composer	-11.2544
tion	-11.2545
の重要な部分	-11.2547
の採用	-11.2549
ish	-11.2549
が多いです	-11.2551
パンク	-11.2552
を準備し	-11.2553
極端な	-11.256
を改善するのに役立ち	-11.2561
ローズ	-11.2566
ティン	-11.2567
esta	-11.2568
をもたらすことができます	-11.2571
で行われた	-11.2574
ルーム	-11.2574
カルト	-11.2575
を防止する	-11.2581
鍋に	-11.2587
を尊重し	-11.259
内部の	-11.2592
感情的	-11.2594
機関車	-11.26
を反映し	-11.2602
を追加し	-11.2603
の損失	-11.2604
を最大化する	-11.2604
子供に	-11.2606
たのは	-11.2606
▁-------	-11.2607
提供できる	-11.2608
ria	-11.261
キャンディ	-11.2614
po	-11.2615
閉鎖	-11.2618
最善の	-11.2619
▁Ya	-11.262
フレディ	-11.2622
聞いた	-11.2625
をインストールします	-11.2626
職場での	-11.2627
350	-11.263
生活の質	-11.2635
抑制	-11.2637
困難です	-11.2639
err	-11.2642
を書いています	-11.2642
ful	-11.2645
税率	-11.2647
外惑星	-11.2648
始まります	-11.2649
響	-11.2655
矛盾	-11.2655
師団	-11.2655
功	-11.2657
コミュニケーション能力	-11.2658
を調査する	-11.2659
哲学者の石	-11.2661
を支援するために	-11.2663
レッ	-11.2663
正しいです	-11.2664
語っています	-11.2665
を収集し	-11.2667
中東	-11.2667
に住んでいます	-11.2668
エクス	-11.2671
以下のように	-11.2672
ログイン	-11.2672
開催されています	-11.2674
を利用した	-11.2676
話をし	-11.2679
je	-11.2679
host	-11.268
伝達	-11.268
深刻	-11.2681
鉱	-11.2682
▁up	-11.2682
出席	-11.2682
奏	-11.2684
減	-11.2684
織	-11.2684
改良	-11.2684
が改善され	-11.2685
▁----------	-11.2685
模倣	-11.2686
労	-11.2686
棚	-11.2686
紅	-11.2687
で優勝し	-11.2687
リアルタイムの	-11.2687
マッピング	-11.2688
九	-11.2689
勤	-11.2689
ルーティン	-11.2689
貫	-11.269
刺	-11.269
教訓	-11.269
述	-11.269
腐	-11.269
請求	-11.269
と呼ぶ	-11.269
遠隔	-11.269
していただけませんか	-11.269
セラピスト	-11.269
奴隷	-11.269
汎用	-11.269
婚	-11.269
瀬	-11.269
いつからいつまで	-11.269
邪悪な	-11.269
償	-11.269
兵庫県	-11.269
グランプリ	-11.269
止められない	-11.269
表面パターンの設計	-11.2691
フクロウ	-11.2691
捕食者	-11.2691
java	-11.2691
の沿革	-11.2691
請	-11.2691
▁mus	-11.2691
歓迎	-11.2691
警戒	-11.2691
スイート	-11.2691
フィールドホッケー	-11.2691
config	-11.2691
侵害	-11.2691
遂	-11.2691
シルエット	-11.2691
Minecraft	-11.2691
優位性	-11.2691
新潟県	-11.2691
第一次世界大戦	-11.2691
▁昨日	-11.2691
中性子	-11.2691
昌	-11.2691
箇所	-11.2691
ガソリン	-11.2691
弥	-11.2691
Picture	-11.2691
è	-11.2691
▁begin	-11.2691
データウェアハウス	-11.2691
同義語	-11.2691
location	-11.2691
circle	-11.2691
static	-11.2691
ネクロマンサー	-11.2691
議席	-11.2691
オアシス	-11.2691
Hypixel	-11.2691
オペレーター	-11.2691
▁Tomato	-11.2691
アスリート	-11.2691
マラソン	-11.2691
左衛門	-11.2691
舗装	-11.2691
預	-11.2691
Tinder	-11.2691
枯	-11.2691
の一環として	-11.2691
テニス	-11.2691
デイビッド	-11.2691
プライマリ	-11.2691
澤	-11.2691
ボリューム	-11.2691
自家製の	-11.2691
link	-11.2691
ベストプラクティス	-11.2691
麺	-11.2691
pandas	-11.2691
陣	-11.2691
群馬県	-11.2691
マドリード	-11.2691
WhatsApp	-11.2691
急速な	-11.2691
多かれ少なかれ	-11.2691
天気予報	-11.2691
泳ぐ	-11.2691
天才	-11.2691
Force	-11.2691
渦	-11.2691
を書いてもらえますか	-11.2691
GMT	-11.2691
副詞	-11.2691
啓発	-11.2691
もともと	-11.2691
append	-11.2691
講義	-11.2692
取り扱い	-11.2692
失業率	-11.2692
に相当する	-11.2692
キノア	-11.2692
load	-11.2692
エレガントであること	-11.2692
__':	-11.2692
系統	-11.2692
乗算	-11.2692
about	-11.2692
エンディング	-11.2692
伝記	-11.2692
電磁波	-11.2692
宇宙探査	-11.2692
ストローク	-11.2692
の称号	-11.2692
駅舎	-11.2693
枚目の	-11.2693
配分効率	-11.2693
心血管	-11.2693
Arduino	-11.2693
初演	-11.2693
有利	-11.2693
エンドポイント	-11.2694
に影響を与える可能性があるため	-11.2694
先住民	-11.2694
資本	-11.2694
作動	-11.2695
非線形	-11.2695
断熱	-11.2695
不良	-11.2696
出版物	-11.2696
水を飲む	-11.2696
二乗	-11.2696
健康的な食事	-11.2696
ムーン	-11.2696
物質を	-11.2696
バーキン	-11.2696
京都大学	-11.2696
どんな仕事をしてい	-11.2697
異なり	-11.2697
食感	-11.2698
子孫	-11.2698
使用している	-11.2698
できるだけ多くの	-11.2699
代入	-11.2699
中継	-11.27
アパート	-11.27
達成したい	-11.27
の略歴	-11.27
への移行	-11.2701
王室	-11.2701
体制	-11.2701
孤独な	-11.2702
売り上げ	-11.2703
永続的な	-11.2704
に囲まれた	-11.2704
テキストファイル	-11.2705
彫刻家	-11.2708
を自動化し	-11.2708
決定木	-11.2708
落下	-11.2708
に従事し	-11.2708
ルーク	-11.2709
酸性	-11.2709
バイト	-11.2711
tan	-11.2711
ドリンク	-11.2712
AGI	-11.2712
4%	-11.2713
通りに	-11.2714
を放出し	-11.2714
▁この作品の	-11.2715
タスクを完了する	-11.2716
日に亡くなり	-11.2717
化石	-11.2718
歳でした	-11.2721
広く使用されている	-11.2721
今日でも	-11.2721
何度か	-11.2721
とも呼ばれます	-11.2722
アメリカ人	-11.2723
天文学者	-11.2725
over	-11.2725
オンス	-11.2726
驚いた	-11.2728
理性	-11.2728
実数	-11.2729
安い	-11.2729
Bai	-11.2729
ることはできません	-11.2735
▁オーストラリアで	-11.2738
が持つ	-11.2739
ピア	-11.274
の安全性	-11.2741
機密情報	-11.2741
レストランで	-11.2742
の近く	-11.2743
を実行するために必要な	-11.2744
立つ	-11.2744
oso	-11.2746
小さな町	-11.275
の経歴	-11.2751
問題について	-11.2751
を適切に	-11.2753
CA	-11.2753
能力はありません	-11.2758
必要がある場合	-11.276
生成された	-11.276
ina	-11.2762
の紹介	-11.2764
を取ります	-11.2764
バンドの	-11.2765
できれば	-11.2765
git	-11.2766
に分類され	-11.2767
オレンジ色	-11.2768
dl	-11.2769
を尊重する	-11.2773
つつ	-11.2773
供	-11.2773
server	-11.2778
より多く	-11.2778
用語です	-11.2779
カルロス	-11.2779
▁ver	-11.278
雇用者	-11.2781
スイッチには	-11.2783
ものがあります	-11.2783
code	-11.2784
健康状態	-11.2785
主観的な	-11.2786
代表者	-11.2787
得られる	-11.2787
ton	-11.2788
数日	-11.2788
蓮	-11.2791
象徴	-11.2794
に興味がある	-11.2795
ロウ	-11.2795
と戦う	-11.2796
白色	-11.2796
作成する	-11.2799
OK	-11.2799
買い	-11.2799
に使用できます	-11.2802
数回	-11.2804
を挿入	-11.2804
判決	-11.2805
晴れ	-11.2813
男女	-11.2816
が追加され	-11.2819
を発表し	-11.2821
のアイデアは	-11.2823
でそれら	-11.2823
この曲は	-11.2825
選ばれました	-11.2827
^2)	-11.2829
に置かれ	-11.2833
▁3-	-11.2833
の破壊	-11.2834
を計算し	-11.2838
トロイ	-11.2838
1.5	-11.2841
▁リック	-11.2842
を見ること	-11.2845
tro	-11.2846
かどうかを確認し	-11.2846
-2)	-11.2846
と考え	-11.2847
用に	-11.2848
ても	-11.2849
▁serv	-11.2851
を教えていただけますか	-11.2851
JS	-11.2852
言って	-11.2856
に依存し	-11.2861
ているのか	-11.2863
「<	-11.2863
({	-11.2868
あなたは私に	-11.287
math	-11.287
を受け取ります	-11.2873
増加し	-11.2873
を利用すること	-11.2877
▁Is	-11.2878
を減らすこと	-11.2878
を大切にし	-11.288
の割合	-11.2883
ハーフ	-11.2885
難しいです	-11.2885
▁dir	-11.2886
何でしたか	-11.2889
上昇する	-11.2891
見えます	-11.2893
すべての人々	-11.2894
に言及し	-11.2894
179	-11.2899
息子	-11.29
のリスクを減らす	-11.29
試してみる	-11.2904
作成します	-11.2907
どのような特徴を持ってい	-11.2907
になったのです	-11.291
について学び	-11.2911
に入った	-11.2913
ことが多い	-11.2916
においても	-11.2918
広がっ	-11.2922
が続く	-11.2923
に設定し	-11.2924
ために必要です	-11.2925
傾向がある	-11.2925
プリン	-11.293
と見なされます	-11.2931
ロジー	-11.2945
ことがある	-11.2946
を超え	-11.2947
してくれ	-11.295
熱く	-11.295
魅力的に	-11.2952
で開催されました	-11.2952
VS	-11.2954
を加熱し	-11.2955
ロボットが	-11.2957
影響を与えました	-11.2958
聖書	-11.296
てみましょう	-11.2962
を作成したり	-11.2963
いき	-11.2965
興味深いもの	-11.2967
を入力する	-11.2972
ローリング	-11.2974
の追跡	-11.2975
くなります	-11.2975
▁この小説	-11.2975
タスクを自動化する	-11.2976
を軽減し	-11.298
海上	-11.2985
そのうちの	-11.2986
サムは	-11.2986
植え	-11.2988
123	-11.299
れない	-11.299
の由来は何	-11.299
裁	-11.2991
▁'/	-11.3001
先に	-11.3002
続けて	-11.3003
アドバイスを	-11.3005
を飲む	-11.3005
この技術は	-11.3006
▁----	-11.3011
も使用されます	-11.3012
を計画する	-11.3013
間の距離	-11.3014
いくつかの例	-11.3016
が長く	-11.3016
単純	-11.3023
されることがあります	-11.3026
を提供する必要があります	-11.3028
が大好きです	-11.303
ntes	-11.3031
について議論し	-11.3032
具体的な理由	-11.3036
▁Reddit	-11.3037
▁per	-11.3039
ていたため	-11.3039
耐	-11.3041
ることもできます	-11.3043
とリソース	-11.3051
ga	-11.3052
MC	-11.3054
閉じ	-11.3058
感じられ	-11.3063
を扱っ	-11.3065
財政	-11.3068
を利用し	-11.3072
右側	-11.3073
モンテ	-11.3073
責任があります	-11.3075
能力を持っている	-11.3076
他に何	-11.3078
▁window	-11.308
に分け	-11.3081
リリースされ	-11.3081
事前	-11.3084
メタ	-11.3086
を実践すること	-11.3087
量子物理学	-11.309
の多くは	-11.3091
も同じ	-11.3091
以	-11.3091
大都市	-11.3094
るとき	-11.3095
られない	-11.3096
呼ばれ	-11.31
ソル	-11.3103
195	-11.3104
(50	-11.3104
純粋	-11.3107
かを決定する	-11.311
テーブルに	-11.311
マーケティングキャンペーン	-11.3112
並べ	-11.3114
イエ	-11.3117
ja	-11.3119
私はそれが	-11.3124
設置されました	-11.3126
容易に	-11.3129
に見える	-11.313
優れ	-11.3132
隠れ	-11.3133
より効率的で	-11.3134
Can	-11.3134
の証拠	-11.3137
許	-11.3138
を使用している	-11.3138
チャック	-11.3141
多くの人々	-11.3141
所得	-11.3143
なければなら	-11.3145
休	-11.3147
ることが多いです	-11.3147
省エネ	-11.3148
(1,	-11.3149
白人	-11.3151
を利用することで	-11.3153
設計されています	-11.3156
答えを与える	-11.316
されていましたが	-11.3161
のトーン	-11.3161
キリスト	-11.3162
話すこと	-11.3168
アーチ	-11.3168
放出され	-11.3169
がない場合	-11.317
を記述し	-11.317
減少し	-11.3173
を描き	-11.3174
辞	-11.3174
このように	-11.3174
至	-11.3174
始	-11.3176
を追加できます	-11.3178
ゲル	-11.3178
につれ	-11.318
戦略的	-11.3185
財	-11.3185
磁	-11.3186
に近づく	-11.3187
気づきました	-11.3187
傾	-11.3187
録	-11.3187
刻	-11.3187
▁MySQL	-11.3187
為	-11.3188
エヴ	-11.3188
彦	-11.3189
蛇	-11.3189
ロイヤル	-11.319
凍	-11.319
庫	-11.319
エントリ	-11.319
グランドキャニオン	-11.319
飯	-11.319
干ばつ	-11.319
ちゃん	-11.319
カラフルな	-11.319
スプーン	-11.319
秘	-11.319
婦	-11.319
躍	-11.319
徴収	-11.319
絡	-11.319
嘔吐	-11.319
開拓	-11.319
タイピング	-11.319
エチオピア	-11.319
敬意	-11.319
羊	-11.319
大胆な	-11.3191
説明的なギャップ	-11.3191
コムーネ	-11.3191
接着剤	-11.3191
新型コロナウイルス	-11.3191
変わる	-11.3191
コマース	-11.3191
参戦し	-11.3191
ラスベガス	-11.3191
パセリ	-11.3191
ギタリスト	-11.3191
リポーター	-11.3191
家庭医学レジデンシープログラム	-11.3191
パウダー	-11.3191
フィルタリング	-11.3191
電化製品	-11.3191
FizzBuzz	-11.3191
prime	-11.3191
タレント	-11.3191
胃	-11.3191
Account	-11.3191
view	-11.3191
ラグビー	-11.3191
軽量で	-11.3191
ú	-11.3191
▁Learning	-11.3191
には次のものがあります	-11.3191
鉛筆	-11.3191
String	-11.3191
▁actual	-11.3191
を使えば	-11.3191
汗	-11.3191
linux	-11.3191
random	-11.3191
▁敬具	-11.3191
類似した	-11.3191
Load	-11.3191
Galaxy	-11.3191
監査	-11.3191
希少	-11.3191
メカニカルキーボードスイッチ	-11.3191
予期しない	-11.3191
キログラムの鉄	-11.3191
タバコ	-11.3191
精神保健	-11.3191
を浴び	-11.3191
最優秀	-11.3191
狙	-11.3191
姉	-11.3191
愚	-11.3191
ピクセル	-11.3191
▁カーメン	-11.3191
ディレクター	-11.3191
弧	-11.3191
SNS	-11.3191
シンフォニー	-11.3191
照らされ	-11.3191
柔らかくなるまで	-11.3191
落ち着いて	-11.3191
AUR	-11.3191
穂	-11.3191
ベルリン令	-11.3191
発展途上国	-11.3191
漁業	-11.3191
javascript	-11.3191
を見つめ	-11.3191
命を救う	-11.3191
闘争	-11.3191
1981	-11.3191
一意の	-11.3191
モノイド	-11.3191
包装	-11.3191
アップグレード	-11.3191
飲料	-11.3191
北京	-11.3191
暮らし	-11.3191
▁push	-11.3191
電荷	-11.3191
アーサー	-11.3191
検定	-11.3192
打撃	-11.3192
整列	-11.3192
チューリング	-11.3192
まるで	-11.3192
アダムス	-11.3192
一種の	-11.3192
通勤	-11.3192
POST	-11.3192
貨物	-11.3192
バケット	-11.3192
媒体	-11.3192
地下鉄	-11.3192
ほん	-11.3192
マウント	-11.3192
改造	-11.3192
タイミング	-11.3192
微調整	-11.3192
たくありません	-11.3192
▁ニール	-11.3192
Roblox	-11.3192
事務	-11.3192
ウォーター	-11.3192
棒	-11.3192
代名詞	-11.3192
旅客	-11.3192
灯台	-11.3192
浮上し	-11.3193
連結	-11.3193
毎回	-11.3193
行動を起こす	-11.3193
ランドマーク	-11.3193
臭い	-11.3193
食材	-11.3193
の経歴を教えてください	-11.3193
処分	-11.3193
パーティ	-11.3193
国立公園	-11.3193
大衆	-11.3193
編曲	-11.3194
グラフィックカード	-11.3194
ってどこにある	-11.3194
を中心とした	-11.3194
ハーバー	-11.3194
学習曲線	-11.3194
セックス	-11.3194
配分	-11.3195
1972	-11.3195
自然の美しさ	-11.3195
タワー	-11.3195
ワイド	-11.3195
パラオ	-11.3196
大臣	-11.3196
クール	-11.3196
石油	-11.3197
を表示し	-11.3197
体育	-11.3197
クイズ	-11.3197
興味のある	-11.3197
ジャパン	-11.3197
不在	-11.3198
将来的に	-11.3198
ISO	-11.3198
▁マルコ	-11.3198
シェルスクリプト	-11.3198
達成可能な	-11.3198
イオン	-11.3198
どんな経歴を持ってい	-11.3198
ゲン	-11.3198
勢力	-11.3198
によって生成される	-11.3199
アナリスト	-11.3199
戦士	-11.3199
広く使用されています	-11.3199
▁アマン	-11.3199
投手	-11.3199
建築物	-11.3199
アーム	-11.32
半島	-11.32
そうではありません	-11.3202
であるという事実	-11.3203
ジャズ	-11.3203
null	-11.3203
ING	-11.3204
1964	-11.3204
水銀	-11.3204
深さ	-11.3205
VEX	-11.3205
シャン	-11.3205
を放出する	-11.3206
筋力	-11.3206
▁--	-11.3207
と考えられていました	-11.3207
アクティブな	-11.3207
word	-11.3207
で行われます	-11.3208
1945	-11.3209
コリン	-11.3209
地球上の	-11.321
検索結果	-11.321
カエル	-11.321
▁与えられた単語	-11.3211
動機付け	-11.3211
通行	-11.3211
オンラインリソース	-11.3214
ゴム	-11.3214
▁このビデオ	-11.3215
特殊な	-11.3215
が減少する	-11.3215
波長	-11.3216
とは何か	-11.3216
より少ない	-11.3217
前処理	-11.3217
記載されています	-11.3218
'],	-11.3218
土星	-11.3218
脱出	-11.3218
パール	-11.3218
行きましょう	-11.3219
ザン	-11.3219
THE	-11.322
"></	-11.322
炎症	-11.3221
廃止され	-11.3222
言います	-11.3223
温水	-11.3223
わかっていません	-11.3224
を選択して	-11.3226
コミュニケーションをとる	-11.3226
128	-11.3227
はいつ発売され	-11.3227
▁too	-11.3229
支払	-11.323
ヘリ	-11.323
を促進することができます	-11.3231
科学技術	-11.3231
ることを意味します	-11.3232
この段階で	-11.3234
として機能する	-11.3237
データ保護	-11.3238
滑らかで	-11.3241
所得税	-11.3242
に慣れ	-11.3243
焼いた	-11.3244
ミル	-11.3244
分間調理し	-11.3245
▁よろしくお願いします	-11.3246
ow	-11.3246
ソフトウェア開発者	-11.3247
で満たされ	-11.3247
を開催し	-11.3248
一生	-11.325
0.8	-11.325
を破壊し	-11.3252
ヌー	-11.3253
質問があります	-11.3254
を探している場合	-11.3255
多くの人が	-11.3256
例があります	-11.3257
船体	-11.3258
ライブラリを使用して	-11.3259
を基に	-11.326
塩化	-11.3262
言い	-11.3262
食べられ	-11.3263
純粋に	-11.3265
HI	-11.3273
とテクニック	-11.3277
破壊され	-11.3277
チア	-11.328
を表示します	-11.328
人材	-11.3281
兄の	-11.3281
接続され	-11.3282
で利用可能な	-11.3284
例を示します	-11.3288
を立て	-11.329
を理解して	-11.329
悪影響	-11.3292
金色	-11.3294
を与えました	-11.3295
象徴的な	-11.3297
アクセス可能	-11.3297
全員が	-11.3297
window	-11.3303
に頼る	-11.3304
マイケル	-11.3305
Point	-11.3305
を革新し	-11.3305
False	-11.3305
ゴールド	-11.3307
含める	-11.3309
pygame	-11.331
▁high	-11.3311
•	-11.3312
どこでも	-11.3312
日々の	-11.3312
import	-11.3312
財政的	-11.3316
ことを目指しています	-11.3317
▁then	-11.3318
管理する	-11.3319
あなたがそれを	-11.3321
UP	-11.3323
つの方法は	-11.3325
相互に	-11.3327
ブン	-11.3329
0.2	-11.333
訴え	-11.3332
目標を達成するために	-11.3335
+3	-11.3341
を刺激する	-11.3342
3,000	-11.3343
職人	-11.3349
順位	-11.3355
戦国時代	-11.3361
などの様々な	-11.3363
が有名です	-11.3364
レーン	-11.3365
Cha	-11.3366
Te	-11.3366
込みます	-11.3367
その目的	-11.3369
に囲まれ	-11.3375
フロドが	-11.3376
▁Inc	-11.3376
基地	-11.3377
▁create	-11.3377
されていないため	-11.3379
委員長	-11.3382
拡張機能	-11.3385
aron	-11.3389
を含めて	-11.3389
生じ	-11.3391
と言いました	-11.3392
VR	-11.3393
を忘れ	-11.3395
県道	-11.3396
にかけ	-11.3396
イト	-11.3397
有糸分裂は	-11.3397
nor	-11.3401
論理的	-11.3403
DS	-11.3404
Mo	-11.3404
ていることを確認	-11.3404
デザイナーは	-11.3405
すべきです	-11.3406
である必要があります	-11.3409
より小さな	-11.3411
優れている	-11.3411
採用され	-11.3411
美しさと	-11.3412
を説明するために	-11.3415
を検討する	-11.3421
食べていました	-11.3422
の内容は	-11.3426
前後	-11.3427
のリストを作成し	-11.3428
を立ち上げ	-11.3428
伝統的な価値	-11.3428
を出す	-11.3429
に合う	-11.3429
ーザー	-11.3431
と書いてありま	-11.3431
助けてくれ	-11.3433
を追いかけ	-11.3439
を導入する	-11.3443
多くの人々は	-11.3444
が変更され	-11.3445
潜在的な問題	-11.3446
の不足	-11.3447
これまで	-11.3452
示唆しています	-11.3452
を呼び出す	-11.3456
それによって	-11.3462
グル	-11.3464
($	-11.3465
人体	-11.3465
の限界	-11.3471
上昇すると	-11.3472
形成された	-11.3474
どのチーム	-11.3474
必要なすべての	-11.3475
10,	-11.3477
を送り	-11.3477
4,000	-11.348
を開け	-11.3481
ding	-11.3486
で使用され	-11.3492
が重要	-11.3495
ために設計された	-11.3495
書いてください	-11.3496
起こってい	-11.3497
留学	-11.3497
ition	-11.3498
世話	-11.3503
学びました	-11.3506
パンダ	-11.3506
感じた	-11.3508
予測を行う	-11.3509
割合	-11.351
大気中の	-11.3517
下にある	-11.3519
分け	-11.352
来ました	-11.3524
わせ	-11.3528
は次のようになります	-11.3529
ている間	-11.3529
を調整して	-11.353
がほとんど	-11.353
ゴー	-11.3531
中学	-11.3532
言いました	-11.3533
グア	-11.3533
見て	-11.3539
有名で	-11.3541
協力する	-11.3542
⠀	-11.3543
ケー	-11.3543
医学的	-11.3544
創造的な方法	-11.3548
を楽しんでください	-11.3549
させることで	-11.355
べきではない	-11.3552
答えます	-11.3554
それについて	-11.3555
解放され	-11.3557
をシミュレートし	-11.3559
4°	-11.3562
学ぶことができます	-11.3565
ある場合	-11.3566
の文脈で	-11.3568
いくら	-11.357
を完了する	-11.3572
通路	-11.3572
に従うことで	-11.3575
見つけた	-11.3576
このアプローチ	-11.3577
主な違い	-11.3577
つながる	-11.3579
のテーブル	-11.3581
必要な情報	-11.3595
塗	-11.3598
オリンピックで	-11.36
脚本	-11.3603
pos	-11.3603
ko	-11.3603
生成される	-11.3604
を判断する	-11.3604
リュ	-11.3606
癒し	-11.3609
で活動しています	-11.3612
の一例	-11.3613
例を提供してください	-11.3615
73	-11.3616
format	-11.3619
学ぶこと	-11.3619
確	-11.362
を借り	-11.362
6%	-11.3628
を入力します	-11.3629
わない	-11.363
を処理します	-11.3632
ED	-11.3632
運ぶ	-11.3635
(&	-11.3637
ようとした	-11.364
被害者	-11.3641
cul	-11.3642
ドライ	-11.3643
無限に	-11.3645
に対処するために	-11.3655
の強化	-11.3658
個別	-11.3664
などの特定の	-11.3664
行います	-11.3665
をまとめ	-11.3666
カスタマイズされた	-11.3667
ていない場合	-11.3667
システムを使用して	-11.3678
を知っています	-11.3679
に基づいている	-11.3681
かどうかをチェックし	-11.3682
セクシーである	-11.3683
準	-11.3686
深層学習	-11.3687
時間とともに	-11.3694
▁sa	-11.3695
なかったため	-11.3695
メダル	-11.3696
ことを保証する	-11.3698
子ども	-11.3699
代数	-11.37
コンテンツの作成	-11.3701
資	-11.3701
の経歴について教えてください	-11.3703
なくなった	-11.3705
件の	-11.3706
世界選手権	-11.3707
3000	-11.3709
let	-11.3709
洗練	-11.371
混合物	-11.3711
(16	-11.3712
中程度の	-11.3712
則	-11.3713
充	-11.3714
怪	-11.3715
を引く	-11.3715
可視性	-11.3715
血管	-11.3715
公立	-11.3715
で優勝しました	-11.3716
宅	-11.3716
ドラッグ	-11.3716
否	-11.3716
宣	-11.3716
模	-11.3716
相対性理論	-11.3716
Shell	-11.3716
鉛	-11.3716
を通り抜け	-11.3716
練	-11.3717
陸上競技	-11.3717
曝露	-11.3717
奈	-11.3717
▁Surface	-11.3717
崖	-11.3717
記憶に残る	-11.3717
長野県	-11.3717
警	-11.3717
カスタム	-11.3717
本質的に	-11.3717
を抽出する	-11.3717
plot	-11.3717
トヨタ	-11.3717
仙台	-11.3717
注意を払い	-11.3717
牧	-11.3717
アイルランド	-11.3717
スクリーンショット	-11.3717
ポテンシャル	-11.3717
勇敢で	-11.3717
庄	-11.3717
パイロット	-11.3717
堆肥化	-11.3717
手のひら	-11.3717
蜂	-11.3717
まっすぐ	-11.3717
休止	-11.3717
姫	-11.3717
たぶん	-11.3717
周波数	-11.3717
泰	-11.3717
申	-11.3717
アレクサンダー	-11.3717
コスタリカ	-11.3717
UEFA	-11.3717
オブジェクト指向プログラミング	-11.3717
クラフト	-11.3717
競走馬	-11.3717
に苦しむ	-11.3717
アマゾン	-11.3717
フェスティバル	-11.3717
▁prov	-11.3717
じゃがいも	-11.3717
カルシウム	-11.3717
フリードリヒ	-11.3717
ブレーキ	-11.3717
encias	-11.3717
jitsu	-11.3717
▁two	-11.3717
お召し上がりください	-11.3717
堀	-11.3717
夜明け	-11.3717
心臓病	-11.3717
▁ニコラスライアンは	-11.3717
エンタテインメント	-11.3717
厳格な	-11.3717
token	-11.3717
iPad	-11.3717
ドキュメンタリー	-11.3717
フォーミュラ	-11.3717
将棋	-11.3717
著名な	-11.3717
酵母	-11.3717
ごめんなさい	-11.3717
実業家	-11.3717
隆	-11.3717
▁RTX	-11.3717
ブラックスワン	-11.3717
帆	-11.3717
プレゼント	-11.3717
にちなんで	-11.3717
メンタリング	-11.3717
冷凍	-11.3717
直径	-11.3717
一時的な	-11.3717
塗料	-11.3717
ペイント	-11.3717
ソウル	-11.3717
ベーキング	-11.3717
海面上昇	-11.3717
幻想	-11.3717
に生息する	-11.3717
新鮮で	-11.3717
ワークショップ	-11.3717
故郷	-11.3717
アメリカンフットボール	-11.3717
参議院議員	-11.3717
シンガポール	-11.3717
1971	-11.3717
Kirchhoff	-11.3717
根拠	-11.3717
祓	-11.3718
武装	-11.3718
徒歩	-11.3718
生殖	-11.3718
フランクリン	-11.3718
グラハム	-11.3718
宗派の寺院	-11.3718
絶望	-11.3718
寝る前に	-11.3718
消防	-11.3718
ゲームをプレイし	-11.3718
Road	-11.3718
水やり	-11.3718
グラフィックスカード	-11.3719
昇進	-11.3719
因子	-11.3719
年に生まれ	-11.3719
掃除機	-11.3719
税務	-11.3719
close	-11.3719
カラーマップ	-11.3719
目を引く	-11.3719
ジャガー	-11.3719
主観的な経験	-11.3719
発射	-11.3719
表情	-11.3719
鬱	-11.3719
高まり	-11.3719
結局	-11.372
対戦相手	-11.372
レーダー	-11.372
を除いて	-11.372
ビーガン	-11.372
戯曲	-11.372
スタンリー	-11.372
イタリア共和国	-11.372
自己識別	-11.3721
暗闇の中で	-11.3721
ピック	-11.3721
に関与する	-11.3721
海底	-11.3722
JA	-11.3722
賢い	-11.3722
ある程度の	-11.3722
プッシュ	-11.3722
rat	-11.3723
▁sudo	-11.3723
原産	-11.3723
▁sé	-11.3723
シンキ	-11.3723
溶かし	-11.3724
金利	-11.3724
熟練した	-11.3724
株式市場	-11.3724
唐辛子植物	-11.3724
に会う	-11.3725
南アフリカ	-11.3725
HER	-11.3725
docs	-11.3726
問題の解決	-11.3726
低コスト	-11.3726
VST	-11.3726
cy	-11.3726
を担当する	-11.3726
バロック	-11.3726
自然資源	-11.3727
上司	-11.3727
国防	-11.3728
ようなものです	-11.3728
プレーン	-11.3728
オンラインコース	-11.3728
ユース	-11.3728
ローラー	-11.3728
松田	-11.3728
ラジオ番組	-11.3728
方が良い	-11.3729
をきれいに	-11.373
生産コスト	-11.3731
総合的な	-11.3731
1929	-11.3731
賢く	-11.3732
自ら	-11.3732
検索バー	-11.3733
月末	-11.3733
▁それ以外	-11.3734
社会主義	-11.3734
抜け	-11.3734
最長	-11.3734
空白	-11.3734
で知られていました	-11.3734
知りません	-11.3734
台風	-11.3735
皆さん	-11.3736
を処理し	-11.3737
List	-11.3737
赤み	-11.3738
を増やすことができます	-11.3738
予測分析	-11.3738
を与えられ	-11.3739
充実した	-11.3739
移住	-11.374
Rex	-11.3741
待って	-11.3741
全長	-11.3742
説明責任	-11.3743
残っ	-11.3743
重さ	-11.3743
過去形	-11.3743
メソッドを使用して	-11.3744
残っている	-11.3745
音楽理論	-11.3746
ッタ	-11.3748
デリー	-11.3748
代表チーム	-11.3748
身体活動	-11.3749
によって決定され	-11.3749
1951	-11.3749
フェア	-11.375
四国	-11.3751
クラスタ	-11.3751
クルー	-11.3751
を代表する	-11.3752
流行	-11.3753
への参加	-11.3753
を行うため	-11.3754
厳密	-11.3755
()`	-11.3755
増加した	-11.3757
記者	-11.3757
学科を卒業し	-11.3758
歳の時に	-11.3759
なったんです	-11.3761
光学	-11.3763
子供向け	-11.3766
とのコミュニケーション	-11.3766
身体的な	-11.3771
知的な	-11.3772
生産的な	-11.3773
すべての人が	-11.3774
を考慮に入れ	-11.3776
はどんなもの	-11.3778
優れています	-11.3779
低くなります	-11.378
数年間	-11.3781
に登録され	-11.3783
を目的として	-11.3787
支持者	-11.3789
にとって重要な	-11.3789
▁Ci	-11.3789
使われています	-11.3792
私はいつも	-11.3793
パニック	-11.3793
広がっています	-11.3794
上海	-11.3795
の誘導体	-11.3796
を選びます	-11.3798
を聞き	-11.3798
つけられ	-11.3799
これによって	-11.3799
▁Per	-11.3801
という単語	-11.3801
編集してください	-11.3801
悲し	-11.3804
近くに	-11.3805
eeq	-11.3806
課税	-11.3808
その他	-11.381
世界中の人々	-11.3813
評価されています	-11.3813
なお	-11.3818
レイク	-11.382
unt	-11.382
この場合は	-11.3822
を聞いた	-11.3822
と比較し	-11.3824
▁Pre	-11.3824
として活動し	-11.3824
りますか	-11.3824
```	-11.3825
を混ぜ合わせ	-11.3826
結成されました	-11.3826
だと思いますか	-11.3826
友達と	-11.3827
ボンド	-11.3828
ることを願っています	-11.3829
機会を提供します	-11.383
と呼びます	-11.383
own	-11.383
をしっかりと	-11.3831
考慮され	-11.3836
について考える	-11.3838
リサイズされたファイル	-11.3841
arg	-11.3842
を過ごし	-11.3843
の発達	-11.3845
を構築するための	-11.3846
単純化	-11.3847
レル	-11.3849
共に	-11.3852
運行	-11.3855
北アメリカ	-11.3857
を活用する	-11.3858
彼の人生	-11.3858
とも呼ばれ	-11.3859
事例	-11.386
カナ	-11.3861
いくつかの方法	-11.3861
で働いてい	-11.3867
のリストです	-11.387
を取って	-11.3872
精神的な健康	-11.3873
FM	-11.3874
にとって重要	-11.3875
ura	-11.3877
に置き換え	-11.3877
そして私はあなた	-11.3878
ec	-11.388
これ以上	-11.3883
が見られます	-11.3883
を作曲し	-11.3885
低下	-11.3886
強力	-11.3889
を受け入れる	-11.3889
としても活躍し	-11.3891
社会全体	-11.3898
の外で	-11.39
全く	-11.3903
込んで	-11.3909
を割り当てる	-11.3912
の先端	-11.3913
をトレーニングする	-11.3914
の代表作は	-11.3915
次のようになります	-11.3915
問題に対処	-11.3916
私があなたに	-11.3917
さまざまな要因に依存	-11.3922
に出会い	-11.3924
フレンドリーで	-11.3926
PR	-11.3927
導入され	-11.3928
の底	-11.3934
As	-11.3936
));	-11.3937
含む	-11.3941
で構成されている	-11.3941
を知ることができ	-11.3941
収録され	-11.3948
個別の	-11.3949
正解	-11.395
不正確	-11.395
使用されていた	-11.3952
に属してい	-11.3954
太陽から	-11.3958
扱う	-11.3959
何のために	-11.3959
次の手順	-11.396
確認してください	-11.3965
似	-11.3965
を繰り返し	-11.3968
yu	-11.397
限界	-11.397
最後	-11.3975
電動	-11.3975
の開催	-11.3978
mente	-11.3979
cri	-11.3981
歳から	-11.3983
-21	-11.3984
old	-11.3985
▁mid	-11.3985
フレンドリー	-11.3986
されていない場合	-11.3986
回避	-11.3987
を食べます	-11.3989
の創造	-11.4
代表作	-11.4004
を増やすこと	-11.4005
職歴	-11.4008
▁can	-11.4008
手動	-11.4011
ジュリア	-11.4012
灰色	-11.4018
負傷	-11.4019
注意を払う	-11.402
が不可欠	-11.4024
できることを意味します	-11.4024
その理由	-11.4027
を特定すること	-11.4029
はどんな人物	-11.4032
▁cam	-11.4033
ルツ	-11.4036
を育て	-11.4036
相当	-11.4038
加えて	-11.4039
栄養価	-11.4039
生息	-11.404
言われ	-11.4045
支払う	-11.405
を与えること	-11.4055
大切に	-11.4056
ミュー	-11.4056
に備える	-11.4061
ことができず	-11.4061
のに役立ついくつかの	-11.4065
重要な側面	-11.4067
としましょう	-11.4068
優勝しました	-11.4068
デビューし	-11.4071
に入って	-11.4073
でいっぱい	-11.4074
コンピューターシステム	-11.4078
を書くことはできます	-11.4078
を数え	-11.408
登場	-11.4081
自宅で	-11.4082
受け入れられる	-11.4083
を行うことで	-11.4087
を楽しんで	-11.4089
をチェックする	-11.4093
もたらす	-11.4095
確率的	-11.4097
実証	-11.4097
Bo	-11.4101
はどちらも	-11.4102
▁4-	-11.4103
変更された	-11.4104
に変える	-11.4109
1920	-11.4109
を結んでいます	-11.4111
局長	-11.4111
年前	-11.4116
の例を教えてください	-11.4118
はどんな特徴	-11.4122
茶色の	-11.4123
[]	-11.4123
追加情報	-11.4124
ことを確認する	-11.4125
ビデオゲームの	-11.4125
を行うことができ	-11.4127
増加しました	-11.4127
GI	-11.4127
影響を受け	-11.4127
(18	-11.413
利用することができます	-11.4133
発表され	-11.4134
影響を受ける	-11.4135
cat	-11.4137
▁die	-11.4141
賢明な	-11.4146
OT	-11.4147
民主党	-11.4149
父の	-11.4158
が好きな	-11.416
大きくて	-11.416
らなかった	-11.4161
テーブルには	-11.4161
を送る	-11.4163
アプリケーションの開発	-11.4165
gl	-11.4168
が制限され	-11.4171
を削減し	-11.4172
見ることができる	-11.4173
冷まし	-11.4173
を完成させ	-11.4176
型糖尿病の	-11.4179
しっかり	-11.4182
はどのような内容	-11.4187
ato	-11.4187
ence	-11.4189
を要求する	-11.4191
透明	-11.4196
ことが重要である	-11.4199
顧客フィードバック	-11.4199
元気	-11.42
から学ぶ	-11.4213
を学ぶために	-11.4217
いつ頃	-11.4224
自身も	-11.4225
ふた	-11.4229
を向上させます	-11.423
の例を挙げてください	-11.4231
決め	-11.4235
を素早く	-11.4235
時間を過ごし	-11.4236
net	-11.4238
コミュニケーションスキル	-11.4242
WA	-11.4243
境	-11.4243
ían	-11.4246
▁機械学習は	-11.4247
エネルギー消費	-11.4252
この事件	-11.4253
に等しく	-11.4256
征服	-11.4257
task	-11.4259
を配置し	-11.4262
ラテン	-11.4262
書くこと	-11.4263
提示し	-11.4263
後者	-11.4264
お願い	-11.4265
dor	-11.4266
上映	-11.4266
衆	-11.4266
荷	-11.4267
蒸気	-11.4268
存	-11.4268
唱	-11.4269
ギャ	-11.4269
束	-11.427
炒め物	-11.427
独	-11.427
郵便	-11.427
針	-11.427
乾	-11.427
鮮	-11.4271
欲	-11.4271
狂	-11.4271
に備え	-11.4271
ぬ	-11.4272
幕	-11.4272
ソーシャルファブリック	-11.4272
日本代表	-11.4272
朝鮮	-11.4272
プリンセス	-11.4272
かわいい	-11.4272
免許	-11.4272
3〜4	-11.4272
刈	-11.4272
に伴う	-11.4272
冊	-11.4272
オスマン帝国	-11.4272
矩形	-11.4272
オーロラ	-11.4272
債務	-11.4272
因果関係	-11.4272
昔	-11.4272
蘇	-11.4272
パティオ	-11.4272
化粧品	-11.4272
θ	-11.4272
ティーンエイジャー	-11.4272
大胆で	-11.4272
EBCDIC	-11.4272
日付と時刻	-11.4273
狩猟	-11.4273
に向けた	-11.4273
ボーイフレンド	-11.4273
John	-11.4273
GEO	-11.4273
▁Resolve	-11.4273
挽	-11.4273
AutoHotkey	-11.4273
shellscripts	-11.4273
〇〇	-11.4273
シュタイン	-11.4273
ペナルティ	-11.4273
疲労	-11.4273
郵送	-11.4273
▁Escu	-11.4273
生態学	-11.4273
blue	-11.4273
▁Academia	-11.4273
▁jiu	-11.4273
▁visited	-11.4273
教師あり学習	-11.4273
梨	-11.4273
険しい丘の中腹	-11.4273
Symphony	-11.4273
ナチュラル	-11.4273
パブリック	-11.4273
ミディアム	-11.4273
句読点	-11.4273
ユナイテッド	-11.4273
愚かな	-11.4273
フィオナ	-11.4273
Alexa	-11.4273
に向かい	-11.4273
心拍数	-11.4273
Color	-11.4273
公衆衛生	-11.4273
凧	-11.4273
ification	-11.4273
をご覧ください	-11.4273
caldero	-11.4273
あきらめ	-11.4273
ツァリーツァ	-11.4273
レスポンス	-11.4273
覇	-11.4273
▁This	-11.4273
ように見えました	-11.4273
ユニコーン	-11.4273
ひまわり	-11.4273
オンラインで申請する	-11.4273
FIFA	-11.4273
スクラッチ	-11.4273
1979	-11.4273
アラビア	-11.4273
三重県	-11.4273
▁NOA	-11.4273
JWT	-11.4273
フィリップ	-11.4273
腫	-11.4273
懐中電灯	-11.4273
幕府	-11.4273
応援	-11.4273
批評家	-11.4273
麗	-11.4273
マッシュルーム	-11.4273
酢	-11.4273
スクワット	-11.4273
を表明し	-11.4273
ミステリー	-11.4273
注目を集め	-11.4273
膨張	-11.4273
コーティング	-11.4273
ように思えます	-11.4273
兆	-11.4273
目に見えない	-11.4273
類推	-11.4273
優しさ	-11.4273
時間と労力	-11.4273
解雇	-11.4273
も含まれます	-11.4273
研修	-11.4273
から来ています	-11.4273
ワークフロー	-11.4273
ヴィーガン	-11.4273
猿	-11.4273
Data	-11.4273
に立ち向かい	-11.4273
大聖堂	-11.4273
businesses	-11.4273
噴火	-11.4273
符号	-11.4273
校舎	-11.4273
を祝う	-11.4273
スーパーヒーロー	-11.4273
京都府	-11.4273
代表取締役	-11.4273
ガーリック	-11.4273
リスナー	-11.4274
量子コンピューティング	-11.4274
発掘	-11.4274
数十年	-11.4274
datetime	-11.4274
消滅	-11.4274
何が起こったの	-11.4274
チャクラ	-11.4274
それはあなたが	-11.4274
ゲーマー	-11.4274
クレジットカード	-11.4274
マーシャル	-11.4274
が発生した場合	-11.4274
はさみ	-11.4274
失望	-11.4274
RPG	-11.4274
収集されたデータ	-11.4274
スタートアップ	-11.4274
TOCO	-11.4274
感触	-11.4274
ページで	-11.4274
競争力のある	-11.4274
ヘンリー	-11.4274
守護	-11.4274
室温	-11.4274
指向	-11.4274
チェスボード	-11.4275
通算	-11.4275
有機化学	-11.4275
恒星	-11.4275
保存します	-11.4275
▁Book	-11.4275
ヨーク	-11.4275
シルバー	-11.4275
特権	-11.4275
▁Pine	-11.4276
のサブセット	-11.4276
ポンプ	-11.4276
わけではない	-11.4276
generate	-11.4276
知久	-11.4276
周期	-11.4276
設計され	-11.4276
を特徴としています	-11.4276
集落	-11.4276
共通点	-11.4276
を対象とし	-11.4277
▁sali	-11.4277
FBI	-11.4277
ハーブ	-11.4277
電子工学	-11.4278
モバイルデバイス	-11.4278
驚異的な	-11.4278
掘り下げ	-11.4278
何年も	-11.4279
奇数	-11.4279
1969	-11.4279
リターン	-11.4279
幸福感	-11.4279
コマンドライン	-11.4279
手入れ	-11.428
フレッド	-11.428
データの収集	-11.428
で割る	-11.428
自己紹介	-11.428
ガイダンス	-11.428
伸び	-11.428
メイド	-11.428
南極	-11.4281
に投資する	-11.4281
チャイ	-11.4281
定着	-11.4282
持続可能な開発	-11.4282
家庭用	-11.4282
abri	-11.4283
インターネット上で	-11.4283
有効性	-11.4284
西側	-11.4284
化学物質	-11.4284
ショート	-11.4284
素晴らしい方法です	-11.4285
地帯	-11.4285
によって開発された	-11.4285
選出された	-11.4286
エルサ	-11.4287
が登場します	-11.4289
book	-11.4289
会場	-11.4289
とも呼ばれています	-11.429
農家	-11.429
キット	-11.429
率いる	-11.429
を受賞しました	-11.4291
1923	-11.4291
治療法	-11.4291
という文	-11.4293
ヒル	-11.4294
創作	-11.4294
に移転しました	-11.4296
王位	-11.4296
この詩は	-11.4297
プロフェッショナルな	-11.4298
ユーザーにとって	-11.4298
プロファイル	-11.4299
海面	-11.4299
を手に入れ	-11.4299
テリー	-11.43
ナット	-11.4301
感度	-11.4301
藩主	-11.4301
ビート	-11.4302
を排除し	-11.4302
名声	-11.4302
おお	-11.4303
emb	-11.4303
自由な	-11.4304
ホームページ	-11.4307
を推進する	-11.4308
男性が	-11.4309
ウッド	-11.431
ていきました	-11.4313
ギー	-11.4313
町にあります	-11.4313
コンテンツを作成	-11.4314
抜き	-11.4315
で活躍しました	-11.4317
存在しました	-11.4318
生物学	-11.4318
王星	-11.4318
から構成されています	-11.4318
彼らはしばしば	-11.4318
talk	-11.432
None	-11.4321
たくない	-11.4323
固有	-11.4323
最適です	-11.4324
構造物	-11.4325
困難な状況	-11.4326
が始まる	-11.4326
に変換され	-11.4327
その通り	-11.4327
から保護する	-11.433
を拡張し	-11.433
他のアーティスト	-11.4331
単独で	-11.4332
有名人	-11.4332
方向性	-11.4333
を見てください	-11.4333
炭酸	-11.4334
ほとんどの場合	-11.4334
金星	-11.4337
米ドル	-11.4337
世が	-11.4337
現在でも	-11.4339
するのに役立ち	-11.4339
込	-11.4341
を節約できます	-11.4341
▁8,	-11.4344
pow	-11.4346
こともある	-11.4348
フレディは	-11.4355
行い	-11.4355
残っています	-11.4357
lle	-11.4361
武将	-11.4363
ことを保証し	-11.4364
を設置し	-11.4365
ture	-11.4365
種目	-11.4366
に貢献しました	-11.4367
発生しました	-11.4369
出生	-11.4371
を建設する	-11.4371
人のプレイヤー	-11.4371
ママ	-11.4373
コードの例	-11.4374
どのような役職	-11.4375
を取得するために	-11.4377
リアン	-11.4378
と考えられます	-11.4379
一般的です	-11.438
合わせます	-11.4382
▁ジャガイモと	-11.4383
用いられ	-11.4384
月まで	-11.4386
サイトで	-11.439
に対応しています	-11.4391
部分的に	-11.4393
を行っている	-11.4395
たそうです	-11.4397
シアン	-11.4397
から始め	-11.4399
子猫	-11.4401
商人	-11.4401
くない	-11.4406
の目標は	-11.4406
回転する	-11.4408
を下げ	-11.4408
の設置	-11.441
も存在します	-11.441
を節約する	-11.4412
スライスした	-11.4412
バンク	-11.4412
おらず	-11.4413
いずれに	-11.4413
を書きました	-11.4414
を提供することはできません	-11.4415
つまたは	-11.4419
が描かれ	-11.4425
分野における	-11.4427
カフェ	-11.4428
▁matplotlib	-11.4432
重く	-11.4434
2):	-11.4435
';	-11.4435
val	-11.4437
its	-11.444
ロープ	-11.444
をカスタマイズする	-11.4441
を正しく	-11.4443
たいという	-11.4446
Reddit	-11.4447
composer	-11.4447
password	-11.4448
▁{}	-11.4451
を乗り越える	-11.4451
from	-11.4453
言え	-11.4455
より効果的に	-11.4458
を避けること	-11.4459
あなたが私に	-11.4461
非常	-11.4461
より効率的に	-11.4463
という考え	-11.4463
が盛ん	-11.4465
になれ	-11.4467
define	-11.4468
静的	-11.4468
をリリースし	-11.4469
という文は	-11.4471
▁これで	-11.4476
欲求	-11.4476
はどのように行われ	-11.4485
ドス	-11.4486
開発されました	-11.4491
スタディ	-11.4496
考慮すべきいくつかの	-11.4498
と一致する	-11.4504
を要求し	-11.4506
リヨン	-11.4508
てくれてありがとう	-11.451
子供たちの	-11.4511
相手の	-11.4512
see	-11.4514
方法は次のとおりです	-11.4517
について考え	-11.4517
に由来し	-11.4518
ことから始めます	-11.4518
挑戦的	-11.4519
というフレーズは	-11.4526
駅前	-11.4527
している間	-11.4527
るにつれて	-11.4531
がないので	-11.4536
歴史上	-11.4537
リティ	-11.4543
灰色の	-11.4543
ことを確認するために	-11.4544
プレイする	-11.4551
が与えられます	-11.4552
▁mur	-11.4557
256	-11.4558
いくつかあります	-11.4559
今後の	-11.4561
を置き換える	-11.4565
もなく	-11.4566
opt	-11.4568
買い物リスト	-11.4571
だよ	-11.4573
いつ生まれ	-11.4574
したりすること	-11.4576
方法を説明し	-11.458
▁tal	-11.4584
に移り	-11.4589
▁(-	-11.459
をサポートするために	-11.4591
の拡散	-11.4592
短期大学	-11.4593
を持っている必要があります	-11.4593
ゲームをプレイする	-11.4595
させることができます	-11.4595
ることにより	-11.4598
ener	-11.4599
社会学	-11.46
間違っている	-11.4611
が登場する	-11.4611
コンタクト	-11.4613
再生可能エネルギー源は	-11.4613
ペイ	-11.4614
ロブ	-11.4623
ことは可能です	-11.4625
フィードバックを提供	-11.4626
quier	-11.4626
導体	-11.4628
ということは	-11.4629
について学ぶこと	-11.4631
ッサ	-11.4633
する必要はありません	-11.4633
が中心	-11.4634
を広め	-11.4641
ドルから	-11.4641
注意深く	-11.4642
ヘン	-11.4643
哲学的	-11.4644
人工知能システム	-11.4645
を作成する必要があります	-11.4646
現れます	-11.4647
ever	-11.4649
現実的	-11.4652
であると仮定	-11.4655
ty	-11.4658
OM	-11.4659
職場で	-11.4664
を送	-11.4664
dict	-11.4665
を紹介する	-11.4667
辺の長さ	-11.4667
重要な違い	-11.4668
盛り	-11.4671
NO	-11.4676
SO	-11.4677
るのか	-11.468
数々の	-11.468
として使用して	-11.4683
の一つに	-11.4684
ニュースや	-11.4685
見ることができ	-11.4689
兆候	-11.4692
ストリー	-11.4701
を発見しました	-11.4704
マド	-11.4706
同年	-11.4708
なっていました	-11.4711
を変更して	-11.4712
質の高い	-11.4716
トレーニングされた	-11.4718
の運用	-11.4721
お勧めします	-11.4722
を考慮することが重要で	-11.4724
ラード	-11.4731
不安定	-11.4732
ていなかった	-11.4733
+4	-11.4736
に参加して	-11.4736
高額	-11.4739
を克服し	-11.474
送り	-11.4741
ボウルを	-11.4747
▁["	-11.4749
に興味がある場合	-11.4751
水準	-11.4751
悲	-11.4755
3°	-11.4755
処	-11.476
申し訳ありません	-11.4761
ければ	-11.4767
具体的な例	-11.477
老人	-11.4773
来た	-11.4773
理学	-11.4774
家電製品	-11.4775
狭	-11.4775
を検索する	-11.4776
▁mie	-11.4777
機会を与え	-11.478
説得	-11.4782
の主要な要素	-11.4787
あなたにとって	-11.479
曜	-11.4791
滑らか	-11.4792
炭	-11.4794
大切な	-11.48
リアルタイム	-11.4802
データのパターン	-11.4803
加算	-11.4804
平等な	-11.4804
を妨げる	-11.4805
あなたを助け	-11.4809
満たされ	-11.481
▁これらのヒント	-11.4813
燃	-11.4816
引き起こされ	-11.4817
尋ねます	-11.482
見つかり	-11.4822
加入しました	-11.4827
目立つ	-11.4828
がどれだけ	-11.483
騒	-11.4831
必要になります	-11.4833
晴れた日	-11.4835
開設	-11.4836
アド	-11.4837
遅延	-11.4839
比例	-11.4839
服用	-11.4843
oot	-11.4843
排	-11.4843
の尺度	-11.4843
xlab	-11.4844
怒	-11.4846
▁año	-11.4847
sheet	-11.4848
由	-11.4849
命名されました	-11.485
湿	-11.4852
忠実	-11.4853
浅	-11.4854
を呼び出し	-11.4854
阪	-11.4855
適しています	-11.4855
SVM	-11.4856
舎	-11.4856
識	-11.4857
作目の	-11.4857
同意し	-11.4857
律	-11.4857
抗酸化物質	-11.4858
敷	-11.4858
裂	-11.4858
欧	-11.4859
鈴	-11.4859
占	-11.4859
ことわざ	-11.4859
を持っている場合	-11.4859
菜	-11.4859
販売しています	-11.4859
鹿児島	-11.4859
督	-11.4859
勇	-11.486
header	-11.486
碧	-11.486
威	-11.486
メラニン	-11.486
陰謀	-11.486
涼	-11.486
雌	-11.486
紋	-11.486
ジェネレーター	-11.486
招	-11.486
スケッチ	-11.486
希	-11.486
邦	-11.486
博	-11.486
偉	-11.486
穏やかで	-11.486
平衡	-11.486
寿	-11.486
膨	-11.486
Posix	-11.486
画期的な	-11.4861
粘り強さ	-11.4861
ファラデーケージ	-11.4861
ユートピア	-11.4861
僧	-11.4861
まで続き	-11.4861
に関わる	-11.4861
に起因する	-11.4861
クリスタル	-11.4861
シナモン	-11.4861
cept	-11.4861
明るさ	-11.4861
注意散漫	-11.4861
train	-11.4861
キャビネット	-11.4861
旭	-11.4861
Matter	-11.4861
スティーブン	-11.4861
徹底的に	-11.4861
思春期	-11.4861
wiki	-11.4861
と提携し	-11.4861
酔	-11.4861
鳴き声	-11.4861
オートミール	-11.4861
クォータ	-11.4861
ソクラテス	-11.4861
エンピリアン	-11.4861
チャンピオンズリーグ	-11.4861
トゥス	-11.4861
緊急事態	-11.4861
DataFrame	-11.4861
李	-11.4861
を楽しみにしています	-11.4861
シェルツェルは	-11.4861
アクセシビリティ	-11.4861
愛好家	-11.4861
factorial	-11.4861
を照らし	-11.4861
南北戦争	-11.4861
自尊心	-11.4861
頻繁な	-11.4861
▁School	-11.4861
▁apagar	-11.4861
▁mundo	-11.4861
▁problema	-11.4861
エクセル	-11.4861
冗談を言ってください	-11.4861
command	-11.4861
を抽出し	-11.4861
ルービックキューブ	-11.4861
家族や友人	-11.4861
201,600	-11.4861
express	-11.4861
ビスケット	-11.4861
Element	-11.4861
found	-11.4861
targetPort	-11.4861
を取り戻す	-11.4861
を用意し	-11.4861
サンパウロ	-11.4861
同盟国	-11.4861
居心地の良い	-11.4861
▁シャンティイ	-11.4861
左のテーブルから	-11.4861
Chrome	-11.4861
▁Engine	-11.4861
モンゴル	-11.4861
俳句	-11.4861
委任	-11.4861
窒息してい	-11.4861
絶え間ない	-11.4861
デオキシ	-11.4861
パーソナリティ	-11.4861
正当な	-11.4861
漆	-11.4861
福利厚生	-11.4861
通学区域	-11.4861
ひよこ豆	-11.4861
斉	-11.4861
Calculus	-11.4861
インドネシア	-11.4861
蝶	-11.4861
ダイエット	-11.4861
細かく	-11.4861
豪華な	-11.4861
穀物	-11.4861
カタロニア	-11.4861
敦	-11.4861
高貴なガス	-11.4861
NEO	-11.4861
コンサルタント	-11.4861
imshow	-11.4861
スムーズに	-11.4861
溝	-11.4861
ATP	-11.4861
抽象化	-11.4861
独特な	-11.4861
リビングルーム	-11.4861
公共財	-11.4861
尚	-11.4861
溶解	-11.4861
コンピュータサイエンス	-11.4861
安定した拡散	-11.4861
ワークブック	-11.4861
NATO	-11.4861
予備	-11.4861
定量的	-11.4861
欧州連合	-11.4861
平方キロメートル	-11.4861
ソビエト連邦	-11.4861
協調	-11.4861
栗原	-11.4861
仕上げ	-11.4861
注目すべき	-11.4861
▁sobre	-11.4862
収容	-11.4862
ritu	-11.4862
自社の	-11.4862
昇格	-11.4862
猫ちゃん	-11.4862
▁sentí	-11.4862
アイランド	-11.4862
測量	-11.4862
お金を節約する	-11.4862
代替案	-11.4862
少量の	-11.4862
著作権	-11.4862
オールスター	-11.4862
おおよそ	-11.4862
天体写真	-11.4862
レモンジュース	-11.4863
確定	-11.4863
を作り上げ	-11.4863
フレ	-11.4863
福岡県	-11.4863
笑い声	-11.4863
ギャリー	-11.4863
copy	-11.4863
超大陸	-11.4863
サウンドトラック	-11.4863
struct	-11.4863
白い穴	-11.4863
シアター	-11.4863
が含まれていない	-11.4863
新しい友達を作	-11.4863
アレンジ	-11.4863
オーナー	-11.4864
貴方	-11.4864
建立	-11.4864
を低下させ	-11.4864
クラウドストレージ	-11.4864
▁Out	-11.4864
無効	-11.4864
傾き	-11.4864
不一致	-11.4864
センサ	-11.4864
SAO	-11.4864
翼板	-11.4864
チェックアウト	-11.4864
電気回路	-11.4864
ことに注意する	-11.4864
入り口	-11.4864
音声認識	-11.4864
直観	-11.4865
の一員	-11.4865
▁hab	-11.4865
宇宙の拡大	-11.4865
地下道	-11.4865
ハンマー	-11.4865
によって異なる場合があります	-11.4865
をテーマにした	-11.4865
関東	-11.4866
ベビー	-11.4866
観音	-11.4866
行こう	-11.4866
快適さ	-11.4866
に表示されます	-11.4866
満足感	-11.4866
コンピュータビジョン	-11.4866
検索エンジン最適化	-11.4866
休む	-11.4866
デバッグ	-11.4866
陸地	-11.4867
北西部	-11.4867
広場	-11.4867
組合	-11.4867
考えられる	-11.4867
CNN	-11.4867
シュート	-11.4867
熱意	-11.4867
SDL	-11.4867
法令	-11.4867
法案	-11.4867
REE	-11.4868
ブラシ	-11.4868
▁------	-11.4868
自然界	-11.4868
放射線	-11.4868
attr	-11.4868
orden	-11.4868
助手	-11.4869
ことに気付き	-11.4869
陽気な	-11.4869
1965	-11.4869
pí	-11.4869
を破り	-11.4869
関連付ける	-11.4869
認知機能	-11.487
コンピューティングリソース	-11.487
忠実な	-11.4871
慎重な	-11.4871
ムード	-11.4871
pdf	-11.4871
結婚式	-11.4872
を思い出させ	-11.4872
を作成しました	-11.4872
鼻水	-11.4872
一般の人々	-11.4873
神宮	-11.4874
るかどうか	-11.4874
行事	-11.4874
ウラン	-11.4876
発熱	-11.4876
headers	-11.4876
フィードバックを提供し	-11.4876
]、[	-11.4876
RNA	-11.4877
安心	-11.4878
using	-11.4878
の長男	-11.4878
より正確で	-11.4879
able	-11.4879
ヒト	-11.4879
私立	-11.488
心理学者	-11.488
青木	-11.488
音波	-11.4881
日記	-11.4881
メガ	-11.4881
ネジ	-11.4883
具体的にどのような	-11.4883
6、7	-11.4884
に反対する	-11.4884
ここにあなたが	-11.4885
▁requests	-11.4885
▁1-	-11.4886
Line	-11.4886
松本	-11.4886
ARC	-11.4888
を選択してください	-11.4888
迅速かつ正確に	-11.4889
Gui	-11.4889
を吸収し	-11.4891
1940	-11.4891
車種	-11.4892
ことが証明され	-11.4893
小島	-11.4894
によって行われ	-11.4896
重要な役割を果たします	-11.4897
合計で	-11.4898
楽しくて	-11.4898
real	-11.4898
石川	-11.4899
受賞者	-11.49
に侵入し	-11.4901
取り外し	-11.4903
をインポートする	-11.4906
としてプレーしていま	-11.4907
岡山県	-11.4907
rb	-11.4908
かを判断	-11.4911
指定した	-11.4911
を探して	-11.4911
払い	-11.4912
はいつ開催され	-11.4913
同じく	-11.4913
エム	-11.4914
に挑戦する	-11.4916
手段として	-11.4916
いただき	-11.4916
活動している	-11.4917
急な	-11.4918
理想的です	-11.492
注意してください	-11.4921
漫画家	-11.4923
に乗って	-11.4924
0.7	-11.4929
保存され	-11.4929
エリ	-11.493
産生	-11.4931
それはあなたの	-11.4934
dio	-11.4935
個性	-11.4935
の内容を	-11.4937
を挿入する	-11.4937
薄く	-11.4937
を除去し	-11.4937
否定	-11.4941
現在では	-11.495
ているようです	-11.4952
に関連付けられ	-11.4956
見てみましょう	-11.4957
キャンディー	-11.4957
に参加したり	-11.4958
参加しています	-11.4959
可能性もあります	-11.4959
したものです	-11.4962
に尽力し	-11.4964
植	-11.4967
ニーズや	-11.4969
時間を節約	-11.4972
年生	-11.4972
(1)	-11.4974
気圧	-11.4975
も知られています	-11.4975
導入されました	-11.4976
その日の	-11.4976
ウェル	-11.4977
60°	-11.4979
新しいアイデア	-11.4979
ull	-11.4981
するのではなく	-11.4984
公国	-11.4984
を設立しました	-11.4984
▁16.	-11.4985
ert	-11.4986
ついて	-11.4986
にアプローチし	-11.4986
ことになりました	-11.4986
予熱し	-11.4986
方法を見つけ	-11.4987
に保存する	-11.4988
Your	-11.4988
の中から	-11.4989
が放出され	-11.4989
以下の通りです	-11.4995
旅をし	-11.4999
mat	-11.5001
を容易にする	-11.5002
taba	-11.5004
うん	-11.5004
分数	-11.5007
なぜそれが	-11.5007
新しいスキル	-11.5011
オオカミが	-11.5014
くなり	-11.5014
本線	-11.5016
構成されています	-11.5025
るにはどうすればよいですか	-11.5028
尋ねました	-11.5029
場合でも	-11.5035
のほとんどは	-11.5035
ジェイクは	-11.5036
クリーン	-11.5037
を保証する	-11.504
に出る	-11.504
独自	-11.5043
が低下し	-11.5043
微生物	-11.5046
▁forma	-11.5046
使って	-11.5047
やすくなり	-11.5049
come	-11.5051
に似ています	-11.5052
を優先し	-11.5053
の前で	-11.5054
に慣れる	-11.5059
後半	-11.5059
正確さ	-11.506
底辺	-11.5062
tes	-11.5066
Net	-11.5069
多い	-11.5077
años	-11.5077
をサポートしています	-11.5077
例を挙げ	-11.5077
現在の場所	-11.5079
この文は	-11.5079
書いて	-11.5081
ものを見つけ	-11.5082
▁Ni	-11.5083
を分離する	-11.5086
を促進するために	-11.5087
いるのですか	-11.5088
your	-11.5088
lá	-11.5091
行っています	-11.5091
ーロ	-11.5091
に耳を傾け	-11.5092
老人は	-11.5093
で終わる	-11.5093
▁ad	-11.5095
その地域	-11.5099
の例には	-11.5101
たった	-11.5102
ペレ	-11.5103
信じられ	-11.5105
の利点と欠点	-11.5106
どのように評価	-11.5107
動作し	-11.511
トレンドや	-11.5113
etc	-11.5117
を吸収する	-11.5117
sin	-11.5117
不明です	-11.5118
を排除する	-11.5121
結果として	-11.5122
あなたの答え	-11.5123
EX	-11.5124
形式に変換	-11.5128
に従ってください	-11.5129
を送信し	-11.5131
アップロードし	-11.5131
シリア	-11.5133
をもたらす可能性があり	-11.5134
生放送	-11.5135
ガールフレンド	-11.5137
日時	-11.5139
非常に大きな	-11.514
を取り出し	-11.5143
に依存しています	-11.5144
幾何学	-11.5146
システムを設計	-11.5148
描かれた	-11.5148
を知ること	-11.5148
が十分に	-11.5152
ネン	-11.5154
表す	-11.5158
あなたは何	-11.5159
RT	-11.5172
学部を卒業し	-11.5173
いくつかのアイデア	-11.5178
▁{'	-11.5183
を明らかにする	-11.5184
の中で最も	-11.5184
ヌス	-11.519
を分類する	-11.5191
長を務め	-11.52
明確	-11.5201
を意味し	-11.5201
欲しい	-11.5201
として分類	-11.5201
トファー	-11.5202
を予防	-11.5202
希望する	-11.5204
多くの異なる	-11.5205
を優先する	-11.5214
packages	-11.5218
になるため	-11.5222
直面する	-11.5232
るので	-11.5233
に影響を受け	-11.5235
性のある	-11.5235
aku	-11.5236
ろう	-11.5237
ているんですね	-11.524
使われていました	-11.524
を行う必要があります	-11.5243
から始まりました	-11.5244
進学	-11.5244
山口	-11.5246
耳を傾け	-11.5248
ることができました	-11.5249
補完	-11.5252
絶対に	-11.5252
データの品質	-11.5254
変わりました	-11.5255
イラン	-11.5256
以下のような	-11.5258
中止	-11.5261
調査による	-11.5264
を導入すること	-11.5271
を勉強し	-11.5272
illa	-11.5278
BI	-11.5279
見せ	-11.5286
どんなジャンル	-11.5288
しやすくなり	-11.5288
に到達した	-11.5292
減数分裂	-11.5292
データを保存	-11.5293
2.0	-11.5295
を学んだ	-11.5295
iel	-11.5295
gua	-11.5299
村人	-11.5302
も多く	-11.5311
を移動する	-11.5312
地球の大気	-11.5313
フィア	-11.5315
mut	-11.5317
展	-11.5318
を示すために	-11.5318
以下が	-11.5321
モア	-11.5323
すべての要素	-11.5332
__)	-11.5333
国鉄	-11.5333
どこに位置してい	-11.5334
を持つ人々	-11.5335
働いていました	-11.5336
知って	-11.5339
重要な要因	-11.5343
歴について教えてください	-11.5344
可能性を高め	-11.5344
▁sabi	-11.5344
0.3	-11.535
もらう	-11.5358
その値	-11.5359
広げ	-11.536
到着した	-11.5364
小学生	-11.5367
出場し	-11.5369
変化をもたらす	-11.5369
ics	-11.5378
増加しています	-11.5379
afe	-11.5379
大きな違い	-11.538
の特産品	-11.5381
必要不可欠	-11.5382
であると考えられています	-11.5382
を整理する	-11.5386
出された	-11.5388
(__	-11.5391
するために使用できる	-11.5394
積極的	-11.5394
対抗	-11.5398
古代ギリシャ	-11.5399
似ている	-11.5402
慎重	-11.5402
あることを忘れないでください	-11.5417
が担当しました	-11.5417
わかります	-11.5418
しませんでした	-11.5422
戦前	-11.5425
東海	-11.5427
影響を与える可能性があります	-11.5429
見つける	-11.5429
よりも高い	-11.543
祀	-11.5436
▁Sus	-11.5438
させてください	-11.5438
で初めて	-11.5438
▁ax	-11.5439
これまでに	-11.5441
Ta	-11.5441
▁マリオ	-11.5444
▁Su	-11.5446
が高くなります	-11.5447
に焦点を合わせ	-11.5454
ニーズに合わせて	-11.5454
年に公開され	-11.5456
奇妙	-11.5464
するのが難しい	-11.5468
と同じくらい	-11.547
奏者	-11.5471
Lu	-11.5474
既	-11.5474
はどのような活動をしていま	-11.5475
邪魔	-11.5476
対照	-11.5476
灰	-11.5477
に至る	-11.5477
衛	-11.5479
構	-11.5479
平らな	-11.5479
借	-11.5479
驚異	-11.548
筒	-11.5481
滴	-11.5481
深呼吸	-11.5481
丁	-11.5482
と表記され	-11.5483
パイプライン	-11.5483
解像度	-11.5483
殻	-11.5483
提示する	-11.5483
仮	-11.5484
シンデレラ	-11.5484
囲	-11.5484
逃げる	-11.5484
摂	-11.5484
▁Qui	-11.5485
イブプロフェン	-11.5485
慎	-11.5485
istograma	-11.5485
トンネル	-11.5485
敬	-11.5485
レンダリング	-11.5485
艇	-11.5485
そっと	-11.5485
一晩	-11.5485
概	-11.5485
数百万	-11.5485
アナリティクス	-11.5485
そよ風	-11.5485
被験者	-11.5485
擬似コード	-11.5485
オブザイヤー	-11.5485
気動車	-11.5485
リラクゼーション	-11.5485
目を覚まし	-11.5485
クラリネット	-11.5485
棄	-11.5485
砦	-11.5486
フラスコ	-11.5486
オピオ	-11.5486
浪	-11.5486
ベルギー	-11.5486
亜原子粒子	-11.5486
健全な	-11.5486
騎士	-11.5486
センチメートル	-11.5486
安全保障	-11.5486
杉	-11.5486
清潔で	-11.5486
熱力学	-11.5486
堅	-11.5486
究極の	-11.5486
サノス	-11.5486
早稲田大学	-11.5486
ストーリーテリング	-11.5486
宿泊	-11.5486
ミトコンドリア	-11.5486
不快感	-11.5486
提起	-11.5486
闇	-11.5486
π	-11.5486
ロペス	-11.5486
paper	-11.5486
ボクシング	-11.5486
10〜15	-11.5486
Health	-11.5486
ミャンマー	-11.5486
を繰り返す	-11.5486
ディフェンダー	-11.5486
遠慮なく	-11.5486
CEO	-11.5486
教科書	-11.5486
毎晩	-11.5486
∈	-11.5486
会議に出席	-11.5486
崇	-11.5486
近隣の	-11.5486
space	-11.5486
▁Brown	-11.5486
▁Music	-11.5486
【	-11.5486
】	-11.5486
プロジェクトの現在の状態を見	-11.5486
幼稚園	-11.5486
tiempo	-11.5486
▁GAUL	-11.5486
▁profesor	-11.5486
▁única	-11.5486
▁ダラス郡	-11.5486
balance	-11.5486
echizo	-11.5486
quinesis	-11.5486
▁Entonces	-11.5486
▁Fuegozazul	-11.5486
▁Juniors	-11.5486
▁Superdotadas	-11.5486
▁Transfiguración	-11.5486
▁abuela	-11.5486
▁brotar	-11.5486
▁cerilla	-11.5486
▁elementales	-11.5486
▁individual	-11.5486
▁pócimas	-11.5486
▁supremo	-11.5486
を結ぶ	-11.5486
エマニュエル	-11.5486
バレーボール	-11.5486
頑張ってください	-11.5486
に代わる	-11.5486
世界で最も貧しい国	-11.5486
がクリーチャー	-11.5486
グルーミング	-11.5486
唄	-11.5486
▁石井さん	-11.5486
ように促し	-11.5486
グラフィカル	-11.5486
水力発電	-11.5486
60.714	-11.5486
uros	-11.5486
プリキュア	-11.5486
心地よい	-11.5486
温かさ	-11.5486
茨城県	-11.5486
xlsx	-11.5486
関連する依存サービス	-11.5486
Jabberwacky	-11.5486
に巻き込まれ	-11.5486
マルウェア	-11.5486
剛	-11.5486
地中海	-11.5486
ささやき	-11.5486
ジャスティン	-11.5486
Power	-11.5486
▁神宮寺	-11.5486
バンクーバー	-11.5486
デリバティブ	-11.5486
栃木県	-11.5486
スーパーマーケット	-11.5486
ヴェネツィア	-11.5486
存続	-11.5486
植物や動物	-11.5486
ヨーロッパ諸国	-11.5486
船員は	-11.5486
落ち着き	-11.5486
ヒンドゥー教	-11.5486
ブルガコフ	-11.5486
溶液	-11.5486
交通渋滞	-11.5486
法執行機関	-11.5486
ベーキングパウダー	-11.5486
正の整数	-11.5486
サスケ	-11.5486
競合他社	-11.5486
衆議院議員	-11.5486
皇后	-11.5486
下痢	-11.5486
同社は	-11.5486
すばやく	-11.5486
溶岩ランプ	-11.5486
蒸留	-11.5486
GET	-11.5486
イスラム教	-11.5486
資金調達	-11.5486
▁Research	-11.5486
マデラ	-11.5486
▁このアルバムはいつ発売され	-11.5486
叶	-11.5486
博士号	-11.5486
デレク	-11.5486
ライダー	-11.5486
急いで	-11.5486
面白く	-11.5486
▁pose	-11.5486
線形代数	-11.5486
頑	-11.5486
補充	-11.5486
できるだけ早く	-11.5486
年以上にわたって	-11.5486
引き分け	-11.5486
張力	-11.5486
隔離	-11.5486
駆け	-11.5486
▁Vuelo	-11.5486
1〜2	-11.5486
に入学し	-11.5486
rujesca	-11.5486
都塚	-11.5486
混ざ	-11.5487
願望	-11.5487
を引き受け	-11.5487
を設け	-11.5487
服装	-11.5487
連鎖	-11.5487
検知	-11.5487
資質	-11.5487
新たに	-11.5487
ステルス	-11.5487
感染症	-11.5487
郵便局	-11.5487
招待状	-11.5487
インテリア	-11.5487
即位	-11.5487
地獄	-11.5487
罰金	-11.5487
結末	-11.5487
の読み方	-11.5487
重力定数	-11.5487
有機化合物	-11.5487
可変	-11.5487
お菓子	-11.5487
早めに	-11.5487
民間	-11.5487
Front	-11.5487
冷静	-11.5487
香港	-11.5487
のように聞こえます	-11.5488
呼びかけ	-11.5488
現れる	-11.5488
キャップ	-11.5488
怪物	-11.5488
地理的な特徴	-11.5488
heart	-11.5488
▁convi	-11.5488
接続詞	-11.5488
精神形成	-11.5488
病状	-11.5488
顧客ロイヤルティ	-11.5488
ソフトウェアエンジニア	-11.5488
旋回	-11.5488
ファイルローダー	-11.5488
ローマ帝国	-11.5488
ブログ投稿	-11.5488
ポルトガル語	-11.5488
到達できない	-11.5488
羽毛	-11.5489
を称え	-11.5489
文化財	-11.5489
の一形態	-11.5489
楽章	-11.5489
マルチメディア	-11.5489
を解き	-11.5489
に戻った	-11.5489
地殻	-11.5489
アレックス	-11.5489
特集	-11.5489
▁tonta	-11.5489
フラッシュ	-11.5489
豚肉	-11.5489
酸味	-11.549
リッジ	-11.549
民事	-11.549
お湯	-11.549
インターン	-11.549
放電	-11.549
▁exp	-11.549
を奪う	-11.549
教義	-11.549
)^(	-11.549
高速道路	-11.5491
WebApp	-11.5491
▁estaba	-11.5491
rate	-11.5491
美徳	-11.5491
フェルト	-11.5491
起用	-11.5491
ノーマン	-11.5491
参照シート	-11.5491
ドッグ	-11.5491
金曜日	-11.5491
をもとに	-11.5492
本棚	-11.5492
包み	-11.5492
コンピュータービジョン	-11.5492
を減らすため	-11.5492
大規模なデータセット	-11.5492
に特化した	-11.5492
ペンキ	-11.5492
adding	-11.5492
海岸線	-11.5492
自己ケア	-11.5492
排水	-11.5492
怖い	-11.5492
医療費	-11.5492
盗み	-11.5493
プロレス	-11.5493
ベニー	-11.5493
あげ	-11.5493
▁Tor	-11.5493
App	-11.5493
のニーズを満たす	-11.5493
ボーン	-11.5493
に入団し	-11.5493
パーカー	-11.5494
図形	-11.5495
よりも速く	-11.5495
にわたり	-11.5495
万円	-11.5495
放送局	-11.5495
にアクセスでき	-11.5495
若手	-11.5496
構造化された	-11.5496
ピアス	-11.5496
不変	-11.5496
移植	-11.5496
なるほど	-11.5496
nav	-11.5496
とのやり取り	-11.5497
トマス	-11.5497
者である	-11.5497
刺激的な	-11.5498
でも活躍し	-11.5498
はどんな感じ	-11.5498
問題の解決策	-11.5499
を確認して	-11.5499
溢れ	-11.5499
ベール	-11.5499
Time	-11.5499
ええ	-11.5499
sheets	-11.5499
水温	-11.5499
幼い	-11.55
キリン	-11.55
客観的な	-11.55
Join	-11.5501
取引戦略	-11.5501
多型	-11.5501
という名称	-11.5501
の詳細については	-11.5501
名の由来は	-11.5501
あらすじを教えてください	-11.5502
を生み出すことができます	-11.5502
神々	-11.5502
ons	-11.5502
args	-11.5502
キック	-11.5503
国際関係	-11.5503
木のチャック	-11.5504
サマー	-11.5504
と信じられてい	-11.5504
フライト	-11.5504
把握	-11.5504
を提供したり	-11.5505
ados	-11.5505
パッケージをインストールする	-11.5506
ハート	-11.5506
するものです	-11.5508
として利用され	-11.5508
大陸システム	-11.5508
時間内に	-11.5509
を含めてください	-11.5509
外見	-11.551
を含めることができます	-11.5511
1955	-11.5511
下部	-11.5511
として活動していました	-11.5512
専門分野	-11.5512
初回	-11.5513
芸術作品	-11.5514
を定義し	-11.5514
に重点を置いて	-11.5516
建設されました	-11.5517
を完全に理解	-11.5518
を攻撃する	-11.5518
長期間	-11.5519
前方	-11.5519
は次のようなもの	-11.552
冷蔵庫には	-11.5522
するために使用できます	-11.5522
実体	-11.5522
水質	-11.5522
環境要因	-11.5522
ヤング	-11.5522
に耐える	-11.5522
記憶力	-11.5523
ことを約束し	-11.5523
イギリス人	-11.5524
が発生する可能性	-11.5524
受賞歴	-11.5526
▁cas	-11.5526
生き残り	-11.5527
どのくらいの期間	-11.5527
街道	-11.5527
アイス	-11.5527
諸国	-11.5528
自然光	-11.553
ボブとパトリックは	-11.553
どの大会	-11.5531
を象徴してい	-11.5532
を抑え	-11.5533
1952	-11.5533
朝食を食べる	-11.5533
文学部	-11.5533
に留意	-11.5536
小数	-11.5536
を指定します	-11.5536
という概念	-11.5538
文を作成してください	-11.5538
▁quema	-11.5538
Sub	-11.5539
を実現し	-11.5539
日本でも	-11.554
公平な	-11.5541
原則として	-11.5542
lines	-11.5545
ための簡単な	-11.5546
▁[1,	-11.555
が行った	-11.555
作成および	-11.5554
の香り	-11.5554
になるために	-11.5555
に到達します	-11.5558
影響を与えます	-11.5559
非常に高い	-11.556
秋田	-11.5563
を担当します	-11.5563
語られ	-11.5565
服を着	-11.5566
学科	-11.5567
何よりも	-11.5568
を好みます	-11.5569
込んでい	-11.5569
を手に	-11.5571
それ以外の場合	-11.5571
大文字	-11.5572
をクリックし	-11.5572
大きくなります	-11.5573
機能を提供する	-11.5574
より長い	-11.558
ギリシャ語	-11.5584
きっかけ	-11.5584
重要な概念	-11.5588
と対話し	-11.559
で開催された	-11.5591
への貢献	-11.5591
"、"	-11.5592
Bing	-11.5595
の時代から	-11.5596
旅に出	-11.5598
数時間	-11.5599
'])	-11.5601
中部	-11.5601
より良く	-11.5604
たとされています	-11.5605
一杯	-11.5614
ov	-11.5614
601	-11.5614
小説家	-11.5618
便利です	-11.562
山口県	-11.5621
lt	-11.5624
IDE	-11.5627
これらの課題	-11.5634
00,000	-11.5634
ity	-11.5637
スクリプトを作成	-11.5638
を与えてくれます	-11.5639
上昇し	-11.564
も可能です	-11.5642
として機能します	-11.5644
平和で	-11.5644
は数字の	-11.5647
ものではない	-11.5648
に焦点を当てます	-11.5648
思っている	-11.5652
を傷つける	-11.5657
この例は	-11.5657
ize	-11.5658
ことを知っていますが	-11.5658
に分割され	-11.5665
▁poderoso	-11.5665
歌人	-11.5668
国籍	-11.567
を建設し	-11.567
hog	-11.5672
も含め	-11.5673
が良く	-11.5674
を統合する	-11.5675
を使用する場合は	-11.5675
この論文	-11.5678
行いました	-11.568
と組み合わせて	-11.5681
として活動しました	-11.5682
内の他の	-11.5682
減数分裂は	-11.5683
の他の作品	-11.5685
という作品	-11.5685
PV	-11.5687
ことに加えて	-11.5692
を思い出し	-11.5694
を完成させる	-11.5696
いるため	-11.5697
任意	-11.57
探している	-11.57
それにより	-11.5705
していただけますか	-11.5706
アクセスできるように	-11.5707
を発見した	-11.5714
を念頭に置いて	-11.5716
を撮影し	-11.5718
ていると感じ	-11.5719
168	-11.572
(3)	-11.5725
しようとします	-11.573
教育システム	-11.5733
を識別する	-11.5733
を描写し	-11.5741
提供され	-11.5745
スキルを開発	-11.5749
posi	-11.5751
ああ	-11.5752
},	-11.5755
はそれほど	-11.5755
2,000	-11.5755
私の人生	-11.5756
を発明し	-11.5756
AFC	-11.5757
KA	-11.5759
適用する	-11.5759
cout	-11.576
どのような特徴がありま	-11.5761
データを使用して	-11.5761
歩いている	-11.5761
育てる	-11.5762
終了日	-11.5763
作成したい	-11.5766
無駄	-11.5768
urs	-11.5771
このアルバム	-11.5772
再開	-11.5772
名古屋市	-11.5775
リストを作成する	-11.5777
年までに	-11.5784
生成してください	-11.5785
が一般的です	-11.5786
聖書の	-11.5788
特定のタスク	-11.5789
Pro	-11.579
どんな人	-11.5793
交差	-11.5795
メートルです	-11.58
ユニーク	-11.5808
KB	-11.5809
覆われた	-11.5812
排出物	-11.5814
現れました	-11.5817
を支え	-11.5817
働	-11.5817
どこで行われ	-11.5818
印象を与え	-11.5824
を生成するために	-11.5825
つのオブジェクト	-11.5826
の規模	-11.5829
えられ	-11.5829
に影響を与えました	-11.5837
去った	-11.584
を取り入れた	-11.5847
lam	-11.5848
0〜2	-11.5849
pan	-11.5851
プレス	-11.5852
販売されています	-11.5853
を見ている	-11.5861
ダニ	-11.5862
たと言われています	-11.5862
医学部	-11.5871
に発生します	-11.5872
ガイ	-11.5874
ウェブ開発	-11.5882
することが困難	-11.5893
終わる	-11.5895
機械学習技術	-11.5897
で示され	-11.5898
不完全	-11.5901
にアプローチする	-11.5903
+5	-11.5907
が必要な場合	-11.5907
制作された	-11.5907
がない場合は	-11.5909
から始めます	-11.5909
アーク	-11.5913
分類します	-11.5916
することもあります	-11.5923
に住んでいる	-11.5931
教えていただけますか	-11.5932
を担当しました	-11.5933
▁fuera	-11.5933
の趣味は	-11.5934
使用していない	-11.5934
依存関係	-11.5935
デニムは	-11.5939
ないもの	-11.5941
月現在	-11.595
を宣言し	-11.5958
と言って	-11.596
べきではありません	-11.5961
________________	-11.5961
▁Gene	-11.5961
実行され	-11.5962
3.0	-11.5963
<=	-11.5965
周囲に	-11.5966
を表すために	-11.5968
良いでしょう	-11.5972
-11	-11.5973
ndo	-11.5973
関係を築く	-11.5977
地主	-11.5978
仮定すると	-11.5978
事業者	-11.5979
連絡先情報	-11.598
登場しました	-11.598
晴	-11.5981
トゥー	-11.5982
埋め	-11.5987
89	-11.5993
するかもしれません	-11.5995
方法を提案し	-11.6002
えた	-11.6006
似ています	-11.6006
怖	-11.6007
段階で	-11.6011
を実行して	-11.6014
他の色	-11.6015
dar	-11.6015
複雑な問題を解決	-11.6016
加熱し	-11.6016
を取得するための	-11.6022
ティブ	-11.6023
従う	-11.6025
FI	-11.6026
サポートを提供する	-11.603
非常に低い	-11.603
パッケージを構築する	-11.6035
開業しました	-11.604
に就任し	-11.6042
に登場し	-11.6043
にさらされ	-11.6044
に注意する	-11.6044
を販売する	-11.6051
伝えられ	-11.6055
すぎて	-11.606
どの地域で	-11.6063
コストを削減する	-11.6063
することを可能にする	-11.6066
開きます	-11.6069
リース	-11.607
するでしょう	-11.6074
▁ローラ	-11.6076
可能性があることに注意	-11.6077
することができるため	-11.6078
払	-11.6078
憲	-11.6079
試作	-11.6081
クソ	-11.6081
準備ができ	-11.6082
どのような活動をしている	-11.6082
ていただけますか	-11.6082
調べる	-11.6085
心理	-11.6088
必要があるため	-11.609
ions	-11.6092
を目指して	-11.6096
を比較して	-11.6097
あなたのニーズ	-11.6099
苦労	-11.61
注目	-11.6102
tive	-11.6103
かき混ぜます	-11.6104
を使用することができます	-11.6105
どこからでも	-11.6106
動力	-11.6108
あなたが私の	-11.6108
折	-11.6113
数分間	-11.6114
郡庁所在地は	-11.6115
問題に対する	-11.6117
含まれる	-11.6117
侵攻	-11.6118
届	-11.6119
増え	-11.612
生息しています	-11.6122
私も	-11.6123
を追加してください	-11.6126
乗車	-11.6127
昼	-11.6128
校区	-11.6128
ウクライナ	-11.613
同様	-11.6132
were	-11.6133
鍋で	-11.6134
ROM	-11.6134
ディン	-11.6138
を奨励する	-11.6138
stock	-11.614
検	-11.6142
合理的	-11.6143
を塗る	-11.6145
重要なタスク	-11.6146
パーソナライズ	-11.6146
共和	-11.6146
▁デニ	-11.6147
脆弱	-11.6147
刑	-11.6147
に惹かれ	-11.6148
判	-11.6149
拠	-11.6149
旋	-11.615
テキサス	-11.615
に連れて行き	-11.615
忘れられない	-11.6151
菓子	-11.6151
免疫	-11.6151
読みやすく	-11.6151
帳	-11.6151
温暖化	-11.6151
作物を栽培	-11.6151
パートナーシップ	-11.6151
耕	-11.6152
羅	-11.6152
フォロー	-11.6152
見たことのない	-11.6152
販	-11.6152
前例のない	-11.6152
Bongcloud	-11.6152
リチャード	-11.6152
を楽しんだ	-11.6152
援	-11.6152
探査	-11.6152
監	-11.6152
真剣に受け止め	-11.6152
ブルンジ	-11.6152
静岡	-11.6152
たっぷり	-11.6152
凝	-11.6152
嬉しい	-11.6152
遡	-11.6152
也	-11.6152
ステークホルダー	-11.6152
すなわち	-11.6152
モチーフ	-11.6152
人気を博し	-11.6152
教師なし学習	-11.6152
進歩を遂げ	-11.6152
史上最高の	-11.6152
ネットワーキング	-11.6152
ハリケーン	-11.6152
扉	-11.6152
襲撃	-11.6152
ディスカッション	-11.6152
多大な	-11.6152
ケプラー	-11.6152
腰	-11.6152
Paper	-11.6152
侯	-11.6152
メッセンジャー	-11.6152
塵	-11.6152
ピッコロ	-11.6152
刑務所	-11.6152
絶滅危惧種	-11.6152
ソウザ	-11.6152
アルミニウム	-11.6152
Graphics	-11.6152
employe	-11.6152
どう思いますか	-11.6152
いただければ幸いです	-11.6152
Blender	-11.6152
ゴルゴ	-11.6152
ニュートラル	-11.6152
バニラエキス	-11.6152
failure	-11.6152
▁この映画はいつ公開され	-11.6152
ボアズ	-11.6152
邸	-11.6152
GraphQL	-11.6153
println	-11.6153
オーガニック	-11.6153
カレッジ	-11.6153
亀	-11.6153
哺乳類	-11.6153
見積もり	-11.6153
buffer	-11.6153
jsonify	-11.6153
何をすべきか	-11.6153
セボルガ	-11.6153
陳述文	-11.6153
高齢者	-11.6153
Style	-11.6153
アメリカのフォークミュージック	-11.6153
遇	-11.6153
Dialogflow	-11.6153
SVG	-11.6153
Signal	-11.6153
協働	-11.6153
滋賀県	-11.6153
潤	-11.6153
PostgreSQL	-11.6153
▁Boca	-11.6153
ミサイル	-11.6153
叔父	-11.6153
忍	-11.6153
PNG	-11.6153
▁美方ケーブルネットワーク	-11.6153
はいけません	-11.6153
市町村	-11.6153
落ち着いた	-11.6153
bwr	-11.6153
さようなら	-11.6153
塩とコショウ	-11.6153
好奇心旺盛	-11.6153
捕まえ	-11.6153
Siri	-11.6153
バングラデシュ	-11.6153
三菱	-11.6153
圧縮	-11.6153
ほこり	-11.6153
DialogFlow	-11.6153
カンパニー	-11.6153
スポンサー	-11.6153
を作ってください	-11.6153
を苦しめ	-11.6153
同一の娘細胞	-11.6153
素晴らしく	-11.6153
いたずら	-11.6153
インターチェンジ	-11.6153
終わった	-11.6153
迷彩服	-11.6153
グローブ	-11.6153
サンタクロース	-11.6153
嘆	-11.6153
Tiktok	-11.6153
アントニオ	-11.6153
即座に	-11.6153
じゃ	-11.6153
菊	-11.6153
公安条例	-11.6153
航空機の渦巻き	-11.6153
スタイリング	-11.6153
徳島県	-11.6153
が判明し	-11.6153
ジョーンズ	-11.6153
援助	-11.6153
腎	-11.6153
評論家	-11.6153
fast	-11.6153
有用です	-11.6153
ニュアンス	-11.6153
リモートワーク	-11.6153
遠く離れた	-11.6153
投与	-11.6153
Leave	-11.6153
憎	-11.6153
パーティション	-11.6153
ショートカット	-11.6153
ワイルド	-11.6153
キャンセル	-11.6153
断熱材	-11.6153
オースティン	-11.6153
苦情	-11.6153
警備員	-11.6153
マルティン	-11.6153
マイクロソフト	-11.6153
スクエア	-11.6153
プレスリリース	-11.6153
迅速かつ効率的に	-11.6153
スライドショー	-11.6153
高まってい	-11.6153
ホイール	-11.6153
余裕	-11.6153
砕いた	-11.6153
合併症	-11.6153
宿題	-11.6153
絶縁	-11.6153
魔法使い	-11.6153
▁install	-11.6153
個体群	-11.6153
判定	-11.6153
上回る	-11.6153
人の子供がい	-11.6153
数十億	-11.6153
に触発され	-11.6154
休憩をとる	-11.6154
▁may	-11.6154
▁keys	-11.6154
▁pull	-11.6154
チュア	-11.6154
新規	-11.6154
ファンタジーの世界	-11.6154
静岡県	-11.6154
ソーラーオーブン	-11.6154
サイバー攻撃	-11.6154
誰にでも	-11.6154
大垣	-11.6154
アウディ	-11.6154
井戸	-11.6154
バウン	-11.6154
の人口はどのくらい	-11.6154
ライティング	-11.6154
チーズケーキ	-11.6154
請求書	-11.6154
パック戦術	-11.6154
すりおろした生	-11.6154
ホビット	-11.6154
猫と犬の	-11.6154
我々	-11.6154
風刺	-11.6154
開校	-11.6154
オーバル	-11.6154
阪神	-11.6154
歳の少年	-11.6154
存在していた	-11.6154
となっている	-11.6155
果実	-11.6155
残留	-11.6155
対称	-11.6155
より大きい	-11.6155
反逆	-11.6155
とは何かを説明してください	-11.6155
wine	-11.6155
定められ	-11.6155
▁Live	-11.6155
降水量	-11.6155
を確認すること	-11.6155
歌唱	-11.6155
resized	-11.6155
replace	-11.6155
特急	-11.6155
乾いた	-11.6155
選好	-11.6155
インフレ	-11.6155
connect	-11.6156
慢性	-11.6156
が掲載されています	-11.6156
auto	-11.6156
データマイニング	-11.6156
前進し	-11.6156
以下のようになります	-11.6156
usion	-11.6156
頭痛	-11.6156
休み	-11.6156
近接	-11.6156
開校されました	-11.6156
以下の手順に従ってください	-11.6156
ファイルを開く	-11.6156
コリンズ	-11.6156
しゃ	-11.6157
クルーズ	-11.6157
1973	-11.6157
降下	-11.6157
支部	-11.6158
指示に従って	-11.6158
article	-11.6158
裕福な	-11.6158
シャーマン	-11.6158
現役	-11.6158
意図的に	-11.6158
収入源	-11.6158
汎用性	-11.6158
不要な	-11.6159
店員	-11.6159
ローンチ	-11.6159
Year	-11.6159
パッケージの定義	-11.6159
知られていません	-11.6159
出力を最適化	-11.6159
金融機関	-11.6159
バレット	-11.6159
1966	-11.6159
パッド	-11.6159
知事	-11.6159
カジュアルな	-11.616
▁mul	-11.616
ファーム	-11.616
GUI	-11.616
代々	-11.616
上陸	-11.6161
この用語は	-11.6161
望ましい結果	-11.6161
圧倒的な	-11.6162
肉食	-11.6162
▁Man	-11.6162
社交的な	-11.6162
者は誰ですか	-11.6162
金沢	-11.6163
グランド	-11.6163
各ピース	-11.6163
薄い	-11.6163
を出力します	-11.6163
曲がり	-11.6163
映画製作	-11.6164
経営者	-11.6164
タコス	-11.6164
espera	-11.6165
植え付け	-11.6165
ウェイン	-11.6165
ドラム	-11.6166
拳	-11.6166
星々	-11.6166
関心のある	-11.6166
高品質で	-11.6166
ジャム	-11.6166
テキストベースの	-11.6167
テール	-11.6167
Para	-11.6167
を反映しています	-11.6167
年ぶり	-11.6167
デスク	-11.6167
ペレス	-11.6167
本堂	-11.6167
を最小限に抑えるために	-11.6168
本能	-11.6168
▁17.	-11.6169
フルート	-11.6169
国連	-11.6169
分母	-11.617
ダウンロードできます	-11.617
ビリー	-11.617
する場合があります	-11.6171
コンテスト	-11.6171
成功裏に	-11.6172
世界最大の	-11.6172
を使用する必要がある	-11.6172
▁$$	-11.6172
ホイ	-11.6172
安価な	-11.6173
と主張しています	-11.6173
きれいな	-11.6173
周りに	-11.6174
メッセージを送信	-11.6175
続編	-11.6175
軍事力	-11.6176
家屋	-11.6176
の中にある	-11.6176
引き出し	-11.6178
職場環境	-11.6179
歴史を通じて	-11.6179
を交換します	-11.6179
クラスター	-11.618
block	-11.618
を楽しむことができます	-11.618
自由市場	-11.6181
キーワードを使用して	-11.6181
タスクを実行し	-11.6181
浄化	-11.6182
連れ	-11.6183
回復力	-11.6183
真剣に	-11.6183
に話しかけ	-11.6184
なんて	-11.6185
立法	-11.6187
ビール	-11.6189
として知られている	-11.6189
との相互作用	-11.6191
白鳥	-11.6191
の主な特徴	-11.6193
都市計画	-11.6193
ネコ	-11.6193
Math	-11.6195
で始まる	-11.6196
を殺す	-11.6197
NY	-11.6197
データを分析する	-11.6199
どのような仕事をしてい	-11.62
原子力	-11.62
休日	-11.6201
つのベクトル	-11.6201
角切りに	-11.6202
Que	-11.6203
総費用	-11.6203
に進み	-11.6205
成長率	-11.6207
inet	-11.6209
植民地化	-11.6209
現実的な	-11.6211
洗い	-11.6211
を設計する	-11.6212
立候補し	-11.6212
させるため	-11.6212
ユーザー名	-11.6215
filename	-11.6215
Well	-11.6217
を失うこと	-11.6217
国際大会	-11.6218
残る	-11.6219
集め	-11.6221
で知られている	-11.6221
外国人	-11.6222
にインストールする	-11.6225
を更新します	-11.6227
スキレット	-11.6228
iza	-11.6229
体内の	-11.623
聞こえます	-11.6233
情報が必要です	-11.6234
オンライン学習	-11.6234
▁この駅は	-11.6234
進め	-11.6236
今でも	-11.6236
リリー	-11.6237
だと感じ	-11.6238
多目的	-11.624
新しいテクノロジー	-11.6241
作成した	-11.6242
それはとても	-11.6242
出産	-11.6245
に到着する	-11.6247
などの分野で	-11.6249
最も簡単な	-11.625
kb	-11.625
▁mov	-11.625
競争力	-11.6251
取得できます	-11.6252
群れ	-11.6254
小さくて	-11.6255
データから学習し	-11.6259
人生の意味	-11.6261
レラ	-11.6262
日はいつですか	-11.6262
ことはできない	-11.6263
戦略的な	-11.627
金融業界	-11.6271
を使用している場合	-11.6271
を確認できます	-11.6271
関係性	-11.6273
に分けられ	-11.6274
続けること	-11.6275
科学者たち	-11.6276
▁18.	-11.6276
代表として	-11.6279
不可解なクロスワード	-11.6281
段落を	-11.6283
をプレイする	-11.6285
▁与えられたテキスト	-11.6286
構築された	-11.6287
重要な要素です	-11.6288
ハニカットさんは	-11.629
彼らの人生	-11.6292
を制限し	-11.6297
▁don	-11.6298
に関する知識	-11.6304
スクリプト言語	-11.6308
fn	-11.6309
ブナ	-11.6315
周りの世界	-11.6316
あなたの場所	-11.6323
認識されている	-11.6323
177	-11.6323
スキルを向上させる	-11.6325
に出場し	-11.6325
ブレイ	-11.6333
子どもたちが	-11.6334
あなたも	-11.6341
に建てられた	-11.6342
後継者	-11.6343
▁主人公は	-11.6346
の上部に	-11.6347
クラウ	-11.6358
データにアクセス	-11.6363
彼自身	-11.6366
入力データ	-11.6366
楽しんで	-11.6369
つの特徴	-11.637
次のコマンド	-11.637
util	-11.6371
ように設計された	-11.6376
解決します	-11.6376
開発された	-11.6376
これらすべて	-11.6377
システムの開発	-11.6381
一時期	-11.6381
に関与してい	-11.6384
ものになります	-11.6385
の準備をする	-11.6392
交換する	-11.6395
要因があります	-11.6396
を評価すること	-11.6399
であることを確認	-11.6404
するようになりました	-11.6405
関係を築き	-11.6406
同じ重量	-11.6407
を広める	-11.6407
サイトまたは	-11.6416
たからです	-11.6419
せます	-11.6421
いう	-11.6421
どこで生まれ	-11.6427
創設者	-11.6431
Ol	-11.6434
作成できる	-11.6436
計画を立てる	-11.6438
夏の日	-11.6439
119	-11.6439
隠れた	-11.6441
ガイア	-11.6442
宣伝	-11.645
守り	-11.6451
好む	-11.6453
成功しました	-11.6454
ライヴ	-11.6454
1200	-11.6455
obj	-11.6455
あなたが持っている	-11.6458
触れる	-11.646
位になりました	-11.646
位相	-11.646
with	-11.6461
ウィル	-11.6463
個人化	-11.6464
キャン	-11.647
から作られ	-11.6473
ノック	-11.6477
その他の要因	-11.6477
入れた	-11.6485
理解できる	-11.649
田中	-11.6491
プリンス	-11.6499
どうですか	-11.6501
キュー	-11.6502
訪問する	-11.6503
過ごすこと	-11.6504
を報告し	-11.6505
も使用できます	-11.6507
1.0	-11.651
しようとしています	-11.6511
のが難しい	-11.6514
というものです	-11.6518
あなたの心	-11.6518
経済状況	-11.6521
ようとし	-11.6521
ことができるようになり	-11.6522
を果たし	-11.6522
た際に	-11.6522
ようにプログラムされ	-11.6524
殺し	-11.6524
に接続されてい	-11.6527
に注意してください	-11.6529
歌う	-11.6532
意味を持つ	-11.6534
高く評価されてい	-11.6537
チャン	-11.6538
ios	-11.6539
▁sub	-11.6541
みてください	-11.6546
最も話されている言語	-11.6547
手順に従ってください	-11.6552
ことがわかってい	-11.6552
終わります	-11.6554
ようになり	-11.6564
する方法はありますか	-11.6566
同一	-11.657
研究所で	-11.6573
トニー	-11.6574
設計された	-11.6579
ヨン	-11.6579
iendo	-11.6583
と出会い	-11.6584
公的	-11.6584
プレイヤーに	-11.6588
にあふれ	-11.6593
に出演しています	-11.6593
を着て	-11.6594
quit	-11.6596
を使用するため	-11.66
女神	-11.6602
見たり	-11.6607
に統合され	-11.6608
Li	-11.661
8%	-11.6613
を許可する	-11.6619
の曲です	-11.6623
大気中に	-11.6626
ッカ	-11.6629
を証明する	-11.6629
に直面して	-11.6632
読み込み	-11.6633
不適切	-11.664
vor	-11.6642
が評価され	-11.6643
る可能性があるため	-11.6643
価値がある	-11.6645
このレシピ	-11.6646
に入りました	-11.6647
を集めて	-11.6648
マフィンの男	-11.6648
をかけて	-11.665
アイテムのリスト	-11.6653
指定されています	-11.6653
住宅地	-11.6663
bol	-11.6664
同じように	-11.6664
を記録しました	-11.6677
することができません	-11.6688
登場する	-11.669
整	-11.669
▁マフィンの男は	-11.6693
ht	-11.6699
使わ	-11.67
再発	-11.67
によってのみ	-11.6704
することを検討する	-11.6704
方法はありません	-11.6705
所在	-11.6706
ツィオ	-11.6708
を計算するには	-11.6709
ために使用され	-11.6715
提供してください	-11.6716
出します	-11.6725
木製	-11.6725
話し合い	-11.6727
されるようになりました	-11.6728
Bri	-11.6728
が表示され	-11.6729
0.9	-11.6736
さま	-11.6736
設立され	-11.6737
失敗した	-11.6739
課税され	-11.6741
シロ	-11.6741
する可能性のある	-11.6745
に分布しています	-11.6745
▁Ne	-11.6748
理解する必要があります	-11.6748
1°	-11.6748
を使っています	-11.6749
有益	-11.6755
何度	-11.6756
部族	-11.6757
情報を収集し	-11.6757
芸術的	-11.676
ルック	-11.6761
プランク	-11.6763
セキュリティシステム	-11.6763
cin	-11.6764
建てられました	-11.6764
最善です	-11.6765
建て	-11.6767
ape	-11.6769
で実行され	-11.677
支払わ	-11.677
アドバイスを求め	-11.6771
ther	-11.6773
cap	-11.6774
効果がある	-11.6774
を向上させること	-11.6776
にまとめ	-11.6777
どの地域	-11.6779
フェイス	-11.6782
揺	-11.6786
ることができない	-11.6788
人にとっては	-11.6789
を共有すること	-11.6789
CU	-11.6791
社員	-11.6792
明るい色	-11.6793
▁255	-11.6811
の特徴として	-11.6813
その美しさ	-11.6813
は書かれていません	-11.6815
ファイルを作成し	-11.6816
に到達するために	-11.6819
昇順	-11.6822
Con	-11.6823
に入社し	-11.6826
刻まれ	-11.6831
回復し	-11.6831
ピーナッツバター	-11.6832
の略で	-11.6833
忘れないでください	-11.6833
ディオン	-11.6834
することになりました	-11.6834
顧問	-11.6839
賢	-11.6839
アポ	-11.684
に備えて	-11.6842
施行	-11.6843
人もい	-11.6843
答	-11.6845
▁アンゴ	-11.6845
ナビゲート	-11.6846
しようとし	-11.6846
使用されていますか	-11.6848
即	-11.6851
剥	-11.6851
のスタイルで	-11.6852
進める	-11.6853
サーバーレス	-11.6856
混雑	-11.6857
熟練	-11.6857
▁TH	-11.6857
ウェブウォーカー	-11.6859
有望な	-11.6859
に不可欠な	-11.686
再生可能なエネルギー源	-11.6861
リコ	-11.6862
併	-11.6863
魔	-11.6863
写	-11.6863
蒸	-11.6864
廷	-11.6864
インスタントメッセンジャー	-11.6864
ったため	-11.6864
インテリジェンス	-11.6864
況	-11.6864
誠実	-11.6865
花びら	-11.6865
起業	-11.6865
腺	-11.6865
およそ	-11.6865
スティーヴ	-11.6865
授	-11.6865
舌	-11.6865
ちゃ	-11.6865
生産性の向上	-11.6865
鑑	-11.6865
衣	-11.6866
挙	-11.6866
故	-11.6866
ことを学ぶことができ	-11.6866
騎	-11.6866
パーソナル	-11.6866
▁持続可能な未来の農業と自動化	-11.6866
change	-11.6866
明らかな	-11.6866
オーディエンス	-11.6866
幻	-11.6866
曲がりくねった	-11.6866
奉仕	-11.6866
リットル	-11.6866
学際的な	-11.6866
デマテリアライザー	-11.6866
錬金術	-11.6866
に等しくなります	-11.6866
同軸ケーブル	-11.6866
ファラオ	-11.6866
子守歌	-11.6866
幡	-11.6866
[...]
