<pad>	0
<unk>	0
<s>	0
</s>	0
<USER>	0
<ASSISTANT>	0
<SYSTEM>	0
<bof>	0
<eof>	0
▁	-3.04381
、	-3.30604
。	-3.57819
の	-3.7746
)	-4.06889
年	-4.25524
・	-4.34084
(	-4.37002
は	-4.41848
が	-4.61562
に	-4.83736
を	-4.83857
月	-4.90745
▁-	-4.99173
で	-5.07706
と	-5.15552
」	-5.18674
「	-5.27097
日	-5.30233
:	-5.43572
1	-5.56475
2	-5.65769
』	-5.82106
3	-5.82817
から	-6.00126
4	-6.04742
した	-6.06579
や	-6.08565
し	-6.09231
『	-6.12888
も	-6.23513
である	-6.24339
する	-6.28873
5	-6.31793
-	-6.4
として	-6.40089
.	-6.42057
6	-6.4552
,	-6.47533
10	-6.51372
7	-6.52664
では	-6.53059
た	-6.59173
8	-6.59724
9	-6.64809
▁(	-6.65464
第	-6.65648
▁『	-6.74896
12	-6.84629
市	-6.85799
ス	-6.85808
には	-6.88969
人	-6.89177
大	-6.893
な	-6.89498
る	-6.89853
/	-6.92935
11	-6.93319
s	-6.93611
町	-7.02809
された	-7.0319
している	-7.04543
という	-7.05109
など	-7.05816
この	-7.0664
また	-7.08669
して	-7.09325
子	-7.113
その	-7.11661
一	-7.14929
回	-7.16123
て	-7.16981
年に	-7.19067
山	-7.21214
昭和	-7.23105
ズ	-7.27936
本	-7.30087
駅	-7.30572
中	-7.3192
ている	-7.32985
▁第	-7.33586
による	-7.35581
部	-7.35836
▁脚注	-7.36759
線	-7.37582
20	-7.3766
!	-7.3902
ト	-7.40276
号	-7.4032
日本	-7.40348
か	-7.4086
15	-7.42024
ド	-7.4266
され	-7.43687
り	-7.44416
により	-7.44783
村	-7.46106
ア	-7.46389
日に	-7.46767
▁外部リンク	-7.48515
話	-7.49034
S	-7.49635
川	-7.49897
17	-7.50213
となる	-7.5024
A	-7.50406
30	-7.50788
元	-7.50985
▁「	-7.51226
ク	-7.51671
となった	-7.52665
ラ	-7.52847
い	-7.53076
される	-7.53511
によって	-7.5363
上	-7.53869
18	-7.54979
郡	-7.55313
長	-7.55873
16	-7.56308
道	-7.56776
であり	-7.57916
へ	-7.58223
平成	-7.58373
より	-7.58407
名	-7.58783
分	-7.59355
』(	-7.59414
新	-7.59909
国	-7.61791
、「	-7.641
前	-7.6456
13	-7.65288
者	-7.65959
B	-7.66524
島	-7.67102
田	-7.67304
14	-7.67503
カ	-7.68238
であった	-7.68484
〜	-7.6919
ナ	-7.69891
家	-7.70036
25	-7.70387
への	-7.70997
三	-7.71558
リ	-7.71756
コ	-7.71767
m	-7.72803
東	-7.73633
"	-7.73653
同	-7.74043
後	-7.74212
野	-7.74282
法	-7.74404
水	-7.74532
位	-7.75018
がある	-7.76083
南	-7.76135
まで	-7.7707
マ	-7.77211
ル	-7.77217
内	-7.77289
戦	-7.78155
高	-7.79166
C	-7.79621
タ	-7.79745
ノ	-7.8005
下	-7.80429
ため	-7.80698
き	-7.81006
▁関連項目	-7.81008
19	-7.81425
生	-7.8219
大学	-7.82877
ら	-7.8295
M	-7.83573
性	-7.84528
お	-7.84882
していた	-7.8496
美	-7.85123
▁/	-7.85238
時	-7.85273
▁|	-7.87349
されている	-7.87501
会	-7.87586
西	-7.87783
み	-7.87797
小	-7.8829
24	-7.88367
21	-7.88631
地	-7.89288
22	-7.90123
型	-7.90509
レ	-7.91573
木	-7.91622
北	-7.92013
く	-7.92226
正	-7.92412
原	-7.92879
社	-7.93221
だった	-7.93221
放送	-7.93641
つ	-7.93903
D	-7.94204
ム	-7.94213
化	-7.95313
F	-7.95351
ダ	-7.95384
マン	-7.95555
的な	-7.95993
年生	-7.96597
バ	-7.9674
城	-7.97235
23	-7.97418
～	-7.97539
光	-7.97542
平	-7.97599
的	-7.97777
二	-7.97902
シ	-7.98208
数	-7.9824
28	-7.9867
デ	-7.98802
版	-7.99106
代	-7.99679
26	-7.99798
手	-7.99883
ていた	-7.9992
27	-8.00122
にも	-8.00178
G	-8.0022
金	-8.00318
東京	-8.01829
ロ	-8.02549
」(	-8.02971
映画	-8.03315
および	-8.03437
R	-8.03464
=	-8.03547
神	-8.03732
しかし	-8.04505
などの	-8.04746
全	-8.04799
オ	-8.0485
キ	-8.04865
サ	-8.05051
'	-8.05156
フ	-8.05435
作品	-8.05648
シリーズ	-8.0581
す	-8.05971
29	-8.06676
▁日本の	-8.06841
ジ	-8.06963
こ	-8.07234
った	-8.07314
文	-8.075
でも	-8.07741
ザ	-8.086
において	-8.08776
等	-8.09105
寺	-8.09826
和	-8.09826
エ	-8.09843
イ	-8.10003
海	-8.10037
巻	-8.10439
にて	-8.11082
王	-8.11874
行	-8.12193
T	-8.12346
▁of	-8.12353
ガ	-8.13066
その後	-8.13787
P	-8.14063
見	-8.14884
系	-8.1509
月に	-8.15262
リー	-8.15313
作	-8.15315
形	-8.15961
区	-8.16318
▁S	-8.16447
明治	-8.17124
車	-8.17134
にある	-8.17203
用	-8.17337
石	-8.176
目	-8.1775
のみ	-8.17764
所	-8.18065
K	-8.1837
勝	-8.18483
31	-8.19388
H	-8.19793
後に	-8.19865
W	-8.20167
ツ	-8.20357
ミ	-8.20736
となり	-8.21447
史	-8.21464
州	-8.22024
う	-8.22044
世界	-8.22404
との	-8.2254
式	-8.22659
▁役	-8.22836
物	-8.22854
約	-8.22917
間	-8.22957
における	-8.23017
さ	-8.2305
賞	-8.23331
ン	-8.23334
曲	-8.23375
男	-8.23408
番組	-8.23573
だ	-8.23743
谷	-8.23851
機	-8.24147
N	-8.24506
ディ	-8.24626
ゲーム	-8.24779
橋	-8.24876
チ	-8.24967
J	-8.25
グ	-8.25781
学	-8.25913
ニ	-8.25962
真	-8.25977
旧	-8.26013
日本の	-8.26873
L	-8.26921
明	-8.27395
立	-8.27414
外	-8.27696
バス	-8.27705
監督	-8.27902
ティ	-8.28347
e	-8.2836
同年	-8.2865
t	-8.28931
ネ	-8.29084
軍	-8.29343
現	-8.29612
作曲	-8.29778
屋	-8.31263
点	-8.31292
セ	-8.31496
」「	-8.31593
花	-8.31716
局	-8.32079
ビ	-8.32406
出	-8.32528
E	-8.32738
力	-8.32788
▁B	-8.32846
地域	-8.32942
について	-8.33153
時間	-8.33219
ない	-8.33676
▁概要	-8.33713
こと	-8.33766
出身の人物	-8.33782
V	-8.3464
科	-8.34678
メ	-8.34847
チーム	-8.35046
書	-8.35411
小学校	-8.3546
50	-8.35615
体	-8.35644
y	-8.35768
世	-8.3595
ー	-8.36009
県	-8.36238
&	-8.36521
ブ	-8.36795
面	-8.36908
イン	-8.36991
役	-8.3709
って	-8.37557
台	-8.37968
ハ	-8.38029
音	-8.38396
活動	-8.384
とは	-8.39
ま	-8.39237
口	-8.39303
方	-8.3939
テ	-8.39515
無	-8.39688
風	-8.40071
ており	-8.40096
アルバム	-8.40363
店	-8.40527
語	-8.40792
教育	-8.40897
となっている	-8.41011
i	-8.41294
女	-8.41352
井	-8.41441
学校	-8.41619
事	-8.41819
期	-8.42101
義	-8.42332
テレビ	-8.42367
室	-8.42403
▁A	-8.42508
公	-8.42721
さらに	-8.42887
▁参考文献	-8.42966
頭	-8.43033
だが	-8.43285
プ	-8.43635
パ	-8.44018
選手	-8.45232
場	-8.45338
いた	-8.45388
en	-8.45759
||	-8.46053
▁出典	-8.4606
重	-8.4649
ゴ	-8.46638
愛	-8.46716
番	-8.46764
事業	-8.46784
▁the	-8.47315
センター	-8.47344
での	-8.47357
編	-8.47758
馬	-8.47819
心	-8.47829
万	-8.47833
モ	-8.47928
になる	-8.47988
100	-8.48096
鉄道	-8.48454
白	-8.48694
株式会社	-8.48754
館	-8.48864
及び	-8.48884
研究	-8.49185
天	-8.49292
なお	-8.49553
カー	-8.49792
40	-8.50623
年には	-8.50882
情報	-8.51123
両	-8.51279
歳	-8.51373
音楽	-8.51384
ウ	-8.51406
宮	-8.51407
久	-8.51623
不	-8.51655
バー	-8.51681
▁3	-8.51784
国際	-8.52153
代表	-8.52409
星	-8.52625
人の	-8.53133
信	-8.53427
ヤ	-8.53524
め	-8.53543
▁F	-8.53551
種	-8.53803
シュ	-8.53907
▁C	-8.54298
雄	-8.54772
里	-8.54843
船	-8.54863
夫	-8.54886
吉	-8.55331
とも	-8.55351
グループ	-8.55386
プロ	-8.55955
次	-8.56312
ケ	-8.56415
施設	-8.56466
各	-8.56597
→	-8.57022
もの	-8.5706
流	-8.57117
になった	-8.5712
事件	-8.57121
リーグ	-8.57567
級	-8.57634
度	-8.57728
▁|-	-8.58173
できる	-8.58263
安	-8.5871
清	-8.58749
サン	-8.59203
門	-8.59234
え	-8.59263
大会	-8.59264
▁日本	-8.59358
中学校	-8.59574
があり	-8.60033
ある	-8.60132
I	-8.60489
問題	-8.60512
丸	-8.60751
中央	-8.60852
とする	-8.60871
武	-8.60883
江	-8.60973
トン	-8.60993
初	-8.61081
女性	-8.61187
ち	-8.61424
別	-8.61604
高等学校	-8.62303
X	-8.62355
と共に	-8.62633
年から	-8.63015
太	-8.63037
文化	-8.63355
英	-8.6341
存命人物	-8.6343
成	-8.6351
開発	-8.63565
を持つ	-8.63668
気	-8.63833
む	-8.63898
、『	-8.63944
歌	-8.64116
▁声	-8.6426
ヒ	-8.64324
アン	-8.64672
さん	-8.64684
ポ	-8.64937
▁P	-8.65268
ワ	-8.65348
ラン	-8.65391
計画	-8.65406
アメリカ	-8.65961
論	-8.65976
実	-8.65986
▁4	-8.66502
〈	-8.66523
市立	-8.66573
編曲	-8.66764
関係	-8.66798
からの	-8.66825
当時	-8.6683
th	-8.66975
▁2	-8.66986
之	-8.67171
朝	-8.67346
n	-8.67403
直	-8.67428
通	-8.67432
システム	-8.6745
ラー	-8.67506
これは	-8.67746
スター	-8.67849
人物	-8.68066
コン	-8.68151
試合	-8.68206
制	-8.68337
al	-8.68609
er	-8.69125
地区	-8.69314
着	-8.69539
ボ	-8.69664
ソ	-8.70045
つの	-8.70544
組	-8.70647
出演	-8.7076
ター	-8.70857
モデル	-8.70952
色	-8.70978
O	-8.70991
座	-8.713
▁The	-8.71341
シングル	-8.71351
治	-8.71401
▁K	-8.71556
大阪	-8.71622
院	-8.71853
▁||	-8.71961
尾	-8.72262
太郎	-8.72306
に対して	-8.72447
それ	-8.72473
0	-8.72567
じ	-8.72656
有	-8.7268
h	-8.72716
に関する	-8.72716
的に	-8.72746
シー	-8.73228
隊	-8.73255
しており	-8.73284
現在の	-8.73476
そして	-8.73489
アル	-8.73603
年度	-8.73657
氏	-8.74168
▁T	-8.74203
▁M	-8.74421
志	-8.74542
政	-8.74695
一覧	-8.74727
士	-8.74888
発売	-8.75117
津	-8.75161
シーズン	-8.75402
会社	-8.75624
対	-8.75668
▁H	-8.75834
春	-8.75918
されていた	-8.76237
多	-8.76272
ベ	-8.76296
他の	-8.76358
主	-8.76457
林	-8.76498
良	-8.76515
▁D	-8.76523
いる	-8.76546
中国	-8.76656
制作	-8.76675
とともに	-8.76768
の選手	-8.76824
よ	-8.76867
NHK	-8.76892
協会	-8.76991
in	-8.77284
リン	-8.77293
沢	-8.77656
ing	-8.77855
組織	-8.77923
都市	-8.78003
すると	-8.78156
特に	-8.78159
女子	-8.78181
高校	-8.78368
a	-8.78556
総	-8.78814
時代	-8.78922
条	-8.79023
のため	-8.79434
▁2010	-8.79437
空	-8.79687
字	-8.79691
松	-8.798
ず	-8.79885
ラジオ	-8.80487
多くの	-8.80534
戦争	-8.80937
▁and	-8.81022
ニー	-8.81518
発	-8.81551
入	-8.81585
または	-8.81661
記	-8.81809
千	-8.81864
▁G	-8.81952
スト	-8.8218
円	-8.82205
▁2012	-8.82312
]	-8.82336
権	-8.8261
Y	-8.82842
CD	-8.82905
八	-8.83028
ことを	-8.83044
られた	-8.83091
官	-8.83092
クラブ	-8.83132
▁2015	-8.83456
▁2016	-8.83476
れ	-8.83517
通り	-8.83642
古	-8.83661
ロー	-8.83781
ほか	-8.83921
60	-8.83921
▁2014	-8.83938
兵	-8.8402
▁2011	-8.84051
d	-8.84115
社会	-8.84326
▁2013	-8.84516
マー	-8.84527
o	-8.84587
ジャ	-8.85145
五	-8.85326
先	-8.85344
幸	-8.85592
ソン	-8.85768
技術	-8.85858
所属	-8.8594
▁作詞	-8.85945
身	-8.85973
▁2009	-8.86386
黒	-8.86507
48	-8.86596
▁2017	-8.86636
夏	-8.86656
ただし	-8.86751
総合	-8.86902
公園	-8.86947
イベント	-8.86969
ed	-8.87218
章	-8.87272
▁E	-8.87315
▁2008	-8.87414
▁2018	-8.87503
▁2007	-8.87557
出版	-8.8756
人間	-8.87918
ライブ	-8.88015
経済	-8.88167
エル	-8.88672
あ	-8.88755
に対する	-8.88801
日発売	-8.88969
品	-8.89012
▁2019	-8.89072
広	-8.89161
例	-8.89207
を行う	-8.89209
知	-8.89289
▁※	-8.89392
時に	-8.89498
年間	-8.89549
フランス	-8.89658
御	-8.8971
表	-8.89861
訳	-8.89961
ヴィ	-8.90061
神社	-8.90423
記録	-8.90446
ギ	-8.90455
ドラマ	-8.90457
45	-8.90567
TBS	-8.90748
ビル	-8.90911
車両	-8.90922
生活	-8.91142
攻撃	-8.91163
彦	-8.91288
▁J	-8.91297
="	-8.91306
▁"	-8.91371
U	-8.91378
戸	-8.91535
”	-8.91571
徳	-8.91644
▁W	-8.91776
ホ	-8.91983
堂	-8.92117
派	-8.92122
他	-8.92135
波	-8.92172
担当	-8.92245
機能	-8.92517
については	-8.92606
レイ	-8.92773
わ	-8.93024
け	-8.93084
ファ	-8.93134
ベル	-8.93233
路線	-8.93316
っている	-8.93331
p	-8.93383
半	-8.93408
▁R	-8.93466
崎	-8.9353
ピ	-8.93599
世紀	-8.93785
ば	-8.93927
聖	-8.94241
弾	-8.94313
▁in	-8.94323
サービス	-8.94331
森	-8.94662
土	-8.94758
類	-8.94774
ドイツ	-8.94798
企業	-8.94823
香	-8.94997
ペ	-8.95097
開始	-8.95293
+	-8.954
カード	-8.95419
ながら	-8.95421
相	-8.95561
優勝	-8.95759
日から	-8.95767
加	-8.95848
シャ	-8.95952
▁2006	-8.96126
企画	-8.96316
司	-8.96342
師	-8.96539
メンバー	-8.96544
と呼ばれる	-8.96614
病院	-8.96775
集	-8.96999
地方	-8.97247
ね	-8.97273
▁大	-8.97324
葉	-8.97444
】	-8.97599
宗	-8.97616
路	-8.97835
港	-8.97882
坂	-8.97912
デザイン	-8.98122
後の	-8.98137
ことから	-8.98233
物語	-8.98497
c	-8.98584
IC	-8.98589
▁2020	-8.98605
ために	-8.98628
▁L	-8.98639
カン	-8.98646
四	-8.98789
st	-8.98792
龍	-8.98848
FC	-8.99056
▁歴史	-8.9925
使用	-8.99297
々	-8.99344
an	-8.99504
ほど	-8.99701
母	-8.99779
バンド	-8.99877
食	-8.99934
キャラクター	-8.99947
定	-9.00019
民	-9.00028
七	-9.00111
校	-9.00223
こう	-9.00418
ダー	-9.0063
km	-9.00741
樹	-9.00743
大正	-9.00815
根	-9.01034
b	-9.01084
米	-9.01238
▁2005	-9.01247
死	-9.01279
ゲ	-9.01283
声	-9.01313
第一	-9.01637
ん	-9.01831
リア	-9.01978
夜	-9.02099
保	-9.02112
調査	-9.02162
アー	-9.02404
ッ	-9.02445
火	-9.02466
んだ	-9.02495
管理	-9.02547
Z	-9.0261
ハイ	-9.0267
or	-9.02777
▁ISBN	-9.028
だけ	-9.02902
出身	-9.0295
...	-9.0308
開催	-9.03082
のために	-9.03133
販売	-9.03155
させる	-9.03174
ナー	-9.03402
岡	-9.03428
利	-9.03474
us	-9.03628
団	-9.0363
ように	-9.03923
六	-9.04246
環境	-9.04257
アニメ	-9.04438
80	-9.04508
玉	-9.04623
足	-9.04741
▁2021	-9.04749
月号	-9.05048
よう	-9.05076
年没	-9.0521
ひ	-9.05291
守	-9.05335
道路	-9.05368
ファン	-9.05539
オー	-9.05663
スポーツ	-9.05814
35	-9.05839
たい	-9.05861
蔵	-9.06205
豊	-9.06226
収録	-9.06284
委員会	-9.06368
のような	-9.06434
弘	-9.0651
忠	-9.06635
岩	-9.0674
群	-9.06841
当時の	-9.06987
イギリス	-9.07003
タイ	-9.0722
特別	-9.07227
廃止	-9.07371
×	-9.07438
▁5	-9.0746
ことで	-9.07508
たち	-9.07573
全国	-9.07597
ヴァ	-9.07603
赤	-9.07661
員	-9.0769
ビー	-9.07731
都	-9.07833
70	-9.07884
コーナー	-9.07961
ではなく	-9.0798
北海道	-9.08008
妻	-9.08014
合	-9.08279
レン	-9.08399
on	-9.084
親	-9.08438
ぎ	-9.08559
があった	-9.08762
隆	-9.0883
京都	-9.08837
せ	-9.0884
としては	-9.08888
ガン	-9.08944
鉄	-9.08979
量	-9.09093
バン	-9.09216
仁	-9.09363
永	-9.09419
英語	-9.09464
)4	-9.09524
伝	-9.09572
中に	-9.0961
領	-9.09784
技	-9.09896
っ	-9.10136
瀬	-9.1029
▁12	-9.10304
運動	-9.10418
達	-9.10646
陽	-9.10666
ご	-9.10832
フィ	-9.10864
工場	-9.10994
cm	-9.1115
の人物	-9.11263
佐	-9.11398
節	-9.11405
▁2022	-9.11416
エンジン	-9.11429
ニュース	-9.11746
ランド	-9.11755
命	-9.11764
ホール	-9.11985
u	-9.12023
ロン	-9.12178
基	-9.12187
部門	-9.12423
状態	-9.1246
業	-9.12567
▁演	-9.12624
エン	-9.12768
郷	-9.12776
カル	-9.13037
ふ	-9.13194
場所	-9.13208
▁2004	-9.13378
とされる	-9.13499
銀行	-9.13525
誌	-9.13527
一部	-9.13606
を受け	-9.13617
学園	-9.13661
ゼ	-9.13672
参加	-9.13723
ものの	-9.13761
▁注釈	-9.13948
w	-9.13996
絵	-9.14017
といった	-9.14165
☆	-9.14215
公演	-9.14346
▁10	-9.14394
ことが	-9.14497
!!	-9.14563
からは	-9.14681
ちゃん	-9.14718
f	-9.14738
)-	-9.14778
教	-9.1479
秀	-9.14814
団体	-9.14868
ネット	-9.14911
草	-9.1497
k	-9.15015
非	-9.15121
製作	-9.1541
悪	-9.15598
を経て	-9.15729
角	-9.15778
以降	-9.15789
公開	-9.15819
自	-9.1584
電	-9.15899
交通	-9.15922
劇場	-9.16044
▁7	-9.16065
党	-9.16168
便	-9.16202
あり	-9.16251
器	-9.16302
今	-9.16352
のうち	-9.16362
小説	-9.1648
進	-9.16564
シン	-9.1664
産業	-9.16717
もある	-9.1672
超	-9.16876
連	-9.17073
女優	-9.17086
これ	-9.17193
g	-9.1721
球	-9.17234
当	-9.17312
とした	-9.17344
配信	-9.17431
羽	-9.17505
ISBN	-9.1757
ヌ	-9.17636
mm	-9.17637
説	-9.17752
開	-9.17801
フジテレビ	-9.17891
▁N	-9.17909
36	-9.17958
させた	-9.18005
を含む	-9.1816
華	-9.18208
デビュー	-9.18263
艦	-9.1834
したが	-9.18591
出場	-9.18594
リング	-9.1878
よりも	-9.18804
建設	-9.18841
研究所	-9.1887
理	-9.18889
丁目	-9.18936
38	-9.18937
一般	-9.18997
図	-9.19055
ヘ	-9.19079
貴	-9.19129
横	-9.19138
契約	-9.19223
へと	-9.19325
ジョン	-9.19391
▁–	-9.19454
同じ	-9.19513
浦	-9.19628
▁6	-9.19882
られる	-9.19928
夢	-9.20046
敵	-9.20064
河	-9.20093
未	-9.20099
すること	-9.20125
自動車	-9.2019
友	-9.20265
▁東京	-9.20317
モン	-9.2041
le	-9.20469
教授	-9.20562
俳優	-9.20658
しない	-9.20689
r	-9.20845
国家	-9.20942
37	-9.20985
映像	-9.21032
泉	-9.21245
属	-9.21275
▁9	-9.21348
翌	-9.21375
55	-9.21386
彼の	-9.21436
現在は	-9.21457
楽	-9.21459
左	-9.21471
を行った	-9.21504
アイ	-9.21601
パー	-9.21649
タン	-9.21928
?	-9.2197
指定	-9.22026
雪	-9.22035
チャ	-9.22043
産	-9.22089
生産	-9.2219
薬	-9.22233
支援	-9.22242
側	-9.22246
結果	-9.22254
32	-9.22288
君	-9.22432
以上	-9.22441
スペシャル	-9.22485
ガー	-9.22554
竜	-9.22567
製造	-9.2264
ホーム	-9.22795
感	-9.228
航空	-9.22851
の一部	-9.2289
パン	-9.22947
33	-9.22962
生まれ	-9.23004
サー	-9.23091
ブル	-9.23217
オブ	-9.23221
区間	-9.2331
紀	-9.23317
場合	-9.23337
ろ	-9.23415
el	-9.23499
ジェ	-9.23525
秋	-9.23567
製	-9.23589
ステージ	-9.23607
構造	-9.23663
少年	-9.23747
評価	-9.2377
内容	-9.23834
作詞	-9.23868
祭	-9.23882
藤	-9.23971
スーパー	-9.24041
関	-9.24042
能力	-9.24066
TV	-9.24077
The	-9.2416
46	-9.24194
右	-9.24324
来	-9.24524
スタジオ	-9.2457
▁2000	-9.24599
血	-9.24639
宇宙	-9.24642
90	-9.24813
の歴史	-9.24909
鳥	-9.24946
▁2003	-9.25029
es	-9.25214
大きな	-9.25438
再	-9.25467
質	-9.25618
主に	-9.25626
彼は	-9.25637
一郎	-9.25809
▁V	-9.25892
“	-9.26008
っていた	-9.26078
ど	-9.26101
人が	-9.26142
キー	-9.26152
#	-9.26345
個人	-9.26391
智	-9.26441
されて	-9.26756
也	-9.26759
ライ	-9.26857
協力	-9.27015
のように	-9.2702
青	-9.27094
39	-9.27112
▁11	-9.27129
マル	-9.2716
に伴い	-9.27191
34	-9.2738
▁8	-9.27388
機関	-9.27401
されており	-9.27446
地球	-9.27653
の中で	-9.27658
初の	-9.27659
異	-9.27795
デン	-9.27839
省	-9.27858
独立	-9.28106
湖	-9.28106
レース	-9.28238
▁I	-9.28371
漫画	-9.28446
コー	-9.28531
▁新	-9.28743
洋	-9.28748
紙	-9.28753
政府	-9.28817
そ	-9.28846
副	-9.28887
ジュ	-9.29031
科学	-9.29075
終了	-9.29125
▁〜	-9.29155
社長	-9.29283
設立	-9.2931
になっている	-9.29346
海軍	-9.29468
記念	-9.29646
兼	-9.29803
47	-9.30027
階	-9.30106
編成	-9.30137
〉	-9.30184
中の	-9.30199
Q	-9.30218
満	-9.30231
ar	-9.30237
!」	-9.30349
イタリア	-9.30349
学生	-9.30387
ベスト	-9.30399
のある	-9.3044
姫	-9.30558
付	-9.30865
秒	-9.30868
ロック	-9.30901
百	-9.30925
戦闘	-9.30937
年まで	-9.31007
浜	-9.31213
関連	-9.3124
経	-9.31307
になり	-9.31576
画	-9.31623
父	-9.31642
500	-9.31797
池	-9.31841
▁2002	-9.31858
介	-9.31951
京	-9.32031
澤	-9.32083
z	-9.32142
データ	-9.32201
ライン	-9.3222
警察	-9.32521
前に	-9.32611
工業	-9.32691
倉	-9.32905
私	-9.3292
熱	-9.3294
再び	-9.33062
JR	-9.3307
行動	-9.33117
サイト	-9.33156
▁その他	-9.33181
ハン	-9.33196
値	-9.33203
を受けた	-9.33209
通信	-9.33374
園	-9.33467
マイ	-9.33509
スタ	-9.33549
ユ	-9.33558
建築	-9.33594
>	-9.33601
44	-9.33607
フリー	-9.33668
ぶ	-9.33681
ch	-9.33694
設計	-9.33711
なかった	-9.33732
家族	-9.33744
増	-9.33775
試験	-9.33882
楽曲	-9.3394
状況	-9.34055
作家	-9.34112
内の	-9.34174
様々な	-9.34224
ニュー	-9.34249
越	-9.34262
諸	-9.34268
撮影	-9.34549
バル	-9.34717
孝	-9.34735
制度	-9.34845
取り	-9.34895
▁経歴	-9.34906
列車	-9.34989
▁また	-9.35032
ヨーロッパ	-9.35136
街	-9.3516
職	-9.35251
部隊	-9.35433
られ	-9.35538
上の	-9.35647
自分の	-9.35663
演奏	-9.35703
フル	-9.35833
時の	-9.35934
初代	-9.36104
博	-9.3611
雑誌	-9.36123
▁2001	-9.36189
l	-9.36219
藩	-9.36242
富	-9.36267
200	-9.36397
コース	-9.36402
自然	-9.36453
板	-9.36504
日まで	-9.36528
剣	-9.36703
康	-9.36764
利用	-9.3682
▁17	-9.3683
課	-9.36982
矢	-9.37028
自身の	-9.3703
恵	-9.37031
恋	-9.37176
喜	-9.37206
び	-9.3725
これらの	-9.37304
当初は	-9.37418
何	-9.37442
入り	-9.37461
ジー	-9.37484
系統	-9.37584
男性	-9.37661
構成	-9.37992
を務めた	-9.3801
タイム	-9.38032
歴史	-9.38051
病	-9.38068
ット	-9.38126
雲	-9.3832
宝	-9.38463
II	-9.38473
源	-9.38511
段	-9.38525
作戦	-9.38534
変更	-9.38571
陸軍	-9.38589
最初の	-9.38655
ワン	-9.38704
設定	-9.38798
鬼	-9.3898
政治	-9.3905
方法	-9.39059
オリジナル	-9.39076
登録	-9.39107
フェ	-9.3911
十	-9.39211
年代	-9.39433
歌手	-9.39538
現代	-9.39588
層	-9.39626
向	-9.39678
新しい	-9.39936
そう	-9.40019
温泉	-9.40019
助	-9.40036
運転	-9.40125
」、「	-9.40128
ロシア	-9.402
奈	-9.40252
と同じ	-9.40421
家の	-9.40437
.2	-9.40441
ぐ	-9.40664
対応	-9.40796
竹	-9.40831
.1	-9.40907
(2014	-9.40917
そのため	-9.41118
効果	-9.41119
クラス	-9.41158
料理	-9.41308
日には	-9.41312
ること	-9.41419
会議	-9.41494
銀	-9.41605
(2018	-9.41668
著	-9.41745
(2011	-9.41776
ザー	-9.41791
経営	-9.4185
族	-9.41909
2000	-9.42002
営業	-9.42027
第二	-9.42072
▁アメリカ合衆国の	-9.4209
装置	-9.42154
最後の	-9.42226
写真	-9.42263
刑事	-9.42289
比	-9.42313
ur	-9.42373
造	-9.4238
製品	-9.42486
福	-9.4254
▁THE	-9.42554
させ	-9.42695
居	-9.42729
オン	-9.42755
できない	-9.42778
CM	-9.42807
タイトル	-9.42853
x	-9.42853
工事	-9.42916
若	-9.42993
ビデオ	-9.43071
宿	-9.43085
アジア	-9.43097
犬	-9.43181
DVD	-9.43201
表現	-9.43238
あるいは	-9.43352
走	-9.43376
(2010	-9.43635
ツアー	-9.4374
プロジェクト	-9.43749
re	-9.43788
(2019	-9.43796
一方	-9.43838
どう	-9.43874
発表	-9.4389
▁de	-9.43996
運営	-9.44023
▁&	-9.44068
栄	-9.44091
最大	-9.44317
俊	-9.44349
日本テレビ	-9.44383
政策	-9.44415
ヨ	-9.44418
アメリカ合衆国	-9.44514
開業	-9.44638
店舗	-9.44786
月には	-9.44866
it	-9.44868
裏	-9.45011
文庫	-9.45014
枠	-9.45015
バイ	-9.45049
選手権	-9.45097
だったが	-9.45106
;	-9.4511
男子	-9.45227
であったが	-9.45298
演出	-9.45498
メン	-9.4553
いて	-9.45596
塩	-9.45645
善	-9.45702
好	-9.45846
毛	-9.45849
ホテル	-9.45873
パリ	-9.45914
代目	-9.46013
レス	-9.46079
修	-9.46192
教会	-9.46299
時代の	-9.46302
等の	-9.46303
べ	-9.46346
かつ	-9.46373
としての	-9.46504
なし	-9.466
学会	-9.46602
ような	-9.46606
娘	-9.4664
桜	-9.46794
素	-9.46801
文学	-9.46801
現在	-9.46948
テレビ朝日	-9.47006
原作	-9.4701
酒	-9.47013
転	-9.47094
発行	-9.47196
.3	-9.47216
味	-9.47256
最高	-9.47274
–	-9.47397
学科	-9.4746
▁1999	-9.4751
動	-9.47527
雨	-9.47537
反	-9.47582
においては	-9.47624
にあった	-9.47637
に対し	-9.47645
ハー	-9.47711
(2012	-9.47757
ブラ	-9.47757
主演	-9.47817
敗	-9.47977
kg	-9.47987
ダム	-9.47992
国道	-9.48061
(2009	-9.48179
43	-9.48207
メートル	-9.48237
像	-9.48279
動物	-9.48286
ドル	-9.48289
ルー	-9.48302
席	-9.48305
なく	-9.48326
te	-9.48405
ミュージック	-9.48496
ダン	-9.48589
裕	-9.48645
のための	-9.48735
帯	-9.48811
輪	-9.48954
決定	-9.48981
(2016	-9.48986
(2017	-9.4899
奥	-9.49092
テン	-9.49203
予定	-9.49432
文字	-9.49457
(2008	-9.49509
名古屋	-9.49546
向け	-9.49561
メディア	-9.49564
遊	-9.49571
昌	-9.49602
(2013	-9.4962
(2015	-9.49628
計	-9.49677
空港	-9.49797
とし	-9.49818
ガス	-9.49846
渡	-9.49858
un	-9.49865
卒業	-9.49894
colspan	-9.49944
トップ	-9.5001
49	-9.50024
砲	-9.50196
大統領	-9.5037
出身の	-9.50468
なる	-9.50527
ヴ	-9.50547
▁18	-9.50585
▁この	-9.5072
(2007	-9.50783
主義	-9.508
客	-9.50813
為	-9.5089
方式	-9.51038
などで	-9.51065
シティ	-9.51285
国民	-9.5129
▁2023	-9.51311
42	-9.51371
万円	-9.51411
トゥ	-9.5143
ia	-9.51461
状	-9.51462
アイドル	-9.51547
形式	-9.51596
ギター	-9.51607
運用	-9.51643
41	-9.51701
市の	-9.51776
優	-9.5181
【	-9.51848
SP	-9.51911
術	-9.5194
選挙	-9.51989
ジャパン	-9.52095
東京都	-9.52095
ものである	-9.52152
帝国	-9.52242
市民	-9.52255
セット	-9.52258
常	-9.52342
医療	-9.52427
ところ	-9.52458
設置	-9.52491
▁m	-9.52664
カップ	-9.52842
野球	-9.52857
▁沿革	-9.52876
バック	-9.529
▁→	-9.52907
▁O	-9.52911
最終	-9.52949
順	-9.53057
個	-9.5309
300	-9.53135
▁1998	-9.53277
方面	-9.53305
以来	-9.53328
沼	-9.53465
興	-9.53522
などが	-9.53583
しか	-9.53665
事務所	-9.53738
学者	-9.53792
乗	-9.5383
キン	-9.53957
プロデューサー	-9.54005
健	-9.54029
クロ	-9.54048
ノー	-9.54158
メイン	-9.5416
新聞	-9.54254
骨	-9.5437
メーカー	-9.54419
条件	-9.54439
チャンネル	-9.54445
在	-9.54465
リリース	-9.54537
よく	-9.54592
郎	-9.54649
プレイ	-9.54676
▁U	-9.54769
自由	-9.54847
それぞれ	-9.54872
込み	-9.54964
率	-9.54981
断	-9.55032
末	-9.55036
運行	-9.55079
としている	-9.55096
脚本	-9.5511
子供	-9.55179
解	-9.55217
(2021	-9.55267
以下の	-9.55288
BS	-9.5541
is	-9.55421
部分	-9.55444
▁なお	-9.55469
電気	-9.55476
九州	-9.5548
の娘	-9.55509
ると	-9.55568
によると	-9.55608
ブルー	-9.55649
言語	-9.55703
(2020	-9.55724
ではない	-9.55724
月から	-9.55769
デジタル	-9.55774
かつて	-9.55787
を行い	-9.55824
▁小	-9.55849
業務	-9.55896
盤	-9.55935
魚	-9.56047
細胞	-9.56085
ヴェ	-9.56114
54	-9.5613
名は	-9.56257
次郎	-9.56274
植物	-9.56384
-1	-9.56391
していたが	-9.5641
旅	-9.56451
市場	-9.5652
近	-9.56529
ポイント	-9.56553
深	-9.56588
雅	-9.56592
打	-9.56636
戦で	-9.5669
サッカー	-9.56696
おり	-9.56709
連続	-9.56773
ad	-9.56856
アナウンサー	-9.56884
(2006	-9.56887
公式	-9.56936
バージョン	-9.5696
張	-9.57049
最も	-9.57089
▁1997	-9.57123
トー	-9.57141
られている	-9.57184
勝利	-9.57212
界	-9.57326
事故	-9.57377
ro	-9.57483
ドン	-9.57586
片	-9.57652
レー	-9.57733
サイ	-9.5792
ウィ	-9.57922
▁来歴	-9.57966
人口	-9.58034
早	-9.5808
工	-9.5816
最	-9.58188
差	-9.58199
であるが	-9.58283
変	-9.58359
博物館	-9.58362
▁Re	-9.58379
電子	-9.58447
会長	-9.58509
などを	-9.58533
▁主な	-9.58629
柳	-9.58724
後は	-9.58745
▁監督	-9.58838
仲	-9.58866
少女	-9.58961
低	-9.59009
ユニット	-9.59012
管	-9.59274
以下	-9.59386
顔	-9.5946
nd	-9.59495
ブランド	-9.59527
韓国	-9.59563
周	-9.5974
宏	-9.59746
陣	-9.59873
せん	-9.59949
なら	-9.59996
ベース	-9.60101
▁1996	-9.60162
as	-9.60163
議会	-9.60221
58	-9.60226
首	-9.60236
アップ	-9.60272
セン	-9.60312
持	-9.60328
ケン	-9.604
霊	-9.6045
2010	-9.60499
ディー	-9.60509
実験	-9.60651
(*	-9.60688
』『	-9.6072
跡	-9.60873
減	-9.60908
上で	-9.60962
昭	-9.61013
調	-9.61112
キング	-9.61122
残	-9.61157
ニューヨーク	-9.61209
九	-9.6125
▁20	-9.61315
選	-9.61373
ック	-9.61442
リスト	-9.61469
美術	-9.61524
までの	-9.61544
公式サイト	-9.61621
案	-9.61735
茂	-9.61768
スペイン	-9.61952
▁1995	-9.61975
舞台	-9.61989
勢	-9.62285
海外	-9.62302
トリ	-9.6233
行き	-9.624
保護	-9.62424
を見	-9.62471
▁歌	-9.62473
頃	-9.62478
純	-9.62513
レッド	-9.62576
2008	-9.62578
ライト	-9.6262
移動	-9.62635
ニア	-9.62672
以外の	-9.62686
者の	-9.6273
ックス	-9.62953
2011	-9.63022
ショー	-9.63046
実施	-9.63081
横浜	-9.63101
帝	-9.63137
中継	-9.63177
景	-9.63247
国内	-9.6336
インド	-9.6337
(2005	-9.63378
▁1990	-9.63392
やま	-9.63418
整備	-9.63517
56	-9.63556
合併	-9.63646
武器	-9.63881
資料	-9.64017
を中心に	-9.64048
の一つ	-9.64051
ジョ	-9.64093
ロンドン	-9.64129
輸送	-9.64142
枚	-9.64165
ことがある	-9.64176
強	-9.64186
統合	-9.64264
泰	-9.64292
慶	-9.64342
落	-9.64343
(2022	-9.64347
クラ	-9.64434
急	-9.64441
引	-9.64532
連載	-9.64619
せず	-9.64697
▁1994	-9.64799
チェ	-9.6488
)3	-9.64886
縁	-9.64912
篇	-9.64992
遠	-9.65051
ローマ	-9.65062
ッツ	-9.65111
江戸	-9.6517
57	-9.65209
人気	-9.65273
情	-9.65278
2013	-9.65287
at	-9.65313
結婚	-9.65399
三郎	-9.65473
トラ	-9.65487
)※	-9.65496
ティー	-9.65515
極	-9.65517
湯	-9.65567
頼	-9.65582
の楽曲	-9.65675
用の	-9.65688
兄	-9.65757
服	-9.658
キャ	-9.65847
2009	-9.65927
ロス	-9.65928
高い	-9.66028
図書館	-9.66077
マーク	-9.66157
▁東	-9.66196
▁ア	-9.66198
軽	-9.66205
兄弟	-9.66207
形態	-9.66215
駅前	-9.66273
ことができる	-9.66375
展開	-9.6645
―	-9.66471
仏	-9.66558
ダイ	-9.66589
▁作曲	-9.66716
共同	-9.66833
行為	-9.66909
芸術	-9.66952
商品	-9.67007
政権	-9.6705
伊	-9.67137
輝	-9.67153
ジン	-9.67182
▁a	-9.67185
出し	-9.6725
ほ	-9.67262
存在	-9.67267
詩	-9.67278
2015	-9.67289
表記	-9.67399
誠	-9.67414
ゲスト	-9.67435
魔	-9.67446
漢	-9.67538
によれば	-9.67563
05	-9.67581
タイプ	-9.67668
レコード	-9.67694
南部	-9.67845
59	-9.679
自ら	-9.67924
レベル	-9.68033
完成	-9.68157
様	-9.68223
ーン	-9.68242
取	-9.68261
ハウス	-9.68281
ナイト	-9.6831
モード	-9.68321
米国	-9.68346
番号	-9.68347
競技	-9.68361
本部	-9.68429
align	-9.68476
報告	-9.68656
シーン	-9.6871
オープン	-9.68747
同時に	-9.68827
機構	-9.68901
かん	-9.68933
スタッフ	-9.6897
観光	-9.69001
鈴木	-9.69054
2007	-9.69154
ゆう	-9.69157
が行われた	-9.69172
学部	-9.69191
指導	-9.69193
モー	-9.69202
以上の	-9.69207
額	-9.69251
デル	-9.69273
ミー	-9.69389
令	-9.694
期間	-9.69403
il	-9.69413
浩	-9.69452
内に	-9.69623
指	-9.6965
商	-9.6967
言	-9.69726
でもある	-9.69745
エネルギー	-9.69819
塔	-9.69838
▁km	-9.6987
理論	-9.6988
クス	-9.69918
専用	-9.70018
com	-9.70103
2016	-9.70168
表示	-9.70197
冬	-9.70357
目的	-9.70365
刀	-9.70423
ra	-9.70458
かい	-9.7054
布	-9.70605
[	-9.70631
!』	-9.70705
建	-9.70728
et	-9.70731
いい	-9.70751
00	-9.70942
批判	-9.70951
とき	-9.71101
視	-9.71169
の大	-9.71251
防衛	-9.71263
de	-9.71271
任	-9.71286
仕様	-9.71297
ワールド	-9.71304
意	-9.71311
塚	-9.71318
▁to	-9.71323
ic	-9.71324
経験	-9.7135
▁1993	-9.71407
化学	-9.71426
茶	-9.71496
乱	-9.7173
倍	-9.71875
▁978-	-9.71881
to	-9.71882
ゴー	-9.71927
核	-9.71937
観	-9.71941
提供	-9.71966
ミニ	-9.71985
トラック	-9.72077
するが	-9.72253
広島	-9.72345
天皇	-9.72449
テレビ東京	-9.72471
を参照	-9.72519
セル	-9.72537
2012	-9.7256
ていたが	-9.72614
400	-9.72677
スタイル	-9.72731
説明	-9.72731
2019	-9.72736
王国	-9.72749
なり	-9.72902
令和	-9.72948
分野	-9.73022
翼	-9.73174
2017	-9.73194
将軍	-9.73212
.4	-9.73221
日本語	-9.73343
v	-9.73357
が多い	-9.73392
枝	-9.73415
逆	-9.73447
ブラック	-9.73475
亜	-9.73493
舞	-9.73514
軍事	-9.73521
専門	-9.73549
晴	-9.73563
ie	-9.73594
せい	-9.73612
持ち	-9.73613
▁for	-9.73635
切	-9.73651
これを	-9.73671
以後	-9.73674
ボン	-9.7372
典	-9.73723
限定	-9.73791
国立	-9.73804
医	-9.73871
ドゥ	-9.7396
を持ち	-9.73986
2020	-9.73999
細	-9.74043
2014	-9.74073
営業所	-9.74102
(『	-9.74143
ストーリー	-9.74149
周辺	-9.74174
場合は	-9.74181
行政	-9.74186
01	-9.74272
台湾	-9.74315
特	-9.74326
はこの	-9.74341
パーク	-9.74366
単	-9.74392
報道	-9.74425
飛行	-9.74485
岸	-9.74618
彩	-9.74692
杯	-9.74728
会員	-9.74752
たが	-9.74795
65	-9.74801
未来	-9.74869
イー	-9.74885
直接	-9.74893
するため	-9.74952
府	-9.74962
希	-9.75006
付き	-9.75008
こともある	-9.75013
住民	-9.75063
程度	-9.75076
にあたる	-9.75082
するために	-9.75113
能	-9.7518
ゾ	-9.75185
留	-9.75195
由	-9.75249
75	-9.75291
端	-9.75299
鶴	-9.75313
を受けて	-9.75315
大学出身の人物	-9.75345
ゲン	-9.75366
付け	-9.7537
条約	-9.75415
ボール	-9.75523
に位置する	-9.75571
緑	-9.75626
印	-9.75758
(2004	-9.75759
国の	-9.75801
支店	-9.75823
牛	-9.75863
▁1992	-9.7589
けん	-9.7591
ていない	-9.75923
AL	-9.7593
ウス	-9.75939
ウェイ	-9.75947
搭載	-9.75984
可能	-9.75987
砂	-9.76013
オル	-9.76029
んで	-9.76035
対象	-9.76171
精神	-9.76191
画家	-9.76194
神戸	-9.76199
を務める	-9.76275
筋	-9.7629
共和国	-9.76296
▁[	-9.76414
@	-9.76415
引き	-9.76564
傷	-9.76633
ぬ	-9.76686
望	-9.76707
菜	-9.76785
カラー	-9.76929
機械	-9.76986
▁1991	-9.76997
中村	-9.77063
プリ	-9.77081
堀	-9.77088
1000	-9.77154
鎮	-9.77161
ランキング	-9.77202
もあり	-9.7733
拡大	-9.77379
のち	-9.77423
登場	-9.77437
ジャン	-9.77437
麻	-9.77441
装備	-9.77465
農業	-9.77529
庁	-9.77603
作業	-9.77627
声優	-9.77657
▁西	-9.7767
▁人物	-9.77772
全体	-9.77781
不明	-9.77838
co	-9.7785
グラ	-9.77857
速	-9.77867
ly	-9.77942
連盟	-9.77985
されていない	-9.78011
ユー	-9.78067
新たな	-9.78078
李	-9.78083
2018	-9.78101
PC	-9.78242
相手	-9.78328
分類	-9.7834
学院	-9.78344
難	-9.78389
阿	-9.78417
リオ	-9.7843
ボー	-9.78459
ソフト	-9.78493
ソロ	-9.78529
本作	-9.78574
田中	-9.78581
64	-9.78615
前の	-9.78627
眼	-9.78679
盛	-9.78759
53	-9.78781
▁16	-9.78796
テル	-9.78808
統一	-9.78815
RO	-9.78891
が多く	-9.78946
のか	-9.78961
異なる	-9.78987
立ち	-9.79093
2006	-9.79101
時には	-9.79135
大臣	-9.7916
ピアノ	-9.79186
美術館	-9.79193
てきた	-9.79291
ine	-9.79358
na	-9.79462
集団	-9.79511
乃	-9.79527
甲	-9.79612
52	-9.79623
ダンス	-9.79667
ようになった	-9.79671
プログラム	-9.79694
姿	-9.79736
だと	-9.798
していない	-9.79805
オリンピック	-9.79858
影	-9.79863
▁お	-9.79878
▁1989	-9.79889
弟	-9.7992
佐藤	-9.79938
肉	-9.79971
にして	-9.80018
梅	-9.80063
生物	-9.80129
格	-9.80151
弁	-9.80187
初期	-9.803
ロード	-9.8033
号線	-9.80373
項	-9.804
ドラ	-9.80443
初めて	-9.80475
とう	-9.8054
結	-9.80622
費	-9.80694
破	-9.80701
回戦	-9.80731
える	-9.80738
博士	-9.80817
時期	-9.80829
反対	-9.80839
テレ	-9.80864
エス	-9.8087
割	-9.8091
高速	-9.80965
仲間	-9.81138
賀	-9.81168
貞	-9.81196
部長	-9.81223
交差点	-9.81297
一方で	-9.81301
伝説	-9.81309
に変更	-9.81357
新宿	-9.8141
ミン	-9.81422
処理	-9.81426
油	-9.81446
障害	-9.81547
(2003	-9.81597
ラム	-9.81659
猫	-9.81711
タウン	-9.81726
51	-9.81754
休	-9.81761
辺	-9.81764
列	-9.81791
メイ	-9.81793
元年	-9.81803
グリーン	-9.81851
成績	-9.81858
編集	-9.82054
者は	-9.82077
全て	-9.82095
富士	-9.82127
2005	-9.82185
法人	-9.82204
山田	-9.82206
衣	-9.82225
打ち	-9.82424
祐	-9.82424
本線	-9.82484
することで	-9.82496
スキー	-9.82499
メル	-9.82543
um	-9.8262
改造	-9.82664
務	-9.82744
精	-9.82805
人は	-9.8281
ヴァー	-9.82836
登	-9.82858
寿	-9.82873
フォン	-9.82878
認定	-9.82878
例えば	-9.8288
予選	-9.82942
2021	-9.82959
ことは	-9.83019
それを	-9.83021
開設	-9.83032
-9	-9.83067
アナ	-9.83191
▁北	-9.83236
畑	-9.83242
がいる	-9.83275
▁1987	-9.83374
エリア	-9.83376
れば	-9.83418
地下	-9.83529
位置	-9.83554
圏	-9.83555
町立	-9.83593
大型	-9.83601
man	-9.83644
幅	-9.83671
関東	-9.83683
沖縄	-9.83738
ファー	-9.83778
委員	-9.83804
FM	-9.83816
要	-9.83868
主人公	-9.83968
反応	-9.8398
プラ	-9.83982
するなど	-9.83987
体制	-9.84033
嘉	-9.8404
追加	-9.84065
書房	-9.84088
軸	-9.84127
コル	-9.84182
解説	-9.84233
仕事	-9.84243
したため	-9.84285
展示	-9.84287
域	-9.84287
ほぼ	-9.84289
コード	-9.84319
紹介	-9.84395
平均	-9.84412
東映	-9.84422
しん	-9.84455
交換	-9.84613
会場	-9.84625
革命	-9.84656
カラ	-9.84687
▁【	-9.84771
空間	-9.84864
です	-9.84889
▁南	-9.84943
将	-9.84983
を受ける	-9.84999
é	-9.85015
をする	-9.85043
▁In	-9.85104
まり	-9.85179
歩	-9.8519
ベン	-9.85208
基準	-9.85226
リス	-9.85238
剤	-9.85242
展	-9.85286
農	-9.85304
礼	-9.85325
得点	-9.85359
▁1988	-9.85433
ゆ	-9.85517
宇	-9.85541
サイド	-9.85616
獣	-9.85624
▁1980	-9.85649
鹿	-9.85742
あい	-9.85778
飛	-9.85799
AT	-9.85801
首相	-9.85829
ジャー	-9.8583
したり	-9.85861
性格	-9.85865
太陽	-9.85915
なか	-9.85944
日本人	-9.85948
郵便局	-9.8596
件	-9.8598
プロデュース	-9.85996
延長	-9.86123
▁映画	-9.86213
ソー	-9.86246
もう	-9.86263
ation	-9.86268
地上	-9.86307
ます	-9.86348
ブリ	-9.86372
録音	-9.86402
内で	-9.86436
記事	-9.86513
▁略歴	-9.86567
レギュラー	-9.86612
62	-9.86624
の間	-9.86755
ヘル	-9.86767
観測	-9.86769
一部の	-9.86861
連合	-9.86864
劇	-9.86953
デス	-9.86965
そこで	-9.86982
綱	-9.86999
建物	-9.87001
言葉	-9.87055
関西	-9.87094
軍の	-9.87105
起	-9.87132
の戦い	-9.87146
者が	-9.87188
対策	-9.87235
はない	-9.87323
インターネット	-9.87366
アリ	-9.87401
〉)	-9.87437
ルート	-9.87453
尚	-9.8747
ラブ	-9.87501
タレント	-9.87524
63	-9.87582
弥	-9.87707
投手	-9.87719
ne	-9.87734
クル	-9.87755
のアルバム	-9.87769
ペン	-9.87795
とされている	-9.87811
機体	-9.87819
速度	-9.87829
従	-9.87834
ter	-9.87837
rowspan	-9.87838
孫	-9.87896
流れ	-9.87949
週	-9.87958
しい	-9.88056
戦後	-9.88089
延	-9.88128
la	-9.88198
グリ	-9.88214
イングランド	-9.88328
出す	-9.88343
自分	-9.88352
過去	-9.88362
オーストラリア	-9.88377
▁地理	-9.88402
をしている	-9.88428
▁株式会社	-9.88456
住	-9.88508
ri	-9.88509
かわ	-9.88527
ビン	-9.88539
基地	-9.88615
lo	-9.88669
億	-9.88693
アフリカ	-9.8872
|	-9.88773
-2	-9.888
以降は	-9.88905
たちの	-9.88976
の研究	-9.88993
選択	-9.89026
アス	-9.89057
-4	-9.89063
陸	-9.89183
地震	-9.892
市長	-9.89209
敬	-9.89219
勇	-9.89222
間の	-9.89234
幕	-9.89266
はその	-9.8935
壁	-9.89421
古代	-9.89486
名称	-9.89493
の第	-9.89495
宗教	-9.89513
すべて	-9.89542
コンサート	-9.89574
ボーカル	-9.89578
制御	-9.89579
ネットワーク	-9.89592
魂	-9.89605
se	-9.89633
07	-9.89727
、2010	-9.89777
ジョージ	-9.89824
連絡	-9.89849
重要な	-9.89866
ピー	-9.8987
題	-9.89932
死去	-9.8995
停止	-9.89975
トル	-9.90019
余	-9.90024
』、『	-9.90031
PS	-9.90044
治療	-9.90112
)10	-9.90137
房	-9.90177
のメンバー	-9.90191
機器	-9.90236
くん	-9.90386
がない	-9.90388
部屋	-9.90394
労働	-9.90399
網	-9.90431
朝鮮	-9.90486
羅	-9.90581
とその	-9.90588
にとって	-9.90611
追	-9.90618
松本	-9.90618
法律	-9.90629
グランプリ	-9.90652
エイ	-9.90662
バトル	-9.90683
ページ	-9.90687
敏	-9.90734
第三	-9.90746
候補	-9.90795
必要	-9.9084
単位	-9.90841
紅	-9.91022
没	-9.91094
ut	-9.91097
08	-9.91116
まる	-9.91133
唐	-9.91138
IN	-9.91144
ッシュ	-9.91165
伸	-9.9122
伯	-9.91234
思い	-9.91298
▁1986	-9.91312
ドー	-9.91329
77	-9.91333
穴	-9.91363
の世界	-9.91372
退	-9.91396
オール	-9.91428
参	-9.915
ヴァン	-9.91542
静	-9.91555
複数の	-9.91627
-5	-9.91636
万人	-9.9164
柄	-9.91678
創	-9.9171
電話	-9.91748
交	-9.9175
北部	-9.91764
タル	-9.9177
彼	-9.91791
吉田	-9.91803
発生	-9.9186
銃	-9.91876
ベイ	-9.91927
げ	-9.9193
規定	-9.91993
普通	-9.92023
▁音楽	-9.92024
吾	-9.92033
SA	-9.92062
艦隊	-9.92064
意識	-9.9212
に改称	-9.92149
税	-9.92183
安全	-9.92184
ir	-9.92192
-3	-9.92266
勢力	-9.92283
フォー	-9.92341
09	-9.92362
シア	-9.92415
をもって	-9.92426
理由	-9.92462
沙	-9.92488
ポン	-9.92517
ta	-9.92621
復活	-9.9263
自己	-9.92675
ソング	-9.92743
通算	-9.92749
峰	-9.92773
一人	-9.92805
就任	-9.92847
かった	-9.92923
2004	-9.92923
藤原	-9.92924
福岡	-9.92941
を開始	-9.92973
シェ	-9.92978
-8	-9.92994
引退	-9.93006
だい	-9.93026
85	-9.93045
滝	-9.93057
酸	-9.93062
▁出演	-9.93069
営	-9.93132
制限	-9.93162
氷	-9.93218
殺	-9.93226
▁Me	-9.93228
数は	-9.93247
ブロック	-9.93248
76	-9.93397
-7	-9.93418
通称	-9.93449
03	-9.93555
組合	-9.93559
復帰	-9.93568
本社	-9.93581
いない	-9.93614
老	-9.93625
回転	-9.93627
児	-9.93791
子の	-9.93827
mo	-9.93932
パワー	-9.93946
!(	-9.93948
扱い	-9.94045
線の	-9.94063
SS	-9.94168
健康	-9.94253
通常	-9.94288
勝ち	-9.94293
あった	-9.94306
報	-9.94362
共	-9.94368
際	-9.94379
憲	-9.94387
魔法	-9.9439
ge	-9.94393
隻	-9.94409
ジャック	-9.94464
▁1985	-9.94487
則	-9.94546
兵衛	-9.94586
▁三	-9.94659
歴	-9.9469
ーズ	-9.94739
アンド	-9.94784
種類	-9.948
KO	-9.94833
新たに	-9.94841
飯	-9.94884
放	-9.94915
非常に	-9.94957
の一人	-9.94991
毎年	-9.95013
MA	-9.95045
66	-9.95046
バラ	-9.95087
腕	-9.95108
受賞	-9.9514
全ての	-9.95168
カイ	-9.95223
同盟	-9.95251
フォード	-9.95343
一番	-9.95346
姓	-9.95438
88	-9.95459
プレイヤー	-9.95466
系の	-9.95496
寛	-9.95648
黄	-9.95756
ミス	-9.95758
ハル	-9.95769
東海	-9.95824
密	-9.95872
山口	-9.9588
ビジネス	-9.95916
ケイ	-9.95916
自身	-9.95921
レット	-9.95931
具	-9.9594
護	-9.95976
切り	-9.96003
てしまう	-9.96025
カナダ	-9.96028
カメラ	-9.96052
上に	-9.96066
ディレクター	-9.96115
オランダ	-9.96139
掲載	-9.96139
時は	-9.96142
が存在する	-9.96148
パラ	-9.96216
アメリカの	-9.96295
高橋	-9.96353
ma	-9.96375
のもの	-9.96412
梨	-9.96444
命令	-9.96454
(2002	-9.96493
ジュニア	-9.96529
確認	-9.96539
フォ	-9.96542
大陸	-9.96565
セイ	-9.96612
潮	-9.96706
平和	-9.9671
コミック	-9.9674
つく	-9.96827
テーマ	-9.96833
清水	-9.96914
芳	-9.97022
罪	-9.97101
交流	-9.97151
かな	-9.97203
仕	-9.97231
99	-9.9725
西部	-9.97253
次の	-9.97267
ール	-9.97298
症	-9.97331
過	-9.97371
嶋	-9.97411
関係者	-9.97461
ボス	-9.97499
04	-9.9753
彼女	-9.97538
姉	-9.97606
境	-9.97621
、2009	-9.97624
フィールド	-9.97654
先生	-9.97657
▁1984	-9.97675
思想	-9.97723
im	-9.97732
基本	-9.97766
強い	-9.97772
田村	-9.97797
検査	-9.97836
コンピュータ	-9.97912
TA	-9.97986
稲	-9.9799
山本	-9.97995
校舎	-9.98004
シャー	-9.98011
論文	-9.98027
マスター	-9.98027
込む	-9.98037
別の	-9.98043
サポート	-9.98055
土地	-9.98151
名義	-9.98171
EN	-9.98262
推進	-9.98264
デイ	-9.98265
貴族	-9.98271
ha	-9.98323
クリ	-9.98362
訓練	-9.98387
医学	-9.98399
ことに	-9.98399
たり	-9.98438
距離	-9.9847
殿	-9.98484
分析	-9.9861
世の	-9.98666
クロス	-9.98705
ざ	-9.98745
際に	-9.98772
世紀の	-9.98789
イラスト	-9.98827
を発表	-9.98848
鏡	-9.98886
キャラ	-9.98944
可	-9.98996
SC	-9.99046
ルール	-9.99059
いずれも	-9.99156
、2008	-9.99179
月まで	-9.99195
湾	-9.99234
脳	-9.99263
住宅	-9.99264
民族	-9.99337
つき	-9.9939
妹	-9.99441
形で	-9.99535
料	-9.99546
▁NHK	-9.99616
(2001	-9.99632
投票	-9.99647
ワールドカップ	-9.99656
河川	-9.9966
設備	-9.99687
議員	-9.99688
共に	-9.99693
週間	-9.99748
▁No	-9.99791
失	-9.99809
青年	-9.99811
積	-9.99831
▁北海道	-9.99853
大和	-9.99856
生徒	-9.99864
アウト	-9.99962
日より	-10
歯	-10.0001
、2007	-10.0002
変化	-10.0004
コーチ	-10.0006
text	-10.0006
ポール	-10.0007
カール	-10.0018
MO	-10.002
▁style	-10.0024
にかけて	-10.0028
咲	-10.0031
標準	-10.0034
内閣	-10.0035
ソ連	-10.0037
78	-10.004
の元	-10.0041
炎	-10.0042
皇帝	-10.0048
特徴	-10.0048
.9	-10.0049
li	-10.0054
資格	-10.0059
シアター	-10.0059
床	-10.0067
で行われた	-10.0071
もしくは	-10.0078
(2023	-10.008
2022	-10.0089
ホー	-10.009
OS	-10.0098
61	-10.0098
を取り	-10.0099
仙	-10.0103
受	-10.0105
おお	-10.0113
送	-10.0122
を行っている	-10.0123
カバー	-10.0124
そのまま	-10.0128
街道	-10.0131
としても	-10.0131
、2012	-10.0133
ぼ	-10.0134
アーティスト	-10.0142
だけで	-10.0142
旅行	-10.0144
刊行	-10.0149
穂	-10.0153
プレ	-10.0167
進行	-10.0167
エー	-10.017
改	-10.0172
桂	-10.0172
伊藤	-10.0182
となっていた	-10.0189
の作品	-10.0189
III	-10.0191
AC	-10.0193
を除く	-10.0193
の場合	-10.0194
のこと	-10.0195
クレ	-10.0197
髪	-10.02
06	-10.0202
してきた	-10.0202
幼稚園	-10.0203
.7	-10.0205
、2011	-10.0207
防	-10.0208
売	-10.0209
になって	-10.0212
連邦	-10.0217
雷	-10.022
っており	-10.0224
弁護士	-10.0231
同じく	-10.0233
装	-10.0236
剛	-10.0239
型の	-10.024
人生	-10.0243
圧	-10.0252
▁国道	-10.0253
改革	-10.0255
絶	-10.026
庭	-10.0265
▁収録曲	-10.027
冠	-10.0272
共著	-10.0279
温	-10.0281
戦車	-10.0288
のお	-10.0293
祖	-10.0308
SE	-10.0308
糸	-10.031
ion	-10.0317
▁1983	-10.0318
医師	-10.0318
▁p	-10.0319
▁1970	-10.0324
ゴール	-10.0328
に登場する	-10.0329
獲得	-10.0334
ot	-10.0339
ナン	-10.034
2003	-10.0345
小型	-10.0346
邦	-10.0349
旗	-10.035
no	-10.035
サル	-10.035
▁1982	-10.0353
途中	-10.0355
成功	-10.0358
講談社	-10.0363
TO	-10.0371
導入	-10.0375
スタジアム	-10.0377
側の	-10.038
などに	-10.038
ポーランド	-10.0381
領域	-10.0389
▁Vol	-10.039
射	-10.0402
小さな	-10.0403
破壊	-10.0406
86	-10.0408
出力	-10.0415
広く	-10.0415
長い	-10.0421
丘	-10.0423
、2013	-10.0424
彼女の	-10.0429
ol	-10.0432
68	-10.0435
▁=	-10.0437
▁Le	-10.0438
近代	-10.0441
きた	-10.0452
演	-10.0453
ことになる	-10.0459
動画	-10.0463
98	-10.0464
02	-10.047
児童	-10.0473
よし	-10.0474
の息子	-10.0488
スタート	-10.0491
教師	-10.0497
電力	-10.0499
賢	-10.05
商業	-10.0511
am	-10.0514
MC	-10.0516
ネス	-10.0516
軌道	-10.0517
ブラジル	-10.0521
オーストリア	-10.0523
準	-10.0524
神経	-10.0524
▁by	-10.0529
政治家	-10.0531
犯罪	-10.0532
ほう	-10.0534
)11	-10.0534
▁15	-10.0535
被	-10.0537
を通じて	-10.0537
アニメーション	-10.0543
解散	-10.0544
用語	-10.0547
背景	-10.0553
US	-10.056
進出	-10.0561
いく	-10.0565
棟	-10.0566
共通	-10.0567
、2006	-10.0574
小林	-10.0575
採用	-10.0575
クイズ	-10.058
マリ	-10.0582
年より	-10.0587
世代	-10.0594
諸島	-10.0595
録	-10.0595
東北	-10.0597
95	-10.0604
駒	-10.061
使	-10.0616
発見	-10.0617
ウィリアム	-10.062
IT	-10.0621
保険	-10.0622
荘	-10.0623
保存	-10.0623
(2000	-10.0628
完全	-10.0632
知事	-10.0633
終	-10.0637
新潟	-10.0637
エピソード	-10.0637
2002	-10.0637
インタビュー	-10.0641
出版社	-10.0644
食品	-10.0645
佳	-10.0645
son	-10.0647
ジョー	-10.0648
香港	-10.0654
入れ	-10.0656
したもの	-10.066
スクール	-10.0665
リック	-10.0665
ただ	-10.0671
ソフトウェア	-10.0675
▁大阪	-10.0679
競走	-10.0681
その他	-10.0684
j	-10.0685
箱	-10.0697
らしい	-10.0699
戦い	-10.0702
成長	-10.0705
GA	-10.0706
広告	-10.0716
ヶ	-10.0716
須	-10.072
更に	-10.072
柱	-10.0721
取引	-10.0728
アート	-10.0731
しょう	-10.0733
left	-10.0735
▁編曲	-10.0737
ラス	-10.0738
応	-10.0739
67	-10.0739
の父	-10.0746
荒	-10.0748
No	-10.0749
▁1981	-10.0751
地元	-10.0751
周年	-10.0753
徹	-10.0753
まず	-10.0765
部の	-10.0766
*	-10.0766
千葉	-10.0773
)12	-10.0776
の間に	-10.0777
これが	-10.0782
施行	-10.0789
照	-10.0794
プロダクション	-10.0798
特殊	-10.0802
遺	-10.0803
ER	-10.0804
脚	-10.0805
虫	-10.0805
ッチ	-10.0807
<	-10.0808
ワイ	-10.0812
までは	-10.0819
球団	-10.0821
自治体	-10.0826
廃	-10.0831
チン	-10.0835
大学の教員	-10.0835
▁スタッフ	-10.084
蓮	-10.0841
グル	-10.0843
id	-10.0846
家庭	-10.0848
79	-10.0852
土曜	-10.0853
ング	-10.0861
発展	-10.0863
配置	-10.0867
区域	-10.0881
中止	-10.0883
東部	-10.0891
配	-10.0892
渋谷	-10.0895
パス	-10.0903
AV	-10.0906
マス	-10.0907
放送局	-10.0909
失敗	-10.0909
ごとに	-10.0912
短	-10.0922
カット	-10.0927
うち	-10.0929
もので	-10.093
系列	-10.0933
読	-10.0939
エア	-10.094
サブ	-10.0943
創立	-10.0945
大学院	-10.0946
称	-10.0947
ig	-10.0948
出した	-10.095
れる	-10.0956
ay	-10.0962
駅間	-10.0963
分離	-10.0965
チャー	-10.0976
責任	-10.0979
800	-10.098
虎	-10.098
思	-10.0984
au	-10.0985
:1	-10.0994
を示す	-10.1
、2014	-10.1001
窓	-10.1004
になると	-10.1008
MS	-10.1008
文書	-10.1009
価	-10.1011
東宝	-10.1021
岳	-10.1024
改正	-10.1028
再生	-10.1033
▁ザ	-10.1035
2001	-10.1037
戦略	-10.1039
ライフ	-10.1039
、2015	-10.104
収	-10.1043
IS	-10.1044
コール	-10.1046
決勝	-10.1048
名が	-10.1055
之助	-10.1062
の名	-10.1063
福島	-10.1063
ガンダム	-10.1063
歌詞	-10.1064
脇	-10.1066
捜査	-10.1069
散	-10.1069
ほとんど	-10.1069
性能	-10.1075
接続	-10.1078
一度	-10.1078
▁X	-10.1082
翌年	-10.1084
と呼ぶ	-10.1088
競馬	-10.1089
車体	-10.109
▁La	-10.1091
灯	-10.1092
操作	-10.1094
▁()	-10.1101
兵器	-10.1102
ステ	-10.1102
教室	-10.1103
画面	-10.1104
書店	-10.1108
ともに	-10.1108
▁その後	-10.111
ヒル	-10.1111
スペース	-10.1116
昇	-10.1124
更新	-10.1129
ill	-10.1136
知識	-10.1136
まま	-10.114
札幌	-10.114
運	-10.1144
THE	-10.1145
込んだ	-10.1147
自動	-10.1158
世紀日本の	-10.116
熊	-10.1162
ガル	-10.1164
市内	-10.1164
イギリスの	-10.1165
io	-10.1166
に近い	-10.1166
イル	-10.1167
パル	-10.1172
セント	-10.1174
伊勢	-10.1176
いち	-10.1176
後半	-10.1188
書き	-10.1188
トロ	-10.1191
me	-10.1194
移転	-10.1197
180	-10.12
奏	-10.1205
テスト	-10.1205
本塁打	-10.1205
唯一の	-10.1207
姉妹	-10.1209
舎	-10.1211
材	-10.1212
電車	-10.1215
師団	-10.1217
op	-10.1217
当初	-10.1225
王座	-10.123
96	-10.123
鳴	-10.123
独	-10.1232
あまり	-10.1233
ドライバー	-10.1239
コレクション	-10.1241
指揮	-10.1242
ボル	-10.1242
影響	-10.1243
87	-10.1244
同社	-10.1246
議	-10.1252
受け	-10.1253
資金	-10.1258
の女性	-10.1261
行われた	-10.1262
ップ	-10.1262
ダル	-10.1263
▁Y	-10.1263
購入	-10.1264
をした	-10.1265
69	-10.1265
▁#	-10.1276
することができる	-10.1276
ファイル	-10.1276
母親	-10.1277
▁元	-10.1283
むら	-10.1285
まだ	-10.1286
奈良	-10.1287
イオン	-10.1288
サイズ	-10.129
背	-10.1295
尻	-10.1295
貨物	-10.1296
★	-10.1302
最大の	-10.1305
たか	-10.1309
トーク	-10.131
チョ	-10.1318
の手	-10.1319
が行われ	-10.1319
中山	-10.1324
毒	-10.1327
(1999	-10.1329
宣言	-10.133
入学	-10.133
スウェーデン	-10.133
となって	-10.1333
年齢	-10.1344
株	-10.1344
EX	-10.1351
玄	-10.1352
%	-10.1358
常に	-10.136
ことが多い	-10.1362
準備	-10.1367
チャン	-10.1373
ver	-10.1382
遺跡	-10.1383
ゼロ	-10.1383
-6	-10.1391
功	-10.1393
スク	-10.1395
ンズ	-10.1399
すべての	-10.1402
▁+	-10.1407
調整	-10.1408
、2017	-10.141
参照	-10.1412
乳	-10.1415
それは	-10.142
認識	-10.1422
工学	-10.1423
、2005	-10.1423
ロボット	-10.1431
ようになる	-10.1432
名前	-10.1434
加藤	-10.1436
弱	-10.1441
任務	-10.1445
これら	-10.1447
後期	-10.1453
▁1979	-10.146
臣	-10.1461
牧	-10.1462
《	-10.1466
》	-10.147
周年記念	-10.1472
大賞	-10.1479
死亡	-10.148
欧州	-10.1482
のない	-10.1486
処分	-10.1486
ピン	-10.149
ヴェル	-10.1496
ミサイル	-10.15
継続	-10.1503
内部	-10.1503
時代に	-10.1503
これにより	-10.1504
の後	-10.1504
恋愛	-10.1505
選出	-10.1509
息子	-10.151
分の	-10.1513
このような	-10.1515
ヤン	-10.153
SF	-10.153
折	-10.1531
川崎	-10.1531
アラ	-10.1531
筆	-10.1535
の開発	-10.1542
ウクライナ	-10.1543
ッカー	-10.1544
与	-10.1544
トンネル	-10.1545
要素	-10.1551
身長	-10.1551
.8	-10.156
倒	-10.1565
ドリ	-10.1565
国鉄	-10.1568
アクション	-10.1571
多く	-10.1584
▁1978	-10.1587
しばしば	-10.1587
ハート	-10.1592
至	-10.1594
と同時に	-10.1596
の子	-10.1601
クー	-10.1604
史上	-10.1607
中心	-10.1607
中学	-10.161
▁上	-10.1611
合い	-10.1636
ドア	-10.1636
、2016	-10.1639
)7	-10.1641
ディア	-10.1648
結成	-10.1649
世界の	-10.1651
all	-10.1651
交渉	-10.1653
ヒット	-10.1661
ti	-10.1661
考え	-10.1667
福祉	-10.1667
mi	-10.1668
イメージ	-10.1668
ers	-10.1668
落ち	-10.1673
しゃ	-10.1673
方向	-10.1689
▁De	-10.1689
"|	-10.1693
竣工	-10.1699
振	-10.17
離	-10.1701
いている	-10.1701
夕	-10.1703
を結ぶ	-10.1703
(12	-10.1708
os	-10.171
すれば	-10.1713
▁Z	-10.1714
フィルム	-10.1715
ケル	-10.1718
one	-10.1718
監修	-10.1719
策	-10.1719
翻訳	-10.172
の中	-10.1721
哲学	-10.1721
しながら	-10.1721
しま	-10.1722
注	-10.1723
おか	-10.1723
置	-10.1724
渡辺	-10.1724
惑星	-10.1728
に参加	-10.1729
と同様に	-10.173
養	-10.1737
アイテム	-10.1743
価格	-10.1743
.6	-10.1749
go	-10.175
裁判	-10.1751
両親	-10.1757
▁on	-10.1757
CA	-10.1759
その他の	-10.1763
このため	-10.1763
と同	-10.1764
シル	-10.1768
合成	-10.177
自動車道	-10.1771
▁JR	-10.1775
マク	-10.178
阪神	-10.178
目標	-10.1784
芸	-10.1785
談	-10.1789
記載	-10.179
▁中国	-10.1793
投	-10.1795
指摘	-10.1797
の一覧	-10.1798
の一	-10.1805
ていく	-10.1806
だけでなく	-10.1808
海岸	-10.1808
日公開	-10.1812
固定	-10.1814
物質	-10.1815
専門学校	-10.1818
アメリカ合衆国の	-10.1824
主な	-10.1827
哲	-10.1828
める	-10.1831
腹	-10.1831
を開始した	-10.1832
ヴォ	-10.1832
底	-10.1839
雑	-10.1842
▁1972	-10.1845
RE	-10.1849
1945	-10.185
中で	-10.1852
職員	-10.1853
リンク	-10.1856
チュ	-10.1858
フィー	-10.1858
、2018	-10.1863
上野	-10.1865
AS	-10.1867
体験	-10.1867
キリスト教	-10.1877
被害	-10.1879
オペラ	-10.1887
忍	-10.1889
されたが	-10.1891
つか	-10.1895
150	-10.1897
マリア	-10.1899
ヘッド	-10.1901
東洋	-10.1904
五郎	-10.1906
啓	-10.1906
の妻	-10.1924
解決	-10.1924
上位	-10.1928
西日本	-10.1929
参戦	-10.1931
冷	-10.1932
現場	-10.1937
ポー	-10.194
実際に	-10.1942
毎週	-10.1946
いわゆる	-10.1958
ゴン	-10.1959
露	-10.1959
仙台	-10.1962
ケース	-10.1969
ブー	-10.1971
名を	-10.1979
念	-10.1981
計算	-10.1981
DS	-10.1997
月刊	-10.1997
、2019	-10.2001
振り	-10.2002
ずつ	-10.2003
オンライン	-10.2012
ひろ	-10.2013
その後は	-10.2013
果	-10.2014
した後	-10.2018
ドラム	-10.2018
町の	-10.2019
定義	-10.202
改良	-10.2021
▁1973	-10.2023
ロウ	-10.2027
警察署	-10.2027
回復	-10.2031
らない	-10.2034
許	-10.2035
ザン	-10.2037
爆	-10.2039
が可能	-10.2041
金融	-10.2043
▁21	-10.2048
中野	-10.2059
▁St	-10.2072
作曲家	-10.2073
案内	-10.2073
取得	-10.2076
拠点	-10.2078
NA	-10.2079
演劇	-10.208
殺人	-10.2082
MI	-10.2087
沖	-10.2088
(1998	-10.2089
略	-10.2089
たちは	-10.2092
〜』	-10.2093
LA	-10.2095
依頼	-10.21
を果たした	-10.2102
共演	-10.2107
にあり	-10.2108
洞	-10.2109
禁止	-10.211
ミル	-10.2121
トレ	-10.2127
ろう	-10.2129
ian	-10.2129
おう	-10.213
メキシコ	-10.2134
主催	-10.2134
特急	-10.214
ネタ	-10.2141
愛知県	-10.2143
脱	-10.2146
ac	-10.2149
のちに	-10.215
焼	-10.2152
、2000	-10.2152
耳	-10.2154
納	-10.2156
いくつかの	-10.2157
補	-10.2157
ci	-10.2159
特定	-10.2164
憲法	-10.2165
亀	-10.2168
長崎	-10.2173
デュ	-10.218
当時は	-10.218
ell	-10.2181
可能性	-10.2181
89	-10.2185
呉	-10.2188
レーベル	-10.2188
菊	-10.2191
日間	-10.2193
朗	-10.2197
各種	-10.2198
▁1977	-10.22
厳	-10.2203
アイルランド	-10.221
シャン	-10.2211
仮	-10.2211
かず	-10.2214
解放	-10.2217
東日本	-10.2227
犯	-10.2229
亮	-10.2236
AD	-10.2242
事実	-10.2245
野村	-10.2248
日本代表	-10.2249
天使	-10.2252
禁	-10.2256
対立	-10.227
患者	-10.2271
▁1976	-10.2272
得	-10.2273
画像	-10.2275
急行	-10.2279
を設立	-10.2279
97	-10.2282
初期の	-10.2289
加入	-10.229
ウィン	-10.2292
付属	-10.2296
ウル	-10.2297
億円	-10.2297
▁1974	-10.2302
経由	-10.2302
を設置	-10.2302
age	-10.2307
逃げ	-10.2309
ポリ	-10.2322
一時	-10.2324
できた	-10.2324
ノン	-10.2324
SO	-10.2333
四国	-10.2333
金属	-10.2336
強化	-10.2338
日曜	-10.234
ケー	-10.2344
▁1975	-10.2344
da	-10.2354
衆議院議員	-10.236
を担当	-10.2371
に入り	-10.2373
を務め	-10.2373
胸	-10.2374
ウェル	-10.2377
らず	-10.2378
意味	-10.2384
塾	-10.2384
est	-10.2388
プレー	-10.2389
に入る	-10.2399
連隊	-10.24
取締役	-10.2403
事業者	-10.2405
の母	-10.241
を指す	-10.241
拳	-10.2413
のまま	-10.2413
係	-10.2421
降	-10.2425
歳で	-10.2428
浪	-10.2432
供給	-10.2432
ent	-10.2435
宣	-10.2437
▁Ma	-10.244
DE	-10.2445
GP	-10.2447
大使	-10.2448
を開催	-10.2449
パーソナリティ	-10.2459
紫	-10.246
モンスター	-10.2461
爆発	-10.2463
好きな	-10.2469
デー	-10.2475
回り	-10.2476
オフ	-10.2481
王子	-10.2482
のほか	-10.2483
減少	-10.2484
と言う	-10.2485
ことも	-10.2487
支配	-10.2492
理事	-10.2501
(11	-10.251
卒	-10.2511
月曜	-10.2511
期待	-10.2512
拡張	-10.2514
per	-10.2516
深夜	-10.2516
FA	-10.2517
大阪府	-10.2517
(1997	-10.2517
松竹	-10.2519
と考えられている	-10.252
ィ	-10.2526
改善	-10.2526
74	-10.2529
原因	-10.254
アカデミー	-10.254
熊本	-10.2546
カリ	-10.2549
武装	-10.2552
ネル	-10.2553
地下鉄	-10.2554
許可	-10.2554
身体	-10.2558
なくなった	-10.2559
ビッグ	-10.2562
▁1971	-10.2562
皮	-10.2569
テレビドラマ	-10.2571
寄	-10.2572
マイケル	-10.2573
からも	-10.2573
半島	-10.2576
分け	-10.2577
読み	-10.2582
ミュージカル	-10.2585
ぶり	-10.2586
▁高	-10.2589
で開催された	-10.2595
弓	-10.2596
本名	-10.2599
の中に	-10.2601
上げ	-10.2602
多数の	-10.2603
ちょう	-10.2604
sh	-10.2608
であるため	-10.2608
ショ	-10.2609
▁1969	-10.261
紀元前	-10.2612
航空機	-10.2619
_	-10.2623
となっており	-10.2624
斗	-10.2624
票	-10.2627
にもかかわらず	-10.2628
1992	-10.2633
証	-10.2634
においても	-10.2634
▁中	-10.2636
祖父	-10.2638
ルイ	-10.2638
単行本	-10.2639
ce	-10.2639
▁c	-10.2643
中部	-10.2646
朝日	-10.2648
CO	-10.2653
近く	-10.2666
発足	-10.2666
ul	-10.267
民間	-10.2675
さま	-10.2676
こそ	-10.2676
と同じく	-10.2678
音声	-10.2678
RI	-10.2681
73	-10.2683
、2020	-10.2687
日記	-10.2697
発射	-10.2698
豪	-10.2699
政党	-10.27
峠	-10.2702
練習	-10.2709
淳	-10.2716
程	-10.2718
英国	-10.2721
フー	-10.2721
秋田	-10.2724
坊	-10.2724
闘	-10.2725
(1996	-10.273
シス	-10.2733
日本では	-10.2734
好き	-10.2734
サラ	-10.274
秘	-10.2744
オス	-10.2748
最終的に	-10.2752
この時	-10.2754
災害	-10.2755
パイロット	-10.2757
環	-10.2761
実行	-10.2762
ガール	-10.2764
尊	-10.2765
72	-10.2766
講師	-10.2772
月場所	-10.2775
ミュージシャン	-10.2775
製の	-10.2776
社員	-10.2776
NO	-10.2777
でき	-10.278
静岡	-10.2784
問	-10.2789
であること	-10.2789
ほどの	-10.2791
理解	-10.2795
ステーション	-10.2798
AI	-10.2798
最初に	-10.2798
燃料	-10.2802
▁0	-10.2803
体重	-10.281
隠	-10.2812
▁Bo	-10.2814
書籍	-10.2815
帰	-10.2816
集合	-10.2825
さくら	-10.2826
、2004	-10.2834
を用いて	-10.2834
寝	-10.2836
全員	-10.2839
派遣	-10.284
しなかった	-10.2841
▁優勝	-10.2842
、2021	-10.2842
くる	-10.2842
指名	-10.2846
オーバー	-10.2848
仏教	-10.285
プル	-10.2851
マシン	-10.2851
んでいる	-10.2852
ニン	-10.2854
ナイ	-10.2857
段階	-10.2861
自身が	-10.2861
現地	-10.2866
を使って	-10.2869
チャンピオン	-10.2875
臨時	-10.2876
氏の	-10.2877
増加	-10.2879
ポート	-10.288
洲	-10.2881
誕生	-10.2881
1990	-10.2884
化した	-10.2885
の名前	-10.2886
江戸時代	-10.2886
勤務	-10.289
▁交通	-10.2891
哉	-10.2891
DO	-10.2893
広場	-10.2897
桃	-10.2897
を意味する	-10.2901
パート	-10.2905
ard	-10.2906
サム	-10.2906
)9	-10.2908
1993	-10.2909
二人	-10.2911
ステークス	-10.2914
グラン	-10.2915
1999	-10.2915
作られた	-10.2916
に加え	-10.2919
井上	-10.2919
エース	-10.2922
その後も	-10.2923
中島	-10.2929
名の	-10.293
▁京都	-10.2931
ドイツの	-10.2934
力を	-10.2937
動き	-10.2937
ホワイト	-10.2938
新田	-10.294
規制	-10.2942
えき	-10.2948
派の	-10.295
メント	-10.2951
けい	-10.2952
600	-10.2952
コミックス	-10.2953
▁f	-10.2957
支持	-10.2957
人で	-10.2957
蘭	-10.2961
さい	-10.2963
be	-10.297
妙	-10.2972
大野	-10.2975
研	-10.2976
地名	-10.2976
▁with	-10.2977
探偵	-10.2979
肩	-10.2983
暦	-10.2984
したこと	-10.2986
.5	-10.2988
譲	-10.2988
もあった	-10.299
すぐに	-10.2991
中世	-10.2995
ビット	-10.2997
マッチ	-10.2998
▁著書	-10.3
たちが	-10.3004
貿易	-10.3012
ロバート	-10.3014
千葉県	-10.3017
じょう	-10.3021
GT	-10.3022
現象	-10.3023
サウンド	-10.3024
替え	-10.3026
かれ	-10.3026
刺	-10.3032
済	-10.3032
太平洋	-10.3034
彼女は	-10.3038
DA	-10.3039
青春	-10.3044
までに	-10.3046
菌	-10.3052
株式	-10.3054
人形	-10.3055
に就任	-10.3063
後も	-10.3066
卵	-10.3067
LE	-10.3071
代表選手	-10.3072
に属する	-10.3073
池田	-10.3074
月より	-10.308
▁Co	-10.308
こともあり	-10.3082
配給	-10.3086
ho	-10.3087
鈴	-10.3087
試	-10.3088
衛星	-10.3092
ate	-10.3094
するという	-10.3095
単独	-10.3096
プレミアム	-10.3096
夫人	-10.3101
当たり	-10.3107
▁1968	-10.3107
▁脚本	-10.3107
フレ	-10.3109
ロケット	-10.3109
に収録	-10.311
かけ	-10.3112
率いる	-10.3114
オープニング	-10.3119
を得る	-10.3123
の結果	-10.3124
民主党	-10.3126
輔	-10.3128
要求	-10.3135
人民	-10.3137
まち	-10.3139
ものは	-10.314
銀河	-10.314
ました	-10.3142
重量	-10.3144
キャリア	-10.3148
緒	-10.3149
度目の	-10.315
だろう	-10.3153
▁w	-10.3158
を持っている	-10.3162
シート	-10.3162
刊	-10.3163
メール	-10.3169
同様	-10.3171
きょう	-10.3181
衆	-10.3184
ローズ	-10.3186
方針	-10.3187
本編	-10.319
作成	-10.3193
84	-10.3197
83	-10.3198
向上	-10.3199
rd	-10.3199
それが	-10.3201
ゴルフ	-10.3203
ヴァル	-10.3205
歴代	-10.3205
金沢	-10.3208
独自の	-10.3208
の際に	-10.321
完了	-10.3211
前田	-10.3214
を有する	-10.3217
YouTube	-10.3218
従来の	-10.3224
か月	-10.3227
分布	-10.3231
評	-10.3233
▁1960	-10.3235
戦士	-10.3235
取材	-10.3236
AN	-10.3236
友人	-10.3238
結合	-10.3244
屋敷	-10.3246
無線	-10.3246
辻	-10.3247
以前は	-10.3247
僧	-10.3252
ブック	-10.3253
掛け	-10.3257
、1990	-10.3262
比較	-10.3262
に登場	-10.3264
▁d	-10.3272
給	-10.3272
司会	-10.3273
▁13	-10.3279
名誉	-10.3279
EC	-10.3282
の場合は	-10.3282
事務	-10.3285
ロサンゼルス	-10.3286
使用する	-10.3288
ソニー	-10.329
ジャンプ	-10.3292
リズム	-10.3295
休止	-10.3296
長官	-10.3298
に出演	-10.3298
1991	-10.3304
われ	-10.3305
上昇	-10.3305
隣	-10.3306
ダブル	-10.3307
らが	-10.3309
示	-10.3312
外国人	-10.3317
装甲	-10.3317
ナル	-10.3328
PA	-10.3332
▁LIVE	-10.3332
に関しては	-10.3335
作り	-10.3344
GO	-10.3348
学習	-10.3348
往復	-10.3351
を得た	-10.3351
の姿	-10.3352
DJ	-10.3356
統計	-10.3356
州の	-10.3358
○	-10.336
貫	-10.3361
リュ	-10.3371
希望	-10.3372
暗殺	-10.3373
松山	-10.3374
るが	-10.3377
奇	-10.3378
させて	-10.3378
岡山	-10.3379
が必要	-10.338
戦隊	-10.338
投げ	-10.3382
行った	-10.3383
挑戦	-10.3384
▁金	-10.3384
時点で	-10.339
杉	-10.3393
意見	-10.3393
市川	-10.3395
大橋	-10.3396
▁Ch	-10.3397
、2003	-10.3402
芝	-10.3403
トム	-10.3407
算	-10.3411
息	-10.3412
色の	-10.3413
(+	-10.3413
快	-10.3421
特定の	-10.3422
益	-10.3425
始め	-10.3426
柔道	-10.3428
双	-10.3431
高田	-10.3432
八幡	-10.3436
我	-10.3441
状態で	-10.3443
結局	-10.3447
丁	-10.3448
付近	-10.345
(1995	-10.345
をしていた	-10.3452
の下	-10.3457
ST	-10.3461
伴	-10.3463
判断	-10.3467
ゆき	-10.3467
▁東京都	-10.3469
あと	-10.3469
複数	-10.3472
無料	-10.3475
覚	-10.3477
墓	-10.3477
作用	-10.3477
対戦	-10.3485
通常の	-10.3486
村上	-10.3486
ナレーション	-10.3489
cc	-10.3491
続	-10.3491
岡田	-10.3492
注意	-10.3492
に入った	-10.3493
年にかけて	-10.3493
陳	-10.3498
リーダー	-10.3501
ED	-10.3502
ry	-10.3504
クト	-10.3512
CS	-10.3515
ネイ	-10.3517
ドラゴン	-10.3519
赤い	-10.3521
されていたが	-10.3523
人に	-10.3525
人を	-10.353
ゲル	-10.3532
翔	-10.3533
鹿児島	-10.3533
間に	-10.3543
合計	-10.3544
ベー	-10.3551
ころ	-10.3553
と述べている	-10.3562
事情	-10.3564
プラス	-10.3567
しく	-10.3567
潤	-10.357
ゴールド	-10.3572
▁1955	-10.3574
理事長	-10.3575
れた	-10.3575
自らの	-10.3576
スカ	-10.3577
崩壊	-10.3578
感情	-10.3578
少	-10.3579
閉鎖	-10.358
相談	-10.3584
祭り	-10.3585
顧問	-10.3585
についても	-10.3587
冊	-10.3589
晃	-10.3592
と改称	-10.3593
すぐ	-10.3594
していく	-10.3594
絵画	-10.3598
券	-10.3603
do	-10.3604
フランスの	-10.3615
マガジン	-10.3616
▁19	-10.3617
▁しかし	-10.3618
AM	-10.3623
数学	-10.3624
形成	-10.3625
ぞ	-10.3628
em	-10.3631
和田	-10.3631
ダウン	-10.3634
BE	-10.3635
審査	-10.3639
ON	-10.3641
木村	-10.3648
今日	-10.3649
ション	-10.365
を用いた	-10.3656
▁1967	-10.3658
衛	-10.3664
2023	-10.3672
からなる	-10.3672
検	-10.3672
季	-10.3674
当選	-10.3678
生き	-10.3679
続く	-10.368
錦	-10.368
記憶	-10.3684
描写	-10.3686
開通	-10.3687
多数	-10.3688
統治	-10.3689
逆に	-10.3694
すなわち	-10.3705
提案	-10.3705
▁生涯	-10.3706
まれ	-10.371
してしまう	-10.3711
▁旧	-10.3713
皆	-10.3722
由来	-10.3724
ヒーロー	-10.3739
ウェ	-10.374
移籍	-10.3743
偽	-10.3743
判定	-10.3744
北朝鮮	-10.3748
空軍	-10.3748
イヤー	-10.3752
ap	-10.3753
向き	-10.3754
ボディ	-10.3759
ける	-10.3762
は約	-10.3763
悠	-10.3768
Re	-10.3769
レオ	-10.3772
の存在	-10.3774
ブレ	-10.3777
▁Love	-10.3779
幹部	-10.378
)8	-10.3784
表面	-10.3788
本人	-10.3791
分子	-10.3791
新設	-10.3792
記述	-10.3795
陰	-10.3801
研究会	-10.3801
(1994	-10.3802
面積	-10.3802
合同	-10.3802
研究者	-10.3802
四郎	-10.3803
〕	-10.3804
オリ	-10.3811
っと	-10.3814
晋	-10.3814
IV	-10.3817
FF	-10.3818
〔	-10.3819
不足	-10.3827
抵抗	-10.383
こうした	-10.3832
▁14	-10.3835
▁ゲーム	-10.3837
1989	-10.3838
前作	-10.3838
既に	-10.3838
?」	-10.3839
継承	-10.384
モノ	-10.3842
詩人	-10.3843
膜	-10.3851
の音楽	-10.3852
82	-10.3852
アプリ	-10.3854
大きく	-10.3854
ソウル	-10.3857
ve	-10.3857
ここで	-10.3858
埼玉県	-10.3859
特集	-10.3859
規模	-10.3861
伯爵	-10.3862
順位	-10.3865
全長	-10.3866
捨て	-10.3866
リード	-10.387
しよう	-10.3872
陵	-10.3872
の影響	-10.3881
諸国	-10.3889
事を	-10.3891
兵士	-10.3895
ッタ	-10.3897
づ	-10.3899
支部	-10.3899
合う	-10.3899
エンディング	-10.39
石川	-10.3901
TE	-10.3904
毎日	-10.3906
バイパス	-10.3907
団地	-10.3908
重要	-10.3908
ウッド	-10.3912
国王	-10.3912
することを	-10.3915
グロ	-10.3916
世界選手権	-10.3918
ショップ	-10.392
1998	-10.3922
軍団	-10.3928
ペル	-10.393
分割	-10.3938
浮	-10.3939
なければ	-10.3943
開校	-10.3952
古典	-10.3954
東西	-10.3959
写	-10.3962
習	-10.3962
丹	-10.3963
保有	-10.3963
小学館	-10.3967
成立	-10.3969
ca	-10.397
-10	-10.397
鷹	-10.3974
大分	-10.3974
ang	-10.3976
返	-10.3978
1980	-10.398
やすい	-10.3982
▁製作	-10.3982
袋	-10.3985
ヌス	-10.3988
適用	-10.3993
ヴァイ	-10.3996
するための	-10.3999
外国	-10.4001
ディスク	-10.4002
テロ	-10.4005
創設	-10.4007
消防	-10.4009
▁佐藤	-10.401
▁vol	-10.4013
ときに	-10.4015
協定	-10.4016
財政	-10.4016
を獲得した	-10.4016
新人	-10.4017
ING	-10.402
テレビ番組	-10.4026
ab	-10.4026
ユース	-10.4026
実は	-10.4028
プール	-10.4029
王者	-10.4031
議論	-10.4033
の各	-10.4038
▁An	-10.4038
進化	-10.4038
階級	-10.4039
織	-10.4043
ベルリン	-10.4044
="2"|-||	-10.4047
▁1964	-10.4049
それら	-10.4051
デモ	-10.4051
あなた	-10.4051
朱	-10.4051
AP	-10.4051
ES	-10.4055
平日	-10.4057
衝突	-10.4058
ジム	-10.4059
ru	-10.4061
近鉄	-10.4062
國	-10.4063
長野	-10.4064
GI	-10.4065
▁鈴木	-10.4068
悟	-10.4068
ant	-10.4069
維持	-10.407
メッセージ	-10.4074
ヤング	-10.4075
アレンジ	-10.4076
体育	-10.408
軍人	-10.4082
抗	-10.4083
使い	-10.4083
▁1889	-10.4084
富山	-10.4089
マリー	-10.4094
ピア	-10.4094
のひとつ	-10.41
刑	-10.4102
チームの	-10.4107
▁公式サイト	-10.4108
よい	-10.4113
ex	-10.4113
側に	-10.4115
▁at	-10.4115
エレ	-10.4116
、2002	-10.4117
全日本	-10.4118
ヘンリー	-10.4118
右衛門	-10.4119
の中心	-10.4119
除	-10.4128
グレ	-10.4129
に基づく	-10.4132
※	-10.4136
目の	-10.4136
材料	-10.4137
島の	-10.414
橋本	-10.4144
中華人民共和国	-10.4145
ッド	-10.4151
同日	-10.4157
流行	-10.4159
ドリーム	-10.4161
最多	-10.417
課程	-10.4171
(1993	-10.4172
綾	-10.4174
ガイ	-10.4174
植	-10.4177
▁明治	-10.4181
タワー	-10.4189
訪問	-10.4193
備	-10.4194
アシスタント	-10.4196
ment	-10.4197
が行われる	-10.4199
についての	-10.4199
込んで	-10.42
ラスト	-10.4202
項目	-10.4203
、2001	-10.4203
選抜	-10.4206
▁World	-10.4208
範囲	-10.4208
定期	-10.421
高松	-10.4212
業界	-10.4222
笠	-10.4222
スコ	-10.4231
パイ	-10.4232
を引き	-10.4234
ヶ月	-10.4235
化された	-10.4237
ピーター	-10.424
ブログ	-10.4244
の声	-10.4247
入口	-10.4247
神話	-10.4249
フラ	-10.4251
約束	-10.4251
STER	-10.4252
(1991	-10.4253
公共	-10.4254
イスラエル	-10.4255
であると	-10.4255
キャンパス	-10.4258
やがて	-10.4261
ブロ	-10.4262
前後	-10.4263
痛	-10.4264
、2022	-10.4264
私立	-10.4265
1944	-10.4265
ギー	-10.4266
▁New	-10.4269
あき	-10.4269
しているが	-10.427
てん	-10.4274
継	-10.4275
▁Mar	-10.4279
RA	-10.4281
の使用	-10.4281
青山	-10.4282
ローカル	-10.4286
を始め	-10.4288
年の映画	-10.429
フィリピン	-10.4291
嵐	-10.4294
執行	-10.4296
磯	-10.4301
授業	-10.4303
行う	-10.4304
ブラン	-10.4304
ity	-10.4306
▁1966	-10.4309
空気	-10.431
▁vs	-10.4312
狂	-10.4312
大阪市	-10.4325
活	-10.4327
それぞれの	-10.4328
以前	-10.4329
られていた	-10.4335
当て	-10.434
敷	-10.434
神奈川県	-10.4342
感染	-10.4347
中川	-10.4357
▁テレビ	-10.4357
丈	-10.436
▁男子	-10.4363
期の	-10.4364
記者	-10.4366
飛び	-10.4368
長期	-10.4369
青森	-10.4371
接	-10.4371
大字	-10.4371
番地	-10.4371
ベルト	-10.4372
▁キャスト	-10.4378
主題歌	-10.4382
(1992	-10.4384
少し	-10.4385
儀	-10.4389
▁To	-10.439
機種	-10.4391
ka	-10.4391
当駅	-10.4399
に関して	-10.44
巨人	-10.4403
小川	-10.4403
低下	-10.4407
ラル	-10.4408
トルコ	-10.4408
高等	-10.4409
ME	-10.441
94	-10.4414
彼が	-10.4414
緊急	-10.4416
ルト	-10.4416
拓	-10.4419
ドール	-10.4419
生命	-10.4419
手法	-10.4427
じゃ	-10.4432
全く	-10.4432
年頃	-10.4432
白い	-10.4434
次元	-10.4435
ウイルス	-10.4435
pe	-10.4436
執筆	-10.444
しても	-10.4441
上海	-10.4441
固	-10.4443
劇団	-10.4443
財	-10.4446
▁<	-10.4447
なった	-10.445
プレス	-10.445
地帯	-10.4454
舟	-10.4455
ヨン	-10.4459
ニング	-10.446
深い	-10.446
金曜	-10.4461
風の	-10.4461
ラウンド	-10.4461
売り	-10.4464
▁エ	-10.4466
を開設	-10.4466
ロイ	-10.4476
斎	-10.4477
ba	-10.4479
以降の	-10.4482
位の	-10.4482
グランド	-10.4486
アム	-10.4491
薄	-10.4491
パートナー	-10.4504
指導者	-10.4506
our	-10.4507
さまざまな	-10.4507
ゼン	-10.4507
アク	-10.451
紗	-10.4513
銅	-10.4515
正式に	-10.4516
占領	-10.4517
の女	-10.4518
をはじめ	-10.4518
▁1965	-10.452
マッ	-10.452
引き続き	-10.452
▁白	-10.4521
るため	-10.4522
ごう	-10.4522
人と	-10.4523
又は	-10.4523
シュー	-10.4523
フジ	-10.4527
の家	-10.4528
ヒト	-10.4528
▁国際	-10.4529
万ドル	-10.4532
▁OF	-10.4533
事態	-10.4538
キャスト	-10.454
▁Be	-10.4541
and	-10.4545
の森	-10.4545
琴	-10.4547
激	-10.4548
を感じ	-10.455
楽器	-10.4554
ゴールデン	-10.4554
上記の	-10.4556
ことになった	-10.456
をリリース	-10.4562
兵庫県	-10.4563
ベトナム	-10.4567
甘	-10.4568
制定	-10.4568
主張	-10.457
規格	-10.4572
式の	-10.4573
.,	-10.4573
様子	-10.4574
5%	-10.4574
猛	-10.4578
sa	-10.458
の地名	-10.4581
人類	-10.4582
!?	-10.4583
ナンバー	-10.4583
クラシック	-10.4584
構想	-10.4584
宮崎	-10.4585
笑	-10.4587
業者	-10.4588
(1990	-10.4592
可能な	-10.4594
が高い	-10.4598
年代に	-10.46
皇	-10.4602
徒歩	-10.4605
投資	-10.4607
すべき	-10.4607
居住	-10.4608
ジャズ	-10.4609
タクシー	-10.461
走行	-10.4613
区別	-10.4613
ヘイ	-10.4613
のみで	-10.4615
ード	-10.4617
ビア	-10.4618
承認	-10.462
騎士	-10.462
なども	-10.4624
▁過去の	-10.4624
導	-10.4624
1960	-10.4627
転換	-10.4628
劉	-10.4629
クリスマス	-10.4632
整	-10.4635
ユーザー	-10.4636
ガラス	-10.4637
競馬場	-10.4638
那	-10.4638
奴隷	-10.4638
性の	-10.4639
1997	-10.464
強く	-10.4641
殺害	-10.4642
ベルギー	-10.4645
ABC	-10.4649
央	-10.4649
リアン	-10.4652
これに	-10.4652
国境	-10.4653
扉	-10.4654
style	-10.4655
幻	-10.4657
場面	-10.4658
本の	-10.4659
大隊	-10.4659
らい	-10.4659
キュ	-10.466
巨	-10.4662
▁世界	-10.4664
▁花	-10.4668
鋼	-10.4671
▁1963	-10.4671
コンビ	-10.4674
守護	-10.4675
を見て	-10.4675
会館	-10.4678
河内	-10.4683
文献	-10.4685
フィン	-10.4687
箇所	-10.4691
度の	-10.4692
安定	-10.4692
著作	-10.4698
などがある	-10.4699
120	-10.4703
に由来する	-10.4708
向けの	-10.4709
寒	-10.4709
岐阜	-10.471
液	-10.4711
検討	-10.4712
1995	-10.4713
ロング	-10.4713
てしまった	-10.4715
ヘン	-10.4718
航	-10.4718
信仰	-10.4718
地点	-10.4719
スカイ	-10.4721
1950	-10.4722
に伴う	-10.4725
スピード	-10.4725
バーン	-10.4726
1943	-10.4729
悪魔	-10.4729
厚	-10.4731
かつては	-10.4736
人間の	-10.4737
上田	-10.4738
ポジションは	-10.4741
模様	-10.4742
英雄	-10.4743
軒	-10.4749
ボックス	-10.4749
プロレス	-10.4749
▁仮面ライダー	-10.4755
さき	-10.4761
レル	-10.4767
リュー	-10.4767
侍	-10.477
長く	-10.4773
規則	-10.4777
と呼ばれ	-10.4779
カス	-10.478
▁1954	-10.4787
腰	-10.4789
軍は	-10.4789
男女	-10.479
合流	-10.479
フェル	-10.4793
実業家	-10.4796
通過	-10.4798
年代の	-10.48
1941	-10.48
を超える	-10.4802
離脱	-10.4803
相手の	-10.4804
焼き	-10.4806
時点	-10.481
ものであった	-10.4811
それまで	-10.4812
止め	-10.4813
を記録した	-10.4814
スポンサー	-10.4816
浅	-10.4819
同一	-10.4822
ラウ	-10.4825
圭	-10.4827
附属	-10.4829
戦では	-10.4831
1988	-10.4837
不動産	-10.4838
りん	-10.4839
てい	-10.4842
賞を受賞	-10.4844
の間で	-10.4844
状の	-10.4851
アメリカン	-10.4852
ながらも	-10.4855
ウォー	-10.4857
基礎	-10.4858
大人	-10.4859
北京	-10.486
ance	-10.4861
クリス	-10.487
班	-10.4871
誰	-10.4872
年以降	-10.4872
ヴィン	-10.4872
性質	-10.4873
信号	-10.4874
の歌	-10.4875
ID	-10.4876
ONE	-10.4876
ary	-10.4876
三浦	-10.4877
1996	-10.488
下げ	-10.4888
注目	-10.4888
レコーディング	-10.4889
戻	-10.4889
ロール	-10.489
ワシントン	-10.489
価値	-10.4891
太田	-10.4893
ak	-10.4893
の鉄道駅	-10.4893
の企業	-10.4893
場合もある	-10.4894
支	-10.4895
ようになり	-10.4902
冒険	-10.4906
ティア	-10.4911
以前の	-10.4912
賞受賞	-10.4913
応援	-10.4915
▁主演	-10.4915
彼らは	-10.4916
負け	-10.4916
つけ	-10.4917
決	-10.4922
ミッション	-10.4926
°	-10.4926
▁他	-10.4929
閉	-10.4932
解釈	-10.4933
リチャード	-10.4934
輸入	-10.4937
ート	-10.494
球場	-10.4941
実況	-10.4943
KA	-10.4947
低い	-10.4952
との関係	-10.4952
若い	-10.4955
彼ら	-10.496
〜(	-10.4963
TH	-10.4965
再開	-10.4965
ても	-10.4965
子ども	-10.497
を表す	-10.4971
設立された	-10.4973
二郎	-10.4975
ものが	-10.4975
トーナメント	-10.4976
ヒロイン	-10.4981
先行	-10.4981
1947	-10.4985
開発された	-10.4987
セブン	-10.4988
世は	-10.499
クリア	-10.499
立て	-10.4994
侵攻	-10.4996
頁	-10.4996
92	-10.4999
ドラフト	-10.5002
同様に	-10.5003
om	-10.5003
宣伝	-10.5007
奉	-10.5009
つまり	-10.5009
詞	-10.5012
とされた	-10.5014
下の	-10.5014
ジェームズ	-10.5015
▁天	-10.5016
PR	-10.5016
プロ野球	-10.5017
現実	-10.5017
沈	-10.5017
相互	-10.5019
研修	-10.5021
比較的	-10.5025
と結婚	-10.5036
開幕	-10.5038
の番組	-10.5038
危険	-10.5039
栽培	-10.504
旭	-10.5042
ガード	-10.5044
黒い	-10.5047
とされ	-10.5049
ゲー	-10.5052
庄	-10.5053
豆	-10.5053
が特徴	-10.5059
動作	-10.506
するも	-10.506
81	-10.5063
んでいた	-10.5063
CH	-10.5066
ルーム	-10.507
キス	-10.5072
▁1950	-10.5073
長野県	-10.5077
グレイ	-10.5077
つつ	-10.5077
ni	-10.508
妃	-10.508
にわたって	-10.5081
地獄	-10.5087
衣装	-10.509
まさ	-10.5091
趣味	-10.5091
ニック	-10.5091
られて	-10.5093
映	-10.5097
しょ	-10.5098
やや	-10.5103
ギリシャ	-10.5109
涙	-10.5109
克	-10.511
ドーム	-10.511
1952	-10.5112
シナリオ	-10.5113
バーグ	-10.5116
デザイナー	-10.5117
入門	-10.5117
操	-10.5118
まい	-10.5119
卓	-10.5119
リリースされた	-10.512
上映	-10.5123
対決	-10.5123
かなり	-10.5125
ハンガリー	-10.513
平野	-10.5131
現在では	-10.5132
首都	-10.5132
bi	-10.5133
▁1947	-10.5134
大学の	-10.5137
▁Con	-10.5138
集中	-10.5138
1948	-10.5139
他に	-10.514
委員長	-10.514
ワー	-10.5141
▁舞台	-10.5141
ヨー	-10.5142
即	-10.5144
たま	-10.5146
93	-10.5148
労	-10.5152
自分が	-10.5153
〜」	-10.5153
ポルトガル	-10.5155
を目指す	-10.5157
早く	-10.5159
末期	-10.5162
暴	-10.5163
投稿	-10.5167
音源	-10.5172
苦	-10.5173
合格	-10.5175
▁Music	-10.5177
鎌倉	-10.5184
高山	-10.5187
1987	-10.5188
繁	-10.5189
市にある	-10.5189
巨大な	-10.5192
LO	-10.5195
木曜	-10.5196
モスクワ	-10.5197
スリー	-10.5198
現役	-10.5198
福井	-10.5198
▁あらすじ	-10.52
JA	-10.5202
監視	-10.5202
最優秀	-10.5204
幼	-10.5205
クター	-10.5213
番目の	-10.5213
1942	-10.5214
集落	-10.5215
旨	-10.5215
パック	-10.5216
形状	-10.5218
植民地	-10.522
ジャケット	-10.5222
市出身	-10.5223
涼	-10.5224
駅から	-10.5226
申請	-10.5227
ジェット	-10.523
違い	-10.5233
hi	-10.5234
▁森	-10.524
えん	-10.5243
西側	-10.5244
▁FIFA	-10.5245
有名	-10.5247
スイス	-10.525
駆逐艦	-10.5252
▁1962	-10.5253
所有	-10.5256
郵便	-10.5257
頭部	-10.5263
労働者	-10.5265
推薦	-10.5265
危機	-10.5269
昼	-10.5271
機会	-10.5272
金曜日	-10.5273
フロント	-10.5275
’	-10.5275
の選手一覧	-10.5277
関数	-10.5279
寮	-10.5281
▁真	-10.5282
レストラン	-10.5282
SI	-10.5287
殺人事件	-10.5287
石井	-10.5287
時計	-10.5287
高さ	-10.529
▁1961	-10.529
初め	-10.5292
一丁目	-10.5293
ton	-10.5294
もと	-10.5297
呂	-10.53
小説家	-10.5303
エジプト	-10.5304
側面	-10.5307
ブレーキ	-10.5307
言う	-10.5307
くら	-10.5309
▁TV	-10.5309
を通して	-10.5309
250	-10.5311
創刊	-10.5313
山梨県	-10.532
OP	-10.5323
艇	-10.533
幕府	-10.5334
廃止された	-10.5336
自治	-10.5336
ための	-10.5339
ee	-10.5341
ショート	-10.5341
束	-10.5344
▁1956	-10.5346
職業	-10.5348
あん	-10.535
俺	-10.5352
狼	-10.5354
先に	-10.5355
乗り	-10.5357
専攻	-10.5359
交代	-10.536
▁田中	-10.5362
エリ	-10.5362
することが	-10.5362
ファッション	-10.5368
駐	-10.5368
判	-10.5369
消滅	-10.5369
著書	-10.5372
一族	-10.5375
証明	-10.5376
オフィス	-10.5376
ッカ	-10.5378
同時	-10.5378
と考えられる	-10.5379
1951	-10.538
消費	-10.538
良い	-10.5381
の関係	-10.5383
ことにより	-10.5383
菅	-10.5387
印刷	-10.5389
始めた	-10.539
句	-10.5393
札	-10.5396
メジャー	-10.5396
押	-10.5397
ist	-10.5401
ント	-10.5403
BO	-10.5406
べき	-10.5408
バッハ	-10.5414
の名称	-10.5415
願	-10.5416
残り	-10.5418
外交	-10.5421
▁プロデューサー	-10.5421
ゼル	-10.5422
に至る	-10.5423
アド	-10.5425
▁1945	-10.5428
ボクシング	-10.5428
変身	-10.543
話題	-10.5433
大佐	-10.5433
過去に	-10.5436
迫	-10.5437
MP	-10.544
せる	-10.544
OL	-10.5441
帳	-10.5445
脱出	-10.5446
SH	-10.5447
北陸	-10.5449
ティング	-10.545
後藤	-10.5451
▁from	-10.5453
青木	-10.5453
代わりに	-10.5455
秦	-10.5459
左右	-10.546
実現	-10.5461
資源	-10.5461
概要	-10.5466
庫	-10.5467
CR	-10.5469
全米	-10.5469
リニューアル	-10.5471
贈	-10.5471
将棋	-10.5471
dy	-10.5473
裁判所	-10.5476
垣	-10.5478
▁You	-10.548
ストリート	-10.5482
集英社	-10.5483
言い	-10.5484
父の	-10.5484
▁For	-10.5484
争い	-10.5485
OR	-10.5492
再建	-10.5497
ディング	-10.5498
鼻	-10.5498
訴え	-10.5499
接触	-10.5499
(1989	-10.55
キャスター	-10.5501
いたが	-10.5509
自転車	-10.5509
ウン	-10.5511
復興	-10.5511
数字	-10.5518
秘密	-10.552
学術	-10.5526
仮面ライダー	-10.553
カフェ	-10.5531
オーディション	-10.5532
巣	-10.5535
として活動	-10.5537
デンマーク	-10.5539
ワイン	-10.5539
コス	-10.5543
予想	-10.5544
判決	-10.5545
▁アル	-10.5545
1986	-10.5549
ai	-10.5551
一般に	-10.5553
翌日	-10.5557
IA	-10.5559
▁全	-10.5562
ゲイ	-10.5566
短期大学	-10.5568
▁CD	-10.5568
海上	-10.557
たん	-10.5572
適	-10.5572
tr	-10.5573
コンセプト	-10.5579
ちゃ	-10.5579
斎藤	-10.558
古い	-10.558
放送開始	-10.5581
を描いた	-10.5582
磨	-10.5582
栗	-10.5585
感じ	-10.5588
戦闘機	-10.5589
海洋	-10.5594
聴	-10.5595
大規模な	-10.5599
警	-10.56
に移転	-10.5603
▁Al	-10.5603
助手	-10.5606
VI	-10.5607
エロ	-10.5611
ソル	-10.5612
小倉	-10.5613
を発売	-10.5613
スコットランド	-10.5614
地域の	-10.5615
ラグビー	-10.5616
を使う	-10.5617
1946	-10.5622
1994	-10.5622
ジャンル	-10.5624
発言	-10.5625
有効	-10.5627
昇格	-10.5628
あたり	-10.563
インター	-10.5633
暗	-10.5634
可能性がある	-10.5635
珠	-10.5636
復	-10.5637
ばかり	-10.5637
コミュニティ	-10.5638
全集	-10.5639
ハード	-10.5641
▁マ	-10.5642
がわ	-10.5643
ターミナル	-10.5647
新規	-10.5649
ーナ	-10.5649
ner	-10.5656
たため	-10.5656
加工	-10.5656
の国	-10.5659
放送された	-10.5662
藤田	-10.5662
はなく	-10.5664
川の	-10.5664
ツー	-10.5664
。2010	-10.5665
のシングル	-10.5666
発着	-10.5667
ナス	-10.5667
みな	-10.5667
標高	-10.567
もり	-10.5676
駐車場	-10.5677
山形	-10.5678
山下	-10.5679
帰国	-10.5679
観客	-10.5679
フェスティバル	-10.568
才	-10.5687
▁Sh	-10.5687
改修	-10.5689
、1998	-10.5691
主要	-10.5692
▁イ	-10.5693
みや	-10.5696
ast	-10.5696
夫婦	-10.5697
しき	-10.5698
di	-10.5699
幾	-10.5702
応用	-10.5702
▁カ	-10.5713
エンディングテーマ	-10.5714
修正	-10.5715
ということ	-10.5717
辰	-10.572
登板	-10.5722
切れ	-10.5723
▁中村	-10.5725
会計	-10.5733
就	-10.5734
続いて	-10.5734
に参加した	-10.5739
1970	-10.5739
創業	-10.5741
700	-10.5742
当該	-10.5743
人々	-10.5747
謙	-10.5747
KI	-10.5751
局長	-10.5751
受験	-10.5751
ティン	-10.5752
免許	-10.5755
佐々木	-10.5757
えた	-10.5759
land	-10.576
シカゴ	-10.5763
を発表した	-10.5765
ロボ	-10.5772
の登場人物	-10.5772
恒	-10.5776
▁Mo	-10.5776
ty	-10.5777
宅	-10.5779
敗北	-10.5779
評論家	-10.578
旅客	-10.5782
一家	-10.5783
ホールディングス	-10.5783
されない	-10.5784
昔	-10.5786
岐阜県	-10.579
1939	-10.5791
my	-10.5794
小松	-10.5795
待	-10.5796
利益	-10.5797
僕	-10.5799
(1988	-10.58
ペット	-10.5802
ドロ	-10.5807
殺し	-10.5809
▁1959	-10.5811
するもの	-10.5811
亭	-10.5812
輸出	-10.5812
立場	-10.5812
権利	-10.5813
ッター	-10.5814
ファミリー	-10.5817
とも呼ばれる	-10.5819
▁BS	-10.5819
部に	-10.5825
チャールズ	-10.5834
パフォーマンス	-10.5836
ツァ	-10.5837
ガールズ	-10.584
1937	-10.584
ワイド	-10.5841
ユダヤ人	-10.5841
形の	-10.5842
やす	-10.5844
コア	-10.5844
最新	-10.5846
カム	-10.5846
▁Ro	-10.5846
カレッジ	-10.5852
撤退	-10.5853
ダーク	-10.5859
LIVE	-10.5862
藩主	-10.5863
恩	-10.5864
コート	-10.5866
71	-10.5867
ものを	-10.5867
ip	-10.5871
慎	-10.5873
ノス	-10.5874
長男	-10.5875
左衛門	-10.5877
個体	-10.5877
SU	-10.5878
を持った	-10.5881
いつも	-10.5881
刻	-10.589
生成	-10.5891
捕	-10.5895
創造	-10.5896
トゥー	-10.5897
vi	-10.5898
講座	-10.5899
はじめ	-10.5902
滑	-10.5903
依	-10.5903
石油	-10.5903
校長	-10.5905
発表された	-10.5905
ke	-10.5906
静岡県	-10.5907
ヴィー	-10.5907
1984	-10.5909
ごろ	-10.591
沿岸	-10.591
ラク	-10.5911
体の	-10.5913
怒	-10.5914
普及	-10.5916
確保	-10.5916
ray	-10.5919
キャンペーン	-10.5921
VS	-10.5921
幹	-10.5921
スパイ	-10.5922
提出	-10.5922
埼玉	-10.5925
ph	-10.5927
さえ	-10.5929
に移籍	-10.593
を使用する	-10.5931
エンド	-10.5934
ルド	-10.5935
出演者	-10.5935
パッケージ	-10.5937
課長	-10.5939
わずか	-10.5942
の上	-10.5942
霧	-10.5944
ヤー	-10.5946
微	-10.5948
シネマ	-10.595
徐々に	-10.5951
1985	-10.5952
潜水艦	-10.5953
、1999	-10.5953
ているが	-10.5954
芽	-10.5956
▁b	-10.5957
the	-10.5959
に位置し	-10.5959
できなかった	-10.5961
審	-10.5962
大手	-10.5967
かない	-10.5967
中国の	-10.5968
司法	-10.5969
ゲート	-10.5971
ムー	-10.5974
武田	-10.5978
麗	-10.598
メー	-10.5981
半分	-10.5982
アクセス	-10.5985
▁Live	-10.5986
大学大学院	-10.5986
めた	-10.5987
反乱	-10.5987
ーニ	-10.5991
官僚	-10.5993
リエ	-10.5993
トヨタ	-10.5997
初出場	-10.5997
育	-10.6001
襲撃	-10.6002
▁サン	-10.6005
劇中	-10.6006
標	-10.6011
出典	-10.6011
閣	-10.6014
崇	-10.6014
▁ラジオ	-10.6015
同期	-10.6016
ブルク	-10.6023
庁舎	-10.6024
▁|}	-10.6025
のことを	-10.6027
韓	-10.6027
三菱	-10.6029
ロゴ	-10.6031
を作る	-10.6034
文明	-10.6036
▁アメリカ	-10.6038
本作の	-10.6038
▁Li	-10.6042
立候補	-10.6044
かく	-10.6046
活躍	-10.6046
西武	-10.605
とり	-10.6055
ネオ	-10.6059
▁イギリスの	-10.6063
歌唱	-10.6065
地形	-10.6065
ish	-10.6065
譜	-10.6066
棒	-10.6068
キュー	-10.6071
バスケットボール	-10.6071
▁My	-10.6073
遺伝子	-10.6073
坪	-10.6074
up	-10.6074
オート	-10.6076
滅	-10.6077
▁DVD	-10.6084
(1987	-10.6085
築	-10.6087
と思われる	-10.6088
新幹線	-10.6088
ボード	-10.6091
ものであり	-10.6092
を求める	-10.6104
協議会	-10.6106
経緯	-10.6106
体育館	-10.6107
経済学	-10.6108
方言	-10.6111
脱退	-10.6116
機の	-10.6122
ies	-10.6123
銭	-10.6126
歳の	-10.6127
ビス	-10.6128
ビール	-10.6128
桁	-10.6129
マイル	-10.613
停留所	-10.6133
盗	-10.6133
張り	-10.6134
大学教授	-10.6137
ロシアの	-10.6137
公立	-10.6139
建造	-10.6139
火山	-10.614
電鉄	-10.614
マックス	-10.6142
閉店	-10.6142
文芸	-10.6142
様式	-10.6143
▁神	-10.6151
逮捕	-10.6152
傾向	-10.6153
作者	-10.6153
メタル	-10.6153
he	-10.6155
武蔵	-10.6165
隊長	-10.6165
ファースト	-10.6166
笹	-10.6167
で初めて	-10.6169
演技	-10.6172
▁原作	-10.6176
и	-10.6176
CC	-10.6181
▁Pro	-10.6182
AR	-10.6185
▁×	-10.6185
イラン	-10.6186
予算	-10.6189
行く	-10.6189
▁1958	-10.619
に向けて	-10.619
160	-10.6191
分校	-10.6192
art	-10.6195
包	-10.6197
1936	-10.6202
最後に	-10.6203
誘導	-10.6204
テレビアニメ	-10.6206
活用	-10.6207
卿	-10.621
チュー	-10.6212
経歴	-10.6213
準優勝	-10.6214
なん	-10.6216
そこに	-10.6217
シリーズの	-10.6217
ペア	-10.6219
封	-10.6222
猿	-10.6223
高度	-10.6224
ひと	-10.6225
眠	-10.6227
午後	-10.623
はほとんど	-10.623
一般的な	-10.623
も多い	-10.623
承	-10.6231
大島	-10.6231
戦艦	-10.6231
収録曲	-10.6233
▁1948	-10.6234
橘	-10.624
La	-10.6246
ag	-10.6246
ヤマ	-10.6248
発達	-10.6248
前半	-10.625
薫	-10.6251
三木	-10.6253
▁ドラマ	-10.6259
潜	-10.6259
聡	-10.6262
されること	-10.6263
ow	-10.6265
第四	-10.6265
欲	-10.6265
バリ	-10.6268
育成	-10.6268
▁1949	-10.6272
-20	-10.6273
1920	-10.628
▁美術	-10.6281
採	-10.6285
の問題	-10.6286
フォル	-10.6287
EL	-10.6287
場合には	-10.6288
に就任した	-10.6293
斉	-10.6293
縦	-10.6295
寺院	-10.6296
ten	-10.6296
地図	-10.6297
を行っていた	-10.6299
SD	-10.6299
を見せ	-10.63
県道	-10.6303
勲章	-10.6304
押し	-10.6304
映画監督	-10.6305
大将	-10.631
現在も	-10.6312
原画	-10.6316
気持ち	-10.6317
恐れ	-10.6321
放映	-10.6331
次第に	-10.6331
したい	-10.6334
如	-10.6334
すでに	-10.6337
南海	-10.6341
阿部	-10.6345
使う	-10.6349
、1996	-10.6352
ここ	-10.6355
前述の	-10.6356
▁テレビドラマ	-10.6357
ome	-10.6357
有名な	-10.6359
蛇	-10.6359
火災	-10.6359
芸人	-10.636
紋	-10.6364
上下	-10.6366
、1995	-10.6367
メダル	-10.6367
ick	-10.6368
強制	-10.637
ライバル	-10.6371
ブルース	-10.6371
に出	-10.6377
文化財	-10.6379
なければならない	-10.638
長谷川	-10.6381
資	-10.6384
を持って	-10.6385
ハワイ	-10.6385
長さ	-10.6386
瑞	-10.6389
を獲得	-10.639
NTT	-10.6391
洗	-10.6392
の教員	-10.6394
になっていた	-10.6399
(1986	-10.6399
DF	-10.6402
資産	-10.6402
高速道路	-10.6404
坂本	-10.6409
っち	-10.641
ホームページ	-10.6415
1938	-10.6416
語り	-10.6416
EP	-10.6419
スタン	-10.642
新聞社	-10.6421
うた	-10.6423
、1980	-10.6425
含まれ	-10.6426
フィンランド	-10.6428
新潟県	-10.643
モール	-10.6431
に当たる	-10.6433
絶対	-10.6434
そのもの	-10.6435
ong	-10.6441
場合がある	-10.6441
水曜	-10.6441
以外	-10.6445
又	-10.6445
so	-10.6447
ムス	-10.6449
彰	-10.6449
国際空港	-10.6451
スル	-10.6454
1972	-10.6454
戦線	-10.6456
の下で	-10.6457
全域	-10.6461
ルイス	-10.6463
刃	-10.6464
ホン	-10.6467
多い	-10.6467
ボタン	-10.6468
まつり	-10.6469
ファイナル	-10.6471
の意味	-10.6471
が登場する	-10.6473
イチ	-10.6475
篤	-10.648
操縦	-10.6484
律	-10.6484
インチ	-10.6485
▁n	-10.6485
-18	-10.6489
姿勢	-10.649
然	-10.6492
警備	-10.6493
議長	-10.6493
▁下	-10.6494
ビュー	-10.6494
委託	-10.6495
フランク	-10.6496
泊	-10.6498
の弟	-10.6499
▁登場人物	-10.6499
ドライブ	-10.6501
ターン	-10.6502
流通	-10.6503
貝	-10.6503
3000	-10.651
小さい	-10.6511
▁1957	-10.6513
腸	-10.6521
唄	-10.6521
アリス	-10.6523
の記録	-10.6523
祥	-10.6523
顕	-10.6525
毎日放送	-10.6527
▁ジョン	-10.6527
従来	-10.6528
琉球	-10.653
IP	-10.6531
弟子	-10.6531
表彰	-10.6531
5000	-10.6533
阪	-10.6534
ガイド	-10.6534
ice	-10.6536
カリフォルニア州	-10.654
が出	-10.6544
モル	-10.6545
バード	-10.6547
道具	-10.6549
と語っている	-10.655
▁あ	-10.6555
選手権大会	-10.6556
相当	-10.656
死去した	-10.6565
を担当した	-10.6565
買収	-10.6565
に入	-10.6566
公表	-10.6569
91	-10.6571
▁名古屋	-10.6571
ストン	-10.6571
抜き	-10.6572
を始める	-10.6574
父親	-10.6578
▁1941	-10.6578
スミス	-10.6579
病気	-10.6581
を果たす	-10.6582
部品	-10.6584
相撲	-10.6585
横浜市	-10.6588
遅れ	-10.6591
キム	-10.6591
大宮	-10.6593
外部	-10.6597
▁愛	-10.66
する事	-10.6604
▁高橋	-10.6604
権力	-10.6607
1983	-10.6607
訴訟	-10.6608
ストーン	-10.6609
邸	-10.6613
世帯	-10.6613
循環	-10.6618
なくなる	-10.6625
いん	-10.6625
をもつ	-10.6628
ud	-10.6629
ポスト	-10.663
、1997	-10.663
と同様	-10.6631
ロイド	-10.6634
ひとり	-10.6636
種の	-10.6636
生放送	-10.6637
完全に	-10.6639
福田	-10.6645
爆弾	-10.6646
実際には	-10.6646
何か	-10.6646
ネー	-10.6646
であれば	-10.6648
あらゆる	-10.665
個の	-10.6654
かみ	-10.6656
クロー	-10.6657
ライセンス	-10.6658
これまで	-10.6661
予備	-10.6662
(1980	-10.6663
堅	-10.6667
下り	-10.6667
ブラウン	-10.6667
ハム	-10.6668
乗車	-10.6676
ウー	-10.6677
ung	-10.6677
ディズニー	-10.6677
テー	-10.6678
▁Press	-10.6678
混	-10.6679
を実施	-10.668
フランス語	-10.6684
解体	-10.6685
マラ	-10.6688
費用	-10.6691
UP	-10.6696
置かれ	-10.6698
書かれた	-10.6699
現存	-10.6701
るようになった	-10.6702
募集	-10.6703
気候	-10.6703
インターナショナル	-10.6703
▁制作	-10.6705
中間	-10.6705
宇都宮	-10.6706
保健	-10.6707
広域	-10.671
ライダー	-10.6712
マグ	-10.6714
遠征	-10.6716
高く	-10.6719
夏の	-10.6719
暮らし	-10.6724
一つ	-10.6728
駅舎	-10.6729
と呼ばれている	-10.6731
アマチュア	-10.6734
歩兵	-10.6735
信頼	-10.6738
できず	-10.6739
スキ	-10.674
自殺	-10.674
ina	-10.674
代理	-10.6743
突然	-10.6743
阪急	-10.6748
衆議院	-10.6754
▁作品	-10.6756
ps	-10.6756
ぷ	-10.6758
本町	-10.6761
かつての	-10.6765
マルチ	-10.6765
ミュ	-10.6765
まん	-10.6769
合わせ	-10.677
週刊	-10.677
▁スーパー	-10.6773
たら	-10.6774
土曜日	-10.6776
がん	-10.6777
死亡した	-10.6777
ごく	-10.6778
揚	-10.6781
本体	-10.6781
クレジット	-10.6784
ショウ	-10.6784
を与え	-10.6786
らの	-10.6787
まつ	-10.6788
HP	-10.6789
酸化	-10.679
離婚	-10.6791
主力	-10.6793
コンテンツ	-10.6793
公認	-10.6795
プラン	-10.6798
れない	-10.6799
乾	-10.6799
料金	-10.6802
代替	-10.6802
するまで	-10.6803
▁学校記事	-10.6804
を始めた	-10.6808
義務	-10.6809
うえ	-10.681
屋根	-10.6813
裂	-10.6814
主体	-10.6814
、1994	-10.6815
靖	-10.6815
桐	-10.6816
ベリー	-10.6817
サッカー選手	-10.6819
日活	-10.682
種類の	-10.6822
直後に	-10.6822
すら	-10.6826
芸能	-10.6827
ウルトラ	-10.683
地元の	-10.6832
陸上	-10.6833
ハンター	-10.6834
の新	-10.6842
負	-10.6842
森林	-10.6842
措置	-10.6842
激しい	-10.6845
役割	-10.6849
短い	-10.6849
図書	-10.685
▁現在	-10.6854
祝	-10.6856
シェル	-10.6857
日本の市町村	-10.6858
証拠	-10.6859
ランク	-10.6859
連携	-10.6859
載	-10.686
ラリー	-10.6863
移	-10.6863
されなかった	-10.6863
pp	-10.6864
▁1952	-10.6866
あら	-10.6866
愛知	-10.6872
フォーク	-10.6876
アルゼンチン	-10.6877
一般的に	-10.6878
数が	-10.6878
在籍	-10.6878
耕	-10.6879
クール	-10.6879
大輔	-10.6884
ディス	-10.689
自民党	-10.6891
再度	-10.6892
縮	-10.6894
che	-10.6895
●	-10.6895
ボーイ	-10.6896
="2"|	-10.6898
1982	-10.6899
ることができる	-10.69
伝承	-10.6901
タンパク質	-10.6902
手段	-10.6908
ヴィル	-10.6909
測定	-10.6911
証言	-10.6912
od	-10.6916
In	-10.6919
混乱	-10.6919
関心	-10.6919
BA	-10.6922
徳島	-10.6924
ユニ	-10.6924
ーム	-10.6928
己	-10.6929
に乗り	-10.6929
小山	-10.693
pa	-10.693
ポップ	-10.6931
空中	-10.6931
TS	-10.6931
わない	-10.6933
碑	-10.6934
ギア	-10.6936
を使った	-10.694
ウィーン	-10.6941
ローン	-10.6943
経過	-10.6944
(1985	-10.6944
課題	-10.6946
だから	-10.6947
多摩	-10.6949
福岡県	-10.6952
藤井	-10.6955
闇	-10.6957
▁JAPAN	-10.696
籠	-10.6965
ッティ	-10.6966
魔女	-10.6967
フィル	-10.6968
そんな	-10.6968
の際	-10.6971
時台	-10.6971
寧	-10.6971
困難	-10.6972
▁II	-10.6976
(1983	-10.6976
賞金	-10.6976
衛生	-10.6977
地に	-10.698
私は	-10.6982
辛	-10.6983
打撃	-10.6983
栄養	-10.6985
▁愛知県	-10.6985
経路	-10.6985
MBS	-10.6986
を達成	-10.6986
他にも	-10.6988
らん	-10.6989
テニス	-10.6991
事件の	-10.6993
証券	-10.6995
シンガポール	-10.6997
コメント	-10.7001
原田	-10.7001
銀座	-10.7003
と呼ばれた	-10.7004
ヌー	-10.7006
チームは	-10.7006
市役所	-10.7007
会話	-10.7008
特性	-10.7009
両者	-10.7011
高原	-10.7012
分岐	-10.7013
離れた	-10.7014
oo	-10.7014
チー	-10.7015
PlayStation	-10.7016
ディン	-10.7016
司令官	-10.7017
山崎	-10.7017
ミステリー	-10.7018
象	-10.7018
~	-10.7018
▁オ	-10.7021
先発	-10.7021
の仕事	-10.7024
朝日放送	-10.7025
イカ	-10.7027
臨	-10.7027
プロモーション	-10.7028
bo	-10.7028
NET	-10.703
聞	-10.703
に対しては	-10.7031
効率	-10.7032
年秋	-10.7034
このとき	-10.7037
バイオ	-10.7038
修理	-10.7038
マリオ	-10.7041
印象	-10.7042
即位	-10.7042
ロイヤル	-10.7046
にした	-10.7047
函館	-10.7047
1979	-10.7048
被害者	-10.705
あの	-10.7051
防御率	-10.7054
いき	-10.7054
スティ	-10.7058
専	-10.706
征	-10.7061
▁女子	-10.7063
▁長野県	-10.7064
攻略	-10.7064
ジャーナリスト	-10.7065
年設立の企業	-10.707
グループの	-10.707
ビーム	-10.7071
の影響で	-10.7072
コンテスト	-10.7073
▁1944	-10.7074
版では	-10.7076
回目	-10.7077
の建設	-10.7077
帆	-10.7079
達成	-10.7082
国会	-10.7083
孔	-10.7083
ウィル	-10.7083
佐賀	-10.7085
指示	-10.7086
の都市	-10.7089
在住	-10.7089
守備	-10.709
怒り	-10.7092
にいた	-10.7094
レール	-10.7094
を放送	-10.7096
そこ	-10.7098
マラソン	-10.7099
診断	-10.71
▁赤	-10.7102
コマ	-10.7102
▁Ho	-10.7105
臨床	-10.7109
追い	-10.711
機動	-10.7111
監督の	-10.7111
使われている	-10.7112
Twitter	-10.7114
チャレンジ	-10.7116
澄	-10.7118
。2009	-10.712
一緒に	-10.7122
▁—	-10.7123
セー	-10.7123
性を	-10.7125
ていった	-10.7127
抜け	-10.7128
社の	-10.7128
大量	-10.7128
変換	-10.713
東方	-10.7131
観察	-10.7133
マイク	-10.7133
の死	-10.7134
タカ	-10.7136
およそ	-10.7141
を得て	-10.7144
存在する	-10.7145
どこ	-10.7146
実際の	-10.7147
po	-10.7149
という意味	-10.7151
懐	-10.7151
風景	-10.7151
ive	-10.7151
高校生	-10.7152
譲渡	-10.7153
手紙	-10.7159
が異なる	-10.7161
類似	-10.7162
べく	-10.7162
実績	-10.7166
疾患	-10.7168
フラン	-10.7168
溝	-10.7171
color	-10.7172
ウルトラマン	-10.7173
横山	-10.7175
▁University	-10.7177
ニュージーランド	-10.718
大塚	-10.718
本店	-10.7181
いだ	-10.7183
メガ	-10.7185
唯一	-10.719
レンジャー	-10.7191
▁Lo	-10.7192
女王	-10.7193
抗議	-10.7199
大谷	-10.72
心理学	-10.7206
茨城県	-10.7209
ga	-10.7215
UN	-10.7217
後述	-10.7218
の中では	-10.7218
欠	-10.7218
と一緒に	-10.7219
ラフ	-10.7222
の建築物	-10.7225
。2011	-10.7227
恭	-10.723
小野	-10.7231
回目の	-10.7232
戦う	-10.7235
することになった	-10.7237
署	-10.7237
がなく	-10.7242
▁Man	-10.7242
広報	-10.7242
収容	-10.7242
天然	-10.7246
1940	-10.7247
1975	-10.7249
込	-10.7251
ET	-10.7252
再現	-10.7253
スキル	-10.7254
推定	-10.7255
症状	-10.7255
護衛	-10.7256
防止	-10.7256
来た	-10.7257
原則	-10.7259
ものと	-10.726
、1993	-10.726
(1979	-10.7261
その結果	-10.7263
進学	-10.7264
私の	-10.7268
▁1951	-10.7269
久保	-10.7269
働き	-10.7273
男爵	-10.7273
。2007	-10.7274
コーラス	-10.7274
及	-10.7274
西洋	-10.7277
プラザ	-10.7278
1969	-10.7279
、1992	-10.728
ママ	-10.728
メス	-10.7283
伊豆	-10.7284
ーション	-10.7285
附	-10.7285
▁小林	-10.7288
▁LOVE	-10.7288
退職	-10.7289
認可	-10.7289
詳細	-10.729
にまで	-10.7291
教員	-10.7292
電波	-10.7293
飯田	-10.7294
中隊	-10.7294
▁解説	-10.7295
(1982	-10.7296
るために	-10.7299
ウェスト	-10.7306
安打	-10.7307
記号	-10.7307
lu	-10.7309
締結	-10.731
川村	-10.7313
別名	-10.7315
LI	-10.7316
パターン	-10.7317
と対戦し	-10.7318
興行	-10.732
負担	-10.732
所蔵	-10.7322
頃から	-10.7323
十二	-10.7325
ノルウェー	-10.7327
TOKYO	-10.7327
柴	-10.7329
リカ	-10.7341
年春	-10.7341
同士	-10.7341
到達	-10.7341
犯人	-10.7344
拒否	-10.7344
ギャ	-10.7349
ドクター	-10.7349
朝の	-10.735
原題	-10.7351
させること	-10.7351
大きい	-10.7353
瞳	-10.7353
ェ	-10.7354
上がり	-10.7357
呼ばれ	-10.7359
ならば	-10.736
退団	-10.736
ix	-10.7364
こともあった	-10.7365
柏	-10.7365
それに	-10.7365
。2008	-10.7365
(1984	-10.7366
小惑星	-10.7366
1933	-10.7366
バス停	-10.737
(1981	-10.737
入社	-10.737
奏者	-10.7371
らし	-10.7371
mer	-10.7371
のもと	-10.7373
gen	-10.7373
年からは	-10.7378
したという	-10.7379
入団	-10.7383
si	-10.7384
を変更	-10.7385
羊	-10.7385
野田	-10.7386
松田	-10.7386
CK	-10.739
再編	-10.7391
試み	-10.7393
明らかに	-10.7394
day	-10.7395
わか	-10.7401
携帯電話	-10.7402
友達	-10.7402
▁re	-10.7407
合意	-10.7407
るなど	-10.7407
掛	-10.7407
号機	-10.7409
同様の	-10.7413
史料	-10.7414
ルス	-10.7416
チェン	-10.7417
的には	-10.7417
日付で	-10.7419
MAN	-10.742
深く	-10.7421
社会主義	-10.7421
リウス	-10.7426
北側	-10.7428
に相当する	-10.7431
村の	-10.7443
レーダー	-10.7443
少将	-10.7444
補助	-10.7445
スは	-10.7445
似	-10.7446
DC	-10.7447
ラーメン	-10.7447
ツール	-10.7447
出来る	-10.7447
の特徴	-10.7448
のスポーツ	-10.7448
使われる	-10.745
の妹	-10.7452
。2012	-10.7453
近い	-10.7454
1934	-10.7455
籍	-10.7455
暴力	-10.7456
ウォ	-10.7456
center	-10.7456
ノース	-10.7458
献	-10.746
ニッポン放送	-10.7462
寄り	-10.7464
想	-10.7465
針	-10.7465
バレーボール	-10.7467
に所属する	-10.7469
と述べた	-10.7469
パソコン	-10.747
東側	-10.747
概念	-10.7471
気象	-10.7471
特典	-10.7474
▁撮影	-10.7474
飾	-10.7475
解析	-10.7475
ft	-10.748
故郷	-10.748
を中心とした	-10.7482
シャル	-10.7483
1935	-10.7484
ドイツ語	-10.7484
虚	-10.7486
たる	-10.7488
名誉教授	-10.7489
ub	-10.7489
BU	-10.7493
回数	-10.7493
漢字	-10.7493
乙	-10.7494
▁FM	-10.7494
を与える	-10.7495
いう	-10.7498
まえ	-10.7498
威	-10.75
誕生日	-10.7502
も多く	-10.7503
勝負	-10.751
フェア	-10.7511
消	-10.7512
都道府県	-10.7513
モンゴル	-10.7514
関西テレビ	-10.7516
淵	-10.7516
免	-10.7516
900	-10.7516
を利用して	-10.7517
怪獣	-10.7519
馬場	-10.7519
上陸	-10.752
の花	-10.7521
時間帯	-10.7522
に編入	-10.7522
な性格	-10.7525
スパ	-10.7527
モス	-10.7532
辞	-10.7536
時から	-10.7537
瀬戸	-10.7538
エム	-10.7539
書院	-10.7541
女の子	-10.7542
。2015	-10.7545
車の	-10.7549
救	-10.755
ジェイ	-10.7552
古墳	-10.7554
ッサ	-10.7558
曹	-10.7559
ata	-10.7562
開局	-10.7564
right	-10.7565
吹	-10.7565
会社の	-10.7569
トランス	-10.757
家に	-10.7571
ベルク	-10.7574
そのような	-10.7575
目に	-10.7576
の神	-10.7577
ずに	-10.7578
勲	-10.7578
疑	-10.758
処	-10.758
隠し	-10.7581
仮面	-10.7584
松平	-10.7584
商店街	-10.7585
台風	-10.7585
HD	-10.7589
1981	-10.7591
GE	-10.7591
モリ	-10.7593
1978	-10.7596
内田	-10.7599
の戦いで	-10.76
準決勝	-10.7601
突	-10.7601
佐野	-10.7602
コウ	-10.7604
に合わせて	-10.7606
▁同年	-10.7607
なので	-10.7609
警視庁	-10.761
じん	-10.7612
シーズンは	-10.7613
▁～	-10.7615
出発	-10.7615
杏	-10.7616
否定	-10.7616
嫁	-10.7617
終点	-10.7618
を取る	-10.7619
CG	-10.7619
ea	-10.7621
人工	-10.7625
前期	-10.7625
ラント	-10.7627
加盟	-10.7628
ペイ	-10.7628
学研究科	-10.7631
基本的に	-10.7633
▁伊藤	-10.7634
援助	-10.7634
倶楽部	-10.7634
恋人	-10.7635
領土	-10.7636
正式	-10.7636
▁IDOL	-10.7636
▁1953	-10.7637
かり	-10.7638
ーク	-10.764
遥	-10.7644
名で	-10.7644
つい	-10.7644
うる	-10.7645
来日	-10.7649
謎の	-10.7651
梁	-10.7651
リスク	-10.7652
発動	-10.7653
侯	-10.7653
開店	-10.7653
もん	-10.7657
日放送	-10.7661
岡崎	-10.7662
のサッカー選手	-10.7663
詳細は	-10.7663
対抗	-10.7665
1953	-10.7665
バカ	-10.7666
スー	-10.7666
われた	-10.7667
で放送された	-10.7667
所在地	-10.7669
▁歴代	-10.7673
▁山本	-10.7673
行われる	-10.7674
装飾	-10.7674
選挙区	-10.7675
ごと	-10.7677
キロ	-10.7678
▁各	-10.768
不定期	-10.7681
年のシングル	-10.7684
尺	-10.7686
▁大阪府	-10.7688
した場合	-10.7689
は全て	-10.7692
葬	-10.7692
巨大	-10.7694
で最も	-10.7696
きっかけ	-10.77
快速	-10.77
食事	-10.77
マネージャー	-10.7701
▁1940	-10.7702
に変更された	-10.7703
用途	-10.7703
-17	-10.7704
アニ	-10.7707
о	-10.7707
中出し	-10.7708
でない	-10.7709
甲斐	-10.7711
▁Ar	-10.7714
▁Car	-10.7715
インドネシア	-10.7716
バート	-10.7716
際には	-10.7716
リアル	-10.7717
恐怖	-10.7717
▁So	-10.7719
1916	-10.7722
ack	-10.7724
。2013	-10.7726
遠藤	-10.7726
1932	-10.7727
必ず	-10.7728
の小説	-10.7728
▁藤	-10.7729
MLB	-10.773
香川県	-10.7731
遊び	-10.7731
4-8	-10.7736
誤	-10.7737
日本で	-10.7739
フェン	-10.774
発売された	-10.7741
用に	-10.7741
との間に	-10.7741
鍵	-10.7742
天正	-10.7744
1928	-10.7744
▁1943	-10.7746
成田	-10.7746
言及	-10.7746
。2014	-10.7747
巻き	-10.7749
優先	-10.7749
庵	-10.7751
たちに	-10.7752
打率	-10.7752
バンク	-10.7753
眞	-10.7753
頃に	-10.7754
地方の	-10.7754
Web	-10.7755
ーゼ	-10.7756
奉行	-10.7758
嫌	-10.7763
こく	-10.7763
ake	-10.7763
宋	-10.7764
述	-10.7765
があるが	-10.7766
陸上競技	-10.7767
射撃	-10.7769
の前に	-10.777
登山	-10.777
斬	-10.7772
ki	-10.7772
吹き	-10.7775
吸	-10.7776
扇	-10.7778
自体	-10.7779
南西	-10.778
手を	-10.778
オーケストラ	-10.7781
星の	-10.7782
東京大学	-10.7782
者に	-10.7785
行事	-10.7785
要請	-10.7786
看護	-10.7787
。2016	-10.7788
の旅	-10.779
政府は	-10.7791
エド	-10.7792
申	-10.7796
実践	-10.7796
徒	-10.7798
蒼	-10.7798
コム	-10.7799
リーグ戦	-10.7799
▁東京都出身の人物	-10.78
全体の	-10.7801
もともと	-10.7805
資本	-10.7806
。2017	-10.7806
の一つである	-10.781
確定	-10.7815
介護	-10.7815
▁ドイツ	-10.7818
とある	-10.7819
トレーニング	-10.7821
アカ	-10.7821
ストラ	-10.7822
区分	-10.7822
手術	-10.7823
コスト	-10.7824
実力	-10.7824
ana	-10.7827
宮城	-10.7828
京都市	-10.7831
1.5	-10.7831
しようと	-10.7832
の内容	-10.7834
ec	-10.7836
高知	-10.7837
カトリック	-10.7839
▁Se	-10.7842
ゾン	-10.7843
ルン	-10.7843
月曜日	-10.7845
したのは	-10.7847
1931	-10.7848
が見られる	-10.7849
sch	-10.7849
負傷	-10.785
エール	-10.785
商人	-10.7853
害	-10.7854
▁岐阜県	-10.7855
ガーデン	-10.7862
逆転	-10.7862
騎手	-10.7864
パーツ	-10.7865
自身も	-10.7869
強力な	-10.787
▁日本の女性	-10.7875
確立	-10.7878
プス	-10.7878
充	-10.7878
運航	-10.7879
ボブ	-10.7879
粒子	-10.788
もっとも	-10.7881
範	-10.7881
振興	-10.7883
。2006	-10.7885
og	-10.7886
ねん	-10.789
を使用した	-10.7895
温度	-10.7895
一本	-10.7896
彼らの	-10.7896
TR	-10.7897
福島県	-10.7899
真実	-10.7901
ans	-10.7904
インターチェンジ	-10.7905
1974	-10.7906
くり	-10.7907
この曲	-10.7908
アウ	-10.7909
ライヴ	-10.7909
復讐	-10.7909
因	-10.7911
ノル	-10.7912
架	-10.7914
1968	-10.7914
別れ	-10.7915
大久保	-10.7921
Tr	-10.7922
の他	-10.7926
に選ばれた	-10.7926
先端	-10.7928
管轄	-10.7929
出資	-10.793
マップ	-10.7931
ze	-10.7932
菓子	-10.7932
伝統	-10.7933
でもあった	-10.7933
財団	-10.7933
車線	-10.7937
廣	-10.7937
外見	-10.7937
山脈	-10.794
α	-10.794
RS	-10.7941
染	-10.7941
呼	-10.7941
粉	-10.7943
事例	-10.7943
退任	-10.7944
いていた	-10.7947
石田	-10.7949
マスク	-10.7949
禅	-10.795
の友人	-10.7953
と言って	-10.7953
▁千葉県	-10.7956
冒頭	-10.7957
を迎え	-10.7958
ハラ	-10.7958
想い	-10.7959
さない	-10.7959
sp	-10.796
修道院	-10.796
両編成	-10.7963
IL	-10.7963
明日	-10.7965
、1991	-10.7968
les	-10.7968
解除	-10.7968
background	-10.7968
高級	-10.797
漫画家	-10.797
に基づき	-10.7973
モア	-10.7974
元々	-10.7975
かし	-10.7975
セックス	-10.7977
BGM	-10.7978
功績	-10.7981
シリア	-10.7981
午前	-10.7985
サンタ	-10.7989
の一種	-10.7989
トイレ	-10.7991
シップ	-10.7993
ron	-10.7998
襲	-10.8
▁加藤	-10.8001
きん	-10.8001
ないため	-10.8002
成分	-10.8002
▁TOUR	-10.8002
政府の	-10.8002
OVA	-10.8004
チャート	-10.8004
すけ	-10.8004
RC	-10.8007
中将	-10.8007
▁水	-10.8012
に生まれる	-10.8013
美しい	-10.8014
複合	-10.8016
幕末	-10.8018
にいる	-10.8019
側は	-10.802
がい	-10.802
スケ	-10.8023
三丁目	-10.8023
を結成	-10.8024
アール	-10.8025
伏	-10.8026
暁	-10.8027
が行われている	-10.8035
今後	-10.8035
に加えて	-10.8038
嶺	-10.804
1973	-10.8043
協	-10.8043
170	-10.8044
1976	-10.8045
ラジオ番組	-10.8046
AB	-10.8047
堺	-10.805
(1)	-10.8051
ler	-10.8055
川口	-10.8056
行われ	-10.8057
の力	-10.8057
発電所	-10.8058
に行く	-10.8062
イラク	-10.8064
春日	-10.8064
命名	-10.8066
をして	-10.8067
事が	-10.8068
てしまい	-10.8071
過去の	-10.8072
ぽ	-10.8073
、1989	-10.8073
神田	-10.8075
。2018	-10.8075
素材	-10.8077
収入	-10.8077
第二次世界大戦	-10.8077
出された	-10.808
の地位	-10.808
損傷	-10.808
(1976	-10.8081
桜井	-10.8082
ah	-10.8083
レディ	-10.8086
違う	-10.8089
嗣	-10.8089
1905	-10.8089
それでも	-10.8092
さと	-10.8094
▁CM	-10.8094
tic	-10.8096
日曜日	-10.8099
ノート	-10.8099
の色	-10.8099
最終回	-10.8099
イェ	-10.81
セラ	-10.8102
の実	-10.8103
隊員	-10.8103
肉体	-10.8105
南側	-10.8107
の中から	-10.8108
てる	-10.8109
▁Do	-10.8113
平安時代	-10.8113
Windows	-10.8115
療法	-10.8116
▁フランス	-10.8118
St	-10.8118
を作り	-10.812
するよう	-10.8121
大名	-10.8122
を用いる	-10.8122
高木	-10.8124
当日	-10.8125
ik	-10.8125
添	-10.8126
であったため	-10.8128
双方	-10.813
エンタテインメント	-10.8132
1971	-10.8135
獄	-10.8135
収集	-10.8139
らしく	-10.8139
ko	-10.814
不可能	-10.8141
二丁目	-10.8141
ts	-10.8143
ヒュー	-10.8147
総選挙	-10.8151
暫定	-10.8151
WA	-10.8155
糖	-10.8156
▁l	-10.8158
入力	-10.8158
配備	-10.8158
統	-10.816
▁la	-10.8161
航路	-10.8163
▁黒	-10.8167
ウェブ	-10.8171
傘下	-10.8175
グー	-10.8175
出馬	-10.8176
松井	-10.8177
民主	-10.8179
が担当	-10.8179
間で	-10.8182
者たち	-10.8182
保守	-10.8183
牙	-10.8185
零	-10.8185
mon	-10.8186
教え	-10.8186
ラジ	-10.8188
勉強	-10.8188
ハイム	-10.8191
の前	-10.8193
っていない	-10.8194
上がる	-10.8194
学年	-10.8197
も存在する	-10.8199
▁廃	-10.82
が高く	-10.82
パーティー	-10.8202
ヒロ	-10.8203
we	-10.8204
(1978	-10.8206
エフ	-10.8208
にする	-10.8209
堤	-10.821
を描く	-10.8212
アナログ	-10.8214
の中でも	-10.8215
異常	-10.8216
版の	-10.8217
作品の	-10.8217
神宮	-10.8218
途中で	-10.8219
西村	-10.8219
ったり	-10.822
えい	-10.8221
に住む	-10.8221
が発足	-10.8223
▁その他の	-10.8224
の位置	-10.8225
ファンタジー	-10.8227
敦	-10.8229
を出す	-10.8229
カンパニー	-10.823
始める	-10.823
銘	-10.8234
日発行	-10.8237
全線	-10.8238
先の	-10.8239
の製造	-10.824
の政治家	-10.8242
後方	-10.8242
1929	-10.8243
ier	-10.8245
過程	-10.8247
キル	-10.8248
プロレスラー	-10.8251
ーノ	-10.8252
打点	-10.8253
ほん	-10.8257
川町	-10.8257
老人	-10.8263
佑	-10.8264
ユナイテッド	-10.8264
組み	-10.8265
を追加	-10.8265
トラブル	-10.8266
みつ	-10.8267
撃	-10.8271
遺産	-10.8272
濃	-10.8272
に応じて	-10.8273
心の	-10.8273
ツェ	-10.8275
(1977	-10.8277
たく	-10.8278
ーラ	-10.828
人たち	-10.828
に戻る	-10.8283
旧制	-10.8284
招待	-10.8285
降り	-10.8287
見た	-10.8288
によっては	-10.8291
の放送	-10.8294
、1970	-10.8294
イス	-10.8294
アラン	-10.8297
火曜	-10.8298
▁Mi	-10.8302
の運行	-10.8304
▁IN	-10.8307
ロマン	-10.8311
くなる	-10.8312
ふく	-10.8314
群馬県	-10.8317
請求	-10.8322
1977	-10.8325
黄金	-10.8326
ica	-10.8328
後ろ	-10.8329
▁アメリカ合衆国	-10.8332
フロ	-10.8334
噂	-10.8335
名古屋市	-10.8335
秘書	-10.8337
バレー	-10.8337
登場する	-10.8338
大会で	-10.8339
修行	-10.8344
京都府	-10.8344
世界遺産	-10.8345
ぼう	-10.8348
タス	-10.8349
したことで	-10.835
所属の	-10.8351
三重	-10.8351
トウ	-10.8351
ランプ	-10.8355
女神	-10.8356
学区	-10.8357
駆動	-10.8358
ure	-10.8363
著者	-10.8363
port	-10.8365
近畿	-10.8365
▁横浜	-10.8366
質問	-10.8366
勤	-10.8368
PV	-10.8372
東急	-10.8373
漁	-10.8373
が発表された	-10.8374
青い	-10.8375
ナビ	-10.8377
新書	-10.8381
ゲスト出演	-10.8383
悪化	-10.8383
アメリカ軍	-10.8383
軍が	-10.8385
諏訪	-10.8386
横須賀	-10.8386
写真集	-10.8386
優れた	-10.8387
、1988	-10.8387
として登場	-10.8389
限	-10.8389
▁山田	-10.8389
山城	-10.8396
短縮	-10.8397
摩	-10.8401
分裂	-10.8402
タマ	-10.8403
使用されている	-10.8405
▁アルバム	-10.8406
見る	-10.8407
VE	-10.8407
広島市	-10.841
裁	-10.8412
年現在	-10.8412
騒動	-10.8416
斉藤	-10.8418
従業員	-10.842
鷲	-10.842
ピンク	-10.8422
優秀	-10.8424
日に行われた	-10.8428
毎	-10.8428
ger	-10.8428
エドワード	-10.8431
ゾーン	-10.8434
を務めていた	-10.8434
データベース	-10.8437
-19	-10.8437
死者	-10.8437
コント	-10.8438
タイヤ	-10.8439
小学	-10.8439
今井	-10.844
かれた	-10.8442
キック	-10.8442
山の	-10.8443
旅団	-10.8444
篠	-10.8447
脚本家	-10.8449
初登場	-10.845
と言われる	-10.8452
▁Com	-10.8454
烈	-10.8455
直線	-10.8459
▁八	-10.846
イト	-10.8461
いま	-10.8462
に終わった	-10.8463
1927	-10.8464
アッ	-10.8465
船舶	-10.8466
自社	-10.8467
報告書	-10.8471
炭	-10.8471
De	-10.8474
虹	-10.8474
水戸	-10.8476
ou	-10.8477
細川	-10.8478
壇	-10.8481
少ない	-10.8482
der	-10.8483
市町村	-10.8483
武士	-10.8484
座席	-10.8486
ついた	-10.8491
運命	-10.8492
視聴者	-10.8493
リル	-10.8494
は主に	-10.8496
」・「	-10.8496
▁Go	-10.8501
積極的に	-10.8501
しばらく	-10.8502
に向かう	-10.8504
田町	-10.8504
の上に	-10.8505
受信	-10.8507
ys	-10.8508
ソビエト連邦	-10.8508
徳川	-10.8508
SM	-10.8509
保育園	-10.851
航海	-10.851
匹	-10.8512
インディアン	-10.8513
モーター	-10.8516
年廃止の	-10.8517
一連の	-10.8518
偏	-10.852
塗装	-10.852
▁Na	-10.852
実家	-10.8522
葵	-10.8523
だけの	-10.8523
王朝	-10.8523
吉川	-10.8524
作画	-10.8524
降格	-10.8526
若者	-10.8528
ミリ	-10.8528
埋め	-10.8528
min	-10.8529
運輸	-10.853
!!!	-10.8531
彼を	-10.8531
北米	-10.8534
。2019	-10.8535
売却	-10.8536
回収	-10.8537
キャラクターデザイン	-10.8537
出来	-10.8539
▁渡辺	-10.854
正義	-10.8541
チョウ	-10.8546
リオン	-10.8547
DI	-10.855
たとえば	-10.855
ぜ	-10.8553
不可	-10.8553
▁サ	-10.8556
なかったため	-10.8559
キャプテン	-10.856
北区	-10.8562
季節	-10.8562
体系	-10.8563
の違い	-10.8566
LP	-10.8567
態度	-10.8568
▁1942	-10.857
年連続	-10.857
ライター	-10.8572
▁○	-10.8572
アーカイブ	-10.8574
やり	-10.8574
ようと	-10.8575
ボート	-10.8575
の曲	-10.8575
水素	-10.8576
塁	-10.8576
COM	-10.8579
ちなみに	-10.858
終了後	-10.8581
ガラ	-10.8582
▁スポーツ	-10.8584
ティック	-10.8584
宮本	-10.8586
年ぶりに	-10.8586
ug	-10.8589
ジオ	-10.859
ウラ	-10.8591
しろ	-10.8591
ja	-10.8595
検索	-10.8596
途	-10.8596
ナショナル	-10.8597
吉野	-10.8597
チームが	-10.8597
ley	-10.8601
ギン	-10.8602
木造	-10.8603
並	-10.8605
日々	-10.8606
らは	-10.8608
時代は	-10.861
楠	-10.861
必要がある	-10.8611
騎兵	-10.8612
品川	-10.8613
程度の	-10.8613
られない	-10.8614
若手	-10.8615
トーマス	-10.8616
決め	-10.8619
綿	-10.862
ポケモン	-10.862
夜間	-10.8621
オプション	-10.8623
den	-10.8626
レア	-10.8628
故障	-10.8631
宮崎県	-10.8633
act	-10.8636
入院	-10.8636
署名	-10.8639
▁アニメ	-10.864
してしまった	-10.8641
たもの	-10.8641
ショット	-10.8641
避難	-10.8643
ort	-10.8644
岡本	-10.8646
庭園	-10.8647
の戦闘	-10.8647
三重県	-10.8647
周り	-10.8648
ue	-10.865
伸び	-10.8651
鳥取県	-10.8651
願い	-10.8651
南北	-10.8655
敗退	-10.8655
詰め	-10.8657
夜の	-10.8657
▁新潟県	-10.8657
製薬	-10.8658
キャンプ	-10.8659
コピー	-10.8664
▁アン	-10.8664
わった	-10.8664
リトル	-10.8666
CE	-10.8666
広島県	-10.8667
北方	-10.8667
決議	-10.8667
吸収	-10.8668
はら	-10.8669
end	-10.867
機動戦士ガンダム	-10.867
周囲	-10.8672
▁ストーリー	-10.8673
柴田	-10.8675
タンク	-10.8675
マジック	-10.8678
歴史的	-10.8682
連合会	-10.8683
の情報	-10.8684
提携	-10.8685
線が	-10.8686
司令部	-10.8687
内容は	-10.8691
と言われている	-10.8691
を卒業	-10.8691
ができる	-10.8692
煙	-10.8692
あさ	-10.8697
通行	-10.8698
例として	-10.8701
財産	-10.8703
-』	-10.8703
目を	-10.8708
巡	-10.8713
不満	-10.8714
土木	-10.8715
これらは	-10.8715
駆け	-10.8717
近藤	-10.8719
1930	-10.872
▁演出	-10.8723
を導入	-10.8723
告白	-10.8725
整理	-10.8728
マンガ	-10.873
▁吉田	-10.8731
主題	-10.8732
の販売	-10.8733
荷	-10.8733
者として	-10.8733
カレー	-10.8735
水道	-10.8737
を機に	-10.8738
使われた	-10.8738
海賊	-10.874
日本の実業家	-10.874
-00	-10.8743
(1973	-10.8744
予	-10.8746
ミラー	-10.8746
を担当する	-10.8747
故	-10.8747
iz	-10.8755
活動を	-10.8755
連れ	-10.8758
ぴ	-10.8758
レンズ	-10.8759
政治的	-10.876
創作	-10.8762
に際して	-10.8763
再放送	-10.8763
装着	-10.8764
▁松本	-10.8767
▁五	-10.8767
ave	-10.8768
(1975	-10.8768
した際	-10.8771
SHI	-10.8772
建築家	-10.8773
大学名誉教授	-10.8774
は非常に	-10.8777
フライ	-10.8779
改編	-10.8779
使われ	-10.8782
かた	-10.8782
ウェブサイト	-10.8782
百貨店	-10.8782
1924	-10.8784
化する	-10.8785
作った	-10.8788
この頃	-10.8788
劇場版	-10.8788
1925	-10.879
近江	-10.8793
情報を	-10.8796
予約	-10.8796
期生	-10.8797
リポーター	-10.8798
:#	-10.88
宝塚	-10.88
硬	-10.8803
-15	-10.8803
グレー	-10.8803
アブ	-10.8804
-12	-10.8804
肥	-10.8804
▁初	-10.8804
助け	-10.8806
Vol	-10.8809
の高い	-10.881
就職	-10.8811
移民	-10.8813
何度も	-10.8814
加賀	-10.8816
ネン	-10.8817
開拓	-10.8817
指揮者	-10.8818
130	-10.8818
かどうか	-10.8821
として知られる	-10.8822
NS	-10.8824
電気鉄道	-10.8825
鑑	-10.8826
限り	-10.8829
の攻撃	-10.883
名義で	-10.883
を廃止	-10.8831
、1987	-10.8833
way	-10.8834
子が	-10.8835
たこと	-10.8837
トニー	-10.8837
ory	-10.8837
需要	-10.8838
亡くなった	-10.8838
逸	-10.884
ッキング	-10.8841
市街地	-10.8843
藍	-10.8844
の方が	-10.8844
生きる	-10.8845
子会社	-10.8845
tin	-10.8848
▁TBS	-10.8848
を示した	-10.885
▁978	-10.885
NBA	-10.8851
▁兵庫県	-10.8853
特許	-10.8853
例外	-10.8855
▁テレビアニメ	-10.8857
フェリー	-10.8857
を最後に	-10.8859
第一次世界大戦	-10.886
番組の	-10.8861
ゴル	-10.8862
酒井	-10.8863
ムーン	-10.8864
などと	-10.8866
ミング	-10.8867
自宅	-10.8868
ベラ	-10.8868
家臣	-10.887
レーザー	-10.8873
が完成	-10.8873
▁ハ	-10.8878
しかしながら	-10.8879
岡山県	-10.8879
応募	-10.888
▁松	-10.8883
新潮社	-10.8885
トス	-10.8887
位で	-10.8889
供	-10.8889
在位	-10.889
ニュ	-10.8893
ボーナス	-10.8894
下部	-10.8895
イタリアの	-10.8896
議席	-10.8897
単に	-10.8898
イースト	-10.8899
みち	-10.89
▁タイトル	-10.89
種目	-10.8901
派生	-10.8902
北西	-10.8905
net	-10.8908
本来	-10.8908
オープニングテーマ	-10.8909
都市計画	-10.891
蘇	-10.8911
の意	-10.8913
豊田	-10.8913
チェーン	-10.8914
佐賀県	-10.8914
110	-10.8915
定員	-10.8916
モチーフ	-10.8917
動力	-10.8918
愛の	-10.8919
山陽	-10.8919
端末	-10.8919
に向かって	-10.8921
線路	-10.8921
早稲田大学	-10.8921
プレゼント	-10.8921
日野	-10.8922
見解	-10.8922
開館	-10.8923
上げた	-10.8926
Le	-10.8926
時代から	-10.8929
を持っていた	-10.893
乗客	-10.8932
削	-10.8933
差し	-10.8933
主任	-10.8934
山岳	-10.8936
文化放送	-10.894
池袋	-10.8943
稀	-10.8944
ite	-10.8946
▁Sa	-10.8949
の調査	-10.895
怪我	-10.8951
中学生	-10.8951
Ver	-10.8952
▁超	-10.8953
バラエティ番組	-10.8953
、1986	-10.8953
日本軍	-10.8954
用ソフト	-10.8954
ダービー	-10.8955
一致	-10.8955
試合で	-10.8955
逃亡	-10.8956
ヴェン	-10.8957
ムービー	-10.8957
プレーオフ	-10.8959
▁清	-10.8959
を除き	-10.8959
▁g	-10.8959
するようになった	-10.896
物を	-10.8962
する場合	-10.8964
▁MA	-10.8964
の時代	-10.8965
に加入	-10.8966
上り	-10.8968
起き	-10.8969
族の	-10.8969
同上	-10.8971
メカ	-10.8972
鐘	-10.8973
の数	-10.8977
であることを	-10.8978
所持	-10.898
少なくとも	-10.8981
天神	-10.8982
▁安	-10.8984
実装	-10.8985
萩	-10.8987
共産党	-10.8988
1967	-10.899
めて	-10.8994
定着	-10.8996
▁所在地	-10.8997
サークル	-10.8999
▁1946	-10.9001
ハッ	-10.9001
権を	-10.9003
アマ	-10.9006
くま	-10.901
最終話	-10.9012
下に	-10.9014
1926	-10.9017
鳳	-10.9018
、2023	-10.902
ラック	-10.902
а	-10.9021
RPG	-10.9022
開催された	-10.9024
マツ	-10.9025
を見た	-10.9026
2.5	-10.903
慶長	-10.9031
任命	-10.9032
ていなかった	-10.9032
が大きく	-10.9033
存続	-10.9033
どの	-10.9033
と言い	-10.9035
厳しい	-10.9039
なぜ	-10.9046
肌	-10.9047
近郊	-10.9047
されると	-10.9047
競争	-10.9049
スラ	-10.9056
ズム	-10.9058
持つ	-10.9059
プロセス	-10.9059
カラオケ	-10.9061
岩波書店	-10.9061
▁埼玉県	-10.9061
ster	-10.9062
答え	-10.9063
コントロール	-10.9064
現れた	-10.9065
博多	-10.9067
送信	-10.9067
宮城県	-10.9067
短編	-10.9068
に基づいて	-10.9069
高知県	-10.907
1904	-10.9072
フォース	-10.9073
三井	-10.9075
同僚	-10.9076
vo	-10.9077
......	-10.9078
▁フランスの	-10.9078
盛り	-10.908
フレーム	-10.9082
入場	-10.9082
瞬間	-10.9083
グラウンド	-10.9085
枚目のシングル	-10.9087
UFC	-10.9088
向けに	-10.909
続けた	-10.9091
の再	-10.9095
序	-10.9096
)、『	-10.9097
来る	-10.9099
表紙	-10.9099
ニコ	-10.9103
ベリ	-10.9104
シング	-10.9106
曰く	-10.9106
▁“	-10.9106
俣	-10.9107
日常	-10.9109
月末	-10.9111
発見された	-10.9115
延期	-10.9116
レッ	-10.9116
!!」	-10.9116
停車	-10.9117
▁静岡県	-10.9118
ラップ	-10.9119
▁シーズン	-10.9119
から発売された	-10.912
ブリー	-10.9123
才能	-10.9124
サイン	-10.9125
だん	-10.9126
イド	-10.9126
知られている	-10.9127
なき	-10.9132
運賃	-10.9132
▁et	-10.9134
コロ	-10.9134
地区の	-10.9135
受章者	-10.9138
黄色	-10.9138
監	-10.9141
移植	-10.9142
その後の	-10.9142
発明	-10.9144
CT	-10.9147
総裁	-10.9149
美少女	-10.915
ときは	-10.9152
幼少期	-10.9155
;"|	-10.9155
事業所	-10.9155
。2020	-10.9156
gi	-10.9156
著名な	-10.9156
国連	-10.9158
周辺の	-10.9159
和泉	-10.916
の前身	-10.9162
を認め	-10.9163
上級	-10.9163
の長男	-10.9163
パンチ	-10.9164
HO	-10.9164
アレ	-10.9165
のキャラクター	-10.9166
lin	-10.9166
疑問	-10.9167
ひとつ	-10.9171
アキ	-10.9172
ヲ	-10.9172
テイ	-10.9173
の利用	-10.9174
ä	-10.9176
CF	-10.9176
ei	-10.9178
GB	-10.9178
進む	-10.918
セルビア	-10.918
(1972	-10.9181
定数	-10.9182
読者	-10.9182
飛行機	-10.9183
合戦	-10.9184
人数	-10.9184
室内	-10.9187
防御	-10.9187
天体	-10.9187
芦	-10.9187
)→	-10.9192
PO	-10.9192
みず	-10.9193
が決定	-10.9194
執	-10.9194
特撮	-10.9196
血液型	-10.9196
ホル	-10.9197
利用者	-10.9198
踊り	-10.9198
を失った	-10.9201
根拠	-10.9202
れん	-10.9203
TER	-10.9204
を使い	-10.9205
なくなり	-10.9205
天才	-10.9206
当初の	-10.9206
主要な	-10.9207
化し	-10.9208
とは異なり	-10.9209
。2005	-10.9209
促進	-10.921
月発売	-10.9214
白石	-10.9217
1903	-10.9217
1964	-10.9219
将来	-10.9221
棚	-10.9222
本作品	-10.9222
の対象	-10.9223
スコア	-10.9225
遺体	-10.9226
道場	-10.9226
紛争	-10.9227
弦	-10.9229
心理	-10.9231
基盤	-10.9232
美濃	-10.9234
(1974	-10.9236
市の歴史	-10.9237
以前に	-10.9238
スピ	-10.924
世紀に	-10.9242
そのうち	-10.9243
ゆり	-10.9243
まった	-10.9246
中期	-10.9247
披露	-10.9247
▁feat	-10.9249
を元に	-10.9249
年後の	-10.9251
▁イギリス	-10.9252
、1985	-10.9252
もっと	-10.9254
マイクロ	-10.9255
確率	-10.9255
Ph	-10.9257
タッチ	-10.9258
グラフィック	-10.9259
保持	-10.9259
珍	-10.9261
コーヒー	-10.9262
竹内	-10.9264
ニス	-10.9265
っこ	-10.9265
fa	-10.9267
ゴム	-10.9268
マンション	-10.9271
直後	-10.9271
天文	-10.9273
墨	-10.9274
▁Ha	-10.9276
観音	-10.9277
▁Ra	-10.9278
UM	-10.9279
を出した	-10.9279
助教授	-10.9284
▁Japan	-10.9285
バラエティ	-10.9286
テク	-10.9286
ボストン	-10.9287
じゃない	-10.9287
UR	-10.929
バイク	-10.9292
大学で	-10.9292
圧力	-10.9294
悪い	-10.9295
1890	-10.9295
大規模	-10.9297
ノール	-10.9299
槍	-10.93
仕掛け	-10.9301
工作	-10.9301
練	-10.9302
味方	-10.9303
に取り	-10.9303
世が	-10.9306
ヤード	-10.931
ではあるが	-10.9312
バウ	-10.9313
1923	-10.9313
戦場	-10.9314
必殺技	-10.9316
となったが	-10.9316
サンダー	-10.9316
コンクール	-10.9317
沖縄県	-10.9319
軍隊	-10.9319
ステップ	-10.9321
タイプの	-10.9321
が発生し	-10.9322
Co	-10.9328
見え	-10.9333
変わり	-10.9333
のに対し	-10.9335
癌	-10.9338
公式戦	-10.9339
日付	-10.9339
回大会	-10.934
妖怪	-10.9341
われる	-10.9341
回路	-10.9342
境内	-10.9342
自身は	-10.9344
テープ	-10.9345
の地	-10.9345
相手に	-10.9346
本拠地	-10.9349
猪	-10.935
ide	-10.9351
美人	-10.9351
リーグの	-10.9351
こん	-10.9353
品種	-10.9354
事実上	-10.9359
KU	-10.9361
▁教育	-10.9361
専用の	-10.9362
払	-10.9366
▁シングル	-10.9366
人事	-10.9367
で約	-10.9367
終了した	-10.9369
養成	-10.937
知らない	-10.9371
げん	-10.9373
日向	-10.9373
わら	-10.9376
年以上	-10.9378
ach	-10.9378
シオ	-10.9381
開放	-10.9383
投入	-10.9384
唱	-10.9388
ひら	-10.9388
レート	-10.9389
日放送分	-10.9389
に分類される	-10.9391
上京	-10.9391
最終的には	-10.9394
を含め	-10.9395
特番	-10.9395
分解	-10.9396
されたもの	-10.9396
▁岩	-10.9397
1902	-10.9397
くらい	-10.9397
ベースボール	-10.9399
是	-10.94
することは	-10.9401
最低	-10.9405
qu	-10.9406
削減	-10.9407
行政区画	-10.9408
なっている	-10.941
サンド	-10.9413
北条	-10.9414
歳以上	-10.9414
えて	-10.942
マネジメント	-10.9421
は以下の通り	-10.9422
スコット	-10.9423
ミナ	-10.9424
鎖	-10.9425
1918	-10.9425
救助	-10.943
成果	-10.9434
留学	-10.9438
であろう	-10.9443
中国語	-10.9443
科学者	-10.9443
に入社	-10.9444
要因	-10.9445
一定の	-10.9446
リミックス	-10.9446
体操	-10.9448
飲み	-10.9448
ポル	-10.9449
を収録	-10.945
非難	-10.9453
していった	-10.9454
日目	-10.9455
事で	-10.9457
略称	-10.9458
タール	-10.9458
チーフ	-10.9459
借	-10.9461
しゅう	-10.9462
Blu	-10.9463
教養	-10.9469
の死後	-10.947
SHOW	-10.9471
▁1930	-10.9472
合唱	-10.9472
婦人	-10.9474
アダム	-10.9475
者を	-10.9476
元気	-10.9478
シルバー	-10.948
茎	-10.948
部下	-10.9481
入手	-10.9482
ナウ	-10.9482
アプリケーション	-10.9486
空襲	-10.9487
An	-10.9487
罰	-10.949
チェコ	-10.9491
1919	-10.9492
を受賞	-10.9493
聖書	-10.9493
のことである	-10.9494
フィリップ	-10.9494
−	-10.9495
他人	-10.9496
ハーフ	-10.9498
are	-10.95
卒業後	-10.95
財務	-10.9501
郷土	-10.9501
こととなった	-10.9501
編集者	-10.9502
CL	-10.9502
oc	-10.9503
告げ	-10.9504
織田	-10.9505
の乱	-10.9506
――	-10.9506
に昇格	-10.9507
電池	-10.9507
おき	-10.9508
の言葉	-10.9511
淡	-10.9516
がこの	-10.9517
1966	-10.9518
盛岡	-10.9518
叢書	-10.952
効	-10.9521
同名の	-10.9523
童	-10.9523
エクス	-10.9525
八王子	-10.9527
iv	-10.9527
れい	-10.9528
らと	-10.9529
0||	-10.9531
構築	-10.9531
発音	-10.9531
ヴェー	-10.9532
に戻った	-10.9532
ウム	-10.9533
なもの	-10.9534
雇用	-10.9538
同月	-10.954
キーボード	-10.9541
胡	-10.9543
を打ち	-10.9543
拝	-10.9544
カナ	-10.9544
出店	-10.9545
140	-10.9547
パネル	-10.9551
づけ	-10.9552
▁井上	-10.9555
の中には	-10.9555
社会的	-10.9556
に次ぐ	-10.9558
ミュー	-10.9558
主導	-10.9559
送り	-10.956
りゅう	-10.9561
学校法人	-10.9562
▁古	-10.9563
に所属	-10.9565
クルー	-10.9568
努力	-10.9569
捕虜	-10.9569
ダイヤ	-10.957
出現	-10.9572
ウォーター	-10.9573
理想	-10.9573
▁二	-10.9574
メモリ	-10.9576
つける	-10.9578
人目	-10.9581
ほとんどの	-10.9581
蝶	-10.9582
作目	-10.9583
信濃	-10.9584
北東	-10.9584
続ける	-10.9586
癖	-10.9588
自主	-10.9588
Ju	-10.9588
の全	-10.9588
ダウンロード	-10.9589
ブロン	-10.9589
▁アメリカの	-10.9592
海峡	-10.9593
一帯	-10.9593
打ち上げ	-10.9596
年の第	-10.9597
松浦	-10.9598
ビーチ	-10.9598
広い	-10.96
ear	-10.9606
正面	-10.9607
ストア	-10.9609
選定	-10.9609
1898	-10.961
靴	-10.9612
。2021	-10.9616
1922	-10.9621
pi	-10.9621
呼び	-10.9621
千代	-10.9621
二重	-10.9624
求	-10.9625
▁Pa	-10.9628
父は	-10.963
原理	-10.963
魅力	-10.9631
攻	-10.9631
AKB	-10.9631
に参加し	-10.9632
va	-10.9633
当局	-10.9634
安藤	-10.9634
使用される	-10.9634
るように	-10.9635
BI	-10.9635
偶然	-10.9636
ようとする	-10.9637
▁War	-10.9638
ケーブル	-10.9639
ale	-10.964
特別番組	-10.9641
会津	-10.9642
水野	-10.9643
貢献	-10.9643
裸	-10.9646
コフ	-10.9647
大津	-10.9647
毅	-10.9648
明石	-10.9649
しようとする	-10.9652
の小	-10.9652
小学生	-10.9653
初演	-10.9655
感覚	-10.9657
滞在	-10.9657
狭	-10.9657
始	-10.9658
響	-10.9658
鹿島	-10.966
楊	-10.966
ight	-10.9661
メタ	-10.9662
小島	-10.9663
全身	-10.9663
必要な	-10.9664
ワーク	-10.9665
上記	-10.9665
本来の	-10.9666
話で	-10.9668
保管	-10.9669
ネコ	-10.9669
不良	-10.9669
抱	-10.967
ニール	-10.9673
したものの	-10.9675
OT	-10.9676
湊	-10.9678
がそれぞれ	-10.9678
上演	-10.9679
▁九州	-10.968
湿	-10.968
リコ	-10.9682
参議院議員	-10.9682
封印	-10.9682
ティス	-10.9682
ません	-10.9682
ber	-10.9685
ッパー	-10.9686
りょう	-10.9687
勇者	-10.9689
浅草	-10.9689
浜松	-10.969
は不明	-10.9694
県の	-10.9695
を見る	-10.9697
控え	-10.9698
区の	-10.9699
描	-10.9699
に登場した	-10.9701
Google	-10.9703
前方	-10.9703
岐	-10.9704
バッ	-10.9706
‐	-10.9706
、1983	-10.9707
に所属していた	-10.9707
事項	-10.9708
ern	-10.9709
支社	-10.9712
登場人物	-10.9714
やすく	-10.9715
テレビ放送	-10.9717
生涯	-10.9719
キロメートル	-10.9719
ture	-10.9719
いった	-10.972
黒田	-10.9721
取る	-10.9725
慶應義塾大学	-10.9728
卓球	-10.9731
ヶ丘	-10.9731
編纂	-10.9732
を知る	-10.9734
、1984	-10.9738
スペ	-10.9739
業績	-10.9739
者である	-10.9741
1,000	-10.9743
飼育	-10.9745
HA	-10.9747
年シーズン	-10.9749
もなく	-10.975
されず	-10.9752
熊本県	-10.9752
固有	-10.9752
はなかった	-10.9753
を出し	-10.9753
簡易	-10.9754
1965	-10.9754
フェイ	-10.9755
託	-10.9757
ドゥー	-10.9758
ct	-10.9758
取った	-10.9759
釣り	-10.976
攻め	-10.9764
容	-10.9764
野球選手	-10.9764
ァ	-10.9764
キリ	-10.9766
意図	-10.9769
極めて	-10.9773
ンス	-10.9774
スイッチ	-10.9774
郊外	-10.9774
たけ	-10.9774
長編	-10.9774
を発	-10.9775
デッド	-10.9775
ヨシ	-10.9776
不詳	-10.9776
容量	-10.9776
浦和	-10.9777
王国の	-10.9777
レビュー	-10.9779
▁紀元前	-10.9779
使用された	-10.9779
佐伯	-10.9779
作品を	-10.9779
勘	-10.978
到着	-10.9781
島田	-10.9783
しさ	-10.9783
スロー	-10.9784
帰還	-10.9785
、1982	-10.9785
さか	-10.9786
マリン	-10.9787
幸せ	-10.9791
酵素	-10.9792
降伏	-10.9795
アイランド	-10.9799
ディオ	-10.9804
しようとした	-10.9805
がいた	-10.9807
授与	-10.9807
用意	-10.9808
独立した	-10.9809
▁Th	-10.981
救出	-10.9811
殻	-10.9813
▁Ne	-10.9813
アース	-10.9814
res	-10.9814
出走	-10.9814
▁全国	-10.9817
として出演	-10.9818
物理	-10.9819
前から	-10.982
://	-10.9821
野菜	-10.9822
sc	-10.9822
グラム	-10.9823
晩	-10.9828
フリ	-10.9829
競	-10.9829
続け	-10.983
♪	-10.9831
イズ	-10.9833
に存在する	-10.9834
MF	-10.9836
くれ	-10.9836
興味	-10.9837
してから	-10.9838
台車	-10.984
物理学	-10.984
登場した	-10.9841
2.0	-10.9841
ジョンソン	-10.9845
逃れ	-10.9845
編著	-10.9847
共編	-10.9848
のみならず	-10.9848
を新設	-10.985
隣接する	-10.9852
家は	-10.9854
に貢献した	-10.9854
起点	-10.9855
岬	-10.9856
迷	-10.9856
十字	-10.9856
を実現	-10.9857
PE	-10.9858
追放	-10.9858
ロッテ	-10.9858
(1970	-10.9859
動物園	-10.986
技術者	-10.986
に復帰	-10.9861
ないし	-10.9861
を探し	-10.9861
スタンド	-10.9862
ることで	-10.9863
挙	-10.9864
同社の	-10.9865
出来事	-10.9865
発電	-10.9865
Ca	-10.9867
リバー	-10.9867
変形	-10.9867
呼称	-10.9872
ノイ	-10.9873
▁神奈川県	-10.9873
背番号	-10.9874
の変化	-10.9875
であっても	-10.9876
コミュニケーション	-10.9877
鞍	-10.9877
の寺院	-10.9878
年末	-10.9879
▁He	-10.988
▁今	-10.9882
初回	-10.9882
公社	-10.9884
トラン	-10.9885
菊池	-10.9889
伊達	-10.9889
は無い	-10.9891
そば	-10.9893
やって	-10.9893
症候群	-10.9896
昆虫	-10.9896
周波数	-10.9896
独占	-10.9897
キハ	-10.9897
の設計	-10.9897
の一環として	-10.9899
村立	-10.99
の成績	-10.99
雰囲気	-10.9902
合体	-10.9903
稿	-10.9904
浜田	-10.9905
改めて	-10.9907
集め	-10.9909
オーナー	-10.991
創業者	-10.9911
ü	-10.9911
くろ	-10.9912
チップ	-10.9912
烏	-10.9913
決勝で	-10.9913
タケ	-10.9914
という言葉	-10.9915
ヒー	-10.9916
を繰り返し	-10.9917
挿入歌	-10.9918
TI	-10.9921
によるもの	-10.9922
残った	-10.9925
違反	-10.9925
直径	-10.9925
逢	-10.9927
衝撃	-10.9927
▁山口	-10.9929
ence	-10.9933
グローバル	-10.9934
通貨	-10.9935
を進め	-10.9937
不正	-10.994
||1||	-10.994
ニャ	-10.9941
学校の	-10.9941
車庫	-10.9943
su	-10.9944
配布	-10.9944
最近	-10.9946
サウンドトラック	-10.9946
▁在	-10.9946
リャ	-10.9948
タッグ	-10.9948
伊東	-10.9948
に成功	-10.9948
最後	-10.9949
放出	-10.9952
の原因	-10.9954
ぁ	-10.9955
▁編集	-10.9957
止	-10.9957
が強く	-10.9957
撤去	-10.9958
測	-10.9958
▁道路	-10.9961
帰り	-10.9964
エク	-10.9964
荒川	-10.9964
ens	-10.9964
趙	-10.9964
、1981	-10.9965
の生産	-10.9966
車種	-10.9966
跡地	-10.9966
が開始された	-10.9967
▁FC	-10.9967
大韓民国	-10.9967
含	-10.997
ロフ	-10.9971
眼鏡	-10.9972
の中の	-10.9973
で優勝	-10.9973
映画作品	-10.9973
之介	-10.9973
連勝	-10.9974
映画祭	-10.9974
路線バス	-10.9977
参加者	-10.9977
米軍	-10.9979
;"	-10.9981
鉱山	-10.9984
修復	-10.9986
テック	-10.9986
化合物	-10.9986
に設置	-10.9987
チェック	-10.9988
角川書店	-10.999
に出場	-10.999
シロ	-10.9993
鍋	-10.9996
ース	-10.9997
モバイル	-10.9999
みどり	-11
接近	-11
オレンジ	-11
に対応	-11
だという	-11.0001
コメディ	-11.0004
自衛隊	-11.0005
代表取締役社長	-11.0008
▁茨城県	-11.0009
神奈川	-11.001
の多くは	-11.001
大戦	-11.0013
差別	-11.0014
ライオン	-11.0014
連覇	-11.0015
フード	-11.0018
カワ	-11.0019
上流	-11.0021
元々は	-11.0022
制服	-11.0022
鹿児島県	-11.0023
金子	-11.0023
要塞	-11.003
ある日	-11.003
▁TO	-11.0031
五輪	-11.0032
ALL	-11.0032
寄付	-11.0034
心を	-11.0035
損	-11.0035
縮小	-11.0036
受賞者	-11.0036
▁All	-11.0037
落語	-11.0037
レイン	-11.0039
q	-11.0039
セミ	-11.0039
ばら	-11.0044
が始まる	-11.0044
▁Sch	-11.0046
レーション	-11.0047
ath	-11.0052
宮殿	-11.0053
魏	-11.0058
瓶	-11.0058
出張所	-11.0059
日をもって	-11.0059
じゅう	-11.0062
VR	-11.0062
東芝	-11.0063
GM	-11.0064
少数	-11.0064
▁MUSIC	-11.0064
になっており	-11.0067
亡命	-11.0069
山中	-11.007
全面	-11.0072
死んだ	-11.0074
▁千	-11.0075
通じ	-11.0077
ボイス	-11.0079
正規	-11.008
騎	-11.0082
ハナ	-11.0083
が制作した楽曲	-11.0084
Ja	-11.0084
体を	-11.0085
トリー	-11.0086
▁1939	-11.0086
といわれる	-11.0091
テス	-11.0092
方が	-11.0093
かもしれない	-11.0096
の前で	-11.0096
高崎	-11.0098
▁ドイツの	-11.0098
でん	-11.0098
透	-11.0098
救急	-11.01
立川	-11.0101
女性の	-11.0102
泥	-11.0102
みる	-11.0102
小さく	-11.0103
▁アイ	-11.0104
横断	-11.0107
発表した	-11.0108
連結	-11.0109
皇后	-11.011
町内	-11.0114
舌	-11.0115
⇒	-11.0119
ここに	-11.012
人である	-11.012
原子力	-11.0121
下で	-11.0121
されるようになった	-11.0122
old	-11.0123
▁┃	-11.0124
結び	-11.0125
きゅう	-11.0125
施	-11.0127
食い	-11.0128
ギル	-11.0129
太平洋戦争	-11.0129
予測	-11.0131
総督	-11.0131
該当	-11.0132
役員	-11.0134
無し	-11.0135
で放送	-11.0136
弟の	-11.0136
貨	-11.0137
乗り入れ	-11.0137
ルーマニア	-11.0138
日産	-11.0139
このうち	-11.0146
赤坂	-11.0147
若干	-11.0148
思い出	-11.0148
当主	-11.015
を率いて	-11.0151
サウ	-11.0152
本土	-11.0153
もない	-11.0154
賞を受賞した	-11.0154
▁身長	-11.0155
出身者	-11.0156
支所	-11.0157
拾	-11.0157
放送されていた	-11.0157
が始まった	-11.0158
の男性	-11.0159
規	-11.016
form	-11.016
があったが	-11.0161
磁	-11.0164
の舞台	-11.0164
にとっては	-11.0167
の一部が	-11.0167
と契約	-11.0167
威力	-11.0169
安田	-11.0171
レム	-11.0173
サンフランシスコ	-11.0174
1921	-11.0174
メアリー	-11.0177
不安	-11.0178
移住	-11.0178
夫妻	-11.0178
とても	-11.0179
0.0	-11.018
買	-11.0181
row	-11.0183
近くの	-11.0184
エディ	-11.0186
引用	-11.0186
ゲージ	-11.0188
走り	-11.0188
バランス	-11.0188
ところが	-11.0189
テーブル	-11.0191
▁Time	-11.0192
シード	-11.0194
的で	-11.0195
ial	-11.0196
垂	-11.0196
ダメージ	-11.0198
ではなかった	-11.0202
.10	-11.0204
リム	-11.0205
相手を	-11.0207
公開された	-11.0208
小田	-11.0214
権限	-11.0216
一旦	-11.0216
イラ	-11.0217
活性化	-11.0223
LD	-11.0223
高野	-11.0227
▁me	-11.0235
tor	-11.0237
三河	-11.0239
時代劇	-11.024
ハリ	-11.024
限界	-11.0243
らせ	-11.0243
丸山	-11.0247
しまう	-11.0247
南東	-11.0248
本人は	-11.0249
苑	-11.0249
ブラッド	-11.0249
爪	-11.0249
楽章	-11.0251
モンテ	-11.0251
通常盤	-11.0253
○○	-11.0254
ぶん	-11.0255
医薬品	-11.0256
メイド	-11.0258
・・・	-11.0258
面で	-11.0259
晩年	-11.0259
返し	-11.026
探	-11.0262
鳥取	-11.0262
1899	-11.0264
したがって	-11.0264
松尾	-11.0265
唯	-11.0266
スーツ	-11.0267
などは	-11.0267
決定戦	-11.0268
径	-11.0268
史跡	-11.0269
▁We	-11.0272
BB	-11.0276
アンダー	-11.0277
STAR	-11.0278
知られる	-11.028
森田	-11.0283
以外は	-11.0283
е	-11.0285
サマー	-11.0285
▁[4	-11.0289
三田	-11.029
岩手県	-11.0291
漁業	-11.0293
皮膚	-11.0294
哲学者	-11.0295
感謝	-11.0296
戦術	-11.0297
換	-11.0298
国土交通省	-11.0298
の高さ	-11.0298
の男	-11.0299
家督	-11.0299
を利用した	-11.0303
田辺	-11.0303
ムラ	-11.0303
突き	-11.0303
▁Ver	-11.0304
月現在	-11.0307
-16	-11.0307
ファル	-11.0307
に戻り	-11.0308
叙	-11.0309
了	-11.0309
きり	-11.0309
のみが	-11.0309
スポット	-11.0313
▁主題歌	-11.0314
完	-11.0316
の末	-11.0316
▁1937	-11.0319
出て	-11.032
子は	-11.0321
士官	-11.0323
二つの	-11.0323
期間中	-11.0324
を取得	-11.0325
の活動	-11.0326
歌舞伎	-11.0328
ブライアン	-11.0329
耶	-11.033
出場選手	-11.033
▁ロシア	-11.0332
屋の	-11.0332
MV	-11.0333
ことはなかった	-11.0335
河原	-11.0339
に大きな	-11.0339
中断	-11.0344
上場	-11.0344
互いに	-11.0346
近世	-11.0346
リティ	-11.0346
そこから	-11.0348
▁Night	-11.0351
にわたり	-11.0353
牧場	-11.0354
開け	-11.0355
▁神戸	-11.0358
las	-11.036
かる	-11.0362
浅野	-11.0364
講義	-11.0367
木下	-11.0367
のデザイン	-11.0368
刑務所	-11.0369
プロフィール	-11.0369
編入	-11.0374
cy	-11.0374
怪	-11.0375
一軍	-11.0376
子供たち	-11.0377
検定	-11.0379
ロケ	-11.0382
AG	-11.0384
隠れ	-11.0384
條	-11.0384
ギャラリー	-11.0385
tal	-11.0385
比例	-11.0386
の主人公	-11.0388
中華民国	-11.0388
設	-11.0388
年のアルバム	-11.039
緑色	-11.0391
(2)	-11.0392
ess	-11.0392
召喚	-11.0395
砦	-11.0395
公国	-11.0396
自由民主党	-11.0396
沿線	-11.0398
地位	-11.0398
(1971	-11.04
(1969	-11.04
討ち	-11.0406
天国	-11.0406
ical	-11.0406
レオン	-11.0409
▁永	-11.0411
オリックス	-11.0412
特殊な	-11.0412
かえ	-11.0413
ついに	-11.0414
チア	-11.0414
マレーシア	-11.0415
先輩	-11.0416
スペインの	-11.0418
BD	-11.0418
を務めている	-11.0419
ものだった	-11.0419
ケア	-11.0419
論理	-11.042
十郎	-11.0421
いつ	-11.0421
木曜日	-11.0424
警察官	-11.0425
用いられた	-11.0425
ib	-11.0426
の方	-11.0429
。2004	-11.0432
クイーン	-11.0433
アリーナ	-11.0434
したものである	-11.0435
▁京都府	-11.0436
を守る	-11.0437
三島	-11.0437
川上	-11.0438
ポリス	-11.0439
回戦で	-11.044
使用可能	-11.044
サス	-11.044
ブーム	-11.0442
機関車	-11.0445
一切	-11.0445
住吉	-11.0445
各国	-11.0446
吹き替え	-11.0447
キア	-11.0453
方向に	-11.0453
幌	-11.0453
割り	-11.0456
込まれ	-11.0457
ばん	-11.0458
されるが	-11.0458
エラ	-11.0459
補給	-11.0462
年前に	-11.0464
忍者	-11.0465
アルコール	-11.0467
za	-11.0467
町にある	-11.0468
年度の	-11.0468
それらの	-11.0469
サンデー	-11.047
ジョーンズ	-11.0471
ってきた	-11.0472
グッド	-11.0472
繰り	-11.0473
熊谷	-11.0474
ふじ	-11.0475
音響	-11.0476
を起こす	-11.0476
賜	-11.0476
指揮官	-11.048
ゴジラ	-11.048
大使館	-11.0481
外伝	-11.0482
蓋	-11.0483
カナダの	-11.0484
ブロー	-11.0484
ダンサー	-11.0485
ギュ	-11.0485
に移行	-11.0486
奴	-11.0486
▁1936	-11.0488
随	-11.0489
旭川	-11.049
の物語	-11.049
ull	-11.0491
調べ	-11.0492
▁福岡	-11.0495
▁des	-11.0495
ギタリスト	-11.0496
俗	-11.0497
フリードリヒ	-11.05
▁聖	-11.05
この作品	-11.0502
巡洋艦	-11.0502
見られる	-11.0503
バスケットボール選手	-11.0505
の変更	-11.0505
テラ	-11.0505
休日	-11.0508
市の建築物	-11.0511
を迎えた	-11.0512
うちに	-11.0512
レク	-11.0516
辞任	-11.0517
八木	-11.0518
パッ	-11.0519
星野	-11.0521
CI	-11.0521
渡り	-11.0523
携帯	-11.0523
グラフ	-11.0525
炉	-11.0526
ボーン	-11.0532
戦国時代	-11.0533
を起こし	-11.0534
干	-11.0534
土佐	-11.0535
Fi	-11.0535
ことが出来る	-11.0536
登場している	-11.0536
議会議員	-11.0536
ya	-11.0537
▁der	-11.0538
奪	-11.0539
科学技術	-11.0541
わる	-11.0541
▁サッカー	-11.0542
ちゅう	-11.0544
をとる	-11.0544
DX	-11.0546
ていて	-11.0546
所長	-11.0546
自体は	-11.0549
vol	-11.0555
その際	-11.0556
このように	-11.0556
ジェン	-11.0557
マット	-11.056
ガリ	-11.0561
海の	-11.0561
曖昧さ回避	-11.0562
主人公の	-11.0563
邪	-11.0565
灰	-11.0565
講演	-11.0567
ファイ	-11.0567
取扱	-11.0568
だったため	-11.0569
もあって	-11.0569
を紹介	-11.057
すぎる	-11.057
ase	-11.0571
ゆかり	-11.0572
石原	-11.0573
不能	-11.0573
日本映画	-11.0573
わり	-11.0574
から約	-11.0576
chi	-11.0579
▁pro	-11.0579
UEFA	-11.058
進んだ	-11.058
コマンド	-11.058
ハウ	-11.0581
尼	-11.0581
のライブ	-11.0581
を重ね	-11.0582
修了	-11.0586
麦	-11.0587
伝記	-11.0588
推	-11.0589
をはじめとする	-11.0589
質量	-11.059
起源	-11.0591
青森県	-11.0592
鉄道の	-11.0592
燕	-11.0592
次に	-11.0592
侵入	-11.0593
併	-11.0594
ボウ	-11.0594
気に	-11.0594
戒	-11.0595
事務局	-11.0597
晶	-11.0597
初めての	-11.0598
無限	-11.0601
てつ	-11.0602
プリキュア	-11.0606
▁清水	-11.0606
BC	-11.0607
ゆく	-11.0607
を除いて	-11.0609
▁e	-11.0614
空母	-11.0614
食べ	-11.0615
ジャクソン	-11.0615
が多数	-11.0617
めい	-11.0617
現代の	-11.0618
ぃ	-11.0619
リスナー	-11.0619
▁漫画	-11.0621
軟	-11.0622
夕方	-11.0628
壊	-11.0628
繁殖	-11.0629
▁広島	-11.063
gu	-11.0631
天皇の	-11.0632
で製作された映画作品	-11.0632
▁全日本	-11.0633
橋梁	-11.0633
を受けている	-11.0637
すぎ	-11.0638
栃木県	-11.0639
ナム	-11.0639
SL	-11.064
▁Web	-11.0641
鶏	-11.0642
廃車	-11.0645
ob	-11.0646
建立	-11.0647
英語版	-11.0649
共訳	-11.065
後輩	-11.0651
たちを	-11.0654
した際に	-11.0655
担	-11.0656
認知	-11.0657
スン	-11.0658
一定	-11.066
人権	-11.0662
小屋	-11.0662
良く	-11.0663
富山県	-11.0665
テール	-11.0665
ベア	-11.0665
RU	-11.0667
彼女が	-11.0668
と言われ	-11.0668
出会った	-11.0672
以外に	-11.0672
搭乗	-11.0672
語で	-11.0672
文章	-11.0673
の活躍	-11.0674
紋章	-11.0675
邑	-11.0676
アンナ	-11.0676
行列	-11.0676
アーク	-11.0678
の一部を	-11.068
てくる	-11.0681
出席	-11.0682
▁k	-11.0685
乙女	-11.0689
本田	-11.0689
の少女	-11.0691
人格	-11.0694
審査員	-11.0695
年間の	-11.0697
マール	-11.0698
場所に	-11.0699
王の	-11.0701
バイエルン	-11.0702
段階で	-11.0704
、1960	-11.0704
あげ	-11.0705
▁岡山県	-11.0705
好意	-11.0708
他出演	-11.0709
az	-11.0709
CX	-11.0711
ホット	-11.0712
付ける	-11.0713
長岡	-11.0714
更	-11.072
水上	-11.072
書記	-11.0721
▁con	-11.0721
暴走	-11.0723
に統合	-11.0723
記されている	-11.0728
県立	-11.0729
▁und	-11.0729
下車	-11.0731
▁Ex	-11.0731
大衆	-11.0733
出演した	-11.0735
がその	-11.0737
線を	-11.0739
〉、	-11.074
チャンピオンシップ	-11.074
辞典	-11.074
オレ	-11.074
大森	-11.0742
暗号	-11.0743
試作	-11.0744
立った	-11.0745
死体	-11.0746
に入学	-11.0747
ロマ	-11.0748
た後	-11.0749
東山	-11.0749
春の	-11.0749
個別	-11.075
富田	-11.0752
5,000	-11.0753
神戸市	-11.0753
墓地	-11.0754
DNA	-11.0756
わけ	-11.0756
que	-11.0758
年代から	-11.0759
リゾート	-11.076
の他に	-11.0764
いで	-11.0766
階段	-11.0766
が無い	-11.0766
を含めた	-11.0766
売上	-11.0768
考	-11.077
の人々	-11.0772
の持ち主	-11.0773
わけではない	-11.0775
を使用	-11.0775
ノフ	-11.0776
▁周辺	-11.0777
年ぶりの	-11.0777
グレード	-11.0778
東日本大震災	-11.078
▁Di	-11.078
▁鉄道	-11.0782
厚生	-11.0783
TRA	-11.0784
獅子	-11.0784
務めた	-11.0786
新井	-11.0787
ワイルド	-11.0787
直通	-11.0787
授	-11.0788
放送時間	-11.079
▁CO	-11.079
コロンビア	-11.0792
聞き	-11.0793
ないように	-11.0794
岩崎	-11.0795
書いた	-11.0795
度々	-11.0795
カタ	-11.0796
少佐	-11.0796
▁di	-11.0797
ヴァイオリン	-11.0797
ブリッジ	-11.0801
再会	-11.0807
桑	-11.0807
遣	-11.0807
セカンド	-11.0811
の下に	-11.0812
を提供する	-11.0812
するように	-11.0813
で開催	-11.0815
1500	-11.0816
ようになっている	-11.0817
征服	-11.0822
ION	-11.0823
山地	-11.0823
の登場	-11.0823
が設置されている	-11.0826
どちら	-11.0826
ものがある	-11.0827
謝罪	-11.0828
ぱ	-11.0828
共有	-11.0828
見せ	-11.0829
マーティン	-11.0831
tu	-11.0832
一体	-11.0833
▁Pr	-11.0835
出雲	-11.0838
ll	-11.0839
松原	-11.0839
チャンス	-11.084
外れ	-11.0842
▁施設	-11.0842
ケット	-11.0843
に来た	-11.0843
勤め	-11.0844
摂	-11.0845
妖	-11.0845
架空の	-11.0845
IG	-11.0846
数々の	-11.0847
経営者	-11.0847
が多かった	-11.0848
▁福島県	-11.0848
っぱ	-11.0849
タリ	-11.0851
講	-11.0851
広がり	-11.0852
出来ない	-11.0853
されてきた	-11.0855
ソフトバンク	-11.0855
ターボ	-11.0856
の夜	-11.0856
大学校	-11.0858
over	-11.0858
RY	-11.0859
ストロ	-11.086
1900	-11.0861
改装	-11.0862
日本国内	-11.0863
有機	-11.0863
本名は	-11.0864
元プロ野球選手	-11.0864
鉱	-11.0864
するか	-11.0864
代表的な	-11.0867
属性	-11.0867
ウィー	-11.0869
届け	-11.0869
DAY	-11.087
の場	-11.0874
原子	-11.0874
DR	-11.0875
立地	-11.0876
見られ	-11.0876
の設定	-11.0876
競走馬	-11.0878
公爵	-11.0879
日程	-11.0879
決戦	-11.0881
手掛け	-11.0882
UL	-11.0883
天下	-11.0883
トロン	-11.0885
の墓	-11.0886
恵子	-11.0886
BOX	-11.0888
妨害	-11.0889
関与	-11.0889
駆	-11.0889
にあたり	-11.089
絵本	-11.0891
日現在	-11.0891
オオ	-11.0891
おい	-11.0891
伏見	-11.0892
の兄	-11.0894
プリンセス	-11.0896
艦長	-11.0896
ade	-11.0897
に参加する	-11.0897
軍に	-11.0898
管区	-11.09
系アメリカ人	-11.0902
、1979	-11.0903
ino	-11.0904
奇跡	-11.0904
はすべて	-11.0905
世話	-11.0907
チリ	-11.0909
セントラル	-11.091
保証	-11.0911
果て	-11.0912
歌う	-11.0912
手がけ	-11.0913
直前に	-11.0913
ブス	-11.0913
屈	-11.0913
ライナー	-11.0914
戦死	-11.0915
▁青	-11.0917
就航	-11.0917
大地	-11.0918
アラブ	-11.0919
ヘリコプター	-11.092
研究センター	-11.092
で行われる	-11.0921
瓦	-11.0923
トリオ	-11.0924
itch	-11.0925
欄	-11.0927
レーシング	-11.0928
ost	-11.0929
大坂	-11.0929
ブレイク	-11.0929
ビリー	-11.093
セガ	-11.093
動員	-11.093
説得	-11.0932
▁Sp	-11.0932
削除	-11.0934
ore	-11.0936
恋の	-11.0937
認証	-11.0938
の生活	-11.0939
を開発	-11.0942
IR	-11.0943
どんな	-11.0943
師匠	-11.0945
FOR	-11.0945
えない	-11.0945
藤沢	-11.0946
かす	-11.0946
エリザベス	-11.0947
OK	-11.0947
ンダー	-11.0948
ッキー	-11.0952
することとなった	-11.0954
ルカ	-11.0956
兵庫	-11.0956
目的で	-11.0957
水泳	-11.0959
時代には	-11.0959
膝	-11.0961
ないこと	-11.0964
椎	-11.0965
ピエール	-11.0967
チェンジ	-11.0971
プラットフォーム	-11.0971
学級	-11.0972
マニ	-11.0973
を得	-11.0975
愛称	-11.0975
ダニエル	-11.0975
融合	-11.0976
警戒	-11.0978
ting	-11.0978
中継局	-11.0979
嫌い	-11.0979
ループ	-11.098
ところを	-11.0981
熊野	-11.0981
1914	-11.0982
現行	-11.0982
教皇	-11.0985
ナチス	-11.0985
達の	-11.0989
に再	-11.0991
始まり	-11.0991
を代表する	-11.0992
eg	-11.0993
小泉	-11.0994
リーナ	-11.0994
大分県	-11.0996
享	-11.0997
DD	-11.0999
ぐる	-11.0999
作品は	-11.1002
VA	-11.1003
冬季	-11.1004
アイス	-11.1005
スカウト	-11.1007
絡	-11.1007
仕事を	-11.1008
込め	-11.1008
▁Cl	-11.1009
1895	-11.1011
ハンド	-11.1013
▁1928	-11.1013
発掘	-11.1016
普段は	-11.1016
勃発	-11.1016
158	-11.1017
スティック	-11.1019
筒	-11.1019
々と	-11.102
喧嘩	-11.1023
1%	-11.1024
とは異なる	-11.1025
佐世保	-11.1026
の大きさ	-11.1027
アサ	-11.1028
ダス	-11.1032
に入団	-11.1032
実在	-11.1033
を求めて	-11.1033
飛行場	-11.1034
1963	-11.1034
勝利した	-11.1035
けた	-11.1037
▁1935	-11.1037
心臓	-11.1038
何も	-11.1038
等で	-11.1038
▁主要	-11.1039
ゼー	-11.1039
話では	-11.1041
ny	-11.1043
ワークス	-11.1044
先頭	-11.1047
数値	-11.1053
職人	-11.1053
▁千葉	-11.1053
雀	-11.1054
制作された	-11.1054
サウス	-11.1056
出口	-11.1057
敷地	-11.1058
頻繁に	-11.1059
EA	-11.106
妊娠	-11.1061
駿	-11.1063
用いられている	-11.1064
に比べて	-11.1064
▁mm	-11.1066
享年	-11.1066
叔父	-11.1066
買い	-11.1066
が設置され	-11.1068
一つの	-11.1068
この地	-11.1069
死ぬ	-11.107
触れ	-11.107
などから	-11.1071
同意	-11.1072
ファイト	-11.1072
弱い	-11.1074
▁Mon	-11.1075
農民	-11.1077
睦	-11.1079
領主	-11.108
するのは	-11.1083
ヴィア	-11.1083
胆	-11.1086
処刑	-11.1086
バレエ	-11.1086
渓	-11.1087
囲	-11.1087
評論	-11.1089
テオ	-11.109
戦力	-11.1093
ビジュアル	-11.1093
の試合	-11.1095
天保	-11.1095
ホンダ	-11.1098
京阪	-11.1099
沿い	-11.1099
婚	-11.11
▁韓国	-11.1101
プレート	-11.1102
の父親	-11.1104
▁1934	-11.1105
話す	-11.1108
を求め	-11.1109
大山	-11.111
▁三重県	-11.1113
ox	-11.1113
保安	-11.1116
RT	-11.1116
▁一方	-11.1116
ソウ	-11.1117
朝日新聞	-11.1119
薬物	-11.1119
を舞台とした映画	-11.112
作中	-11.112
踏み	-11.1121
彼に	-11.1122
の流れ	-11.1125
の基礎	-11.1126
を与えた	-11.1126
に従って	-11.1131
sion	-11.1131
を果たし	-11.1131
であるという	-11.1133
美女	-11.1133
ボク	-11.1134
の顔	-11.1134
出して	-11.1136
ich	-11.1137
せずに	-11.1137
笑い	-11.114
機が	-11.1141
下関	-11.1142
代表取締役	-11.1142
▁International	-11.1142
イア	-11.1142
第五	-11.1143
を示し	-11.1146
頂	-11.1148
エフエム	-11.1149
調理	-11.1151
の設置	-11.1151
PL	-11.1153
は当初	-11.1155
ヴォー	-11.1156
上がった	-11.1157
▁アクセス	-11.1158
力が	-11.1159
YA	-11.1159
1917	-11.1162
アーム	-11.1163
もし	-11.1164
総会	-11.1164
▁群馬県	-11.1164
肝	-11.1166
覚醒	-11.1167
埋	-11.1168
おん	-11.1173
ff	-11.1173
決意	-11.1174
クレー	-11.1176
(1968	-11.1176
鑑賞	-11.1177
シェア	-11.1177
バスターミナル	-11.1178
語の	-11.118
刺激	-11.1181
母は	-11.1182
養子	-11.1183
十三	-11.1184
シュタイン	-11.1187
MAX	-11.1191
が丘	-11.1192
ないと	-11.1194
名鉄	-11.1194
車は	-11.1195
包囲	-11.1196
に入って	-11.1197
市内の	-11.1199
val	-11.1201
繊維	-11.1202
が成立	-11.1203
流域	-11.1204
ナレーター	-11.1204
フェイス	-11.1205
死刑	-11.1207
日に発売された	-11.1207
pl	-11.1208
部は	-11.1209
360	-11.1211
得意	-11.1212
金額	-11.1212
ユニバーサル	-11.1215
大映	-11.1215
叩き	-11.1215
壮	-11.1216
サッカー部	-11.1216
明らか	-11.1216
Gr	-11.1216
塗	-11.1216
現在でも	-11.1217
制覇	-11.1217
リク	-11.1219
ピース	-11.122
置き	-11.1222
金を	-11.1223
を置く	-11.1223
引退後	-11.1225
に生まれた	-11.1226
萬	-11.1226
NI	-11.1228
関連の	-11.1229
導入された	-11.123
シンガーソングライター	-11.1234
ran	-11.1234
生物学	-11.1234
IM	-11.1236
フォーム	-11.1237
盾	-11.1237
全員が	-11.124
地域で	-11.1241
事業を	-11.1242
?)	-11.1244
部員	-11.1244
待ち	-11.1245
電源	-11.1247
息子の	-11.1249
に至った	-11.1251
Al	-11.1252
格闘	-11.1252
hy	-11.1252
候	-11.1253
たちと	-11.1253
に含まれる	-11.1254
水曜日	-11.1255
スマートフォン	-11.1255
建造物	-11.1257
熟	-11.1258
国勢調査	-11.1259
秀吉	-11.1259
初回限定盤	-11.1259
重力	-11.126
為に	-11.1261
着用	-11.1262
▁Un	-11.1263
の大半	-11.1264
が強い	-11.1265
に巻き込まれ	-11.1265
3%	-11.1267
川水系	-11.1268
オールスター	-11.1268
貸	-11.1268
ベック	-11.1268
三国	-11.1268
図鑑	-11.127
商店	-11.1272
莉	-11.1273
死の	-11.1277
を構成する	-11.1278
長崎県	-11.1278
ようとした	-11.1278
を行うこと	-11.1279
▁1938	-11.1279
完全な	-11.128
着陸	-11.128
と述べ	-11.1283
西川	-11.1286
連合軍	-11.1288
激しく	-11.1288
ハルト	-11.1288
ツィ	-11.1289
イロ	-11.1289
ウェン	-11.1294
予防	-11.1295
訴	-11.1296
1913	-11.1297
歳の時に	-11.1299
kW	-11.1299
倉庫	-11.1301
の部分	-11.1301
いし	-11.1302
郡山	-11.1302
信長	-11.1304
化石	-11.1306
わたし	-11.1306
副会長	-11.1308
毎回	-11.1308
コラボ	-11.1309
締め	-11.131
限りで	-11.131
▁福	-11.1312
車内	-11.1313
知られ	-11.1314
を表明	-11.1315
マキ	-11.1316
した上で	-11.1319
ヨハン	-11.1319
らす	-11.1322
最強	-11.1323
ris	-11.1324
▁早稲田大学	-11.1324
条例	-11.1324
NY	-11.1324
さず	-11.1324
甲子園	-11.1326
郭	-11.1326
tro	-11.1327
グッズ	-11.133
▁(3	-11.1331
を利用する	-11.1331
キャン	-11.1333
と呼ばれていた	-11.1334
されているが	-11.1334
親子	-11.1334
は通常	-11.1336
汁	-11.1337
ö	-11.1338
島津	-11.1339
hr	-11.1339
研究科	-11.134
バリー	-11.1341
代行	-11.1341
▁東北	-11.1341
▁Qu	-11.1341
火曜日	-11.1343
倒れ	-11.1343
考案	-11.1345
いくつか	-11.1345
を記録し	-11.1346
河野	-11.1346
Mac	-11.1347
陥落	-11.1348
になること	-11.1349
サロン	-11.135
分に	-11.135
の導入	-11.1351
専門家	-11.1352
もまた	-11.1352
まんが	-11.1354
ドッグ	-11.1355
の秘密	-11.1356
統括	-11.1356
▁かつて	-11.1359
水路	-11.1359
日立	-11.136
施工	-11.1361
柿	-11.1362
▁日本では	-11.1362
上げる	-11.1364
に選出された	-11.1365
1962	-11.1365
蒸気	-11.1366
▁金曜	-11.1366
主宰	-11.1367
模型	-11.1369
ショック	-11.1369
を加えた	-11.1369
||||	-11.137
重複	-11.137
力士	-11.1371
ブレイ	-11.1373
▁福岡県	-11.1374
わず	-11.1374
起用	-11.1375
圧縮	-11.1376
を記録	-11.1378
ぜん	-11.1378
二次	-11.1382
怪人	-11.1384
。2022	-11.1384
に伴って	-11.1384
av	-11.1385
中心部	-11.1387
につき	-11.1388
の最初の	-11.1388
とのこと	-11.1389
ハリー	-11.1389
▁Life	-11.1391
津田	-11.1392
一時的に	-11.1392
oto	-11.1393
防災	-11.1393
二十	-11.1394
うら	-11.1394
読売テレビ	-11.1395
戸田	-11.1396
往	-11.1397
巧	-11.1398
長距離	-11.1401
MY	-11.1402
容姿	-11.1403
混合	-11.1404
存	-11.1405
時間が	-11.1406
へ向かう	-11.1406
前身	-11.1408
グラス	-11.1409
大量の	-11.1409
が好き	-11.1411
早い	-11.1411
の孫	-11.1411
MG	-11.1411
陽子	-11.1412
直前	-11.1413
出版された	-11.1413
エンジニア	-11.1415
日本における	-11.1417
数多くの	-11.1418
ric	-11.142
バク	-11.1421
近年	-11.1422
参議院	-11.1423
ませ	-11.1425
古川	-11.1425
岩手	-11.1425
みた	-11.1426
ミュンヘン	-11.1427
TC	-11.1427
の作曲家	-11.1428
メロ	-11.1428
の役割	-11.1429
賛	-11.1429
点で	-11.143
の後継	-11.1431
に師事	-11.1432
山口県	-11.1432
三角	-11.1433
山村	-11.1434
拘束	-11.1434
に進学	-11.1436
▁align	-11.1437
ダイヤモンド	-11.1438
を搭載した	-11.144
ジル	-11.144
というもの	-11.144
平凡社	-11.1441
壊滅	-11.1441
曲が	-11.1444
ぞう	-11.1444
マーケティング	-11.1445
隔	-11.1446
後継	-11.1447
降板	-11.1447
内では	-11.1448
視聴率	-11.1449
▁エピソード	-11.1449
耐	-11.145
おも	-11.1451
350	-11.1451
行われている	-11.1452
プロイセン	-11.1452
変動	-11.1454
が発売された	-11.1455
おそらく	-11.1455
準々決勝	-11.1456
三好	-11.146
マルコ	-11.1461
後述の	-11.1461
レスリング	-11.1463
を基に	-11.1464
文学部	-11.1465
沈没	-11.1465
国際映画祭	-11.1465
梶	-11.1466
の種類	-11.1467
外観	-11.1468
背中	-11.1469
オイ	-11.1471
と考え	-11.1474
和歌山	-11.1475
苗	-11.1475
lan	-11.1476
期に	-11.1476
肺	-11.1477
ネーム	-11.1477
ord	-11.1478
野口	-11.148
デリ	-11.148
è	-11.1481
乾燥	-11.1481
と異なり	-11.1482
プー	-11.1483
詰	-11.1484
Mr	-11.1484
払い	-11.1485
賛成	-11.1485
Jr	-11.1485
LOVE	-11.1486
芝居	-11.1488
狩	-11.1488
霞	-11.1488
使える	-11.1489
されたため	-11.1489
(1967	-11.149
交際	-11.1492
改称	-11.1494
ムシ	-11.1498
ser	-11.1499
1893	-11.1499
中華	-11.15
朝倉	-11.1501
ここでは	-11.1503
新型	-11.1504
組み合わせ	-11.1506
としていた	-11.1507
平田	-11.1507
パパ	-11.1507
▁On	-11.1509
オリコン	-11.1512
～」	-11.1516
をベースに	-11.1517
175	-11.1517
捜索	-11.1517
▁国立	-11.1518
ミックス	-11.152
なかったが	-11.152
後任	-11.1523
年ぶり	-11.1523
魔王	-11.1523
▁rowspan	-11.1524
の街	-11.1524
キューバ	-11.1527
選考	-11.1529
フェス	-11.1529
藤本	-11.1529
ニッ	-11.153
顧客	-11.1532
イエス	-11.154
=2|-||	-11.1541
伝統的な	-11.1543
本作では	-11.1545
食堂	-11.1545
侵略	-11.1547
▁桜	-11.1547
アーサー	-11.1549
誘拐	-11.155
ウエスト	-11.155
渡し	-11.1551
一面	-11.1551
レジ	-11.1553
マジ	-11.1553
砕	-11.1554
解消	-11.1554
を設け	-11.1554
通常は	-11.1555
マニア	-11.1555
はまだ	-11.1559
の動き	-11.156
ッパ	-11.156
FE	-11.1561
を離れ	-11.1561
165	-11.1562
美子	-11.1563
Ba	-11.1563
祖母	-11.1564
▁TOKYO	-11.1565
が初めて	-11.1566
最初	-11.1567
モト	-11.1568
この時期	-11.1568
づくり	-11.1569
妻の	-11.157
積み	-11.1571
レーン	-11.1572
uth	-11.1573
回想	-11.1573
るという	-11.1575
▁1932	-11.1577
クラスの	-11.1579
中央部	-11.1581
aka	-11.1581
こちら	-11.1582
として参加	-11.1582
オト	-11.1584
年代後半	-11.1584
最後は	-11.1587
液体	-11.1588
挙げ	-11.1589
鎌倉時代	-11.159
の開催	-11.159
られており	-11.159
を決める	-11.1592
後には	-11.1593
、1977	-11.1593
EE	-11.1594
飼	-11.1595
と対戦	-11.1598
ユニオン	-11.1598
wa	-11.1599
こうして	-11.1599
縄	-11.1604
▁年表	-11.1604
ジア	-11.1604
の写真	-11.1605
事典	-11.1605
明け	-11.1607
パーティ	-11.1608
粘	-11.1609
京王	-11.1609
学名	-11.161
▁Art	-11.161
当番組	-11.1612
の軍人	-11.1612
月下旬	-11.1613
}	-11.1613
仰	-11.1614
騎士団	-11.1617
トール	-11.1617
彫刻	-11.162
詠	-11.162
▁四	-11.1621
専属	-11.1622
国語	-11.1623
軍を	-11.1623
ボロ	-11.1623
ky	-11.1624
正解	-11.1627
透明	-11.1628
率は	-11.163
看板	-11.1632
を抱え	-11.1632
SEX	-11.1632
▁you	-11.1634
ロープ	-11.1634
親族	-11.1634
都市圏	-11.1634
▁前作	-11.1635
描かれている	-11.1635
と思い	-11.1636
編集長	-11.1637
として活躍	-11.1638
チケット	-11.1638
東京都立	-11.1639
▁1931	-11.1641
戦時	-11.1642
SK	-11.1643
、1978	-11.1647
の自由	-11.1647
両国	-11.1648
近衛	-11.1649
ヴォル	-11.165
▁John	-11.1653
の管理	-11.1653
ラヴ	-11.1654
触	-11.1656
フォト	-11.1656
研究員	-11.1657
ドコモ	-11.1659
既存の	-11.1659
に帰	-11.166
と言った	-11.166
上杉	-11.1661
別冊	-11.1663
を開始する	-11.1663
の発展	-11.1664
zz	-11.1665
▁1933	-11.1665
小田原	-11.1666
状に	-11.1667
▁Su	-11.1667
開業した	-11.1668
1958	-11.1671
▁Har	-11.1671
アンドレ	-11.1672
未満	-11.1672
ピアニスト	-11.1676
ルク	-11.1676
á	-11.1677
の技術	-11.1679
際は	-11.1681
現状	-11.1681
氏族	-11.1681
量は	-11.1682
にくい	-11.1682
本当に	-11.1682
県内	-11.1682
変わった	-11.1683
に見	-11.1683
〉)※	-11.1685
、1976	-11.1686
笛	-11.1687
3.5	-11.1687
エクスプレス	-11.1692
稼働	-11.1694
みなみ	-11.1695
懸念	-11.1698
袖	-11.1701
。2000	-11.1702
周囲の	-11.1704
サキ	-11.1704
バイト	-11.1705
野町	-11.1706
▁Ka	-11.1707
に到着	-11.171
成人	-11.171
▁Can	-11.1711
log	-11.1711
高岡	-11.1711
全部	-11.1712
という設定	-11.1714
モンド	-11.1716
3-0	-11.1718
1886	-11.1718
ブン	-11.1718
▁1920	-11.1718
Me	-11.1718
届	-11.1719
ることになった	-11.1719
国籍	-11.172
んじ	-11.1721
.11	-11.1721
野球部	-11.1722
上部	-11.1725
山内	-11.173
終戦	-11.173
の母親	-11.1731
兄の	-11.1732
を装備	-11.1734
大尉	-11.1734
を題材とした作品	-11.1737
van	-11.1739
by	-11.1739
今まで	-11.1741
▁Po	-11.1742
側が	-11.1743
マネー	-11.1746
杜	-11.1746
田原	-11.1748
1912	-11.175
▁オリンピック	-11.1753
捕手	-11.1753
1894	-11.1754
重要文化財	-11.1754
船橋	-11.1755
落下	-11.1756
名の由来	-11.1758
濃度	-11.1758
剣道	-11.1761
ウォン	-11.1764
責任者	-11.1766
釜	-11.1768
名所	-11.1768
郁	-11.1768
▁Ta	-11.177
王女	-11.177
こども	-11.1771
順に	-11.1772
河口	-11.1775
著作権	-11.1776
学位	-11.1778
▁広島県	-11.1779
▁父	-11.178
なのか	-11.178
狩り	-11.1782
最初は	-11.1784
村田	-11.1787
数多く	-11.1787
有料	-11.1788
かける	-11.1789
のタイトル	-11.1789
▁伊	-11.179
普通の	-11.1792
第一次	-11.1792
ガソリン	-11.1795
を図る	-11.1795
王立	-11.1796
CP	-11.1796
帖	-11.1799
おく	-11.1799
クマ	-11.1799
セス	-11.1802
忘れ	-11.1803
エンジェル	-11.1803
を受賞した	-11.1804
New	-11.1806
1961	-11.1807
集会	-11.1808
に必要な	-11.1809
損害	-11.1809
国土	-11.181
GS	-11.181
さわ	-11.1811
台詞	-11.1811
全般	-11.1814
突入	-11.1814
2%	-11.1815
ポケット	-11.1815
タム	-11.1817
歌謡	-11.1819
第二次	-11.182
を迎える	-11.182
高校時代	-11.1821
dia	-11.1822
サイクル	-11.1823
21:00	-11.1826
を買収	-11.183
にあたって	-11.1831
を決めた	-11.1831
ari	-11.1832
滋賀県	-11.1833
分間	-11.1834
アルバイト	-11.1834
が登場	-11.1834
定める	-11.1835
年設立の	-11.1836
日生まれ	-11.1836
1910	-11.1837
NTV	-11.1838
▁be	-11.184
論争	-11.1841
いろ	-11.1842
||0||0||	-11.1843
豚	-11.1843
ire	-11.1844
南方	-11.1848
宮廷	-11.1849
教育委員会	-11.185
AFC	-11.185
奈良県	-11.1851
改築	-11.1852
ホイール	-11.1855
構	-11.1855
キリスト	-11.1855
との間で	-11.1855
関節	-11.1856
かね	-11.1857
Mi	-11.1857
永井	-11.1857
ならびに	-11.1859
初となる	-11.1859
それから	-11.186
視聴	-11.186
日本海	-11.1861
劣	-11.1862
っていたが	-11.1862
日にかけて	-11.1863
鋭	-11.1864
2-1	-11.1864
と共演	-11.1865
dd	-11.1867
支え	-11.1867
倉敷	-11.1867
くて	-11.1869
災	-11.1869
製作所	-11.1869
!!』	-11.187
年までに	-11.1871
テレビジョン	-11.1871
SR	-11.1872
が少ない	-11.1872
黒人	-11.1872
ってしまう	-11.1874
町田	-11.1874
することになる	-11.1874
健一	-11.1876
雌	-11.1877
▁It	-11.1877
を展開	-11.1877
恐竜	-11.1878
ヨーロッパの	-11.1879
おこ	-11.188
併設	-11.1881
直樹	-11.1881
八戸	-11.1883
▁書籍	-11.1883
筆頭	-11.1884
哲也	-11.1884
韓国の	-11.1886
に沿って	-11.1888
組の	-11.1888
、1975	-11.189
が収録されている	-11.189
だけが	-11.189
同時期に	-11.1891
で知られる	-11.1891
ずっと	-11.1892
らなかった	-11.1892
反発	-11.1895
はそれぞれ	-11.1895
いか	-11.1896
大井	-11.1897
反映	-11.1897
1955	-11.1897
に進出	-11.1897
友好	-11.1898
日本に	-11.19
るべき	-11.1902
1892	-11.1902
▁1929	-11.1902
に関わる	-11.1904
時点では	-11.1904
コーン	-11.1907
やはり	-11.1908
尋常小学校	-11.1909
外国語	-11.1909
コンピュータゲーム	-11.1911
古くから	-11.1912
▁One	-11.1913
主役	-11.1913
▁ROCK	-11.1914
されてしまう	-11.1915
▁クラブ	-11.1916
港湾	-11.1916
101	-11.1916
量の	-11.1917
コト	-11.1917
単独で	-11.1917
tes	-11.1918
を立て	-11.1919
討	-11.1921
▁関西	-11.1922
に移動	-11.1922
たことで	-11.1922
田川	-11.1925
戦国	-11.1925
還	-11.1926
メイク	-11.1926
製造された	-11.1926
つけた	-11.1927
と表記	-11.1927
▁ゲスト	-11.1929
語る	-11.1929
候補者	-11.193
NEWS	-11.193
麺	-11.1931
▁特徴	-11.1931
開かれた	-11.1931
は全く	-11.1934
演説	-11.1934
ておらず	-11.1934
停留場	-11.1934
殺された	-11.1935
っ子	-11.1938
1.0	-11.1939
ラテン語	-11.194
ちょ	-11.1942
幼児	-11.1943
パール	-11.1943
1959	-11.1943
しゅ	-11.1943
メロディ	-11.1944
種族	-11.1945
の運営	-11.1945
藩の	-11.1946
は同じ	-11.1948
、1972	-11.1949
ii	-11.195
ヶ谷	-11.1952
愛媛県	-11.1956
覆	-11.1956
カントリー	-11.1958
カレ	-11.1959
▁韓国の	-11.1959
新作	-11.1962
ふたり	-11.1965
移行	-11.1965
con	-11.1965
▁BEST	-11.1966
力学	-11.1966
楼	-11.1968
▁現代	-11.197
amp	-11.197
定理	-11.1971
いなかった	-11.1973
八重	-11.1973
を呼び	-11.1973
みられる	-11.1973
の立場	-11.1976
視点	-11.1977
珍しい	-11.1977
曲を	-11.1977
1872	-11.1978
続編	-11.198
普通科	-11.1981
品質	-11.1982
を流れる	-11.1983
PH	-11.1984
無く	-11.1984
ボルト	-11.1987
▁家族	-11.1989
TM	-11.199
まき	-11.1991
{	-11.1992
ハリウッド	-11.1992
ようである	-11.1995
に成功した	-11.1998
加茂	-11.1998
敗戦	-11.1999
する形で	-11.2
トライ	-11.2001
と呼び	-11.2002
船団	-11.2002
▁1927	-11.2002
△	-11.2003
4%	-11.2004
五十	-11.2007
をきっかけに	-11.2008
ツキ	-11.2009
1873	-11.201
と同様の	-11.2011
一般社団法人	-11.2011
9%	-11.2013
ことができない	-11.2014
甥	-11.2018
提示	-11.2018
ウルフ	-11.202
エビ	-11.202
ものもある	-11.2022
パレード	-11.2022
建国	-11.2023
喪失	-11.2023
ama	-11.2023
ポジション	-11.2024
bg	-11.2025
ッグ	-11.2025
ッコ	-11.2026
を見せる	-11.2026
1-2	-11.2026
か所	-11.2028
しつつ	-11.2029
小笠原	-11.2029
ペリ	-11.2031
済み	-11.2033
OB	-11.2033
シンボル	-11.2033
医科大学	-11.2033
墜落	-11.2034
囲碁	-11.2034
ペース	-11.2034
トゥス	-11.2034
検証	-11.2035
1956	-11.2035
ことによって	-11.2035
単語	-11.2036
ブルガリア	-11.2038
欧米	-11.2039
正しい	-11.204
栃木	-11.204
弘前	-11.2042
tri	-11.2043
芸能人	-11.2043
を作った	-11.2044
リナ	-11.2044
に似た	-11.2045
但し	-11.2045
を起こした	-11.2046
長年	-11.2047
の大部分	-11.2049
モーニング	-11.205
工藤	-11.205
次々と	-11.2055
TU	-11.2055
っか	-11.2056
ey	-11.2057
▁初代	-11.2057
有力	-11.2058
兆	-11.2059
▁上記	-11.2059
年の日本	-11.206
を投げ	-11.2061
GN	-11.2061
1871	-11.2062
メラ	-11.2062
プリンス	-11.2063
介入	-11.2064
の一員	-11.2065
ぼく	-11.2065
夫の	-11.2066
世に	-11.2066
sta	-11.2067
勧め	-11.2069
梅田	-11.2069
MT	-11.207
徳島県	-11.207
松岡	-11.207
の状態	-11.2073
広瀬	-11.2074
タイアップ	-11.2074
ベス	-11.2074
引っ	-11.2075
返す	-11.2077
ven	-11.2077
府中	-11.2077
なみ	-11.208
現れ	-11.208
▁Official	-11.208
運河	-11.2081
尾崎	-11.2082
次男	-11.2082
▁Bar	-11.2082
とは別	-11.2083
タク	-11.2083
小路	-11.2085
むしろ	-11.2086
int	-11.2086
年開業の鉄道駅	-11.2088
内蔵	-11.2088
示す	-11.209
捉え	-11.209
セッション	-11.2091
出た	-11.2093
可能である	-11.2094
ッセ	-11.2096
の裏	-11.2096
8%	-11.2096
1880	-11.2097
リヤ	-11.2099
離れ	-11.2099
CLUB	-11.2103
酸素	-11.2104
卒業生	-11.2106
十六	-11.2106
uk	-11.2109
漫才	-11.2111
▁熊本県	-11.2112
▁ISO	-11.2113
あや	-11.2113
南区	-11.2114
功労	-11.2115
巨乳	-11.2115
HI	-11.2119
学院大学	-11.2119
それまでの	-11.2121
科の	-11.2121
▁佐々木	-11.2122
変化する	-11.2123
継ぎ	-11.2123
毎月	-11.2124
潔	-11.2126
ギリシア	-11.2127
ブックス	-11.2128
ara	-11.2131
tion	-11.2132
棋士	-11.2132
部分は	-11.2132
バグ	-11.2134
はあまり	-11.2135
の指導	-11.2136
が存在し	-11.2136
診療	-11.2137
さら	-11.214
吐	-11.2141
出土	-11.2141
ふるさと	-11.2142
ところで	-11.2142
幡	-11.2142
いわ	-11.2144
洪水	-11.2145
抜	-11.2146
最高の	-11.215
ことはない	-11.2151
廻	-11.2153
1887	-11.2154
乗員	-11.2155
姿を	-11.2156
クレイ	-11.2157
尿	-11.2157
を訪れ	-11.2157
ock	-11.2158
といい	-11.2159
ning	-11.216
シャツ	-11.2161
齢	-11.2166
NG	-11.2166
浄	-11.2166
鳥羽	-11.2167
緩和	-11.2167
司令	-11.2169
Br	-11.2169
敵の	-11.217
ノア	-11.2171
創建	-11.2171
MB	-11.2172
検事	-11.2173
内藤	-11.2173
の構造	-11.2174
リメイク	-11.2174
理由は	-11.2174
服部	-11.2175
if	-11.2176
正式な	-11.2176
氏は	-11.2177
ハッピー	-11.2177
すみ	-11.2178
の詩	-11.218
終わる	-11.218
相続	-11.2184
出生	-11.2185
(1966	-11.2186
学問	-11.2186
つもり	-11.2187
が発生した	-11.2188
逃	-11.2188
モント	-11.2189
要望	-11.219
工房	-11.2192
安倍	-11.2192
秋山	-11.2194
化され	-11.2194
単純	-11.2196
に勤務	-11.2196
学ぶ	-11.2197
番台	-11.2197
タラ	-11.2198
前面	-11.2198
太鼓	-11.2201
脈	-11.2202
固め	-11.2205
系図	-11.2206
昇進	-11.2207
性的	-11.2207
OM	-11.2207
朴	-11.2208
中でも	-11.2211
であることから	-11.2211
シナ	-11.2212
人口は	-11.2212
初版	-11.2214
クン	-11.2214
出る	-11.2215
その時	-11.2215
戦後の	-11.2216
、1973	-11.2218
込まれた	-11.2219
姫路	-11.2219
訓	-11.222
中央区	-11.222
熱帯	-11.2221
。2003	-11.2221
LL	-11.2221
法案	-11.2223
実際	-11.2224
敵対	-11.2225
▁企画	-11.2228
日テレ	-11.2228
易	-11.223
売り上げ	-11.223
福寺	-11.2231
の両方	-11.2231
一時期	-11.2231
働く	-11.2231
ツイン	-11.2234
撮影所	-11.2235
二代目	-11.2236
補佐	-11.2236
Jo	-11.2236
複雑な	-11.2237
ワード	-11.2237
慕	-11.2238
6%	-11.2238
メリ	-11.2245
阿波	-11.2245
勉	-11.2246
ミヤ	-11.2247
指令	-11.225
丹波	-11.225
母の	-11.225
達が	-11.2251
fr	-11.2251
ようやく	-11.2252
行使	-11.2254
の時点で	-11.2254
ハーン	-11.2261
追跡	-11.2261
悲	-11.2262
に敗れた	-11.2262
▁York	-11.2263
線と	-11.2263
隅	-11.2266
表題曲	-11.2267
札幌市	-11.2267
手に	-11.2268
1915	-11.2269
中退	-11.227
shi	-11.2271
麻雀	-11.2271
を考える	-11.2273
貢	-11.2274
消滅した	-11.2274
和解	-11.2275
ov	-11.2275
いけ	-11.2275
シマ	-11.2275
オラ	-11.2276
滅亡	-11.2278
レポート	-11.2278
受け入れ	-11.2279
去	-11.2281
に改名	-11.2281
付いた	-11.2281
何らかの	-11.2282
秋田県	-11.2283
-11	-11.2283
機関銃	-11.2284
付けられた	-11.2284
福岡市	-11.2284
渕	-11.2286
国内で	-11.2288
近くに	-11.2288
を通過	-11.2289
1911	-11.2292
陶	-11.2293
景観	-11.2293
軌	-11.2293
を扱う	-11.2293
倫	-11.2293
たれ	-11.2295
従軍	-11.2295
ものとして	-11.2295
キット	-11.2297
BL	-11.2297
ざる	-11.2298
Mo	-11.2298
国立公園	-11.2302
絆	-11.2302
任意の	-11.2302
体力	-11.2303
を寄せ	-11.2304
況	-11.2304
言われ	-11.2305
債務	-11.2306
生没年不詳	-11.2306
もいる	-11.2306
無効	-11.2306
山町	-11.2307
曽	-11.2308
グレート	-11.2309
重賞	-11.2311
法令	-11.2311
以外にも	-11.2313
こととなる	-11.2314
ラッ	-11.2314
ever	-11.2315
誰も	-11.2317
は他の	-11.2318
エリック	-11.2319
終わり	-11.2321
信用	-11.2323
AGE	-11.2323
黙	-11.2325
▁鹿児島県	-11.2326
会う	-11.2327
フラワー	-11.2327
▁現在の	-11.2327
法学	-11.2328
BR	-11.2329
が発生する	-11.2329
に敗れ	-11.2329
付けた	-11.233
AA	-11.2331
に乗って	-11.2332
前回	-11.2333
の文化	-11.2334
ことが多く	-11.2334
競技場	-11.2335
日深夜	-11.2336
中田	-11.2337
谷口	-11.2338
1868	-11.2338
曲目	-11.2338
▁交通アクセス	-11.2338
務め	-11.234
胃	-11.2341
クリーム	-11.2342
ドイツ軍	-11.2343
界の	-11.2344
も可能	-11.2344
彫	-11.2345
原料	-11.2346
が出る	-11.2346
ハマ	-11.2347
を達成した	-11.2349
▁Disc	-11.2349
排除	-11.235
PP	-11.2351
ウィリアムズ	-11.2352
メニュー	-11.2352
オリンピックの	-11.2354
闘争	-11.2355
1891	-11.2356
意味で	-11.2357
中には	-11.2358
168	-11.2358
(1960	-11.2359
に代わって	-11.2359
コック	-11.2359
▁愛媛県	-11.2362
アタック	-11.2363
北野	-11.2363
態	-11.2365
記述する	-11.2365
研究室	-11.2365
必	-11.2368
科目	-11.2368
していなかった	-11.237
もち	-11.2371
付近に	-11.2371
概	-11.2373
ous	-11.2374
ヒトラー	-11.2374
、1974	-11.2375
イスラム	-11.2377
医療機関	-11.2378
野生	-11.2379
召	-11.2379
フォール	-11.2379
しりつ	-11.238
照明	-11.2381
潰	-11.2381
折り	-11.2382
改題	-11.2383
駐屯地	-11.2384
OH	-11.2385
閲覧	-11.2385
障害者	-11.2387
作品である	-11.239
の部屋	-11.239
▁El	-11.2391
が中心	-11.2392
ウェールズ	-11.2393
▁1926	-11.2394
100%	-11.2395
ボーイズ	-11.2396
帽子	-11.2398
▁Tour	-11.24
校歌	-11.24
互	-11.2401
に所在	-11.2403
との戦い	-11.2403
YO	-11.2403
orn	-11.2404
感染症	-11.2404
萌	-11.2405
騎乗	-11.2405
中原	-11.2406
太夫	-11.2407
果実	-11.2409
AAA	-11.2411
内には	-11.2413
▁presents	-11.2413
▁Girl	-11.2413
らく	-11.2414
年代には	-11.2414
産地	-11.2415
報酬	-11.2417
MVP	-11.2417
本郷	-11.2421
参考	-11.2421
繋	-11.2421
配下	-11.2421
ポンド	-11.2421
3||	-11.2422
基金	-11.2424
リボン	-11.2425
主義者	-11.2426
ound	-11.2427
結晶	-11.2427
代表として	-11.2427
親友	-11.2427
鴨	-11.2427
生息	-11.2428
でもあり	-11.2428
津軽	-11.2431
この地域	-11.2432
▁東映	-11.2434
ユリ	-11.2436
▁生年不明	-11.2437
大石	-11.244
Apple	-11.244
たという	-11.244
役の	-11.2441
りする	-11.2444
フィラデルフィア	-11.2445
含む	-11.2446
に存在した	-11.2447
の多い	-11.2448
角川	-11.2449
インドの	-11.2451
ユーロ	-11.2454
統制	-11.2455
貧	-11.2456
ドライ	-11.2457
Ed	-11.2459
川島	-11.2459
チョン	-11.2459
の愛称	-11.2462
シエ	-11.2463
NC	-11.2464
駅で	-11.2465
する必要がある	-11.2465
の代わりに	-11.2466
上司	-11.2466
初出	-11.2467
場合に	-11.2468
喜多	-11.2469
認め	-11.247
中佐	-11.2477
るもの	-11.2478
日米	-11.2479
yo	-11.248
1949	-11.2481
哨戒	-11.2481
廉	-11.2481
度に	-11.2481
始まる	-11.2482
成立した	-11.2482
目撃	-11.2482
直後の	-11.2486
159	-11.2486
移管	-11.2488
▁フジテレビ	-11.2488
伝えられ	-11.2489
クロアチア	-11.2489
ile	-11.249
erry	-11.2495
▁1923	-11.2496
階建て	-11.2496
特別な	-11.2497
外務省	-11.2497
ジェリー	-11.2497
後継者	-11.2498
の評価	-11.25
に指定されている	-11.25
文藝春秋	-11.2501
娘の	-11.2502
クライ	-11.2502
コミ	-11.2503
▁‐	-11.2505
決勝戦	-11.2505
マルク	-11.2505
安全保障	-11.2505
復元	-11.2508
ā	-11.2509
位となった	-11.2509
していること	-11.251
▁Star	-11.2511
が進められ	-11.2512
に昇進	-11.2513
ナポレオン	-11.2513
融	-11.2516
争	-11.2517
к	-11.2517
すこと	-11.2519
この間	-11.2519
阻止	-11.252
▁隣の駅	-11.2522
ことや	-11.2522
都合	-11.2522
番線	-11.2522
を理由に	-11.2522
ニューヨーク市	-11.2523
年までは	-11.2524
北村	-11.2525
抽選	-11.2525
視覚	-11.2527
宇治	-11.2528
を学ぶ	-11.2528
に行った	-11.2528
検出	-11.2528
巴	-11.2529
▁第二	-11.2532
畳	-11.2533
葛	-11.2533
に渡り	-11.2538
密度	-11.2541
内側	-11.2542
矢野	-11.2543
最高位	-11.2543
する際に	-11.2544
枚の	-11.2546
HC	-11.2547
コイ	-11.2548
下流	-11.2549
三条	-11.255
、1971	-11.255
を継続	-11.2551
知り	-11.2551
と結婚した	-11.2552
嘘	-11.2552
ワース	-11.2552
リュウ	-11.2552
が始まり	-11.2553
キッド	-11.2553
南極	-11.2553
褐色	-11.2554
CBC	-11.2557
活発	-11.2557
気が	-11.2558
▁Da	-11.2559
アミ	-11.2561
トレード	-11.2561
マウント	-11.2561
役者	-11.2562
スクリーン	-11.2564
お笑い	-11.2565
気筒	-11.2565
ology	-11.2566
テクノロジー	-11.2566
フジテレビ系	-11.2567
抗争	-11.2567
まれた	-11.2568
リップ	-11.2569
アパート	-11.2569
大好き	-11.2569
電化	-11.2569
を掛け	-11.2569
の整備	-11.2572
党の	-11.2572
通勤	-11.2572
身分	-11.2572
育て	-11.2574
延伸	-11.2576
っぽ	-11.2578
▁1925	-11.2579
考え方	-11.258
yn	-11.258
ins	-11.2581
▁Dr	-11.2581
しているため	-11.2581
1875	-11.2581
WOWOW	-11.2582
辞職	-11.2583
ラッシュ	-11.2585
両方	-11.2585
婦	-11.2585
企業の	-11.2585
酔	-11.2586
チル	-11.2587
外科	-11.2587
チェロ	-11.2587
の距離	-11.2588
af	-11.2588
保全	-11.2589
武蔵野	-11.2589
とおり	-11.259
1-1	-11.2592
死後	-11.2592
加速	-11.2593
わい	-11.2596
▁ME	-11.2598
みんな	-11.2598
org	-11.2599
のとき	-11.26
鮮	-11.26
夢の	-11.2601
置いて	-11.2602
バルト	-11.2602
飾り	-11.2604
んです	-11.2604
ビジョン	-11.2605
煮	-11.2606
千歳	-11.2606
デヴィッド	-11.2606
▁まさ	-11.2608
ならない	-11.2609
場所で	-11.261
磐	-11.261
教科書	-11.2612
ライド	-11.2613
戦績	-11.2614
倭	-11.2614
方程式	-11.2614
土屋	-11.2616
冬の	-11.2617
ことである	-11.2618
茨城	-11.2625
回日本	-11.2626
牧野	-11.2626
の様子	-11.263
▁徳島県	-11.263
リース	-11.2631
と思う	-11.2633
ある程度	-11.2634
けど	-11.2634
相馬	-11.2634
高架	-11.2635
▁関東	-11.2638
止ま	-11.2639
日本語版	-11.264
バスター	-11.264
ーヌ	-11.2641
結成された	-11.2642
Be	-11.2643
エコ	-11.2648
に移管	-11.2649
想定	-11.2649
自分を	-11.2651
遼	-11.2651
リーガ	-11.2651
ふる	-11.2651
週末	-11.2652
TB	-11.2652
好み	-11.2653
の強い	-11.2653
実際は	-11.2654
ling	-11.2654
サウルス	-11.2655
顎	-11.2655
訪	-11.2657
本作は	-11.2658
用品	-11.2659
返還	-11.2659
▁木村	-11.2661
石川県	-11.2661
並びに	-11.2663
崩	-11.2663
杉山	-11.2664
任期	-11.2664
が大きい	-11.2664
砂漠	-11.2667
マック	-11.2668
スパー	-11.2669
します	-11.267
行方不明	-11.2671
ソラ	-11.2671
纏	-11.2671
以上に	-11.2672
アト	-11.2672
が描かれている	-11.2672
オーディオ	-11.2673
が増え	-11.2674
を挙げ	-11.2674
山頂	-11.2675
ゴースト	-11.2677
▁札幌	-11.2677
精霊	-11.2678
ラボ	-11.2681
美容	-11.2681
こんな	-11.2683
を持たない	-11.2684
▁Is	-11.2684
ドリー	-11.2685
ACK	-11.2686
ニル	-11.2686
ジング	-11.2687
169	-11.2687
わせ	-11.2689
古河	-11.269
日光	-11.269
TT	-11.269
夏季	-11.2691
を使用している	-11.2692
生え	-11.2694
7%	-11.2695
挨拶	-11.2696
取り組み	-11.2696
クタ	-11.2697
ヘリ	-11.2697
PU	-11.2698
▁台湾	-11.2699
続き	-11.2699
溶	-11.2699
列車が	-11.2702
ユウ	-11.2702
Si	-11.2703
!!(	-11.2705
を誇る	-11.2706
対空	-11.2706
▁青森県	-11.2706
伝説の	-11.2706
トゥル	-11.2707
▁CH	-11.2708
正体	-11.2708
EU	-11.271
が発表され	-11.2712
建築物	-11.2712
用いられ	-11.2713
相模	-11.2713
yl	-11.2717
ストップ	-11.2717
北九州	-11.2719
始まった	-11.2721
オウ	-11.2721
シラ	-11.2721
の交通	-11.2722
ゾー	-11.2722
外側	-11.2723
ヴィルヘルム	-11.2725
をつけ	-11.2727
ていたため	-11.273
バレ	-11.2731
へ移籍	-11.2733
に引き	-11.2733
ピク	-11.2733
時刻	-11.2735
れて	-11.2735
大介	-11.2736
シャルル	-11.2736
作画監督	-11.2736
に移り	-11.2737
親王	-11.2738
リレー	-11.2738
法第	-11.274
せた	-11.274
グレン	-11.2742
判明	-11.2743
ノミネート	-11.2746
和歌山県	-11.2746
▁行政	-11.2746
山梨	-11.2747
恒星	-11.2749
財団法人	-11.2749
tra	-11.2749
牧師	-11.275
周期	-11.275
基本的な	-11.2751
浴び	-11.2751
人員	-11.2752
ae	-11.2754
次のように	-11.2757
という名前	-11.2757
▁出演者	-11.2759
回衆議院議員総選挙	-11.2759
出撃	-11.2766
西区	-11.2767
プロ野球選手	-11.2768
▁As	-11.2769
革	-11.2769
の主要	-11.277
法務	-11.2771
起動	-11.2772
を獲得し	-11.2775
メンバーの	-11.2778
▁中国の	-11.2778
客車	-11.2778
早期	-11.2779
IX	-11.278
の子孫	-11.278
に追い	-11.2783
gg	-11.2784
愛称は	-11.2784
ンド	-11.2785
ミスター	-11.2785
詐欺	-11.2787
逮捕された	-11.2787
ベンチ	-11.2788
版は	-11.2788
und	-11.2792
せつ	-11.2792
セーブ	-11.2793
村山	-11.2794
山形県	-11.2795
秩父	-11.2795
のテーマ	-11.2797
!〜	-11.2797
ギャル	-11.2801
省略	-11.2802
オフィシャル	-11.2802
▁宮崎	-11.2802
1885	-11.2803
▁Vi	-11.2804
部分が	-11.2805
リーズ	-11.2806
残る	-11.2806
アニメ版	-11.2807
を紹介する	-11.2807
1・2	-11.2807
でありながら	-11.2809
警官	-11.281
教団	-11.2811
1954	-11.2812
tle	-11.2814
加えて	-11.2816
魔法の	-11.2816
モハ	-11.2817
自分たち	-11.2818
の夢	-11.2819
技師	-11.282
▁Records	-11.282
東区	-11.282
採用された	-11.2822
コイン	-11.2822
シュート	-11.2822
サクラ	-11.2822
ep	-11.2824
進歩	-11.2824
終盤	-11.2826
る事	-11.2827
コーポレーション	-11.2828
の際には	-11.283
航空会社	-11.283
1908	-11.2834
Hi	-11.2836
これまでの	-11.2836
町駅	-11.2838
▁1924	-11.2839
のカバー	-11.2844
転生	-11.2846
えり	-11.2846
隣接	-11.2848
の最終	-11.2851
をかけて	-11.2852
を開始し	-11.2853
原案	-11.2853
NT	-11.2855
ano	-11.2855
信者	-11.2857
審判	-11.2857
出され	-11.2858
パロディ	-11.2858
安芸	-11.2859
が現れ	-11.2859
将校	-11.286
反射	-11.286
ash	-11.2862
偵察	-11.2862
ism	-11.2863
ロット	-11.2864
甲府	-11.2866
空手	-11.2866
1957	-11.2868
大気	-11.2873
のみである	-11.2874
LY	-11.2875
人材	-11.2875
ブース	-11.2877
退役	-11.2877
芸術家	-11.2877
〒	-11.2878
序盤	-11.2879
歌い	-11.2879
朋	-11.2879
示唆	-11.2881
社会人	-11.2881
協議	-11.2882
併用	-11.2883
並み	-11.2884
つる	-11.2885
カッ	-11.2885
最後まで	-11.2886
物資	-11.2886
西田	-11.2886
バット	-11.2887
八郎	-11.2887
2,000	-11.2888
グリー	-11.2889
難しい	-11.2891
毛利	-11.2891
独特の	-11.2892
iss	-11.2893
内科	-11.2896
ライフル	-11.2896
箱根	-11.2899
ザール	-11.2899
...」	-11.29
哀	-11.2903
▁NO	-11.2904
、1969	-11.2904
ノキ	-11.2904
等を	-11.2908
徐	-11.2908
然と	-11.2909
を歴任	-11.2911
批評家	-11.2911
グラー	-11.2914
股	-11.2915
終結	-11.2916
釈	-11.2916
IBM	-11.2916
Open	-11.2916
一宮	-11.2917
を使用して	-11.2917
請	-11.2918
催	-11.2919
の企画	-11.2919
ドキュメンタリー	-11.292
碧	-11.292
ドラえもん	-11.292
廃駅	-11.2921
量産	-11.2921
蹴	-11.2922
貸し	-11.2923
高速バス	-11.2924
に本社を置く	-11.2924
FT	-11.2925
見た目	-11.2925
牽引	-11.2927
をもとに	-11.2928
提唱	-11.2928
のファン	-11.2929
、1968	-11.2929
を掲げ	-11.293
大変	-11.2932
国内の	-11.2933
キラ	-11.2933
儀式	-11.2934
の権利	-11.2934
を続け	-11.2935
しなければならない	-11.2935
濱	-11.2935
1884	-11.2936
アルファ	-11.2937
フロー	-11.2937
タイガー	-11.2937
次は	-11.2938
▁石川	-11.2938
していたため	-11.2938
人妻	-11.2939
絹	-11.2941
で生まれた	-11.2943
▁*	-11.2943
バルセロナ	-11.2945
自由に	-11.2946
ッチャー	-11.2948
民俗	-11.2948
こい	-11.295
楽天	-11.2952
代表作	-11.2952
置き換え	-11.2953
せない	-11.2953
アナウンス	-11.2954
1888	-11.2954
mas	-11.2955
使用した	-11.2955
商標	-11.2955
死に	-11.2956
子爵	-11.2957
に用いられる	-11.2958
住所	-11.2958
を提供	-11.2958
ランダム	-11.2958
Fe	-11.2959
Super	-11.2959
機能を	-11.296
戦った	-11.2961
Don	-11.2961
崖	-11.2962
ニカ	-11.2962
ジーン	-11.2964
が挙げられる	-11.2965
テキスト	-11.2971
エッセイ	-11.2971
疑い	-11.2971
Con	-11.2971
の記憶	-11.2974
複	-11.2974
君主	-11.2975
住友	-11.2975
参入	-11.2975
ef	-11.2976
符号	-11.2976
学長	-11.2979
述べている	-11.298
mar	-11.298
の長さ	-11.2981
対処	-11.2982
リトアニア	-11.2983
扱	-11.2983
口径	-11.2983
コレ	-11.2983
Li	-11.2984
を挙げた	-11.2988
Go	-11.2989
尾張	-11.2989
衰退	-11.2992
選ばれた	-11.2992
シニア	-11.2992
二人の	-11.2992
1907	-11.2993
▁←	-11.2995
失点	-11.2996
水産	-11.2997
くじ	-11.2998
を採用した	-11.2999
挿入	-11.2999
デュー	-11.3
工芸	-11.3002
エンターテイメント	-11.3004
センチメートル	-11.3005
主人	-11.3005
アワード	-11.3006
プライ	-11.3008
切った	-11.3009
ライス	-11.301
の制作	-11.3013
部族	-11.3015
日本代表選手	-11.3015
共和党	-11.3015
さが	-11.3015
国外	-11.3016
。2002	-11.3019
タナ	-11.302
位置づけ	-11.3021
カロ	-11.3022
JO	-11.3023
下位	-11.3027
着工	-11.3027
人種	-11.3029
星人	-11.303
ことになり	-11.303
のちの	-11.303
福井県	-11.3031
Te	-11.3032
ILL	-11.3034
(1965	-11.3034
根本	-11.3034
寄せ	-11.3035
出品	-11.3035
▁Pe	-11.3035
徴	-11.3037
ニューヨーク州	-11.3038
アトランタ	-11.3038
▁長崎県	-11.3039
▁ディスコグラフィ	-11.304
(1961	-11.3042
突撃	-11.3042
MHz	-11.3042
uc	-11.3043
細菌	-11.3044
飛鳥	-11.3051
残りの	-11.3052
でデビュー	-11.3053
所有者	-11.3054
▁GO	-11.3054
爆撃	-11.3055
稔	-11.3055
メリー	-11.3056
鉱物	-11.3056
以内	-11.3057
EST	-11.3057
という名称	-11.3059
﨑	-11.3059
抄	-11.3059
走る	-11.3062
救援	-11.3062
AND	-11.3063
協同組合	-11.3063
▁1922	-11.3063
プリン	-11.3066
の次男	-11.3067
幼馴染	-11.3068
商業施設	-11.307
代わり	-11.3072
学び	-11.3072
が入る	-11.3073
行い	-11.3074
を通る	-11.3075
謝	-11.3076
爾	-11.3076
を切り	-11.3078
王位	-11.308
高島	-11.308
セキュリティ	-11.3081
LS	-11.3082
ミラ	-11.3082
影響力	-11.3082
モデルは	-11.3085
を見せた	-11.3086
はほぼ	-11.3089
てから	-11.3089
思考	-11.3089
タキ	-11.3089
慈	-11.309
魚雷	-11.309
由紀	-11.3091
大公	-11.3092
の増加	-11.3093
付く	-11.3093
血液	-11.3094
日経	-11.3095
▁Air	-11.3097
下記の	-11.3098
に立つ	-11.3098
かけた	-11.3099
しかった	-11.31
したところ	-11.3101
決して	-11.3101
落選	-11.3102
消費者	-11.3105
LINE	-11.3105
解雇	-11.3107
は再び	-11.3107
荒木	-11.3108
最上	-11.3109
br	-11.3111
左翼	-11.3111
発信	-11.3112
ラート	-11.3113
サイバー	-11.3114
白人	-11.3117
FL	-11.3119
USS	-11.312
さく	-11.3121
▁1.	-11.3122
以	-11.3122
広がる	-11.3123
消防署	-11.3123
ミツ	-11.3124
存在していた	-11.3126
ain	-11.3127
販	-11.3128
あれ	-11.3128
トリック	-11.3128
ーレ	-11.3129
潜入	-11.313
-25	-11.3131
ark	-11.3131
クション	-11.3132
いな	-11.3132
地中海	-11.3133
椿	-11.3136
ビート	-11.3136
拳銃	-11.3138
を立ち上げ	-11.3139
既	-11.3139
▁岩手県	-11.3142
手続き	-11.3142
国会議員	-11.3142
ものに	-11.3142
天井	-11.3143
偉	-11.3145
に設置された	-11.3146
一日	-11.3146
エンターテインメント	-11.3146
しかない	-11.3147
とも呼ばれ	-11.3149
変更された	-11.3152
KBS	-11.3153
灘	-11.3153
ics	-11.3154
群馬	-11.3154
和子	-11.3156
大蔵	-11.3157
白鳥	-11.3158
工科大学	-11.3159
中盤	-11.3161
源氏	-11.3164
番目に	-11.3164
悩	-11.3165
人組	-11.3166
描いた	-11.3166
日本語吹替	-11.3167
▁du	-11.3169
本格	-11.317
砲兵	-11.317
結果として	-11.3171
分散	-11.3174
菅原	-11.3175
幻想	-11.3175
ブルック	-11.3176
勅	-11.3178
名前が	-11.3178
157	-11.3179
に挑戦	-11.3183
パラダイス	-11.3183
丘陵	-11.3185
学専攻	-11.3186
実施された	-11.3187
塊	-11.3188
NE	-11.3188
とく	-11.3188
ZERO	-11.3188
足を	-11.3189
ジョイ	-11.319
▁Gre	-11.3191
まったく	-11.3192
ポスター	-11.3197
妖精	-11.3198
▁Per	-11.3199
長女	-11.3199
を占める	-11.3201
▁Inc	-11.3202
に出る	-11.3203
使用されていた	-11.3204
」(『	-11.3207
ゥ	-11.3207
にそれぞれ	-11.3209
長らく	-11.3211
年目の	-11.3211
かかった	-11.3211
越後	-11.3211
号車	-11.3212
▁劇場版	-11.3212
疎	-11.3212
消え	-11.3215
降下	-11.3216
十八	-11.3217
告知	-11.3219
傍	-11.322
ダラ	-11.3221
その中で	-11.3223
炎の	-11.3225
Cl	-11.3225
β	-11.3227
順次	-11.3227
優勝した	-11.3227
)...	-11.323
認められ	-11.323
峯	-11.3231
この場合	-11.3233
無事	-11.3233
カート	-11.3233
年設置の	-11.3234
宴	-11.3234
増大	-11.3234
城主	-11.3236
最小	-11.3238
元禄	-11.3238
▁秋田県	-11.3239
読書	-11.3239
ベール	-11.3239
全国大会	-11.324
発生する	-11.324
1878	-11.324
del	-11.3244
なって	-11.3245
仮名	-11.3245
出演している	-11.3247
mit	-11.3247
▁⇒	-11.3248
足利	-11.3248
演習	-11.3249
ev	-11.3249
経済的	-11.3251
▁Gu	-11.3251
河合	-11.3251
vs	-11.3252
因子	-11.3253
オロ	-11.3255
世紀末	-11.3256
の基本	-11.3258
東京都出身	-11.3259
テレビ局	-11.3259
(1964	-11.326
社会学	-11.326
を求めた	-11.326
の称号	-11.3261
交番	-11.3262
使用され	-11.3264
ウェア	-11.3265
アプローチ	-11.3265
を見つけ	-11.3265
言動	-11.3266
無人	-11.3267
プログラミング	-11.3269
西方	-11.327
л	-11.327
が原因で	-11.3271
登場し	-11.3273
すと	-11.3274
わかる	-11.3274
鄭	-11.3274
うまく	-11.3275
見られた	-11.3276
ROM	-11.3276
チェス	-11.3277
ame	-11.3277
同作	-11.3279
農家	-11.3279
はん	-11.328
詩集	-11.328
同行	-11.3281
旗本	-11.3282
合わせて	-11.3282
杖	-11.3283
素人	-11.3284
石橋	-11.3284
▁主人公	-11.3285
公布	-11.3285
標本	-11.3286
ガメ	-11.3288
を追い	-11.3288
ita	-11.3289
総務	-11.329
▁第二次世界大戦	-11.329
暗黒	-11.329
エージェント	-11.3292
ていること	-11.3292
ムン	-11.3293
リッチ	-11.3294
燃	-11.3295
キッ	-11.3296
玩具	-11.3296
TD	-11.3297
AF	-11.3298
各地の	-11.33
このほか	-11.3302
単発	-11.3303
を残した	-11.3304
を終了	-11.3304
アシスト	-11.3306
で初	-11.3309
種牡馬	-11.331
教会の	-11.331
155	-11.331
Bo	-11.3311
神殿	-11.3311
シールド	-11.3312
アクア	-11.3312
がよく	-11.3313
с	-11.3313
CV	-11.3314
羽田	-11.3315
取られ	-11.3316
ストレート	-11.3317
臭	-11.3318
漆	-11.3318
笑顔	-11.332
各地	-11.3322
批評	-11.3323
▁受賞	-11.3323
-21	-11.3323
セリエ	-11.3323
▁pp	-11.3324
アメリカ人	-11.3326
のリーダー	-11.3327
遠く	-11.3327
の境界	-11.3328
急速に	-11.3332
傘下の	-11.3333
イヤ	-11.3333
側から	-11.3335
所属者	-11.3335
マルクス	-11.3336
技能	-11.3339
▁本社	-11.3343
▁Sw	-11.3344
▁Blue	-11.3345
大原	-11.3345
停車場線	-11.3345
クラフト	-11.3345
fe	-11.3345
▁山口県	-11.3347
ーブ	-11.3348
out	-11.3348
マドリード	-11.3349
投与	-11.335
わが	-11.3351
筋肉	-11.3351
▁駅構造	-11.3351
ise	-11.3352
サッカークラブ	-11.3354
川越	-11.3354
司教	-11.3354
プレミア	-11.3355
明るい	-11.3357
艦艇	-11.3357
に参戦	-11.336
年目	-11.3361
枚目	-11.3362
オイル	-11.3364
時期に	-11.3364
の支配	-11.3365
利用できる	-11.3366
vel	-11.3367
農村	-11.3368
らせる	-11.337
淫	-11.337
イラストレーター	-11.3371
ウイ	-11.3374
兼任	-11.3374
平成元年	-11.3374
譚	-11.3375
Vocal	-11.3375
攻撃を	-11.3376
ギャグ	-11.3377
▁System	-11.3379
玲	-11.3379
を失い	-11.3379
評判	-11.338
ヘア	-11.3381
返り	-11.3383
の間の	-11.3383
mic	-11.3384
してくる	-11.3385
放送される	-11.3386
エッ	-11.3387
王妃	-11.3388
レフ	-11.3388
会い	-11.3388
ラト	-11.3388
フェニックス	-11.3389
首都圏	-11.3389
メジャーデビュー	-11.3391
(1963	-11.3392
の主題歌	-11.3392
三宅	-11.3393
危険な	-11.3394
wi	-11.3398
Cr	-11.3398
もも	-11.3398
とはいえ	-11.3401
出場した	-11.3401
当初から	-11.3401
無い	-11.3401
ナイター	-11.3401
規模の	-11.3402
種子	-11.3404
リブ	-11.3405
▁宮城県	-11.3405
巳	-11.3405
俳句	-11.3406
かせ	-11.3406
サーキット	-11.3408
tre	-11.3408
ビュ	-11.3409
撃墜	-11.341
學	-11.341
の紹介	-11.341
三つ	-11.3411
同士の	-11.3412
中核	-11.3413
ためである	-11.3415
▁受賞歴	-11.3415
レンタル	-11.3415
テッド	-11.3417
コンテナ	-11.3419
rit	-11.342
落成	-11.3421
切る	-11.3422
機材	-11.3422
以前から	-11.3424
付いて	-11.3425
どり	-11.3426
教諭	-11.3428
TRI	-11.3429
震	-11.343
すべく	-11.343
イエロー	-11.3432
を押し	-11.3432
ザル	-11.3433
技法	-11.3434
管制	-11.3434
パチンコ	-11.3436
自称	-11.3437
藩士	-11.3438
香り	-11.3438
共編著	-11.344
www	-11.3441
の設立	-11.3442
呪い	-11.3443
寛永	-11.3445
ピーク	-11.3445
増刊	-11.3446
キャップ	-11.3447
の規定	-11.3448
レイク	-11.3452
初戦	-11.3452
1.2	-11.3452
金田	-11.3452
有馬	-11.3454
TKO	-11.3456
切断	-11.3457
旅館	-11.3459
祝日	-11.3459
都心	-11.3461
に放送された	-11.3461
保育	-11.3462
の政治	-11.3463
フラッシュ	-11.3465
ノリ	-11.3466
活動家	-11.3468
大会では	-11.3468
玉川	-11.3469
修士	-11.3469
四丁目	-11.3469
出入口	-11.347
我々	-11.3471
アメリカ海軍	-11.3472
標的	-11.3476
部位	-11.3476
誓	-11.3478
ことも多い	-11.3478
ゾンビ	-11.3478
敵を	-11.3478
見える	-11.348
デッキ	-11.348
記者会見	-11.3481
▁History	-11.3481
mix	-11.3483
町村	-11.3484
しかも	-11.3489
▁Song	-11.349
はっきり	-11.349
進んで	-11.349
が設置された	-11.3492
ルズ	-11.3492
1882	-11.3495
バース	-11.3495
のではないか	-11.3496
依存	-11.3497
訪れた	-11.3497
ジュン	-11.3498
ウォーズ	-11.3498
105	-11.3498
原則として	-11.3499
申し	-11.3499
年時点で	-11.35
誘	-11.3502
ネット局	-11.3502
カウ	-11.3503
atch	-11.3503
Ma	-11.3505
福山	-11.3505
噴火	-11.3506
パンク	-11.3507
▁En	-11.3509
able	-11.351
ドック	-11.351
の管轄	-11.3511
替	-11.3513
運行開始	-11.3514
▁講談社	-11.3514
鶴見	-11.3515
愚	-11.3516
アレックス	-11.3517
芸名	-11.3517
SON	-11.352
炭素	-11.3521
株主	-11.3522
残留	-11.3524
汚染	-11.3525
すず	-11.3525
に属し	-11.3526
必ずしも	-11.3527
本多	-11.3528
のテレビドラマ	-11.3528
大西洋	-11.3533
メトロ	-11.3535
ミール	-11.3536
スマート	-11.3538
はこれ	-11.3538
帝国の	-11.3538
ウィング	-11.3539
商事	-11.354
調節	-11.354
ミュージアム	-11.3543
収録されている	-11.3543
フト	-11.3544
並べ	-11.3544
国民学校	-11.3544
艦船	-11.3545
結城	-11.3547
と同一	-11.3547
判事	-11.3548
ジェフ	-11.3549
を訪れた	-11.355
表示される	-11.3551
浴	-11.3551
スペイン語	-11.3551
▲	-11.3552
適応	-11.3553
エントリー	-11.3553
電撃	-11.3555
祭神	-11.3555
クラーク	-11.3556
NPB	-11.3556
正室	-11.3557
優勝者	-11.3561
島町	-11.3561
話し	-11.3561
4-7	-11.3562
我が	-11.3563
ボイ	-11.3564
イスラーム	-11.3565
▁ワールド	-11.3566
125	-11.3567
の概念	-11.3568
法的	-11.357
▁[3	-11.357
南米	-11.357
を上げ	-11.3571
放射線	-11.3571
誰か	-11.3571
じゅ	-11.3574
千里	-11.3577
しら	-11.3577
To	-11.3577
豊かな	-11.3579
センス	-11.3579
南町	-11.358
MD	-11.3582
CPU	-11.3582
いじめ	-11.3583
立花	-11.3583
を続けた	-11.3583
VTR	-11.3584
本格的に	-11.3584
テキサス	-11.3585
を舞台に	-11.3585
年代以降	-11.3587
万枚	-11.3587
ult	-11.3587
クレア	-11.359
car	-11.3591
香川	-11.3593
抑制	-11.3593
過ごした	-11.3594
▁名古屋市	-11.3596
ek	-11.3596
斑	-11.3597
放射	-11.3598
政府が	-11.36
付近の	-11.3602
驚	-11.3602
は何	-11.3602
ゃ	-11.3603
小樽	-11.3606
内閣総理大臣	-11.3608
ミニアルバム	-11.3608
結婚式	-11.3608
に出演した	-11.3608
がく	-11.361
物体	-11.361
凝	-11.361
にちなんで	-11.361
余り	-11.3614
light	-11.3614
を送り	-11.3614
せき	-11.3615
に貢献	-11.3617
若松	-11.3618
落合	-11.3618
国防	-11.3619
冷却	-11.3619
と主張した	-11.362
徹底	-11.362
つくば	-11.3622
真面目	-11.3623
KADOKAWA	-11.3624
振動	-11.3624
選手として	-11.3625
▁ギャラリー	-11.3626
踏	-11.3626
を担う	-11.3628
戦前	-11.3628
▁v	-11.3629
sen	-11.363
に達した	-11.363
AE	-11.3631
町長	-11.3631
映像作品	-11.3632
爵位	-11.3633
▁Ge	-11.3633
Ch	-11.3634
CHI	-11.3634
神々	-11.3634
肢	-11.3635
東南アジア	-11.3637
jp	-11.3638
リクエスト	-11.3639
を組み	-11.364
▁大分県	-11.3641
製作された	-11.3642
くない	-11.3642
下記	-11.3643
彼女を	-11.3645
をかけ	-11.3645
日中	-11.3646
制作した	-11.3646
すい	-11.3646
内戦	-11.3647
教育者	-11.3647
dr	-11.3648
連動	-11.3648
ウリ	-11.3648
の記事	-11.3649
斜	-11.3649
売れ	-11.365
三人	-11.365
へい	-11.3651
酒造	-11.3651
を作って	-11.3651
後部	-11.3651
を構え	-11.3651
かなりの	-11.3652
を有し	-11.3653
1906	-11.3654
荷物	-11.3655
(1955	-11.3656
様に	-11.3657
癒	-11.3658
以内に	-11.3658
▁RE	-11.3658
に渡って	-11.3659
瀧	-11.366
改訂	-11.366
ドレス	-11.3661
島村	-11.3663
陰謀	-11.3664
-23	-11.3665
パク	-11.3665
越前	-11.3669
解任	-11.3672
ミラノ	-11.3672
以来の	-11.3673
と合併し	-11.3673
かけて	-11.3673
の範囲	-11.3677
MU	-11.3678
(1959	-11.368
異動	-11.3681
スタンダード	-11.3682
に入ると	-11.3683
タイムズ	-11.3684
事実上の	-11.3684
ょ	-11.3684
参謀	-11.3685
ココ	-11.3687
数十	-11.3688
Radio	-11.3689
も同様	-11.369
ステル	-11.369
に収録されている	-11.3691
あま	-11.3691
が含まれる	-11.3692
▁照明	-11.3692
▁Guitar	-11.3693
を含めて	-11.3693
がなかった	-11.3695
同型	-11.3695
年のテレビ番組	-11.3696
やってきた	-11.3696
宝石	-11.3697
部隊の	-11.3697
埋葬	-11.3699
レナ	-11.37
ACT	-11.37
書かれている	-11.37
ヂ	-11.37
ベクトル	-11.37
ハロー	-11.3701
が得意	-11.3701
あた	-11.3703
わし	-11.3705
4000	-11.3705
サリ	-11.3705
チベット	-11.3707
社名	-11.3707
に達し	-11.3707
日本の女優	-11.3707
麻生	-11.3707
されたこと	-11.3708
動詞	-11.3708
を中心とする	-11.3709
。2001	-11.3714
半ば	-11.3715
コラ	-11.3715
1879	-11.3717
以下に	-11.3718
期間は	-11.3718
最中	-11.3718
遭遇	-11.3722
望月	-11.3724
が運営する	-11.3724
盲	-11.3727
その一方で	-11.3728
を突破	-11.3728
han	-11.3729
暮	-11.3731
存在している	-11.3731
情熱	-11.3735
フィート	-11.3736
▁Windows	-11.3736
サスペンス	-11.3737
さよなら	-11.3737
男優	-11.3737
リィ	-11.3737
▁長崎	-11.3738
プライム	-11.3739
砲撃	-11.374
はず	-11.374
ツォ	-11.374
▁起点	-11.374
結果的に	-11.374
ベッ	-11.3741
ator	-11.3741
知らせ	-11.3742
職務	-11.3742
支配下	-11.3744
前者	-11.3745
写真家	-11.3745
脅威	-11.3746
アンテナ	-11.3746
ナガ	-11.3746
MR	-11.3746
クーデター	-11.375
起こった	-11.3752
1876	-11.3752
配列	-11.3753
かれる	-11.3753
実用	-11.3754
の向上	-11.3754
AK	-11.3755
土壌	-11.3755
配信された	-11.3756
境界	-11.3756
医者	-11.3757
一等	-11.3757
ゴス	-11.3757
BBC	-11.3758
遺伝	-11.3759
大川	-11.3759
たびたび	-11.3759
傾	-11.3759
考慮	-11.3761
年ごろ	-11.3761
交付	-11.3764
アントニオ	-11.3764
新町	-11.3765
、1967	-11.3766
ジョニー	-11.3767
ool	-11.3767
フリーアナウンサー	-11.3769
にかけての	-11.377
慶応	-11.3771
亘	-11.3773
学士	-11.3777
命名された	-11.3778
述べる	-11.3779
動く	-11.3782
敷設	-11.3782
1870	-11.3783
air	-11.3786
民衆	-11.3786
惣	-11.3787
タウ	-11.3787
ワル	-11.3787
UE	-11.3788
親交	-11.3788
POP	-11.3789
▁栃木県	-11.379
Ro	-11.379
テレビシリーズ	-11.3791
も参照	-11.3792
伝達	-11.3792
トマス	-11.3793
一行	-11.3793
アーマー	-11.3794
相対	-11.3796
をかけた	-11.3796
特技は	-11.3799
eo	-11.3799
していて	-11.3799
ランス	-11.3799
年のテレビドラマ	-11.38
ニッポン	-11.3802
致	-11.3802
の生徒	-11.3803
審議会	-11.3803
西鉄	-11.3803
高層	-11.3803
調達	-11.3804
打席	-11.3804
シフト	-11.3805
JCT	-11.3805
幅広い	-11.3806
ひろし	-11.3806
フォート	-11.3807
棋	-11.3808
を備えた	-11.3808
に触れ	-11.3809
を収録した	-11.3809
けて	-11.381
str	-11.3812
湘南	-11.3812
同国	-11.3813
ARA	-11.3814
幸福	-11.3816
南アフリカ	-11.3816
ちょっと	-11.3816
を形成する	-11.3816
倫理	-11.3819
環状	-11.382
などでは	-11.382
免疫	-11.382
掌	-11.382
留め	-11.3823
鎧	-11.3824
シカ	-11.3826
犠牲	-11.3827
存在した	-11.3827
カツ	-11.3827
とん	-11.3829
伊予	-11.3831
百合	-11.3831
の恋人	-11.3832
をめぐる	-11.3833
中東	-11.3834
面積は	-11.3835
に所在する	-11.3836
めん	-11.3836
飲料	-11.3838
に立ち	-11.3841
行っている	-11.3841
コミュニティバス	-11.3842
ることとなった	-11.3842
一人で	-11.3843
167	-11.3843
ザイ	-11.3843
缶	-11.3844
支線	-11.3845
の人気	-11.3845
拠	-11.3845
月からは	-11.3845
警告	-11.3846
マーガレット	-11.3846
独自	-11.3847
寿司	-11.3848
苦手	-11.3848
が出た	-11.3848
を付け	-11.385
▁is	-11.3851
白河	-11.3851
の可能性	-11.3853
借金	-11.3854
IE	-11.3855
しお	-11.3855
。1990	-11.3857
サッカーリーグ	-11.3859
枚組	-11.3859
内にある	-11.386
僅か	-11.3861
フン	-11.3861
垂直	-11.3862
扱う	-11.3863
と共同	-11.3864
宙	-11.3864
洞窟	-11.3865
▁Anniversary	-11.3865
オーストラリアの	-11.3865
食べる	-11.3867
ヤマト	-11.3867
通学	-11.3868
ベロ	-11.3868
大王	-11.3869
で放送されていた	-11.387
目覚め	-11.387
去った	-11.387
本来は	-11.3871
日号	-11.3872
▁池田	-11.3873
▁MC	-11.3873
葬儀	-11.3873
▁Best	-11.3873
明治時代	-11.3876
の計	-11.3878
刊行された	-11.3878
マイン	-11.3878
湧	-11.3879
対談	-11.388
当地	-11.3881
を披露	-11.3882
初優勝	-11.3882
誤解	-11.3882
世界観	-11.3883
テーマ曲	-11.3884
揚げ	-11.3884
学んだ	-11.3884
本格的な	-11.3885
会談	-11.3886
忌	-11.3887
ICE	-11.3889
語っている	-11.3889
ターゲット	-11.3889
今回	-11.3889
Mag	-11.3892
ポンプ	-11.3893
増え	-11.3893
18:00	-11.3893
甲板	-11.3894
強盗	-11.3894
招	-11.3898
コンピューター	-11.3899
トップチーム	-11.3899
イヴ	-11.39
振付	-11.3903
-01	-11.3904
Pri	-11.3904
会議で	-11.3904
打者	-11.3905
を多く	-11.3906
の首都	-11.3906
qui	-11.3907
をしており	-11.3907
併せて	-11.3911
店員	-11.3913
アント	-11.3913
お前	-11.3914
超人	-11.3914
那須	-11.3915
怪物	-11.3915
佐渡	-11.3916
鳩	-11.3917
ペルー	-11.3918
アイデア	-11.3919
▁駅周辺	-11.3919
否	-11.3919
悩み	-11.3919
排	-11.3922
十一	-11.3923
の主な	-11.3923
するとともに	-11.3923
木材	-11.3924
新潟市	-11.3927
出身で	-11.3927
月にかけて	-11.3929
たのは	-11.393
アジ	-11.3931
My	-11.3932
をそれぞれ	-11.3935
変わる	-11.3935
ng	-11.3935
ings	-11.3935
別府	-11.3936
に発生した	-11.3936
適切な	-11.3938
を奪われ	-11.3939
を用い	-11.3939
朝廷	-11.3939
ura	-11.3941
20:00	-11.3943
付近で	-11.3943
療養	-11.3944
アルト	-11.3945
アメリカで	-11.3946
変わって	-11.3948
行われていた	-11.3949
を破り	-11.3951
テーマソング	-11.3951
称号	-11.3952
を覚え	-11.3952
信越	-11.3952
准教授	-11.3952
狐	-11.3953
▁小野	-11.3954
悲劇	-11.3954
ータ	-11.3955
血管	-11.3955
飯塚	-11.3956
であって	-11.3956
的である	-11.3957
査	-11.3959
習得	-11.396
続けている	-11.396
ぎょう	-11.3962
カルロス	-11.3963
戦死した	-11.3963
フォックス	-11.3965
にわたる	-11.3965
継ぐ	-11.3965
放棄	-11.3965
違法	-11.3966
は以下の	-11.3967
▁Ad	-11.3968
通路	-11.3968
red	-11.3969
が少なく	-11.397
テキサス州	-11.397
事前	-11.397
が開通	-11.3971
アンリ	-11.3972
、1964	-11.3972
東京都港区	-11.3973
ium	-11.3973
1889	-11.3973
花園	-11.3973
厳しく	-11.3974
を続ける	-11.3974
有利	-11.3974
登記	-11.3977
人質	-11.3978
当然	-11.3979
石炭	-11.3979
女流	-11.3981
with	-11.3982
のイメージ	-11.3983
750	-11.3984
達は	-11.3985
を集め	-11.3986
母音	-11.3987
ができ	-11.3989
Power	-11.3992
の姉	-11.3992
berg	-11.3992
人々が	-11.3993
bu	-11.3994
入居	-11.3995
幽霊	-11.3995
支払い	-11.3996
を変え	-11.3996
▁von	-11.3997
智子	-11.3997
させている	-11.3997
アルプス	-11.3999
世間	-11.3999
光学	-11.4
ビアン	-11.4001
水中	-11.4003
中京	-11.4005
釧路	-11.4005
ユキ	-11.4006
複雑	-11.4007
ウォル	-11.4008
家系	-11.4008
リーン	-11.4011
ロリ	-11.4012
fer	-11.4014
文学者	-11.4015
人々の	-11.4017
工学科	-11.4017
四季	-11.4018
ないまま	-11.4018
▁劇団	-11.4019
白色	-11.4019
仕組み	-11.4019
1874	-11.4026
、1965	-11.4026
魔物	-11.4027
カトリック教会	-11.4028
住居	-11.4028
ピオ	-11.4029
オカ	-11.4029
コッ	-11.403
スプ	-11.4031
リフ	-11.4032
David	-11.4033
を表明した	-11.4033
▁Her	-11.4034
赤色	-11.4034
ベッド	-11.4034
出てくる	-11.4035
歌人	-11.4036
舘	-11.4037
ソナタ	-11.4037
副社長	-11.4037
ブレード	-11.4038
1881	-11.4039
運送	-11.404
子役	-11.404
なぎ	-11.404
不要	-11.4042
を聞き	-11.4042
チェル	-11.4044
均	-11.4047
駅まで	-11.4048
に協力	-11.4048
ッキ	-11.4049
久米	-11.4051
英文	-11.4053
を決定	-11.4054
海底	-11.4054
比率	-11.4055
暮らす	-11.4056
ホラー	-11.4056
が非常に	-11.4057
それ以降	-11.4058
キッズ	-11.4059
意志	-11.4059
引き上げ	-11.4061
家康	-11.4062
ane	-11.4062
ッシャー	-11.4063
RNA	-11.4063
あゆみ	-11.4064
性別	-11.4064
PK	-11.4064
胤	-11.4065
ple	-11.4065
pt	-11.4067
生態	-11.4067
NK	-11.407
は現在	-11.4073
に続く	-11.4073
トリア	-11.4075
ではないが	-11.4076
0.5	-11.4076
発売した	-11.4077
新型コロナウイルス	-11.4079
回公演	-11.4081
著作家	-11.4082
スイ	-11.4083
(1962	-11.4085
を大きく	-11.4085
察	-11.4085
期間限定	-11.4088
じゅん	-11.4088
英語で	-11.4088
殆ど	-11.4089
ロッ	-11.4089
、1950	-11.409
デビル	-11.4092
競合	-11.4092
▁Ri	-11.4092
▁San	-11.4093
討伐	-11.4093
fo	-11.4093
William	-11.4093
難波	-11.4095
テイラー	-11.4096
窪	-11.4096
翌年の	-11.4096
に掲載	-11.4096
二軍	-11.4097
謎	-11.4098
十分な	-11.4099
出現する	-11.4099
1909	-11.41
しまい	-11.41
用水	-11.4101
イング	-11.4101
なくても	-11.4102
Good	-11.4102
各国の	-11.4102
チカ	-11.4103
bit	-11.4103
鉄道路線	-11.4103
名前は	-11.4105
据え	-11.4105
回答	-11.4106
ute	-11.4106
に至るまで	-11.4106
▁かつて存在した	-11.411
グマ	-11.411
▁かつては	-11.411
領地	-11.4111
マスコミ	-11.4111
ストック	-11.4112
しまった	-11.4112
アメ	-11.4115
満州	-11.4116
国産	-11.412
コーラ	-11.412
造船	-11.412
hu	-11.4121
ドメイン	-11.4121
粟	-11.4122
▁滋賀県	-11.4122
ビオ	-11.4123
▁1921	-11.4124
選手団	-11.4125
を伝える	-11.4127
シドニー	-11.4127
系譜	-11.4127
を命じ	-11.4127
シオン	-11.4128
マウス	-11.4128
ANA	-11.413
惨	-11.413
rom	-11.413
粗	-11.4131
花火	-11.4132
=2|	-11.4133
宇宙船	-11.4133
落とし	-11.4134
を設立し	-11.4134
じょ	-11.4135
残っている	-11.4135
水準	-11.4137
ペー	-11.4138
ダッシュ	-11.414
http	-11.4141
泣き	-11.4141
司馬	-11.4142
絶滅	-11.4142
貨車	-11.4142
ことが可能	-11.4142
0||0||	-11.4143
周囲に	-11.4144
ているため	-11.4145
田島	-11.4145
に変化	-11.4148
映画館	-11.4149
五十嵐	-11.4151
に次いで	-11.4151
ジュー	-11.4151
斬り	-11.4151
呼びかけ	-11.4152
観光地	-11.4152
ダイヤ改正	-11.4154
近隣	-11.4154
コンクリート	-11.4155
没後	-11.4155
世紀後半	-11.4155
とは別に	-11.4155
名人	-11.4157
4-0	-11.4157
",	-11.416
と思った	-11.4161
そうな	-11.4161
映画化	-11.4161
民主主義	-11.4162
フットボール	-11.4162
造船所	-11.4163
本種	-11.4167
増田	-11.4169
富士見	-11.4169
平面	-11.417
満足	-11.417
エイト	-11.4172
流出	-11.4174
アリー	-11.4174
在日	-11.4175
ディスプレイ	-11.4175
ッシング	-11.4175
▁Up	-11.4177
傍ら	-11.4178
Free	-11.4179
ですか	-11.418
やる	-11.4181
育った	-11.4182
low	-11.4183
として使用	-11.4183
過剰	-11.4183
mp	-11.4183
ケーキ	-11.4184
首位	-11.4185
ジョージア	-11.4186
あか	-11.4187
志村	-11.4187
鐵	-11.4188
▁Of	-11.4188
▁詳細情報	-11.4188
引退した	-11.4189
真っ	-11.4189
があるため	-11.419
マレー	-11.4191
支流	-11.4191
Sh	-11.4192
どちらか	-11.4194
といえる	-11.4194
ボーイング	-11.4194
スクエア	-11.4195
飲	-11.4196
育ち	-11.4196
めぐみ	-11.4197
に掲載された	-11.4197
上方	-11.4197
彗星	-11.4198
▁仙台	-11.4198
で登場	-11.4199
量子	-11.4201
EMI	-11.4203
に及ぶ	-11.4204
スマ	-11.4204
誕生した	-11.4205
叶	-11.4206
カタログ	-11.4207
尉	-11.4208
るようになる	-11.4208
を主	-11.4209
▁本作の	-11.421
アニメ映画	-11.4211
ホロ	-11.4212
お互い	-11.4212
過ごし	-11.4213
JAPAN	-11.4213
TION	-11.4214
▁Bi	-11.4214
ガム	-11.4215
火星	-11.4215
容易に	-11.4215
マサ	-11.4218
セリ	-11.4219
▁Dream	-11.4219
読売新聞	-11.4219
ミカ	-11.422
エステ	-11.422
命中	-11.422
1869	-11.422
得られる	-11.4221
ニエ	-11.4225
のもとで	-11.4225
階に	-11.4228
ョ	-11.4229
充実	-11.4229
新人賞	-11.423
歯科	-11.423
十五	-11.4231
友情	-11.4232
ヶ所	-11.4232
ミズ	-11.4233
野外	-11.4234
ction	-11.4235
に達する	-11.4235
管内	-11.4236
燃焼	-11.4236
の総称	-11.4237
二つ	-11.4237
教区	-11.4238
▁Min	-11.4238
転用	-11.4239
賭け	-11.424
ハリス	-11.424
の部下	-11.424
を書き	-11.424
外交官	-11.4242
と戦う	-11.4242
ライアン	-11.4243
じま	-11.4245
海域	-11.4245
クラン	-11.4246
▁Or	-11.4247
記載されている	-11.4248
砲塔	-11.4249
爆笑	-11.4251
gr	-11.4253
ソード	-11.4254
に対応する	-11.4254
完結	-11.4256
尊敬	-11.4256
まとめ	-11.4257
時間を	-11.4258
ずる	-11.4259
ビック	-11.426
短歌	-11.426
できるように	-11.4261
ウエ	-11.4262
小隊	-11.4264
ミッド	-11.4266
Wii	-11.4268
憂	-11.4269
南部の	-11.427
際の	-11.4271
出される	-11.4271
合った	-11.4272
ZA	-11.4272
プレミアリーグ	-11.4273
に所属し	-11.4274
グロー	-11.4275
椎名	-11.4277
を掲載	-11.4279
宿泊	-11.428
編集部	-11.428
っても	-11.4283
ham	-11.4284
を広げ	-11.4284
シングルス	-11.4284
ren	-11.4285
容易	-11.4285
描かれ	-11.4285
年前の	-11.4286
データを	-11.4287
窓口	-11.4288
迎え	-11.4288
大幅に	-11.4288
Bass	-11.4289
uch	-11.4291
排出	-11.4294
AKI	-11.4296
僕の	-11.4296
に対しても	-11.4296
▁1914	-11.4297
八代	-11.4301
大作戦	-11.4303
久保田	-11.4304
アカデミー賞	-11.4304
人以上	-11.4304
伝えた	-11.4306
の経営	-11.4306
塞	-11.4306
の差	-11.4308
谷村	-11.4309
NIGHT	-11.4313
クサ	-11.4314
ショッピングセンター	-11.4315
それ以外の	-11.4315
PI	-11.4315
▁沖縄県	-11.4315
▁YOU	-11.4316
同局	-11.4318
の廃止市町村一覧	-11.4318
—	-11.4318
似ている	-11.4319
WAVE	-11.4319
マド	-11.432
▁Tra	-11.4323
特設	-11.4323
オスマン帝国	-11.4323
住む	-11.4323
禄	-11.4323
基本的には	-11.4325
原町	-11.4325
優しい	-11.4325
予定だったが	-11.4326
を維持し	-11.4326
無所属	-11.4327
貼	-11.4327
太子	-11.4328
並び	-11.4329
の勝利	-11.4329
前橋	-11.433
ail	-11.4332
スターズ	-11.4332
共同体	-11.4336
ディック	-11.4338
索	-11.4339
東京府	-11.4339
符	-11.434
タッグ王座	-11.4343
参加した	-11.4343
令和元年	-11.4343
宮内	-11.4345
日本一	-11.4345
ナリ	-11.4345
推移	-11.4345
助言	-11.4346
サイエンス	-11.4347
貫通	-11.4347
多様な	-11.4348
年以降は	-11.435
に関連する	-11.435
top	-11.4351
の文字	-11.4354
航行	-11.4355
-13	-11.4355
を食べ	-11.4355
月中旬	-11.4356
忠実	-11.4357
が起こる	-11.4357
ther	-11.4359
各地で	-11.4359
共産主義	-11.4361
生存	-11.4361
辞退	-11.4362
回避	-11.4362
の構成	-11.4363
▁Cor	-11.4364
島根県	-11.4364
悦	-11.4365
生じる	-11.4365
探索	-11.4366
弥生	-11.4369
:40	-11.4369
神様	-11.4369
を学び	-11.4373
カミ	-11.4373
流れる	-11.4373
ナイフ	-11.4374
宜	-11.4374
目黒	-11.4375
るか	-11.4375
郵政	-11.4376
非常	-11.4377
隣の	-11.4378
ではないか	-11.4378
長に就任	-11.438
拉致	-11.438
テクノ	-11.438
損失	-11.4381
分から	-11.4386
ミュージックビデオ	-11.4386
||2||	-11.4387
ッポ	-11.4388
を使用し	-11.4388
を採用	-11.4389
ハチ	-11.4389
京都大学	-11.439
ささ	-11.439
電機	-11.439
NEW	-11.4391
ソニック	-11.4391
学生時代	-11.4391
皇子	-11.4393
Red	-11.4393
描かれた	-11.4393
親衛隊	-11.4395
串	-11.4395
交易	-11.4395
アシュ	-11.4397
ラマ	-11.4399
を演じた	-11.4399
オランダの	-11.44
しょうがっこう	-11.44
緑の	-11.4401
に興味	-11.4402
現存する	-11.4402
SPECIAL	-11.4405
牝馬	-11.4405
愛媛	-11.4406
アンジェ	-11.4406
発展した	-11.4407
バナ	-11.4407
治郎	-11.4408
御所	-11.441
に見られる	-11.4411
を取って	-11.4411
覧	-11.4413
影響を与えた	-11.4414
列伝	-11.4414
枕	-11.4414
商工会議所	-11.4414
記念館	-11.4415
有限	-11.4416
氏が	-11.4417
が生まれた	-11.4419
ファーム	-11.4421
仙台市	-11.4422
猟	-11.4424
アット	-11.4424
AX	-11.4424
スケート	-11.4424
腐	-11.4427
を放つ	-11.4427
越し	-11.4428
つつある	-11.4429
3-1	-11.443
捜査官	-11.443
リウム	-11.443
カシ	-11.4434
Mar	-11.4434
詳しく	-11.4434
入れ替え	-11.4434
クリー	-11.4435
タイトルは	-11.4436
トキ	-11.4436
に襲われ	-11.4437
新生	-11.4437
文社	-11.4437
OUT	-11.4437
ダメ	-11.4438
ティーン	-11.4439
かさ	-11.444
発売されている	-11.4441
▁(#1	-11.4441
謀	-11.4441
des	-11.4442
っぷ	-11.4442
弾薬	-11.4443
発注	-11.4443
т	-11.4444
父親の	-11.4444
アカウント	-11.4445
ダンジョン	-11.4446
ピュ	-11.4446
過ぎ	-11.4446
フスキー	-11.4447
気温	-11.4447
ポルノ	-11.4447
遅	-11.4447
部分を	-11.4449
新築	-11.4451
の武将	-11.4452
能力を	-11.4453
公民館	-11.4454
歴史家	-11.4456
が可能である	-11.4457
アイヌ	-11.4457
を経由して	-11.4459
ボリ	-11.4461
ダグラス	-11.4463
水平	-11.4463
汐	-11.4463
ヴェネツィア	-11.4463
であることが	-11.4463
裕子	-11.4464
凡	-11.4464
ブライ	-11.4465
最強の	-11.4465
サント	-11.4466
もらい	-11.4467
革新	-11.4468
cer	-11.4468
app	-11.4468
クリスタル	-11.4468
樋口	-11.447
▁イタリアの	-11.4472
その際に	-11.4473
Android	-11.4473
白井	-11.4477
餌	-11.4478
プチ	-11.4478
光線	-11.4479
岡村	-11.4479
達也	-11.448
の共同	-11.4482
GK	-11.4483
sk	-11.4486
十分	-11.4488
アドベンチャー	-11.4489
ティル	-11.4489
ett	-11.449
ファイブ	-11.449
は存在しない	-11.4492
採択	-11.4493
実質	-11.4494
ホスト	-11.4496
井戸	-11.4496
。1999	-11.4496
音楽家	-11.4497
甚	-11.4497
錯	-11.4497
識	-11.4498
ストレス	-11.4499
地方裁判所	-11.4501
声明	-11.4501
ことが判明	-11.4501
ウォール	-11.4501
わなかった	-11.4501
明確に	-11.4502
ique	-11.4502
を形成し	-11.4503
▁放送時間	-11.4503
▁終点	-11.4505
以後は	-11.4506
理由で	-11.4506
pre	-11.4508
高等女学校	-11.4508
地上波	-11.4509
トヨタ自動車	-11.451
SUN	-11.4511
数百	-11.4512
立体	-11.4512
に就任し	-11.4512
凛	-11.4512
入賞	-11.4516
南京	-11.4516
を救う	-11.4517
天野	-11.4519
紀伊	-11.452
ブレン	-11.4522
岩田	-11.4522
彼女に	-11.4523
カメ	-11.4523
コモ	-11.4525
確	-11.4526
エレベーター	-11.4527
室町時代	-11.4527
朗読	-11.4528
▁Wi	-11.4528
がほとんど	-11.4529
峡	-11.4529
汚	-11.4532
供用	-11.4532
、1966	-11.4532
磁気	-11.4532
н	-11.4536
事から	-11.4536
松島	-11.4538
抑え	-11.4538
。1980	-11.4539
TIME	-11.4539
大学文学部	-11.4539
で構成される	-11.4539
ax	-11.454
チャーリー	-11.454
を目指して	-11.4542
use	-11.4543
部分に	-11.4543
出来た	-11.4545
のアナウンサー	-11.4546
津波	-11.4546
テリ	-11.4549
白川	-11.4552
除去	-11.4552
小池	-11.4554
SUPER	-11.4554
ウィルソン	-11.4555
ZO	-11.4555
白山	-11.4558
することもある	-11.4558
カリフォルニア	-11.456
ともいう	-11.456
ピッ	-11.4561
社会福祉	-11.4561
することが可能	-11.4564
bra	-11.4564
に売却	-11.4566
出会い	-11.4567
uck	-11.4567
仮想	-11.4567
小沢	-11.4568
勇気	-11.4568
ble	-11.4568
闇の	-11.4569
▁At	-11.457
全曲	-11.457
oss	-11.4571
警部	-11.4571
起訴	-11.4572
上空	-11.4572
RN	-11.4572
有限会社	-11.4573
USA	-11.4573
芸能界	-11.4573
を介して	-11.4574
代官	-11.4574
▁ver	-11.4575
を挙げる	-11.4575
自体が	-11.4576
老朽化	-11.4576
Linux	-11.4577
▁School	-11.4577
ならず	-11.458
▁Mix	-11.4581
▁山崎	-11.4583
私たち	-11.4583
▁著作	-11.4584
洋子	-11.4586
公募	-11.4588
撃ち	-11.4591
ばかりの	-11.4591
捕獲	-11.4591
1||0||	-11.4593
以下のような	-11.4593
られず	-11.4593
1883	-11.4594
レアル	-11.4595
真理	-11.4596
過程で	-11.4597
活躍した	-11.4598
灯台	-11.4601
▁江戸時代の	-11.4602
音楽院	-11.4604
ck	-11.4604
東日本旅客鉄道	-11.4606
と改名	-11.4607
崩れ	-11.4607
du	-11.461
を再	-11.461
フランシス	-11.4611
認められた	-11.4611
プライベート	-11.4611
所有する	-11.4611
年連続で	-11.4612
権威	-11.4614
の運用	-11.4615
東大	-11.4618
ERS	-11.4622
men	-11.4623
作目の	-11.4623
シェン	-11.4623
続いた	-11.4624
名鑑	-11.4626
手続	-11.4626
右翼	-11.4628
アポロ	-11.4628
駄	-11.4629
真田	-11.4629
片岡	-11.4629
爆撃機	-11.4631
顔を	-11.4632
虐殺	-11.4632
露出	-11.4634
ミック	-11.4635
筑波	-11.4636
菩薩	-11.4636
ami	-11.4638
CB	-11.4638
あくまで	-11.4639
に選ばれ	-11.464
チョコレート	-11.4641
シール	-11.4641
日高	-11.4642
公式ウェブサイト	-11.4643
ファイア	-11.4644
.12	-11.4646
改札	-11.4649
首を	-11.4649
ジェル	-11.4649
越え	-11.4649
ヒン	-11.465
干渉	-11.4651
ブラー	-11.4652
名前を	-11.4655
ヨーク	-11.4655
もあったが	-11.4655
の土地	-11.4655
松江	-11.4656
が開発した	-11.4656
に従事	-11.4658
尼崎	-11.4658
▁BOX	-11.4659
▁1918	-11.4659
大聖堂	-11.4661
陣営	-11.4664
マツダ	-11.4664
イリ	-11.4664
Instrumental	-11.4666
赴任	-11.4666
っく	-11.4668
ye	-11.4668
に選出され	-11.467
気動車	-11.4671
子孫	-11.4672
ってくる	-11.4674
を連れて	-11.4677
イニング	-11.4678
ロスト	-11.4678
吉岡	-11.468
食料	-11.468
奪三振	-11.468
を行って	-11.4682
▁1919	-11.4683
罠	-11.4686
に出場した	-11.4688
鈴鹿	-11.4688
を目的とした	-11.469
CEO	-11.469
FI	-11.469
GR	-11.4691
BLUE	-11.4691
篠原	-11.4692
表情	-11.4694
労働組合	-11.4694
はこれを	-11.4694
つつも	-11.4695
評議会	-11.4695
ヵ	-11.4696
日本での	-11.4696
心配	-11.4697
die	-11.4698
プロ入り	-11.47
web	-11.47
的なもの	-11.4701
1600	-11.4701
ビリ	-11.4702
ぐん	-11.4702
ジャイ	-11.4705
最古の	-11.4705
ジミー	-11.4705
を継いだ	-11.4706
骨折	-11.4707
創設された	-11.4707
の手紙	-11.4709
稲葉	-11.4711
信州	-11.4711
やかな	-11.4712
背後	-11.4714
カルチャー	-11.4714
日本テレビ系	-11.4714
▁Gra	-11.4715
賞受賞者	-11.4715
国の人物	-11.4716
吉本興業	-11.4716
ログ	-11.4716
世紀初頭	-11.4717
ウォーク	-11.4718
院長	-11.472
を考え	-11.472
神道	-11.472
東京オリンピック	-11.472
を搭載	-11.472
ピット	-11.4721
スケール	-11.4722
監査	-11.4722
▁最優秀	-11.4722
戯曲	-11.4724
グルメ	-11.4725
引き継がれ	-11.4726
信用金庫	-11.4726
人名	-11.4726
金剛	-11.4727
奪取	-11.4727
短く	-11.4727
can	-11.4729
コンスタン	-11.473
上原	-11.473
ations	-11.4732
1901	-11.4733
156	-11.4734
鳥居	-11.4735
ust	-11.4735
かぶ	-11.4736
踊	-11.4736
6||	-11.4738
CU	-11.4739
守り	-11.4742
条第	-11.4743
動機	-11.4743
ook	-11.4743
ジャーナル	-11.4743
撮	-11.4743
の撮影	-11.4744
▁個人成績	-11.4746
ella	-11.4749
種別	-11.4751
▁Day	-11.4752
この他	-11.4752
起用された	-11.4754
違	-11.4755
に着手	-11.4755
ピカ	-11.4756
を発表し	-11.4757
隙	-11.4758
他社	-11.4758
UD	-11.4758
野球場	-11.4758
あお	-11.4759
ere	-11.4759
考古学	-11.4759
平安	-11.476
勝手に	-11.476
トミー	-11.4763
不在	-11.4765
そうした	-11.4765
総長	-11.4765
名称は	-11.4766
わせる	-11.4769
ボランティア	-11.4771
ロビン	-11.4772
自分で	-11.4772
呪	-11.4773
歳から	-11.4776
パイプ	-11.4776
∞	-11.4776
マーケット	-11.4777
▁背番号	-11.4777
中毒	-11.4778
計測	-11.4782
▁石川県	-11.4782
発見され	-11.4782
ひさ	-11.4784
失われた	-11.4784
平井	-11.4785
KE	-11.4785
8000	-11.4785
を振り	-11.4786
に比べ	-11.4786
卑	-11.4786
ウッ	-11.4787
蒲	-11.4788
どれ	-11.4789
kin	-11.479
向かい	-11.4791
ロシア語	-11.4791
世と	-11.4792
せよ	-11.4793
スポ	-11.4795
盟	-11.4797
UT	-11.4798
おらず	-11.4799
怪談	-11.4799
したとき	-11.48
歓	-11.4801
匠	-11.4801
高等学校卒業	-11.4805
▁山形県	-11.4806
4-1	-11.4811
回る	-11.4811
梓	-11.4812
に従い	-11.4813
後者	-11.4815
把握	-11.4817
低迷	-11.4818
が盛ん	-11.4818
TOP	-11.482
への道	-11.4822
3.0	-11.4822
読む	-11.4822
あつ	-11.4823
oll	-11.4823
ハーバー	-11.4824
同市	-11.4824
鼓	-11.4825
散歩	-11.4825
法廷	-11.4828
新曲	-11.4828
庶	-11.4829
off	-11.4829
選挙で	-11.483
廃校	-11.4831
(1958	-11.4833
bl	-11.4835
nce	-11.4836
Pro	-11.484
DY	-11.484
ろく	-11.4841
▁本作は	-11.4842
策定	-11.4842
確か	-11.4843
朝日新聞社	-11.4844
東アジア	-11.4847
fl	-11.4848
í	-11.4849
に関する法律	-11.485
の弟子	-11.4851
博覧会	-11.4852
大村	-11.4854
出題	-11.4855
所在	-11.4857
直し	-11.4857
受けた	-11.4859
OO	-11.486
メモリー	-11.486
ワーナー	-11.486
cal	-11.486
懸	-11.4861
見直し	-11.4863
活性	-11.4863
PT	-11.4864
ENT	-11.4866
は既に	-11.4867
っちゃ	-11.4869
AWA	-11.487
近年では	-11.4871
コンパクト	-11.4873
真相	-11.4873
インディ	-11.4873
取り扱い	-11.4874
知っている	-11.4874
女子大学	-11.4877
受託	-11.4879
造形	-11.488
ドルフ	-11.488
なかなか	-11.488
設定されている	-11.488
ヘビー級王座	-11.4882
横綱	-11.4882
×2	-11.4883
したことから	-11.4884
従五位下	-11.4885
現職	-11.4885
日本人の	-11.4885
レックス	-11.4885
リッ	-11.4887
ux	-11.4887
フォーミュラ	-11.4888
バンダイ	-11.489
維新	-11.489
の公式	-11.4891
ius	-11.4892
の提供	-11.4892
剥	-11.4893
播磨	-11.4893
直轄	-11.4893
学部教授	-11.4895
祀	-11.4896
チーズ	-11.4897
の発生	-11.4897
これによって	-11.4897
に任命された	-11.4897
NEXT	-11.4898
阪神タイガース	-11.4899
ねこ	-11.4901
兼務	-11.4903
ene	-11.4904
刈	-11.4904
三代目	-11.4904
推奨	-11.4908
薔薇	-11.4909
殿堂入り	-11.4909
LU	-11.491
契約を結んだ	-11.4911
eb	-11.4912
投球	-11.4912
どん	-11.4912
までの間	-11.4912
ッラ	-11.4913
吉村	-11.4913
Music	-11.4913
昨	-11.4913
出産	-11.4915
乗降	-11.4916
ソース	-11.4919
醸造	-11.492
間もなく	-11.4922
Do	-11.4924
ワープ	-11.4924
首長	-11.4925
は基本的に	-11.4925
不安定	-11.4928
再開発	-11.4928
モラ	-11.493
ファイター	-11.493
▁Sc	-11.493
松下	-11.4932
としており	-11.4933
成り	-11.4934
ヅ	-11.4934
3,000	-11.4934
シーズン終了後	-11.4934
はかなり	-11.4935
招集	-11.4935
密着	-11.4937
再発	-11.4938
実態	-11.4938
▁Du	-11.4938
るようになり	-11.494
短期間	-11.4942
クリスチャン	-11.4942
後退	-11.4943
考察	-11.4945
アイドルグループ	-11.4945
book	-11.4946
を決め	-11.4947
▁Am	-11.4947
zu	-11.4951
使者	-11.4951
ミルク	-11.4953
安政	-11.4954
参加している	-11.4954
プロテスタント	-11.4955
ザクセン	-11.4955
変異	-11.4956
期限	-11.4956
ライズ	-11.4957
実業	-11.4959
様な	-11.4961
渡す	-11.4965
乃木坂	-11.4966
鳥類	-11.4967
をつける	-11.4968
角度	-11.497
代々	-11.497
▁備考	-11.497
先代	-11.497
時空	-11.497
立つ	-11.4973
ラード	-11.4973
近年は	-11.4975
腫	-11.4975
▁Lu	-11.4975
にほん	-11.4976
新版	-11.4979
フロア	-11.498
戯	-11.498
使用できる	-11.4982
自立	-11.4982
▁Mc	-11.4982
注文	-11.4983
耐久	-11.4984
茶屋	-11.4984
企	-11.4985
付加	-11.4985
東京帝国大学	-11.4986
宮川	-11.4988
line	-11.4988
パシフィック	-11.4991
に変身	-11.4991
反撃	-11.4992
が必要である	-11.4992
Robert	-11.4993
1877	-11.4994
者数	-11.4995
蒸気機関車	-11.4996
常陸	-11.4997
筑波大学	-11.4997
ージュ	-11.4997
を変える	-11.4999
町大字	-11.5001
誇り	-11.5001
フロンティア	-11.5001
浩二	-11.5001
蹴り	-11.5003
こちらは	-11.5005
が最も	-11.5005
シンガー	-11.5006
ポニーキャニオン	-11.5006
の略	-11.5008
ハワード	-11.501
近代化	-11.501
の要素	-11.501
並行	-11.5011
造り	-11.5011
のりば	-11.5011
誘惑	-11.5011
以降に	-11.5012
伝える	-11.5012
クラスメイト	-11.5012
▁WEB	-11.5013
▁和歌山県	-11.5015
サントリー	-11.5016
ルナ	-11.5017
アーツ	-11.5017
ひめ	-11.5019
と語った	-11.5021
するようになる	-11.5021
ユーゴスラビア	-11.5022
アンソロジー	-11.5022
松村	-11.5022
イグ	-11.5023
軍用	-11.5024
ハンス	-11.5025
ドウ	-11.5025
適合	-11.5026
資料館	-11.5027
▁奈良県	-11.5028
燃え	-11.5029
名作	-11.503
徒歩約	-11.5031
湾岸	-11.5032
▁太田	-11.5035
冨	-11.5035
cr	-11.5035
東武	-11.5035
物理学者	-11.5038
音楽祭	-11.5039
生前	-11.5039
に見える	-11.504
しげ	-11.504
爆破	-11.5041
縛	-11.5041
が生じ	-11.5042
▁参考資料	-11.5043
概ね	-11.5044
att	-11.5045
づき	-11.5046
推測	-11.5046
のアーティスト	-11.5046
表記は	-11.5047
RADIO	-11.5048
タイミング	-11.505
作風	-11.5051
を唱え	-11.5052
ZE	-11.5052
を全て	-11.5052
vis	-11.5052
ピクチャーズ	-11.5053
アシ	-11.5053
増設	-11.5054
能登	-11.5056
佐竹	-11.5057
申し出	-11.5057
初期に	-11.5057
期限付き移籍	-11.5058
医療センター	-11.5059
の養子	-11.506
つぶ	-11.5061
ヴィチ	-11.5061
覇	-11.5062
END	-11.5063
ドナルド	-11.5063
模	-11.5063
▁1912	-11.5066
父が	-11.5067
主催の	-11.5067
大きさ	-11.5067
ANCE	-11.5068
マスコット	-11.5068
建設された	-11.5068
はじめて	-11.5069
コラボレーション	-11.5069
エキ	-11.5071
GC	-11.5072
割引	-11.5072
▁National	-11.5073
仮説	-11.5074
-14	-11.5074
神楽	-11.5075
元帥	-11.5076
アップデート	-11.5077
Live	-11.5077
Pa	-11.5079
大阪府立	-11.5083
総額	-11.5083
は大きく	-11.5083
ふり	-11.5083
呼んで	-11.5083
プロセッサ	-11.5084
ness	-11.5085
前線	-11.5085
が廃止され	-11.5086
勢い	-11.5086
ros	-11.5087
浅井	-11.5087
憧れ	-11.5089
ぐち	-11.509
インディーズ	-11.509
の強化	-11.5091
駿河	-11.5091
ドロップ	-11.5092
占い	-11.5092
宮古	-11.5093
緩	-11.5093
以下のように	-11.5093
▁1908	-11.5096
石垣	-11.5097
新設された	-11.5099
コムーネ	-11.51
tan	-11.5101
マイアミ	-11.5101
まって	-11.5101
ディープ	-11.5101
曲線	-11.5102
菱	-11.5103
日本国有鉄道	-11.5104
滑走路	-11.5105
ウィーク	-11.5105
ons	-11.5105
強度	-11.5105
たものの	-11.5106
ロマンス	-11.5107
駐在所	-11.5107
付与	-11.5107
で行う	-11.5108
んでおり	-11.5109
でなく	-11.5109
歩く	-11.511
スロット	-11.511
の謎	-11.511
▁FESTIVAL	-11.511
▁1910	-11.5111
決断	-11.5112
OC	-11.5112
FR	-11.5113
新制	-11.5113
達に	-11.5114
ことができた	-11.5115
ことができ	-11.5115
ドラッグ	-11.5116
毎に	-11.5117
形式で	-11.5117
得る	-11.512
リフト	-11.5122
サード	-11.5122
たけし	-11.5123
迎えた	-11.5123
▁class	-11.5124
切って	-11.5125
どこか	-11.5125
凶	-11.5125
住宅地	-11.5125
デカ	-11.5126
を受け入れ	-11.5128
日本橋	-11.5129
▁City	-11.5132
地蔵	-11.5133
山陰	-11.5134
クエスト	-11.514
ゆえに	-11.514
が低い	-11.514
ブリン	-11.5141
スティーヴン	-11.5141
デバイス	-11.5141
野党	-11.5142
泳	-11.5143
書いて	-11.5145
ヒメ	-11.5146
欽	-11.5147
履歴	-11.5147
トレイン	-11.515
と考えられ	-11.5151
000	-11.5153
ico	-11.5155
綴	-11.5157
の記述	-11.5157
コンピレーション	-11.5157
ez	-11.5158
摂取	-11.5158
通学区域	-11.5158
調教師	-11.5158
題材	-11.5159
昼間	-11.516
ひかり	-11.516
する際	-11.516
1860	-11.516
はないが	-11.5161
チオ	-11.5163
復旧	-11.5164
会合	-11.5164
調教	-11.5166
が続いた	-11.5166
(1956	-11.5166
Se	-11.5166
ume	-11.5167
線の駅	-11.5168
紀行	-11.5169
和歌	-11.5169
欧	-11.5171
三原	-11.5171
曽根	-11.5172
其	-11.5173
バファローズ	-11.5173
孤独	-11.5173
実戦	-11.5174
普段	-11.5175
Paul	-11.5175
所得	-11.5176
しておらず	-11.5176
仇	-11.5178
紺	-11.5179
存在し	-11.5181
ケーブルテレビ	-11.5181
歌った	-11.5182
立法	-11.5183
不振	-11.5183
挙げられ	-11.5183
▁MX	-11.5184
正確な	-11.5185
フェロー	-11.5185
伊賀	-11.5186
繰り返し	-11.5186
個性	-11.5187
に向けた	-11.5187
はるか	-11.5188
ding	-11.5188
淑	-11.5189
ユン	-11.519
演じる	-11.519
シブ	-11.5192
JI	-11.5192
ホセ	-11.5192
カウント	-11.5194
校区	-11.5195
商工	-11.5196
目録	-11.5198
セリフ	-11.5199
に収録された	-11.5199
が掲載され	-11.5201
帰国後	-11.5202
体内	-11.5203
を集めた	-11.5204
久美子	-11.5205
西尾	-11.5205
を題材とした映画作品	-11.5205
萩原	-11.5205
FU	-11.5205
key	-11.5207
数え	-11.5208
ose	-11.521
間隔	-11.521
チームメイト	-11.5212
看護師	-11.5212
GOLD	-11.5213
行動を	-11.5213
頃には	-11.5214
秩序	-11.5215
本国	-11.5215
▁1906	-11.5217
クラウン	-11.5217
作中では	-11.522
逸話	-11.5221
テッ	-11.5222
side	-11.5223
に移籍した	-11.5224
代藩主	-11.5225
精度	-11.5225
永田	-11.5225
▁Fa	-11.5226
の町名	-11.5226
指数	-11.5227
司会者	-11.5229
寅	-11.523
AIR	-11.523
疑惑	-11.5231
皇太子	-11.5231
専門は	-11.5232
ime	-11.5234
花嫁	-11.5234
借り	-11.5235
鎌	-11.5235
いっぱい	-11.5236
大学生	-11.5237
4.5	-11.5238
予告	-11.5238
日本海軍	-11.5239
ギャング	-11.5239
ディーン	-11.5239
ものではない	-11.5242
PHP	-11.5243
メンバーが	-11.5243
経済学者	-11.5243
シェー	-11.5244
識別	-11.5244
谷川	-11.5245
隈	-11.5246
経由で	-11.5246
祈り	-11.5247
▁VERSION	-11.5247
に向かった	-11.5247
平行	-11.5247
▁American	-11.5248
WWE	-11.5249
time	-11.525
ミア	-11.525
を学んだ	-11.5251
を終えた	-11.5251
を超えた	-11.5252
ケネディ	-11.5252
▁近藤	-11.5253
用いる	-11.5254
伊丹	-11.5254
Tom	-11.5255
佐久間	-11.5255
ノット	-11.5255
対話	-11.5257
バリエーション	-11.5257
大河ドラマ	-11.5257
開幕戦	-11.526
ーダ	-11.526
大阪市立	-11.5261
幼い頃	-11.5261
門下	-11.5262
習慣	-11.5263
ヘー	-11.5263
覚え	-11.5264
9:30	-11.5264
Mk	-11.5265
右手	-11.5265
利用可能	-11.5265
連合国	-11.5266
▁And	-11.5267
カーブ	-11.5267
曾	-11.5267
重視	-11.5268
SNS	-11.5268
た際に	-11.5268
生まれた	-11.527
淡路	-11.527
北部の	-11.5271
スカパー	-11.5271
やく	-11.5272
ソビエト	-11.5273
旬	-11.5273
交響楽団	-11.5273
棲	-11.5275
享保	-11.5275
don	-11.5276
カズ	-11.5276
田口	-11.5277
ヤクザ	-11.5278
に影響	-11.5279
道徳	-11.5279
裁判官	-11.5279
併合	-11.5279
▁ON	-11.528
スピン	-11.528
の普及	-11.5281
各社	-11.5282
することも	-11.5283
飛騨	-11.5284
DISC	-11.5284
お金	-11.5284
配慮	-11.5285
墳	-11.5285
ESS	-11.5286
ホッ	-11.5286
の模様	-11.5287
▁SUPER	-11.5287
避	-11.5287
ウェー	-11.529
北西部	-11.529
服装	-11.5291
LAN	-11.5292
JRA	-11.5292
豪華	-11.5293
高麗	-11.5293
の影響を受け	-11.5293
軽減	-11.5293
受付	-11.5294
を伴う	-11.5295
外野手	-11.5295
究極	-11.5295
していたこと	-11.5295
ッケ	-11.5295
TP	-11.5297
るまで	-11.5298
▁Tri	-11.5299
RED	-11.5299
win	-11.53
建物は	-11.53
所属事務所	-11.5301
を持っており	-11.5301
万石	-11.5304
後援	-11.5305
ふれあい	-11.5305
推理	-11.5305
師範学校	-11.5306
励	-11.5307
リントン	-11.5308
▁日本の男性	-11.5308
近年の	-11.5308
掘	-11.5308
国際連合	-11.5308
困	-11.5309
レモン	-11.5309
再選	-11.531
に変え	-11.531
腫瘍	-11.531
並ぶ	-11.5311
に続いて	-11.5312
破り	-11.5313
続けて	-11.5313
あわせて	-11.5313
喜劇	-11.5315
!』(	-11.5316
観光客	-11.5317
ナノ	-11.5319
鯨	-11.532
しっかり	-11.5321
予定だった	-11.5321
ori	-11.5321
閣僚	-11.5321
知り合い	-11.5322
高齢者	-11.5323
麓	-11.5323
レギュラー出演	-11.5324
FW	-11.5324
高槻	-11.5324
農林	-11.5324
姿で	-11.5325
▁プロフィール	-11.5325
の腕	-11.5325
簡単に	-11.5326
正式名称	-11.5327
のうた	-11.5328
改定	-11.5333
鎮圧	-11.5334
日本の漫画家	-11.5336
スマイル	-11.5336
ゆめ	-11.5337
YU	-11.5337
たろう	-11.5337
与えられる	-11.5338
▁1897	-11.5338
音楽プロデューサー	-11.5338
オルガン	-11.5338
東海道	-11.5339
ring	-11.534
シム	-11.5342
パナソニック	-11.5342
久留米	-11.5342
アレクサンドル	-11.5342
が無く	-11.5344
ゴロ	-11.5345
DREAM	-11.5346
トイ	-11.5348
VHS	-11.5348
きよ	-11.5348
魔界	-11.535
父親は	-11.5351
母体	-11.5351
接続する	-11.5351
盛ん	-11.5351
ホイ	-11.5353
Studio	-11.5353
就役	-11.5354
モジュール	-11.5355
チャージ	-11.5355
素数	-11.5357
情勢	-11.5357
かき	-11.5358
ARD	-11.5359
トゥール	-11.5359
進水	-11.5359
をかける	-11.536
意思	-11.5361
健太	-11.5361
らぬ	-11.5361
ラッセル	-11.5363
嘆	-11.5363
ホーク	-11.5365
実務	-11.5365
。1998	-11.5365
見て	-11.5366
虐待	-11.5369
ヴィクトリア	-11.5369
sis	-11.5371
ood	-11.5372
舞鶴	-11.5373
パズル	-11.5374
過ごす	-11.5375
追悼	-11.5375
同人	-11.5376
情報番組	-11.5376
二度	-11.5376
想像	-11.5377
考える	-11.5377
受容体	-11.5378
に分割	-11.5378
尽く	-11.5379
もあるが	-11.538
法政大学	-11.538
書簡	-11.538
セールス	-11.5381
述べた	-11.5381
胴体	-11.5381
船体	-11.5382
傑	-11.5382
発足した	-11.5383
亡	-11.5384
早朝	-11.5384
━━━	-11.5385
ヨウ	-11.5385
小西	-11.5386
プレーヤー	-11.5386
されておらず	-11.5387
和夫	-11.5388
復活した	-11.539
NPO	-11.5391
スケジュール	-11.5391
スタント	-11.5391
とみなされ	-11.5393
始動	-11.5394
フライ級	-11.5394
とする説	-11.5395
▁Video	-11.5396
à	-11.5396
釈放	-11.5397
を創設	-11.5397
SW	-11.5397
学科卒業	-11.5398
オリジナルの	-11.5399
スティー	-11.5399
1896	-11.5399
電圧	-11.5401
ユニフォーム	-11.5402
Ni	-11.5402
が追加され	-11.5402
行っていた	-11.5403
告	-11.5404
相棒	-11.5405
大日本	-11.5405
市営	-11.5406
頂点	-11.5407
年開業の	-11.5407
あなたの	-11.5408
新しく	-11.5408
江戸幕府	-11.5408
KING	-11.5411
単体	-11.5411
と言える	-11.5412
どちらも	-11.5413
人目の	-11.5414
と出会い	-11.5414
役職	-11.5416
ごとの	-11.5416
ばし	-11.5417
SV	-11.5417
読売ジャイアンツ	-11.5417
ニンテンドー	-11.5418
単一	-11.5419
責	-11.5419
ララ	-11.542
ことがあった	-11.5422
豊川	-11.5422
社会党	-11.5423
残された	-11.5423
NEC	-11.5424
かかる	-11.5425
ることになる	-11.5426
を止め	-11.5426
キリン	-11.5427
はいずれも	-11.5427
、1963	-11.5428
MON	-11.5429
同校	-11.5429
WBC	-11.5429
を設立した	-11.543
ドス	-11.543
サビ	-11.5431
を超え	-11.5431
lect	-11.5432
突破	-11.5434
rad	-11.5435
理科	-11.5436
の漫画作品	-11.5436
直前の	-11.5437
デルタ	-11.5438
上がって	-11.5438
農場	-11.5439
22:00	-11.5439
採用されている	-11.5441
▁富山県	-11.5441
▁福井県	-11.5441
粒	-11.5442
内での	-11.5444
歩き	-11.5444
ハイパー	-11.5445
小田急	-11.5446
本山	-11.5448
かげ	-11.5448
かせる	-11.5448
MIX	-11.5448
購入した	-11.5449
ペルシア	-11.5449
、1940	-11.545
えば	-11.545
救済	-11.5451
の経緯	-11.5452
みん	-11.5453
金銭	-11.5454
すき	-11.5454
大型の	-11.5456
改め	-11.5457
フェルト	-11.5457
曜日	-11.5457
を書いた	-11.5461
を継承	-11.5462
発現	-11.5463
慶應義塾	-11.5464
っていく	-11.5465
を知った	-11.5465
UC	-11.5465
自信	-11.5466
使用している	-11.5466
寄贈	-11.5467
付きの	-11.5468
デビューした	-11.5472
大内	-11.5472
常務	-11.5475
ars	-11.5476
狭い	-11.5477
異世界	-11.5478
を発行	-11.548
優秀な	-11.548
二等	-11.5484
▁Edition	-11.5485
▁1913	-11.5485
浮か	-11.5488
があること	-11.5488
厚生労働省	-11.5488
初勝利	-11.5492
une	-11.5493
ミドル	-11.5493
あて	-11.5493
ウイング	-11.5498
ローレンス	-11.55
RD	-11.55
魔力	-11.5501
ATE	-11.5501
坂井	-11.5502
水域	-11.5503
にあって	-11.5504
閑	-11.5504
クリエイティブ	-11.5504
ワンマンライブ	-11.5504
が存在した	-11.5504
ということで	-11.5505
失われ	-11.5505
北川	-11.5507
消えた	-11.5508
と呼称	-11.5508
天文台	-11.5508
盗塁	-11.5509
の危機	-11.551
トロント	-11.5511
コラム	-11.5511
1-3	-11.5512
最期	-11.5512
の監督映画	-11.5512
永遠	-11.5512
大関	-11.5512
ジロ	-11.5513
東京市	-11.5513
用地	-11.5515
▁Part	-11.5516
オールナイトニッポン	-11.552
her	-11.5521
テリー	-11.5521
本部長	-11.5522
1800	-11.5522
プト	-11.5522
新春	-11.5525
6000	-11.5525
閉じ	-11.5525
が設けられ	-11.5526
騒	-11.5527
生誕	-11.5527
利用される	-11.5527
ジョセフ	-11.5529
ディーゼル	-11.5532
フィクション	-11.5532
治安	-11.5534
動脈	-11.5534
すり	-11.554
キャッチ	-11.554
の拠点	-11.5541
看	-11.5541
元素	-11.5541
1.6	-11.5542
р	-11.5542
未だ	-11.5543
▁利用状況	-11.5543
ダック	-11.5543
は一切	-11.5543
創始	-11.5543
だけではなく	-11.5543
語源	-11.5544
一橋大学	-11.5544
-29	-11.5544
正確に	-11.5544
工程	-11.5546
があって	-11.5547
、1959	-11.5549
の先輩	-11.5549
健太郎	-11.555
ヘビー級	-11.555
に使われる	-11.5551
ざわ	-11.5551
描き	-11.5551
可決	-11.5551
理念	-11.5551
豊富	-11.5551
年頃に	-11.5553
三十	-11.5554
パーセント	-11.5554
をつけて	-11.5554
させられた	-11.5555
血液型は	-11.5557
セレ	-11.5558
1897	-11.5558
志願	-11.5558
主として	-11.5558
月上旬	-11.5558
撫	-11.5558
電磁	-11.5559
といわれている	-11.556
麻衣	-11.5562
ッテ	-11.5562
失踪	-11.5564
上述の	-11.5564
常識	-11.5564
本堂	-11.5564
陸上自衛隊	-11.5564
バブル	-11.5565
リアス	-11.5565
川駅	-11.5565
Str	-11.5566
頼朝	-11.5566
りつ	-11.5567
愛情	-11.5567
の正体	-11.5567
由美	-11.5567
が困難	-11.5569
徳川家康	-11.557
ルノー	-11.5571
カレンダー	-11.5571
グン	-11.5571
ラーズ	-11.5571
太刀	-11.5575
貯	-11.5576
寸	-11.5578
新日本	-11.5582
アレン	-11.5582
に位置している	-11.5583
不思議な	-11.5583
佐久	-11.5584
働	-11.5584
方法で	-11.5584
於	-11.5586
この年の	-11.5586
破産	-11.5586
相互作用	-11.5587
ランチ	-11.5587
教官	-11.5588
▁趣味は	-11.5588
ものだ	-11.5589
馬力	-11.5589
喰	-11.559
にしか	-11.5591
グラビア	-11.5591
してしまい	-11.5591
担任	-11.5593
正常	-11.5594
カップリング曲	-11.5595
黒川	-11.5596
pro	-11.5596
カウンター	-11.5597
を占め	-11.5599
役割を果たし	-11.56
ful	-11.5601
9||	-11.5601
間接	-11.5601
知らず	-11.5602
ign	-11.5602
翠	-11.5602
敷地内	-11.5602
事前に	-11.5603
乗車券	-11.5603
学的	-11.5603
会見	-11.5605
飼い	-11.5605
ーニャ	-11.5606
現役引退	-11.5608
本人の	-11.561
文部省	-11.561
使われていた	-11.5613
総集編	-11.5613
異なり	-11.5614
ないもの	-11.5617
略称は	-11.5618
に加盟	-11.5622
停車駅	-11.5623
に到着した	-11.5623
沢村	-11.5624
首席	-11.5624
きみ	-11.5624
6-2	-11.5624
販売されている	-11.5625
絶望	-11.5627
、1961	-11.5627
je	-11.5628
友会	-11.5629
と感じ	-11.5629
ヤクルト	-11.5629
μ	-11.563
を失う	-11.563
$	-11.563
特別編	-11.5631
んぼ	-11.5631
難民	-11.5632
ローラ	-11.5632
みゆき	-11.5632
投下	-11.5633
を買い	-11.5634
の定義	-11.5634
惜	-11.5635
瑠	-11.5635
の壁	-11.5635
樺太	-11.5636
-30	-11.5636
収益	-11.5637
銅メダル	-11.5637
を探す	-11.5639
BEST	-11.5639
エウ	-11.564
mann	-11.564
ゆる	-11.564
騙	-11.564
そのほか	-11.5641
した結果	-11.5641
を実施した	-11.5641
京成	-11.5642
と称する	-11.5642
地理学	-11.5643
公式ホームページ	-11.5643
興業	-11.5644
助監督	-11.5645
エレクトリック	-11.5646
十両	-11.5647
と比べて	-11.5647
Dr	-11.5648
ok	-11.5649
魅	-11.5649
フランツ	-11.5649
拍子	-11.5649
度目	-11.5649
徳川家	-11.565
1200	-11.5652
を知り	-11.5652
衡	-11.5653
。2023	-11.5655
ニュータウン	-11.5657
坑	-11.5657
楚	-11.5657
に初めて	-11.5657
▁1917	-11.5658
めぐり	-11.5659
大社	-11.566
傘	-11.566
強さ	-11.566
マイナー	-11.5661
されることもある	-11.5662
台北	-11.5663
tis	-11.5664
1,2	-11.5664
ャ	-11.5664
が搭載され	-11.5665
臼	-11.5666
に戻って	-11.5666
awa	-11.5666
5||	-11.5668
上げて	-11.5669
ダール	-11.5669
シド	-11.5671
オールスターゲーム	-11.5672
普	-11.5673
James	-11.5674
採用され	-11.5675
PM	-11.5676
なんて	-11.5676
が生じる	-11.5676
切られ	-11.5676
、1958	-11.5678
と考える	-11.568
シャトル	-11.5681
がなされた	-11.5683
版画	-11.5683
を目的に	-11.5684
、1962	-11.5684
ミステリ	-11.5685
呼吸	-11.5685
メガネ	-11.5685
4-6	-11.5685
反面	-11.5687
を模した	-11.5688
竹田	-11.5688
東北地方	-11.569
の意見	-11.569
パキスタン	-11.569
ハイブリッド	-11.569
に対応した	-11.5691
ラング	-11.5693
渓谷	-11.5695
135	-11.5695
金山	-11.5698
言葉を	-11.5699
フォーラム	-11.5699
転校	-11.57
大垣	-11.57
アワー	-11.5701
倒産	-11.5702
ヒューストン	-11.5702
武者	-11.5703
本尊	-11.5703
性格は	-11.5705
エイジ	-11.5706
まもなく	-11.5706
大沢	-11.5706
牌	-11.5707
藻	-11.5707
。1970	-11.5708
うつ	-11.5708
傭兵	-11.5708
NFL	-11.5708
中西	-11.5709
な性格で	-11.5709
▁1907	-11.571
入植	-11.5711
生中継	-11.5711
入った	-11.5711
これも	-11.5711
キミ	-11.5711
奨励	-11.5711
胎	-11.5712
さつ	-11.5712
焼失	-11.5714
去る	-11.5715
須賀	-11.5716
見えない	-11.5717
正教会	-11.5717
col	-11.5718
最下位	-11.5719
の象徴	-11.5719
挿絵	-11.5719
ji	-11.572
マナ	-11.5721
この番組	-11.5721
讃	-11.5721
リンダ	-11.5721
を組んで	-11.5722
侠	-11.5723
難易度	-11.5724
こころ	-11.5726
西山	-11.5726
北東部	-11.5726
こともできる	-11.5727
ブラザーズ	-11.5729
つである	-11.573
たつ	-11.5731
両手	-11.5732
億ドル	-11.5733
クルーズ	-11.5733
設定された	-11.5734
のち文庫	-11.5735
夜に	-11.5736
アンドリュー	-11.5736
東京ドーム	-11.5736
することにより	-11.5737
inc	-11.5737
なな	-11.5738
代数	-11.5738
(1957	-11.574
支局	-11.574
排水	-11.5741
が用いられる	-11.5743
ACE	-11.5744
公立中学校	-11.5745
イオ	-11.5746
教徒	-11.5746
HOT	-11.5749
ini	-11.575
上越	-11.575
▁1900	-11.5752
預	-11.5752
この時点で	-11.5753
マッカーサー	-11.5756
史上初の	-11.5757
圓	-11.5757
1.1	-11.5757
らせた	-11.5759
と言われた	-11.576
津山	-11.576
持っている	-11.5761
渚	-11.5763
渦	-11.5763
ナトリウム	-11.5763
割れ	-11.5763
OD	-11.5763
nes	-11.5764
ひこ	-11.5764
浮上	-11.5764
歌集	-11.5766
佐倉	-11.5767
出荷	-11.5767
中立	-11.5769
突如	-11.5769
ひとみ	-11.577
八尾	-11.5771
部隊は	-11.5772
的存在	-11.5773
ines	-11.5774
ざき	-11.5777
が起き	-11.5778
アンティ	-11.5778
進め	-11.5779
ボクサー	-11.5779
出場し	-11.578
義経	-11.578
を倒す	-11.5781
コミュニケーションズ	-11.5781
影響を受けた	-11.5783
つけられ	-11.5784
デア	-11.5788
双葉	-11.5788
ピック	-11.5789
などにより	-11.5789
の成立	-11.5789
解散した	-11.579
ことがあり	-11.5791
を発見した	-11.5792
vers	-11.5793
▁1911	-11.5795
チック	-11.5795
洪	-11.5796
プラスチック	-11.5796
チェスター	-11.5796
室蘭	-11.5799
6-1	-11.5799
田舎	-11.5799
経験者	-11.58
通っている	-11.5801
狙撃	-11.5802
アコースティック	-11.5802
ふた	-11.5803
るよう	-11.5803
商会	-11.5803
運転手	-11.5803
定期的に	-11.5803
みんなの	-11.5805
を越えて	-11.5805
撃退	-11.5806
具体的な	-11.5806
暖	-11.5806
冥	-11.5807
制約	-11.5811
西暦	-11.5814
ert	-11.5815
を受けていた	-11.5816
象徴	-11.5816
踊る	-11.5817
風俗	-11.5817
不動	-11.5817
0.1	-11.5818
と考えた	-11.582
と結婚し	-11.5821
愛知県名古屋市	-11.5821
コリン	-11.5821
定められた	-11.5822
FS	-11.5822
うん	-11.5823
明かされ	-11.5823
コパ	-11.5824
蜜	-11.5824
シンデレラ	-11.5824
の同級生	-11.5824
UK	-11.5824
記念日	-11.5826
伊那	-11.5827
実証	-11.583
本館	-11.5833
スワ	-11.5833
let	-11.5834
枠で	-11.5835
夜行	-11.5836
アルミ	-11.5837
Na	-11.5837
の変遷	-11.5838
蜂	-11.584
市街	-11.5841
ART	-11.5842
エアロ	-11.5842
の親友	-11.5843
||||||	-11.5844
掲載されている	-11.5846
ルネサンス	-11.5847
ロジャー	-11.5849
いとう	-11.585
運休	-11.5851
ていき	-11.5851
指摘されている	-11.5852
暴行	-11.5854
▁イングランドの	-11.5854
双子	-11.5855
ater	-11.5855
を取った	-11.5855
備え	-11.5856
無理	-11.5856
STA	-11.5857
ロシア連邦	-11.5858
表明	-11.586
リッジ	-11.5861
村が発足	-11.5861
PRO	-11.5861
イギリス軍	-11.5862
放送されている	-11.5863
がなされ	-11.5865
マザー	-11.5867
報じられた	-11.5867
ニーズ	-11.5867
終わった	-11.5868
自分に	-11.5868
礁	-11.5869
1||0	-11.5869
▁Sta	-11.5869
円形	-11.5869
用として	-11.5871
数少ない	-11.5872
誇	-11.5872
先住民	-11.5873
ニコラ	-11.5874
食べ物	-11.5874
楽園	-11.5874
を奪い	-11.5875
欠点	-11.5875
支払	-11.5877
アーチ	-11.5877
FIFA	-11.5877
lic	-11.5878
区画	-11.5879
歳没	-11.588
を名乗る	-11.588
町名	-11.588
vin	-11.588
展望	-11.5881
カ国	-11.5882
電流	-11.5884
設けられ	-11.5886
載せ	-11.5886
クリエイト	-11.5887
its	-11.5887
残されている	-11.5887
用いられる	-11.5887
。1996	-11.5887
和彦	-11.5888
(#1	-11.5889
の拡大	-11.589
▁UEFA	-11.589
舷	-11.589
リンゴ	-11.5891
杉本	-11.5891
鱗	-11.5892
に出場し	-11.5893
民国	-11.5893
フレッシュ	-11.5894
リン酸	-11.5895
センサー	-11.5896
嬢	-11.5897
さいたま市	-11.5897
7||	-11.5901
名乗り	-11.5903
寂	-11.5903
盆	-11.5903
樽	-11.5903
▁2.	-11.5903
JP	-11.5903
を卒業し	-11.5904
務める	-11.5905
デール	-11.5906
ショッピング	-11.5907
魯	-11.5908
に似ている	-11.5908
のもとに	-11.5908
奪還	-11.5909
モニター	-11.591
ヴィッチ	-11.591
櫻井	-11.591
形成された	-11.5912
が追加された	-11.5913
累計	-11.5915
少なく	-11.5917
后	-11.5917
ada	-11.5917
合衆国	-11.5918
ルビー	-11.5919
を避け	-11.5919
ハット	-11.592
の伝統	-11.5921
0-3	-11.5924
リヒ	-11.5924
ゆい	-11.5925
Play	-11.5925
北上	-11.5926
を巡る	-11.5926
の市町村	-11.5926
ヴォーカル	-11.5927
大相撲	-11.5929
の冒険	-11.5929
の多くが	-11.593
テュー	-11.5932
取り付け	-11.5935
誘い	-11.5935
SMAP	-11.5938
支給	-11.5938
と比較して	-11.5938
沼津	-11.5938
▁参考	-11.5939
永久	-11.5942
を採用し	-11.5943
一色	-11.5943
あって	-11.5944
に耐え	-11.5944
Xbox	-11.5945
殺害された	-11.5946
。1997	-11.5948
駅西口	-11.5949
アドレス	-11.5949
関東地方	-11.595
ゴミ	-11.5952
薩摩	-11.5952
基幹	-11.5952
舞踊	-11.5957
この事件	-11.5958
八幡宮	-11.5958
捧げ	-11.5958
前年の	-11.596
ドイツ人	-11.5961
ダイエー	-11.5965
番手	-11.5966
特捜	-11.5966
水谷	-11.5966
軽量	-11.5966
攻撃力	-11.5967
バージニア州	-11.5969
渋	-11.597
ハンマー	-11.597
膳	-11.5971
大江	-11.5972
▁1915	-11.5973
浸	-11.5974
モモ	-11.5974
ピッチ	-11.5975
認	-11.5977
西ドイツ	-11.5977
店主	-11.5978
訪れる	-11.5978
文政	-11.5978
ボット	-11.5981
第六	-11.5982
、1930	-11.5982
中日ドラゴンズ	-11.5982
日本政府	-11.5983
づか	-11.5985
ファンクラブ	-11.5986
に指定された	-11.5986
フィッシュ	-11.5988
熊本市	-11.5989
夏休み	-11.5989
見方	-11.5989
スズキ	-11.5989
朝鮮半島	-11.599
生徒会	-11.599
記す	-11.599
を兼ね	-11.5991
CBS	-11.5992
ルーキー	-11.5993
ula	-11.5993
殿堂	-11.5995
ロックバンド	-11.5998
位を獲得	-11.5999
タービン	-11.5999
大ヒット	-11.5999
アフ	-11.5999
デジ	-11.5999
カニ	-11.6
nu	-11.6
噴	-11.6005
と発言	-11.6005
最長	-11.6006
人々は	-11.6006
HT	-11.6006
原稿	-11.6006
アズ	-11.6007
になってから	-11.6007
名目	-11.6008
ケリー	-11.6008
スタイン	-11.6009
の意向	-11.6011
描かれる	-11.6011
阻害	-11.6015
とよ	-11.6015
米ドル	-11.6015
じる	-11.6015
皇族	-11.6016
SOD	-11.6019
路面電車	-11.6022
が放送された	-11.6022
オフィシャルサイト	-11.6024
KK	-11.6024
、1955	-11.6026
スカート	-11.6027
求められる	-11.6028
ミッ	-11.6028
本番組	-11.603
を担当している	-11.603
aki	-11.6031
させようと	-11.6031
オッ	-11.6031
書類	-11.6032
本当の	-11.6032
六本木	-11.6034
主婦	-11.6036
大友	-11.6037
本気	-11.6038
MM	-11.604
日の放送	-11.604
利用されている	-11.6041
実質的に	-11.6042
日本国内で	-11.6042
気分	-11.6043
上手	-11.6043
頻度	-11.6044
スイスの	-11.6044
下野	-11.6044
木曽	-11.6045
美穂	-11.6047
ツァー	-11.6047
lie	-11.6048
Love	-11.605
紳士	-11.6051
訪れ	-11.6052
販売された	-11.6052
▁道の駅	-11.6053
ホルン	-11.6054
平等	-11.6054
EV	-11.6056
転落	-11.6056
rin	-11.6057
錠	-11.6057
移設	-11.6058
NASA	-11.6058
数学者	-11.6058
オートバイ	-11.6059
口調	-11.606
青少年	-11.606
を対象に	-11.6061
ヒート	-11.6062
ハミルトン	-11.6062
翁	-11.6062
激怒	-11.6063
に迎え	-11.6064
ソリ	-11.6064
池上	-11.6064
Kiss	-11.6067
グローブ	-11.6067
も見られる	-11.6068
в	-11.6068
バッテリー	-11.6068
PART	-11.6069
テイク	-11.6071
武術	-11.6071
パトリック	-11.6071
が導入され	-11.6072
裏切り	-11.6073
急遽	-11.6074
を深め	-11.6075
無かった	-11.6076
LED	-11.6077
ろうと	-11.6078
吉本	-11.6079
駅より	-11.608
お笑い芸人	-11.608
メディ	-11.6081
封じ	-11.6082
を着用し	-11.6082
神奈川県横浜市	-11.6083
セルフ	-11.6084
カプセル	-11.6085
番号は	-11.6086
背負	-11.6086
←	-11.6086
番目	-11.6088
にならない	-11.6089
日の対	-11.609
を高め	-11.609
が良く	-11.6091
皿	-11.6091
鉢	-11.6091
与えられた	-11.6092
誤り	-11.6093
▁Die	-11.6094
泡	-11.6095
一次	-11.6095
収穫	-11.6097
マニュアル	-11.6097
に持ち	-11.6097
▁Version	-11.6097
競輪	-11.6099
天文学者	-11.6099
キシ	-11.6099
監督に就任	-11.61
は不明である	-11.61
沼田	-11.6103
運搬	-11.6103
ありがとう	-11.6103
ゅ	-11.6104
を目的として	-11.6105
ようで	-11.6108
▁Science	-11.6109
、1956	-11.6109
シベリア	-11.6109
キャット	-11.6111
連続で	-11.6112
aku	-11.6113
変数	-11.6114
ナカ	-11.6116
初当選	-11.6118
の形状	-11.6118
飛行隊	-11.6118
流し	-11.6119
大崎	-11.612
麻薬	-11.612
つ前は	-11.6121
政界	-11.6121
起工	-11.6124
低く	-11.6125
だし	-11.6125
洛	-11.6126
▁MOVIE	-11.6126
自動的に	-11.6126
が同じ	-11.6128
を目指し	-11.6132
エルフ	-11.6133
のほかに	-11.6133
惑	-11.6133
ホーン	-11.6134
の子会社	-11.6134
。1994	-11.6135
アニメでは	-11.6135
▁Rock	-11.6136
も担当	-11.6136
せて	-11.6138
ual	-11.6139
ティエ	-11.6139
は無く	-11.614
妄想	-11.6142
ウェイン	-11.6142
zi	-11.6144
静岡市	-11.6146
は少ない	-11.6149
ハウゼン	-11.6149
fi	-11.6151
ISO	-11.6151
トーン	-11.6153
公益財団法人	-11.6155
ative	-11.6155
を送って	-11.6155
しやすい	-11.6156
を目指した	-11.6158
語った	-11.6158
を設定	-11.6159
けない	-11.6159
朝鮮人	-11.6161
、1957	-11.6161
傾斜	-11.6162
ステレオ	-11.6162
試合に出場し	-11.6163
が悪い	-11.6163
内村	-11.6163
Miss	-11.6164
rus	-11.6164
脱走	-11.6165
求め	-11.6166
駅間の	-11.6166
開き	-11.6166
河出書房新社	-11.6166
域の廃止市町村	-11.6166
イナ	-11.6167
潟	-11.6167
記念碑	-11.6168
ブッシュ	-11.617
胴	-11.617
最高速度	-11.6171
戦記	-11.6171
奨	-11.6172
レシピ	-11.6172
角川文庫	-11.6174
去り	-11.6175
型式	-11.6175
ついて	-11.6176
現金	-11.6176
同名	-11.6177
と発表	-11.6177
新社	-11.618
制圧	-11.618
クロウ	-11.6182
明るく	-11.6183
射殺	-11.6184
必殺	-11.6184
ゴリ	-11.6185
実習	-11.6186
era	-11.6187
のアニメ作品	-11.6187
▁WORLD	-11.6188
スキー場	-11.6188
春秋	-11.6189
緑地	-11.6189
ミク	-11.619
委	-11.619
不思議	-11.6192
の主張	-11.6193
移動する	-11.6195
を相手に	-11.6195
鑑定	-11.6196
西宮	-11.6196
風呂	-11.6196
ニョ	-11.6197
に終わり	-11.6198
自作	-11.62
になってしまう	-11.6201
もちろん	-11.6201
▁路線データ	-11.6202
に分かれ	-11.6202
那覇	-11.6204
海兵隊	-11.6205
tur	-11.6205
以降も	-11.6206
簿	-11.6206
内陸	-11.6206
クラッシュ	-11.6206
スポーツ選手	-11.6206
事業部	-11.6207
古賀	-11.621
パティ	-11.6211
武将	-11.6211
慰	-11.6212
イク	-11.6213
アーズ	-11.6215
ばれ	-11.6215
今日の	-11.6215
人文	-11.6216
ぶら	-11.6216
歩道	-11.6216
償	-11.6217
イタリア語	-11.6217
XX	-11.6218
へ移転	-11.6218
音楽番組	-11.6219
▁1901	-11.6219
系電車	-11.622
cho	-11.622
薄い	-11.622
歴史学者	-11.6222
十四	-11.6222
(1954	-11.6223
2024	-11.6224
を狙う	-11.6224
国民党	-11.6224
hen	-11.6225
ace	-11.6225
コリ	-11.6225
苦労	-11.6225
▁MASTER	-11.6225
を原作とする	-11.6225
FINAL	-11.6227
ギス	-11.6228
新羅	-11.6229
短期	-11.6229
吾妻	-11.6231
独裁	-11.6231
タニ	-11.6231
絶え	-11.6233
バッグ	-11.6234
に代わり	-11.6234
調布	-11.6235
burg	-11.6236
じり	-11.6239
の練習	-11.624
接する	-11.6241
盆地	-11.6242
緊張	-11.6242
逃走	-11.6243
ロク	-11.6244
南西部	-11.6244
と統合し	-11.6248
len	-11.6248
と称し	-11.6248
tz	-11.6249
STOR	-11.6249
ニシ	-11.625
テリア	-11.625
カルロ	-11.6251
この際	-11.6255
作る	-11.6257
暑	-11.6259
飲食店	-11.6259
紅白歌合戦	-11.626
スキン	-11.626
郡区	-11.6261
と評している	-11.6262
外来	-11.6264
をもたらす	-11.6265
も含む	-11.6266
始発	-11.6266
ちん	-11.6266
現れる	-11.6266
無視	-11.6267
簡	-11.6269
に搭載され	-11.627
ストー	-11.627
檀	-11.6271
ナポリ	-11.6272
かおり	-11.6272
が実施され	-11.6273
を聞いた	-11.6275
John	-11.6275
大学卒業後	-11.6276
が開催された	-11.6277
デラ	-11.6277
増強	-11.6277
児玉	-11.6278
ポロ	-11.6279
カップル	-11.6279
ani	-11.6279
市販	-11.628
高地	-11.628
メリット	-11.6281
ネズミ	-11.6283
山川	-11.6285
帰る	-11.6285
4-5	-11.6286
ハンドル	-11.6286
古墳群	-11.6287
文法	-11.6287
決着	-11.6288
フルート	-11.6288
エストニア	-11.6289
巌	-11.6289
サーバ	-11.6289
研究開発	-11.6293
チャンピオンズリーグ	-11.6295
薬品	-11.6295
バス路線	-11.6295
戻す	-11.6297
▁Project	-11.6297
在学中	-11.6298
左側	-11.6299
を手に	-11.6299
伝え	-11.63
明かし	-11.63
Little	-11.6301
所領	-11.6301
はそのまま	-11.6303
ヒュ	-11.6304
物流	-11.6304
運び	-11.6305
アルメニア	-11.6307
告示	-11.6307
240	-11.6308
の指示	-11.6308
最高裁判所	-11.6309
思われ	-11.6311
ネク	-11.6311
も同じ	-11.6312
テム	-11.6312
家老	-11.6312
リーチ	-11.6313
寺田	-11.6314
ってしまった	-11.6314
間違い	-11.6314
奈々	-11.6315
ぶつ	-11.6315
LT	-11.6316
代役	-11.6316
▁島根県	-11.6321
魔術	-11.6321
日指定	-11.6321
を助け	-11.6322
としての活動	-11.6323
貨幣	-11.6324
で唯一	-11.6324
補償	-11.6324
フランソワ	-11.6324
上院議員	-11.6325
ELL	-11.6326
破壊された	-11.6327
淀	-11.6328
に移住	-11.6329
の住人	-11.6329
らと共に	-11.633
▁High	-11.6331
フレンド	-11.6331
京子	-11.6332
ポルシェ	-11.6332
ヤマハ	-11.6333
海戦	-11.6333
1.8	-11.6336
題名	-11.6337
回裏に	-11.6337
集まり	-11.6337
録画	-11.6338
フィギュア	-11.6338
増加した	-11.6339
切り替え	-11.634
リサーチ	-11.634
For	-11.634
なつ	-11.6342
尖	-11.6342
を挟んで	-11.6342
をとり	-11.6343
Book	-11.6343
elle	-11.6344
一気に	-11.6345
ロップ	-11.6345
WO	-11.6345
摘	-11.6347
年度から	-11.6347
祇園	-11.6348
トランプ	-11.6348
繁栄	-11.635
にかけ	-11.6352
ソフィア	-11.6354
ソーシャル	-11.6355
をつけた	-11.6355
リンカーン	-11.6355
を読み	-11.6355
聖人	-11.6358
を卒業後	-11.6359
リーフ	-11.636
アレクサンダー	-11.636
休暇	-11.636
URE	-11.6361
流用	-11.6361
ナッ	-11.6363
米子	-11.6363
金融機関	-11.6363
旧姓	-11.6364
かかり	-11.6365
菊地	-11.6365
zo	-11.6366
マドンナ	-11.6366
Summer	-11.6366
とりわけ	-11.6366
転送	-11.6369
直営	-11.6369
健二	-11.6371
ざん	-11.6371
尋ね	-11.6372
に残る	-11.6372
成績は	-11.6373
長尾	-11.6374
恐	-11.6375
が決まった	-11.6375
要件	-11.6376
ペーパー	-11.6376
テーション	-11.6376
少尉	-11.6378
ナミ	-11.6378
珍しく	-11.6378
右側	-11.6378
トライアル	-11.638
カーン	-11.638
わた	-11.638
ces	-11.6381
HE	-11.6383
敵に	-11.6383
民放	-11.6383
角川日本地名大辞典	-11.6383
構内	-11.6384
分かれ	-11.6386
ダウ	-11.6387
診	-11.6388
今度は	-11.6389
ds	-11.6389
INE	-11.6389
展覧会	-11.6389
日初版発行	-11.6389
分泌	-11.639
片山	-11.639
民謡	-11.639
商船	-11.639
music	-11.6392
特徴的な	-11.6393
会議員	-11.6394
巡回	-11.6395
除く	-11.6395
趣味は	-11.6395
婚姻	-11.6395
イキ	-11.6395
債権	-11.6397
全車	-11.6398
社内	-11.6398
wer	-11.64
のいずれか	-11.6401
レジャー	-11.6401
通知	-11.6401
流入	-11.6402
を進める	-11.6402
ラット	-11.6404
主将	-11.6405
次長	-11.6406
シャイ	-11.6406
ふん	-11.6407
ウェーブ	-11.6408
直人	-11.6408
党首	-11.6411
志摩	-11.6411
ラール	-11.6411
国宝	-11.6411
単なる	-11.6412
ima	-11.6412
足立	-11.6413
▁VOL	-11.6414
限定で	-11.6414
プレステージ	-11.6415
くす	-11.6415
を採用している	-11.6415
WE	-11.6416
閉校	-11.6418
跡地に	-11.6418
瀬川	-11.6419
恥	-11.6419
犠牲者	-11.6419
開戦	-11.642
為替	-11.642
AZ	-11.6421
掃	-11.6422
ニク	-11.6424
客室	-11.6425
頸	-11.6425
勅令第	-11.6426
ンダ	-11.6426
を活かし	-11.6426
ウォーカー	-11.6426
得た	-11.6427
喜び	-11.6427
新川	-11.6428
cul	-11.643
奔	-11.6431
故に	-11.6432
ナギ	-11.6432
関連会社	-11.6434
の終わり	-11.6434
をそのまま	-11.6435
▁日本の男優	-11.6435
起用され	-11.6436
に仕え	-11.6436
客員教授	-11.6437
伝わる	-11.6437
任意	-11.6438
所収	-11.6439
オーガ	-11.644
1.3	-11.644
ted	-11.6442
に指定され	-11.6443
吟	-11.6443
アジア競技大会	-11.6444
アヤ	-11.6446
▁1909	-11.6447
飛ばし	-11.6448
通信社	-11.6449
Game	-11.645
掘り	-11.645
前進	-11.6451
レインボー	-11.6451
回表に	-11.6453
ウト	-11.6453
。1995	-11.6454
ムスリム	-11.6455
for	-11.6459
樹立	-11.6459
起こる	-11.646
知多	-11.6461
の起源	-11.6462
lia	-11.6464
nk	-11.6465
犯行	-11.6465
探し	-11.6467
東海テレビ	-11.6467
本願寺	-11.6467
White	-11.6467
幼い	-11.6468
懲役	-11.6468
いずみ	-11.6468
薬師	-11.647
大部分	-11.6472
ハインリヒ	-11.6473
Ki	-11.6473
リリースした	-11.6473
微分	-11.6475
So	-11.6475
舞い	-11.6476
▁1896	-11.6476
に変更した	-11.6477
大仏	-11.6479
作動	-11.6479
青葉	-11.648
アオ	-11.6482
中尉	-11.6484
鵜	-11.6485
フォーマット	-11.6486
cha	-11.6486
理事会	-11.6487
50%	-11.6488
百済	-11.6488
全世界	-11.6488
女たち	-11.6489
矛盾	-11.649
上限	-11.6491
茜	-11.6491
ドキュメント	-11.6491
水島	-11.6492
を入れ	-11.6493
NWA	-11.6495
擁立	-11.6497
連載された	-11.6497
先祖	-11.6498
パーカー	-11.6498
大いに	-11.6499
家具	-11.65
という形で	-11.6501
となったため	-11.6502
硬式野球部	-11.6502
の指揮	-11.6503
危	-11.6504
をとった	-11.6505
TY	-11.6506
ドレ	-11.6507
を防ぐ	-11.6508
大西	-11.6509
オットー	-11.6509
を上げる	-11.6509
を題材とした楽曲	-11.651
問い	-11.651
気圧	-11.6513
演出家	-11.6513
が悪く	-11.6514
デイヴィッド	-11.6515
園芸	-11.6515
nel	-11.6517
淀川	-11.6517
麻呂	-11.6517
ions	-11.6517
焼け	-11.6518
乗せ	-11.6519
を再開	-11.652
Angel	-11.652
ケイン	-11.652
正しく	-11.652
凄	-11.652
校名	-11.6521
ダウンタウン	-11.6522
上から	-11.6523
ダート	-11.6523
落語家	-11.6524
変え	-11.6525
悔	-11.6526
lit	-11.6526
プラー	-11.6526
拒絶	-11.6527
ラインナップ	-11.6527
結ばれ	-11.6529
を備え	-11.6529
側近	-11.6531
結論	-11.6532
成功した	-11.6534
を認める	-11.6537
lat	-11.6538
と称される	-11.6538
審議	-11.6538
ふみ	-11.6541
髙	-11.6542
鶴岡	-11.6542
に生まれ	-11.6542
意義	-11.6543
理由として	-11.6543
異なっている	-11.6547
の名前は	-11.6547
環状線	-11.655
流星	-11.6551
楓	-11.6551
マッド	-11.6551
ミネ	-11.6551
食糧	-11.6551
代理店	-11.6552
4-3	-11.6553
知子	-11.6554
AU	-11.6555
とみられる	-11.6555
▁Your	-11.6556
歪	-11.6557
選び	-11.6557
AMP	-11.6557
フランス人	-11.6557
の誕生	-11.6557
寄稿	-11.6557
相次いで	-11.6558
ところに	-11.656
ks	-11.6562
里子	-11.6562
パンツ	-11.6563
岡山市	-11.6563
前駅	-11.6563
フォワード	-11.6564
次いで	-11.6564
名詞	-11.6565
をあげ	-11.6565
キャッシュ	-11.6566
欠場	-11.6568
瞬	-11.6569
を高める	-11.6569
よしもと	-11.6571
大学医学部	-11.6571
思う	-11.6573
新興	-11.6573
ことはできない	-11.6573
ずれ	-11.6574
発生した	-11.6574
添え	-11.6574
草津	-11.6576
開発した	-11.6577
屋町	-11.6579
優子	-11.658
前後の	-11.658
滋	-11.658
占め	-11.6581
デラックス	-11.6582
個々の	-11.6583
小牧	-11.6583
に転じ	-11.6583
テレビ朝日系	-11.6585
エンタープライズ	-11.6587
藝	-11.6587
多少	-11.6588
大夫	-11.6588
ドラー	-11.6588
特記	-11.6589
言えば	-11.6589
還元	-11.659
対局	-11.6591
ナナ	-11.6591
廟	-11.6593
書いている	-11.6594
替わり	-11.6594
ゾウ	-11.6595
自覚	-11.6597
発見した	-11.6598
したもので	-11.66
に限り	-11.66
渡る	-11.6601
遅く	-11.6601
遠い	-11.6601
寛政	-11.6602
▁出演作品	-11.6602
不二	-11.6603
されていなかった	-11.6603
いけない	-11.6604
窯	-11.6605
デトロイト	-11.6605
を残す	-11.6608
AO	-11.6608
帯広	-11.6609
マンチェスター	-11.6609
を利用し	-11.6609
pri	-11.6611
駅名	-11.6611
を要する	-11.6611
天然記念物	-11.6611
の生涯	-11.6611
同番組	-11.6613
の地理	-11.6613
挙行	-11.6613
作られ	-11.6614
いっ	-11.6616
紀子	-11.6617
sy	-11.662
だったという	-11.6621
ole	-11.6623
派遣された	-11.6623
との共同	-11.6625
がおり	-11.6625
合わせる	-11.6626
含め	-11.6627
enn	-11.6628
7000	-11.663
WEB	-11.6632
荒井	-11.6634
▁Special	-11.6634
アイアン	-11.6635
産物	-11.6636
---	-11.6637
ATION	-11.6638
永禄	-11.6638
に登場するキャラクター	-11.6638
橋駅	-11.6639
ald	-11.664
筑摩書房	-11.6642
化して	-11.6645
▁Pre	-11.6645
と違い	-11.6645
EM	-11.6645
紘	-11.6648
セレクション	-11.6648
を起用	-11.6648
する方法	-11.6649
つま	-11.6651
出向	-11.6653
鞭	-11.6653
標識	-11.6654
告発	-11.6655
rpm	-11.6656
市議会	-11.6657
終了後に	-11.6657
秀樹	-11.6657
潜水	-11.6657
.00	-11.6659
ホームズ	-11.666
くみ	-11.666
藤岡	-11.6661
新校舎	-11.6664
イレブン	-11.6665
特色	-11.6666
民営化	-11.6666
KT	-11.6666
レッスン	-11.6666
生地	-11.6666
決まって	-11.6669
殺され	-11.6672
悲しみ	-11.6672
定めた	-11.6672
オク	-11.6675
などを歴任	-11.6676
口から	-11.6676
稲荷	-11.6678
乗務員	-11.6678
予言	-11.6679
プラチナ	-11.6679
勝ちを収め	-11.668
食用	-11.6681
の組み合わせ	-11.6681
ウサギ	-11.6683
凌	-11.6684
■	-11.6684
スピンオフ	-11.6685
相違	-11.6685
総務省	-11.6686
魔法使い	-11.6686
の主要な	-11.6686
日本初の	-11.6687
組んだ	-11.6687
御用	-11.6687
換え	-11.6687
KC	-11.6689
ファクトリー	-11.669
ロードレース	-11.669
マケドニア	-11.669
精神的	-11.6691
川内	-11.6692
休み	-11.6692
RP	-11.6694
西郷	-11.6695
これから	-11.6695
てくれる	-11.6697
2-0	-11.6697
豊橋	-11.6698
と考えていた	-11.6698
漂	-11.67
キャサリン	-11.6703
同級生	-11.6703
ミサ	-11.6704
天地	-11.6704
ヶ崎	-11.6704
トリプル	-11.6705
ration	-11.6705
媒体	-11.6706
神学	-11.6707
が可能な	-11.6708
(3)	-11.6708
Type	-11.6709
招き	-11.6709
の為に	-11.6709
祈	-11.6713
第二次世界大戦後	-11.6714
rie	-11.6714
マーシャル	-11.6716
専務	-11.6716
が設立され	-11.6716
jo	-11.6718
するのが	-11.6718
述べ	-11.6718
これに対して	-11.6719
晴れ	-11.6719
一歩	-11.672
当社	-11.672
アフガニスタン	-11.6721
平方マイル	-11.6721
銃撃	-11.6723
も含めて	-11.6725
つけて	-11.6725
近接	-11.6727
次女	-11.6727
第二次世界大戦中	-11.6729
左手	-11.6729
BEAT	-11.673
が起こり	-11.6731
ケータイ	-11.6732
ネーション	-11.6732
視察	-11.6734
gra	-11.6735
ビクター	-11.6735
だよ	-11.6735
デート	-11.6736
ドラマー	-11.6736
土井	-11.6736
墓所	-11.6737
紹介された	-11.6737
に押し	-11.6737
チャイ	-11.6738
巡査	-11.674
柚	-11.674
供用開始	-11.674
紙幣	-11.6741
ough	-11.6743
生育	-11.6745
1,0	-11.6745
童話	-11.6745
▁London	-11.6746
と称して	-11.6746
、1949	-11.6746
ステイ	-11.6746
設置された	-11.6747
天候	-11.675
LC	-11.675
国際的な	-11.675
撰	-11.6751
に直接	-11.6752
優勝を果たした	-11.6754
入試	-11.6755
著しく	-11.6755
優位	-11.6756
マーン	-11.6756
round	-11.6756
の育成	-11.6756
たった	-11.6757
三男	-11.6758
ダイナ	-11.6762
電動	-11.6762
ハメ	-11.6763
を引き起こす	-11.6764
悪魔の	-11.6765
フロリダ州	-11.6766
ott	-11.6766
特技	-11.6768
くち	-11.6769
へん	-11.6769
を踏まえ	-11.677
会社である	-11.677
シュタット	-11.677
対照	-11.6771
役として	-11.6772
一見	-11.6772
二人は	-11.6772
四日市	-11.6772
が認められ	-11.6772
ぐり	-11.6773
NBC	-11.6773
こなし	-11.6775
ato	-11.6776
塵	-11.6776
変わらない	-11.6776
マンハッタン	-11.6776
▁Black	-11.6777
OWN	-11.6777
神崎	-11.6777
レズ	-11.6778
を失って	-11.6778
▁Cas	-11.6778
Let	-11.6778
勧	-11.678
交響曲	-11.678
を歴任した	-11.678
典型的な	-11.6781
、1954	-11.6782
?』	-11.6782
師範	-11.6783
砂糖	-11.6784
バッド	-11.6784
ぺ	-11.6785
サカ	-11.6787
格闘技	-11.6787
州立大学	-11.6787
寿命	-11.6789
afe	-11.679
配属	-11.679
▁#1	-11.6791
を統合し	-11.6793
王様	-11.6794
1/2	-11.6794
と見なされ	-11.6795
求められ	-11.6796
挟	-11.6797
ated	-11.6797
されることになった	-11.6797
された後	-11.6797
サーカス	-11.6798
補強	-11.68
取れ	-11.68
Michael	-11.6801
本庄	-11.6802
諦め	-11.6802
させられ	-11.6803
自由党	-11.6803
バナナ	-11.6804
共作	-11.6804
ナール	-11.6805
が残っている	-11.6806
amb	-11.6806
州都	-11.6806
ild	-11.6806
ノブ	-11.6807
吉川弘文館	-11.6807
立教大学	-11.6808
クハ	-11.6808
ひまわり	-11.6808
を題材とした	-11.6808
ロワ	-11.6809
を決定した	-11.681
に憧れ	-11.6811
自らが	-11.6813
を信じ	-11.6813
屋外	-11.6813
軍艦	-11.6813
MAR	-11.6814
町域	-11.6815
頃まで	-11.6815
アルバ	-11.6819
Ar	-11.6819
シチリア	-11.682
App	-11.682
ml	-11.6821
トレーナー	-11.6821
VER	-11.6821
の良い	-11.6821
キャノン	-11.6822
が現れる	-11.6826
きよう	-11.6827
敦賀	-11.6827
売買	-11.6829
松戸	-11.6829
ien	-11.6831
0000	-11.6833
さらなる	-11.6833
系列局	-11.6833
尾道	-11.6835
私が	-11.6837
絞	-11.6838
▁Bur	-11.6839
ない場合	-11.6839
日本共産党	-11.6839
司祭	-11.6841
ゴッド	-11.6843
カリー	-11.6844
望遠鏡	-11.6844
に係る	-11.6847
10%	-11.6848
ことによる	-11.6848
[...]
