<pad>	0
<unk>	0
<s>	0
</s>	0
<USER>	0
<ASSISTANT>	0
<SYSTEM>	0
<bof>	0
<eof>	0
▁	-2.63914
、	-2.69061
。	-3.15963
の	-4.15345
は	-4.21921
と	-4.65586
:	-4.81969
が	-4.89174
?	-4.9806
を	-5.12128
(	-5.18623
に	-5.21668
.	-5.22616
で	-5.26265
)	-5.47272
です	-5.56324
▁-	-5.59615
_	-5.74878
」	-5.76293
や	-5.92179
1	-6.01856
または	-6.04174
s	-6.05871
2	-6.08054
▁=	-6.10452
「	-6.13275
-	-6.13552
ます	-6.1892
,	-6.24006
/	-6.30519
・	-6.31482
から	-6.34999
には	-6.38261
か	-6.41647
この	-6.44654
!	-6.45389
であり	-6.53556
これは	-6.57828
私は	-6.59673
3	-6.61807
する	-6.7036
など	-6.71726
および	-6.79095
つの	-6.80845
を使用して	-6.8242
て	-6.82538
し	-6.84944
があります	-6.86197
などの	-6.87271
▁"	-6.87334
ました	-6.88729
します	-6.88892
その	-6.91581
▁*	-6.95669
>	-6.99436
x	-6.99602
ために	-7.02485
それは	-7.0582
である	-7.0593
として	-7.06588
これらの	-7.06971
あなたの	-7.1044
a	-7.11048
▁1.	-7.12468
n	-7.12974
た	-7.13096
]	-7.13876
;	-7.15033
5	-7.15472
▁the	-7.1839
では	-7.192
▁{	-7.19709
彼は	-7.20208
ことができます	-7.22409
他の	-7.23779
4	-7.24442
▁2.	-7.24717
多くの	-7.24839
新しい	-7.26877
▁|	-7.27938
C	-7.28674
そして	-7.29665
▁```	-7.29703
▁3.	-7.31003
こと	-7.31362
すべての	-7.31835
"	-7.32509
は何ですか	-7.32679
ています	-7.33133
AI	-7.34353
る	-7.34434
▁#	-7.36317
あなたが	-7.37359
さまざまな	-7.37538
も	-7.38206
いくつかの	-7.38254
e	-7.38462
によって	-7.39299
それ	-7.41089
彼らは	-7.42543
▁<	-7.42556
特定の	-7.42614
された	-7.42871
また	-7.43014
方法	-7.43517
D	-7.44468
▁a	-7.45442
しかし	-7.46149
▁de	-7.4628
私の	-7.46368
y	-7.46684
のために	-7.46806
より	-7.47281
について	-7.47543
年	-7.49015
さらに	-7.49087
▁4.	-7.49863
した	-7.50442
して	-7.50987
たとえば	-7.51184
システム	-7.52931
な	-7.53144
あなたは	-7.53533
必要があります	-7.5358
ス	-7.53877
▁「	-7.54886
人	-7.56351
データ	-7.56478
10	-7.56534
d	-7.57073
r	-7.57186
彼の	-7.57385
▁+	-7.57843
▁}	-7.57898
、「	-7.58369
もの	-7.58466
▁[	-7.58705
時間	-7.59343
i	-7.59396
コード	-7.60868
できる	-7.64144
できます	-7.64371
ゲーム	-7.64384
=	-7.64943
各	-7.66291
▁`	-7.66969
▁'	-7.67252
o	-7.67318
A	-7.69913
'	-7.70738
場合	-7.71241
[	-7.71317
ための	-7.71318
月	-7.73033
g	-7.73204
t	-7.73214
に関する	-7.73218
b	-7.73932
ただし	-7.7546
▁5.	-7.7553
Python	-7.75864
`	-7.76163
情報	-7.76636
ため	-7.76756
ている	-7.76846
c	-7.77311
言語	-7.79142
Web	-7.7944
てください	-7.80017
()	-7.80482
▁私は	-7.80957
ており	-7.81203
S	-7.81803
を含む	-7.8216
h	-7.82194
B	-7.82407
への	-7.8298
▁\	-7.83211
ように	-7.85987
テキスト	-7.8604
でした	-7.86877
f	-7.87674
P	-7.87948
機能	-7.88784
p	-7.88832
6	-7.89357
m	-7.89782
があり	-7.89886
▁in	-7.90548
▁``	-7.91283
アプリケーション	-7.91648
▁to	-7.92234
}	-7.92539
▁of	-7.93115
7	-7.93734
ア	-7.94201
という	-7.94383
よりも	-7.94743
私が	-7.95459
F	-7.96013
ですか	-7.96715
ファイル	-7.98195
▁and	-7.98344
それが	-7.986
に対する	-7.98613
モデル	-7.98852
的な	-7.99329
彼らの	-7.99894
水	-7.99952
関数	-8.00079
これにより	-8.00508
プログラム	-8.00719
es	-8.01587
を持つ	-8.01982
され	-8.02393
がある	-8.02396
により	-8.02474
による	-8.02563
日	-8.03053
い	-8.03453
▁こんにちは	-8.03495
に基づいて	-8.03673
非常に	-8.03734
別の	-8.04944
ことです	-8.04985
ことは	-8.05384
エネルギー	-8.0552
▁la	-8.0677
たり	-8.07177
):	-8.07178
8	-8.07235
問題	-8.07374
まで	-8.07737
ing	-8.08265
プロジェクト	-8.08464
したがって	-8.08716
次の	-8.09038
k	-8.09702
|	-8.09874
://	-8.10331
ラ	-8.10369
▁もちろん	-8.10415
er	-8.10433
それを	-8.10508
ト	-8.10537
最初の	-8.1085
▁2	-8.10894
性	-8.11159
);	-8.11595
画像	-8.1221
プロセス	-8.12864
は次のとおりです	-8.12865
com	-8.13104
場所	-8.13121
ツール	-8.13246
異なる	-8.13324
可能性があります	-8.13399
▁//	-8.13426
**	-8.13615
G	-8.13749
それら	-8.1384
力	-8.13993
最も	-8.14872
▁この	-8.15158
ことができる	-8.15283
つ	-8.15558
小さな	-8.16495
▁**	-8.17069
▁$	-8.17631
▁for	-8.18409
年に	-8.18792
ない	-8.18964
T	-8.19377
0	-8.19489
同じ	-8.19699
E	-8.19709
構造	-8.19816
タスク	-8.20126
説明	-8.20181
オブジェクト	-8.20397
リスト	-8.20662
能力	-8.20923
が必要です	-8.2097
技術	-8.21336
的	-8.22043
になります	-8.22138
大きな	-8.22406
#	-8.22504
私たちの	-8.23083
特に	-8.23405
良い	-8.23414
R	-8.23507
人の	-8.23738
入力	-8.23768
を提供します	-8.23995
される	-8.24413
されます	-8.24709
を作成します	-8.255
開発	-8.25758
*	-8.25907
9	-8.26675
学習	-8.2671
ではなく	-8.26806
世界	-8.26812
オプション	-8.26856
私たちは	-8.26982
▁6.	-8.27008
彼らが	-8.27117
を備えた	-8.27163
v	-8.27633
ことを	-8.27669
研究	-8.27789
を作成する	-8.27947
V	-8.28184
...	-8.28543
かもしれません	-8.28964
適切な	-8.29247
しました	-8.29357
の場合	-8.29596
▁はい	-8.29823
り	-8.30023
のような	-8.30277
約	-8.30549
本	-8.30556
値	-8.31176
してください	-8.31273
リ	-8.31332
▁C	-8.31392
のための	-8.315
▁y	-8.31639
結果	-8.31834
サービス	-8.31872
のに役立ちます	-8.31899
における	-8.31985
L	-8.32526
in	-8.32545
重要な	-8.3281
ル	-8.32866
している	-8.32892
するために	-8.33578
色	-8.33855
ed	-8.34249
前に	-8.34268
人間の	-8.34357
行動	-8.34871
彼が	-8.35272
一般的な	-8.35451
H	-8.35482
en	-8.35519
ク	-8.35651
20	-8.35702
I	-8.35837
材料	-8.35993
数	-8.36024
例	-8.36141
▁if	-8.36145
質問	-8.36178
コンピューター	-8.36316
使用	-8.36376
あなた	-8.36451
を提供する	-8.36491
答え	-8.36722
ソフトウェア	-8.36744
環境	-8.37383
私	-8.37403
しています	-8.37404
テスト	-8.3748
ではありません	-8.3787
されています	-8.38113
が含まれます	-8.38506
("	-8.38624
l	-8.38949
トレーニング	-8.39491
場合は	-8.40003
つまり	-8.40123
自分の	-8.40487
K	-8.40647
ネットワーク	-8.40721
映画	-8.41053
製品	-8.41691
の使用	-8.41981
O	-8.42003
https	-8.42304
コンテンツ	-8.42734
国	-8.43045
されている	-8.43337
ド	-8.43519
彼女は	-8.44093
でしょう	-8.44177
▁1	-8.44246
どの	-8.44304
ロ	-8.44492
光	-8.44516
はありますか	-8.44862
▁i	-8.44915
アルゴリズム	-8.45078
ビデオ	-8.45085
="	-8.45149
カ	-8.45271
とき	-8.45275
のですか	-8.45372
name	-8.45394
からの	-8.45569
要素	-8.45657
M	-8.46183
▁A	-8.46206
▁import	-8.4626
%	-8.46695
ですが	-8.47007
リソース	-8.47019
ことが重要です	-8.47022
デ	-8.47031
することができます	-8.47134
li	-8.47416
を使用する	-8.47505
より多くの	-8.47714
現在の	-8.47963
になる	-8.48245
スキル	-8.48458
クラス	-8.48632
する必要があります	-8.48657
知識	-8.48752
to	-8.48762
▁0	-8.48916
を持っています	-8.48987
マ	-8.49169
▁que	-8.4929
ポイント	-8.4949
w	-8.49752
▁</	-8.50079
▁x	-8.50161
X	-8.50404
ナ	-8.50643
▁そして	-8.50929
とは何ですか	-8.50997
▁3	-8.51162
通常	-8.51387
u	-8.51499
計画	-8.51623
はありません	-8.5169
にある	-8.51985
音楽	-8.5221
分析	-8.52263
ので	-8.52606
経験	-8.52929
プログラミング	-8.52985
▁en	-8.53034
番目の	-8.53217
何	-8.53221
一部の	-8.53294
名前	-8.53423
社会	-8.53533
状態	-8.53593
を持っている	-8.53893
",	-8.53996
方法で	-8.54228
ません	-8.54234
複雑な	-8.54644
os	-8.54646
コ	-8.54717
ar	-8.55219
ことで	-8.55332
変更	-8.55373
状況	-8.55718
管理	-8.56329
計算	-8.56551
▁•	-8.56602
▁c	-8.56622
のみ	-8.56632
al	-8.56643
ユーザー	-8.567
どのように	-8.56717
できますか	-8.5754
▁el	-8.57764
を見つける	-8.58259
z	-8.58287
仕事	-8.58543
スクリプト	-8.58797
関係	-8.5884
N	-8.5906
ここに	-8.59143
次に	-8.5922
ときに	-8.59292
タ	-8.59493
と呼ばれる	-8.59537
変数	-8.59567
人間	-8.59993
▁7.	-8.60058
についての	-8.60309
+	-8.60373
に関連する	-8.60378
宇宙	-8.60551
複数の	-8.60905
す	-8.61003
を教えてください	-8.61282
ライブラリ	-8.61314
サイト	-8.61488
アイデア	-8.61518
ますか	-8.61601
キー	-8.61726
コミュニティ	-8.61845
or	-8.61974
体	-8.62039
」、「	-8.62197
ある	-8.62568
バ	-8.62581
おそらく	-8.62695
私に	-8.62854
as	-8.62942
サーバー	-8.62997
100	-8.63046
▁f	-8.63613
")	-8.63854
戦略	-8.63933
セット	-8.64113
必要な	-8.64133
12	-8.64448
理解	-8.64776
こともできます	-8.65314
30	-8.65353
フ	-8.65569
ズ	-8.65712
感情	-8.65718
ことをお勧めします	-8.65899
価値	-8.6591
メッセージ	-8.6593
最初に	-8.66083
すべて	-8.66256
彼女の	-8.66574
経済	-8.6717
科学	-8.67563
11	-8.67843
出力	-8.68016
理由	-8.68075
▁S	-8.68266
議論	-8.68377
デバイス	-8.68696
レベル	-8.68779
テクノロジー	-8.6889
活動	-8.69075
j	-8.69124
▁def	-8.69178
▁これらの	-8.69179
にはどうすればよいですか	-8.69313
▁return	-8.69543
であるため	-8.69544
re	-8.69558
テーブル	-8.6976
なら	-8.69953
その後	-8.69955
可能な	-8.70189
コンポーネント	-8.70202
私たちが	-8.70222
▁しかし	-8.70229
を作成し	-8.70268
分	-8.70286
Google	-8.70371
キャラクター	-8.7057
を通じて	-8.70769
に応じて	-8.71148
▁b	-8.71157
操作	-8.71211
id	-8.71398
化	-8.71661
get	-8.71738
文化	-8.71976
常に	-8.72131
にとって	-8.72547
そのような	-8.72609
人々	-8.72649
ー	-8.7297
のように	-8.7298
ことにより	-8.72984
パターン	-8.73004
非	-8.73421
卵	-8.73439
▁B	-8.73516
を使用します	-8.73527
のある	-8.73652
セキュリティ	-8.73668
作業	-8.73749
グループ	-8.738
く	-8.74466
スペース	-8.74804
教育	-8.75234
プラットフォーム	-8.75263
これには	-8.75895
部分	-8.75902
中	-8.76004
単語	-8.76194
目標	-8.76479
つは	-8.76597
者	-8.76636
都市	-8.76677
どのような	-8.76732
最後に	-8.76753
中に	-8.77046
de	-8.77123
を使って	-8.77136
文字	-8.77164
惑星	-8.77248
動物	-8.77314
心	-8.77322
その他の	-8.77448
年の	-8.77482
オ	-8.77561
手順	-8.77617
ソース	-8.78049
評価	-8.78462
何か	-8.78506
すぐに	-8.78558
ことはできません	-8.78761
を提供し	-8.789
これ	-8.79201
イ	-8.79206
運動	-8.79286
サイズ	-8.79441
の問題	-8.79454
ダ	-8.79466
現在	-8.79523
プログラミング言語	-8.79542
は非常に	-8.79704
バージョン	-8.79819
物語	-8.80049
行	-8.80194
旅行	-8.80225
te	-8.80412
Linux	-8.8051
サ	-8.80602
16	-8.80634
なぜ	-8.80711
一般的に	-8.80818
内の	-8.80837
に依存します	-8.80862
処理	-8.81022
W	-8.81128
応答	-8.81156
制限	-8.81409
実際の	-8.81737
後	-8.8194
is	-8.81964
式	-8.81973
のに役立つ	-8.82114
強力な	-8.82151
サポート	-8.82154
エラー	-8.822
条件	-8.8227
理論	-8.82398
彼	-8.82696
人工知能	-8.8281
基本的な	-8.82827
パフォーマンス	-8.83204
イベント	-8.83339
表現	-8.83382
▁私の	-8.83398
アプローチ	-8.83653
います	-8.83713
車	-8.83827
us	-8.83858
ブ	-8.8427
組織	-8.84386
on	-8.84559
an	-8.84601
独自の	-8.84855
▁print	-8.84867
温度	-8.84904
データベース	-8.84985
デザイン	-8.85108
動き	-8.85458
攻撃	-8.85924
ことを意味します	-8.85964
ていました	-8.86156
▁これは	-8.86181
▁Python	-8.86211
家	-8.86649
制御	-8.86668
タイプ	-8.86713
バー	-8.86846
素晴らしい	-8.86865
ページ	-8.86923
&	-8.87088
レ	-8.87303
に対して	-8.87449
▁is	-8.87561
ly	-8.87635
ビジネス	-8.8768
アプリ	-8.87692
15	-8.87693
速度	-8.87746
オンライン	-8.87911
\	-8.87925
の数	-8.87945
ではない	-8.87949
簡単な	-8.88019
▁int	-8.88034
:「	-8.88468
JavaScript	-8.88616
だ	-8.88744
数字	-8.88753
下	-8.88768
〜	-8.88821
リー	-8.88884
チーム	-8.88904
意味	-8.88958
のリスト	-8.89174
き	-8.89181
シ	-8.89191
目	-8.89375
エ	-8.89425
を書いてください	-8.89522
▁self	-8.89547
熱	-8.89637
トピック	-8.90346
提案	-8.90565
もっと	-8.90677
名	-8.9076
代わりに	-8.91015
▁const	-8.91026
少なくとも	-8.91052
での	-8.91086
path	-8.91177
ン	-8.91226
メモリ	-8.91354
ミ	-8.91354
▁なぜ	-8.9144
反応	-8.91474
インターネット	-8.91709
ステップ	-8.9188
法	-8.91901
コマンド	-8.91923
決定	-8.92086
の中で	-8.92127
すること	-8.92135
ム	-8.92268
{	-8.92572
になり	-8.92961
▁ありがとう	-8.93007
スタイル	-8.93045
地球	-8.93101
たい	-8.93131
されました	-8.93134
')	-8.93161
',	-8.93314
これが	-8.93317
正しい	-8.9348
まだ	-8.93754
40	-8.9379
人々が	-8.93854
最高の	-8.94282
間の	-8.94297
特性	-8.94448
家族	-8.94596
$	-8.947
さ	-8.94745
ことができますか	-8.94766
人は	-8.95216
</	-8.95316
自己	-8.95348
▁4	-8.95361
今	-8.95396
リンク	-8.9549
▁/	-8.95492
少し	-8.95721
ra	-8.95764
塩	-8.9593
愛	-8.95931
料理	-8.96162
健康	-8.96186
el	-8.9622
le	-8.96257
数学	-8.96297
社会的	-8.96375
彼ら	-8.96565
セ	-8.9668
一連の	-8.96692
植物	-8.9675
ソリューション	-8.96767
int	-8.96784
をどのように	-8.9681
data	-8.96837
プロンプト	-8.97064
詳細	-8.9716
接続	-8.97219
選択	-8.97397
構成	-8.97681
▁確かに	-8.97869
ストーリー	-8.97965
タンパク質	-8.9798
方法は	-8.98105
www	-8.98132
▁8.	-8.9819
文字列	-8.98367
▁あなたは	-8.98385
リスク	-8.98463
それとも	-8.9859
にも	-8.98714
考え	-8.98816
人が	-8.98836
パッケージ	-8.98847
食事	-8.99056
米国	-8.99228
自分自身	-8.99282
▁un	-8.99283
ことができ	-8.99336
ユーザーが	-8.99448
追加の	-8.99539
によると	-8.9962
ほとんどの	-8.99784
人気のある	-8.99957
要因	-9.00048
^	-9.00059
スペイン	-9.00139
高	-9.00533
file	-9.00634
簡単に	-9.00696
可能性	-9.00871
存在	-9.00979
▁5	-9.01079
最終的に	-9.01183
ループ	-9.01241
">	-9.01363
目的	-9.01528
申し訳ありませんが	-9.01606
人生	-9.01667
もう	-9.01678
変化	-9.01689
J	-9.01849
するための	-9.01962
それらを	-9.01977
チ	-9.02224
回	-9.0226
上の	-9.02301
ルール	-9.02315
it	-9.02396
ドキュメント	-9.02462
の一部	-9.0255
女性	-9.02594
食べ物	-9.02619
手	-9.02644
とその	-9.02651
は通常	-9.02686
よく	-9.02819
実装	-9.02954
必要がある	-9.03028
の間に	-9.03048
グ	-9.03064
友人	-9.03123
▁それは	-9.0326
▁[]	-9.03366
アクション	-9.03383
保護	-9.03391
種	-9.03422
ニ	-9.03438
17	-9.03458
定義	-9.03484
したり	-9.03499
▁F	-9.03499
('	-9.03722
特別な	-9.04063
個人	-9.04082
▁as	-9.04247
言葉	-9.04262
う	-9.04262
概念	-9.04274
を通して	-9.0443
ら	-9.04572
海	-9.04764
パン	-9.04816
だけでなく	-9.04943
▁con	-9.05244
U	-9.05263
▁n	-9.05269
電気	-9.05334
▁==	-9.05346
アドバイス	-9.05371
安全	-9.05441
キ	-9.05541
▁T	-9.05587
の作成	-9.05694
50	-9.05787
ウェブサイト	-9.05949
効果	-9.06088
ブロック	-9.06168
Y	-9.06174
より良い	-9.06209
神	-9.06315
la	-9.06336
ユニークな	-9.06343
場合があります	-9.06377
会社	-9.06603
Z	-9.06633
▁m	-9.06827
▁from	-9.06904
デジタル	-9.06956
ライン	-9.0722
設計	-9.07291
った	-9.07436
リング	-9.07452
▁++	-9.07483
と一緒に	-9.07538
おり	-9.07588
設定	-9.07594
地域	-9.07663
<	-9.07691
星	-9.07821
あなたに	-9.07898
優れた	-9.07917
低	-9.08297
完全に	-9.08339
市場	-9.08544
text	-9.08646
▁要約すると	-9.08671
世界の	-9.08906
猫	-9.09137
それらは	-9.09139
API	-9.0924
▁10	-9.09274
();	-9.09286
政治的	-9.0935
ティ	-9.09368
それらの	-9.09459
可能性のある	-9.0959
長い	-9.09647
▁p	-9.0985
太陽	-9.09957
主に	-9.09978
生成	-9.10037
量	-9.10291
マン	-9.10336
の間の	-9.10338
リクエスト	-9.10421
モ	-9.10431
文	-9.10434
詩	-9.10477
検索	-9.10524
ベース	-9.1055
^2	-9.10584
))	-9.10608
のか	-9.1079
機会	-9.10824
一方	-9.10846
にもかかわらず	-9.10861
日に	-9.11119
Windows	-9.11134
st	-9.11162
戦争	-9.11179
大	-9.11191
パ	-9.11446
写真	-9.11669
層	-9.11773
数値	-9.11792
▁with	-9.12
q	-9.1207
曲	-9.1233
最大	-9.12407
音	-9.12509
ジ	-9.12621
なければなりません	-9.12792
課題	-9.12816
英語	-9.12827
調査	-9.12843
からです	-9.1294
パラメーター	-9.13034
ガス	-9.1308
的に	-9.13118
可能性がある	-9.13265
を生成する	-9.13379
解釈	-9.13419
食品	-9.13451
▁se	-9.13466
ノ	-9.13527
人々は	-9.13549
▁あなたが	-9.1364
アイテム	-9.13675
と思います	-9.1368
▁P	-9.13737
もあります	-9.13844
距離	-9.13902
であること	-9.13961
練習	-9.1404
HTML	-9.14041
ir	-9.14051
ボール	-9.14081
の開発	-9.1411
細胞	-9.14112
たら	-9.14146
▁I	-9.14169
log	-9.14234
python	-9.14331
自然	-9.14391
電子	-9.14461
州	-9.14482
生産	-9.14483
必要に応じて	-9.14535
を介して	-9.14612
障害	-9.14963
法律	-9.14971
短い	-9.15008
の例	-9.15057
18	-9.151
コスト	-9.15338
ディ	-9.1551
野菜	-9.15523
年齢	-9.1553
測定	-9.15638
しばしば	-9.15682
ro	-9.1569
どんな	-9.15882
コミュニケーション	-9.1598
翻訳	-9.16153
上	-9.16203
ハ	-9.16399
オープンソース	-9.16695
会話	-9.16769
いる	-9.16891
プ	-9.16939
がありますか	-9.16972
利益	-9.16975
興味深い	-9.17161
60	-9.17316
生	-9.17428
やその他の	-9.17446
を説明する	-9.17462
ほど	-9.1749
19	-9.17569
強い	-9.1763
の名前	-9.17657
フィールド	-9.17682
io	-9.1773
html	-9.17827
認識	-9.17986
を書く	-9.18087
を作る	-9.18098
を示す	-9.18112
▁あなたの	-9.18124
お金	-9.18151
ください	-9.18269
しますか	-9.1851
したい	-9.18524
の両方	-9.18674
▁be	-9.18801
用の	-9.18808
機械学習	-9.18889
不	-9.1907
のない	-9.1908
ガ	-9.19099
を説明してください	-9.19125
改善	-9.19129
予測	-9.19175
物	-9.19302
領域	-9.1932
と比較して	-9.19562
th	-9.19565
度	-9.19676
▁new	-9.19699
に従って	-9.19868
言語モデル	-9.20057
価格	-9.20062
利点	-9.20076
幅広い	-9.202
両方の	-9.20254
▁d	-9.20323
他の人	-9.205
経済的	-9.20578
ビ	-9.20638
側面	-9.20693
させる	-9.20799
歴史	-9.20818
規制	-9.20881
でも	-9.20905
js	-9.21092
インストール	-9.21194
se	-9.21252
脳	-9.21313
▁g	-9.21354
オペレーティングシステム	-9.21354
真実	-9.21387
実行	-9.21577
ウ	-9.21594
になりました	-9.21626
意識	-9.21658
イン	-9.21688
空気	-9.21744
がどのように	-9.21892
なしで	-9.21923
最新の	-9.21946
単一の	-9.2206
マシン	-9.22131
成長	-9.2216
コーヒー	-9.22215
私たち	-9.22247
実験	-9.22436
これらは	-9.22494
80	-9.22567
am	-9.22678
お	-9.22719
個人的な	-9.22853
粒子	-9.22898
ネ	-9.2292
かどうか	-9.23032
作品	-9.23112
指示	-9.23343
":	-9.23477
ものです	-9.23496
size	-9.23503
一緒に	-9.23601
データの	-9.2373
テクニック	-9.23784
完全な	-9.24142
列	-9.24251
ia	-9.24327
ch	-9.24343
▁re	-9.24382
が含まれています	-9.24383
PC	-9.24408
になる可能性があります	-9.24436
を実行する	-9.24478
重力	-9.24482
self	-9.24521
以前の	-9.24531
注意	-9.24609
今日	-9.2463
人々の	-9.24747
私はあなたに	-9.24983
美しい	-9.25058
回答	-9.25058
準備	-9.25142
通常の	-9.25292
関連する	-9.25313
The	-9.25396
ファン	-9.25447
中国	-9.25525
ッ	-9.2553
24	-9.25559
位置	-9.25594
古い	-9.25603
を使用できます	-9.25718
▁los	-9.25745
肉	-9.25788
私はあなたが	-9.25809
コース	-9.25814
最後の	-9.25864
木	-9.2593
フォーム	-9.25961
赤	-9.26016
助け	-9.26228
投資	-9.26252
元の	-9.2628
ゲームの	-9.26402
14	-9.26523
形	-9.26527
カード	-9.26552
を指します	-9.26564
主な	-9.26696
を使用し	-9.26818
um	-9.26835
コンテキスト	-9.26861
org	-9.27095
co	-9.27122
た場合	-9.27249
話	-9.27572
品質	-9.27711
ニューラルネットワーク	-9.27809
企業	-9.27837
番号	-9.27973
修正	-9.28001
を選択します	-9.28074
ta	-9.28238
64	-9.28302
un	-9.28315
ドル	-9.2858
エンジン	-9.2861
魚	-9.28739
▁9.	-9.28906
フレームワーク	-9.28969
シリーズ	-9.29112
row	-9.29184
地元の	-9.29192
間	-9.29215
ハードウェア	-9.29309
彼女	-9.29327
データを	-9.29369
バッテリー	-9.29414
div	-9.29584
毎日	-9.2977
アン	-9.29796
ず	-9.29838
痛み	-9.29877
13	-9.29932
▁es	-9.29944
視点	-9.29952
危険	-9.30002
ていません	-9.30083
点	-9.30107
25	-9.30123
努力	-9.30242
犬	-9.30299
▁6	-9.30403
睡眠	-9.30465
調整	-9.3058
ていない	-9.30616
ur	-9.30652
ルート	-9.30654
同時に	-9.30754
できない	-9.30763
風	-9.30907
だけ	-9.31063
信号	-9.31071
花	-9.31074
単純な	-9.31097
参照	-9.3113
end	-9.31207
アクセス	-9.31381
データセット	-9.31465
▁M	-9.31469
レビュー	-9.31485
哲学	-9.31552
につながる可能性があります	-9.31649
テ	-9.31669
予算	-9.31682
▁e	-9.31817
明確な	-9.31835
パス	-9.31838
子供	-9.31898
治療	-9.31985
要件	-9.32119
を使用すると	-9.32154
すでに	-9.32198
CSS	-9.3241
プロパティ	-9.32463
▁on	-9.32525
ことに注意してください	-9.32661
小説	-9.3267
シーン	-9.32689
証拠	-9.32697
タイトル	-9.32794
配列	-9.32831
線	-9.3292
▁したがって	-9.32991
の増加	-9.33117
み	-9.33123
を追加します	-9.33182
レシピ	-9.33188
よう	-9.33249
do	-9.33282
ビデオゲーム	-9.33357
画面	-9.33459
かもしれない	-9.33504
トマト	-9.33517
正確な	-9.33523
-1	-9.33541
販売	-9.33618
更新	-9.33679
同様の	-9.33731
の量	-9.33926
▁del	-9.33968
時	-9.34012
幸福	-9.34093
lo	-9.34142
ないでください	-9.34165
ti	-9.34192
クエリ	-9.34296
外	-9.3431
モジュール	-9.34401
▁L	-9.34501
生活	-9.34532
を理解する	-9.34553
自由	-9.34784
数学的	-9.34798
潜在的な	-9.34938
進歩	-9.35059
)=	-9.35182
事実	-9.35207
分類	-9.35222
この場合	-9.35264
それぞれ	-9.35315
ましたか	-9.35389
スト	-9.35427
大規模な	-9.35453
れ	-9.35474
空	-9.35487
男性	-9.35521
統合	-9.35546
ベースの	-9.35559
使用する	-9.35855
ation	-9.35903
にあります	-9.35928
主要な	-9.35999
ことが	-9.3613
基準	-9.3622
原子	-9.36324
の種類	-9.36491
敵	-9.36708
アシスタント	-9.36834
YouTube	-9.36984
ケース	-9.37025
セル	-9.37102
影響	-9.37253
を必要とする	-9.37257
将来の	-9.37281
ne	-9.37313
範囲	-9.37375
前	-9.37845
本当に	-9.3799
ボ	-9.38009
インターフェイス	-9.38038
用語	-9.38122
32	-9.38286
set	-9.38293
タイプの	-9.38333
メ	-9.38693
をより	-9.38694
とても	-9.38713
多くの場合	-9.3873
現実	-9.38783
波	-9.38814
Android	-9.38962
Java	-9.38982
▁para	-9.39006
語	-9.39106
友達	-9.39305
カップ	-9.3938
高度な	-9.39394
芸術	-9.39445
メイン	-9.39494
ic	-9.39504
ユニット	-9.39525
を理解し	-9.39548
意見	-9.39557
ほとんど	-9.39622
に行く	-9.39744
気	-9.3976
有名な	-9.39826
期間	-9.39883
を見る	-9.39888
見	-9.39904
リン	-9.40009
▁E	-9.40056
da	-9.40152
ピ	-9.40203
感覚	-9.40222
足	-9.40418
▁H	-9.40435
システムの	-9.40456
ペ	-9.40462
交換	-9.40497
を決定する	-9.40501
道	-9.40631
紙	-9.40654
男	-9.4068
▁これらは	-9.40852
型	-9.40919
▁una	-9.4094
空間	-9.4095
ありがとう	-9.40968
フィードバック	-9.41124
調理	-9.41144
物質	-9.41164
ma	-9.41173
責任	-9.41189
ことを忘れないでください	-9.41241
ドイツ	-9.41266
政治	-9.413
されていない	-9.41376
最大の	-9.41418
石	-9.41436
ID	-9.41567
個々の	-9.41574
ベクトル	-9.41621
がない	-9.4165
指	-9.41731
させ	-9.41773
歌	-9.41811
されており	-9.41815
形式	-9.41842
button	-9.41968
を追加する	-9.42049
ラー	-9.42061
構文	-9.42085
において	-9.42133
に加えて	-9.42306
1,	-9.4241
ガイド	-9.42411
at	-9.42435
に関しては	-9.42564
ボタン	-9.42593
di	-9.4263
記憶	-9.42673
ていた	-9.42766
白	-9.42795
の間で	-9.4284
薬	-9.42842
って	-9.42864
アクティビティ	-9.4291
味	-9.42935
プレイ	-9.42958
ライト	-9.43007
すると	-9.43011
num	-9.43159
を維持する	-9.4316
合計	-9.43182
テーマ	-9.43275
ま	-9.43443
ツ	-9.43498
カメラ	-9.4351
冒険	-9.43525
国の	-9.43572
後に	-9.43608
スポーツ	-9.43623
");	-9.43675
的で	-9.43717
▁file	-9.43735
オープンアシスタント	-9.43768
悪い	-9.438
方程式	-9.4383
の概念	-9.43844
する方法	-9.43859
火	-9.43921
ここでは	-9.43943
▁私が	-9.44018
分間	-9.44106
input	-9.4415
王	-9.44208
ter	-9.44381
最も重要な	-9.44597
▁N	-9.44662
山	-9.44687
サブ	-9.44689
支援	-9.44759
発見	-9.44907
政府	-9.45043
例えば	-9.45064
ジョン	-9.45074
ることができます	-9.45111
拡張	-9.4516
平均	-9.4528
ユーザーの	-9.45346
Q	-9.45396
将来	-9.454
夢	-9.45667
GPT	-9.45669
の変化	-9.45672
大学	-9.45737
成功	-9.45757
▁v	-9.45761
を持ち	-9.45939
進化	-9.46015
▁10.	-9.46164
コメント	-9.4622
▁7	-9.46277
▁V	-9.46277
頭	-9.46322
分布	-9.46328
アル	-9.46352
を返します	-9.46439
▁G	-9.46532
た後	-9.46631
▁no	-9.46789
記事	-9.46846
の違い	-9.46897
ul	-9.46933
全体	-9.46954
より大きな	-9.46967
一	-9.46996
液体	-9.47032
だけです	-9.47107
アニメーション	-9.47143
でしょうか	-9.47148
である場合	-9.47222
解決	-9.47224
一般に	-9.47234
▁data	-9.47243
list	-9.47253
砂糖	-9.47391
▁AI	-9.47503
印刷	-9.47562
楽しい	-9.47646
変換	-9.4767
子	-9.47697
ベ	-9.47773
ad	-9.47822
est	-9.47837
out	-9.47869
na	-9.47927
追加	-9.47965
鳥	-9.47985
é	-9.48015
メディア	-9.48124
する必要がある	-9.48139
現代の	-9.48282
移動	-9.48348
違い	-9.48386
ストレス	-9.48423
注文	-9.48426
?」	-9.48464
科学的	-9.48742
長	-9.48745
ニュース	-9.48888
しないでください	-9.48892
ために使用されます	-9.48896
を生成します	-9.48988
開発者	-9.49013
body	-9.49014
----------------	-9.49043
機器	-9.49046
▁The	-9.49155
大統領	-9.49167
観察	-9.49198
面白い	-9.49409
効率	-9.49453
共有	-9.49477
権利	-9.49494
死	-9.49563
ているため	-9.49564
これを	-9.49598
そう	-9.49629
法的	-9.49652
それぞれの	-9.49758
高い	-9.49815
type	-9.49871
ましょう	-9.49946
▁全体として	-9.49955
を与える	-9.50008
困難	-9.5004
たいと思います	-9.50041
エル	-9.5009
ブランド	-9.50115
がいくつかあります	-9.50185
AR	-9.50191
主義	-9.50248
の歴史	-9.50353
プライバシー	-9.5049
を次に示します	-9.50499
メカニズム	-9.50525
従来の	-9.50534
のいくつか	-9.50621
▁いいえ	-9.50639
を行う	-9.50746
日付	-9.50787
メソッド	-9.50952
再び	-9.51027
あらゆる	-9.51035
py	-9.51056
im	-9.51148
の存在	-9.51278
の最初の	-9.51357
の結果	-9.51498
の研究	-9.51509
ここで	-9.51534
特徴	-9.51554
){	-9.51599
については	-9.51721
ドア	-9.51751
医療	-9.5176
ge	-9.5179
宗教	-9.51861
ごとに	-9.5189
▁K	-9.51906
あまり	-9.51926
▁w	-9.51989
なぜなら	-9.51999
部屋	-9.52072
統計	-9.52254
無	-9.52396
を作成できます	-9.52407
▁su	-9.5249
保存	-9.52531
がある場合	-9.52549
率	-9.52579
を維持し	-9.52689
瞑想	-9.52851
▁class	-9.53077
そのため	-9.53083
em	-9.53089
sh	-9.53195
顧客	-9.53217
暗い	-9.53388
ロボット	-9.53435
既存の	-9.53518
リア	-9.53521
はまだ	-9.53524
いた	-9.53568
ソ	-9.53588
魔法の	-9.53601
用	-9.53725
いました	-9.5377
誰かが	-9.53841
を見つけ	-9.53983
専門家	-9.53994
の違いは何ですか	-9.53997
方法です	-9.54062
モデルは	-9.54072
を使用した	-9.54163
ザ	-9.54226
がありますが	-9.54338
監視	-9.5434
声	-9.54343
何を	-9.54355
がありました	-9.5436
▁||	-9.54361
ようです	-9.54373
定	-9.54382
を表す	-9.54393
好み	-9.54456
フランス	-9.54496
何が	-9.54575
ことを願っています	-9.54622
チーズ	-9.54644
競争	-9.54669
喜び	-9.54825
и	-9.54883
彼に	-9.54891
もちろん	-9.54909
▁さて	-9.54943
宇宙の	-9.54971
ット	-9.55038
アーティスト	-9.55111
つです	-9.55121
すべてが	-9.5515
核	-9.55205
第	-9.55239
悪	-9.55357
地球の	-9.55357
の欠如	-9.55379
化学	-9.55447
に基づいています	-9.55536
期待	-9.55665
機械	-9.55676
白い	-9.55677
原則	-9.55699
500	-9.55765
広告	-9.55779
を学ぶ	-9.55796
ノード	-9.55826
▁al	-9.5605
食物	-9.56058
購入	-9.56145
相互作用	-9.56203
てみてください	-9.56205
このような	-9.56275
果物	-9.56337
ワイン	-9.56357
ロシア	-9.56367
に関する情報	-9.56555
骨	-9.56591
最適化	-9.56606
め	-9.56662
前の	-9.5667
ce	-9.56687
を提供できます	-9.56695
ること	-9.56797
出	-9.5685
ことに注意することが重要です	-9.56919
適応	-9.56943
可能性があるため	-9.56945
青	-9.56949
いて	-9.5697
電子メール	-9.56999
ながら	-9.57071
方向	-9.57229
コン	-9.57331
え	-9.57337
▁np	-9.57456
信念	-9.57467
チャット	-9.57492
十分な	-9.57527
まず	-9.57534
私を	-9.5759
バイアス	-9.57686
の影響	-9.57714
200	-9.57724
の可能性	-9.57748
▁La	-9.57867
▁>	-9.57902
深い	-9.58014
彼女が	-9.58145
ディレクトリ	-9.58161
を改善し	-9.58184
はどうですか	-9.58238
面	-9.58293
il	-9.5832
実際に	-9.58387
会議	-9.58389
内で	-9.58572
未来	-9.58642
直接	-9.58659
地	-9.58802
古典的な	-9.58837
開始	-9.58867
の組み合わせ	-9.59056
思考	-9.59063
key	-9.59086
抵抗	-9.59092
信頼できる	-9.5918
気候	-9.59188
キーボード	-9.59218
ent	-9.59226
pos	-9.59277
ことができました	-9.59281
紛争	-9.59297
▁D	-9.59301
Rust	-9.59351
文化的	-9.59427
中国の	-9.59527
産業	-9.59542
犯罪	-9.59544
としての	-9.596
▁API	-9.59715
エリア	-9.59735
▁0;	-9.59738
推測	-9.59782
セクション	-9.5981
分野	-9.59833
ó	-9.59861
シンプルな	-9.59973
始めました	-9.60013
ロック	-9.60034
高品質の	-9.60043
筋肉	-9.60044
口	-9.6008
フィ	-9.60127
ru	-9.60148
懸念	-9.60181
伝統的な	-9.60214
店	-9.60323
学校	-9.60356
ということです	-9.60362
value	-9.60395
歳	-9.60492
me	-9.60537
ボックス	-9.60574
表面	-9.60597
▁that	-9.60757
誰もが	-9.60797
人口	-9.60819
で構成されています	-9.60865
を与え	-9.60885
繰り返し	-9.60942
ことなく	-9.60944
物理学	-9.6095
px	-9.60952
マトリックス	-9.61036
▁j	-9.61048
人類	-9.61058
サン	-9.61091
取引	-9.61156
ケーキ	-9.61157
会社の	-9.61196
暗号化	-9.61228
シーケンス	-9.61256
チェック	-9.61314
電話	-9.61326
はい	-9.61355
▁var	-9.61358
するには	-9.6138
et	-9.61458
を促進する	-9.61512
ヨーロッパ	-9.61556
体験	-9.61563
ケ	-9.6172
▁you	-9.61782
ましたが	-9.61849
これら	-9.61882
回転	-9.6189
ポート	-9.61895
▁Linux	-9.61984
sa	-9.62007
金属	-9.62036
ために必要な	-9.62132
▁さらに	-9.62148
するか	-9.6219
中央	-9.6228
あなたを	-9.62291
で使用される	-9.62301
唯一の	-9.62307
モード	-9.6234
ut	-9.62372
利用可能な	-9.62395
コントロール	-9.62471
コア	-9.6251
の観点から	-9.62585
csv	-9.6261
マップ	-9.62617
を計算する	-9.6272
国家	-9.62745
顔	-9.62746
内	-9.62774
React	-9.62818
ChatGpt	-9.62897
21	-9.62957
(1	-9.62989
文法	-9.62991
▁また	-9.63032
小麦粉	-9.63043
を選択する	-9.631
外部	-9.63144
通信	-9.6316
コンテナ	-9.63188
▁Re	-9.63198
質量	-9.63219
45	-9.63236
ソーシャルメディア	-9.63335
に基づいた	-9.63376
フォーマット	-9.63454
不安	-9.63472
▁8	-9.63578
解決策	-9.63592
私はあなたの	-9.63646
コードを	-9.63679
なかった	-9.63783
2.	-9.63801
プロジェクトの	-9.63853
分子	-9.64027
Hello	-9.64064
のアイデア	-9.64121
90	-9.6418
アーキテクチャ	-9.64204
システムは	-9.64204
財産	-9.64351
検証	-9.64477
年間	-9.64573
ラン	-9.64589
ピザ	-9.64657
2023	-9.64865
協力	-9.64901
he	-9.6494
酸素	-9.64945
プロット	-9.64951
ion	-9.6497
▁km	-9.65058
比較	-9.6517
言語モデルとして	-9.6521
プロセッサ	-9.65239
体重	-9.65422
は約	-9.65428
▁R	-9.65503
35	-9.65509
レイヤー	-9.65526
ませんでした	-9.65527
輸送	-9.6559
生き物	-9.65682
オープン	-9.65756
興味	-9.65858
結論	-9.65872
何も	-9.65884
-4	-9.65923
all	-9.65985
機関	-9.66114
の後	-9.662
ヨーロッパの	-9.6621
契約	-9.66356
現象	-9.66387
生物	-9.66483
アート	-9.66489
▁::	-9.66501
習慣	-9.66546
api	-9.66552
油	-9.66857
で最も	-9.66905
代替	-9.66925
▁name	-9.66949
フレーズ	-9.66979
res	-9.6699
ペット	-9.67041
script	-9.67369
緑	-9.67472
許可	-9.67577
倫理的	-9.67595
-3	-9.676
可能性があり	-9.67614
メール	-9.67631
▁las	-9.67678
なる	-9.67718
建物	-9.67776
:**	-9.67803
関数は	-9.6786
実際	-9.67871
夜	-9.67879
トン	-9.67883
を教えてもらえますか	-9.67909
次元	-9.67958
のすべての	-9.68016
を改善する	-9.68022
2)	-9.68041
を選択し	-9.68048
気候変動	-9.68055
ターゲット	-9.68074
の改善	-9.68094
と同じ	-9.68139
27	-9.68251
分散	-9.68349
のではなく	-9.68359
リンゴ	-9.68404
原因	-9.68406
を簡単に	-9.68423
を開始する	-9.68435
ことに	-9.68465
分割	-9.68468
е	-9.6857
作成	-9.68586
単に	-9.68599
dir	-9.6865
センター	-9.68706
がある場合は	-9.6876
70	-9.68766
28	-9.68773
IP	-9.68787
スター	-9.68814
ポ	-9.68922
der	-9.68932
22	-9.69018
達成	-9.69144
を取得し	-9.69199
ni	-9.69225
アメリカの	-9.69233
min	-9.69333
add	-9.69339
メモ	-9.69351
の下で	-9.69435
わ	-9.69465
ボード	-9.69489
右	-9.69509
個の	-9.6957
ために使用される	-9.69671
の感覚	-9.69757
ten	-9.69781
どうすれば	-9.69784
mp	-9.69851
翼	-9.69935
牛乳	-9.70093
のいずれか	-9.70131
自分自身を	-9.70133
▁ただし	-9.70134
テレビ	-9.70143
ユーロ	-9.70244
go	-9.70339
神経	-9.70402
カロリー	-9.70405
病気	-9.70526
若い	-9.70547
one	-9.70592
グラフィック	-9.70659
スペインの	-9.70728
必要	-9.70731
ニーズ	-9.70737
億	-9.70784
レストラン	-9.70861
ヒント	-9.70896
バス	-9.70911
に影響を与える	-9.70911
json	-9.7092
__	-9.70947
ダウンロード	-9.70957
することはできません	-9.70987
消費	-9.71022
GPU	-9.71029
世紀	-9.71092
▁t	-9.71111
人間が	-9.71122
手紙	-9.71135
ヒーロー	-9.71184
Apple	-9.71209
奇妙な	-9.7121
誰が	-9.71249
頻繁に	-9.71251
年から	-9.71262
要約	-9.71273
ことができません	-9.71274
▁o	-9.71322
呼吸	-9.71407
pe	-9.71431
飛行	-9.71462
集中	-9.71492
を見て	-9.71533
量子	-9.71545
携帯電話	-9.71553
アルゴリズムは	-9.71641
内部	-9.71657
整数	-9.71727
ai	-9.71761
最も一般的な	-9.71767
ジャガイモ	-9.71806
農業	-9.71875
医師	-9.7188
ゴ	-9.71921
and	-9.71924
電力	-9.71947
cu	-9.71971
たい場合は	-9.72076
意思決定	-9.72098
出来事	-9.72129
脂肪	-9.72138
性格	-9.72148
標準	-9.72163
でき	-9.72169
彼を	-9.72262
トーン	-9.72282
地震	-9.72292
▁一方	-9.72294
カー	-9.72295
緊張	-9.72313
ようとする	-9.7232
バランス	-9.72321
ment	-9.724
終わり	-9.72451
▁次の	-9.72461
アドレス	-9.72485
はずです	-9.72559
だった	-9.72587
']	-9.7261
生地	-9.72707
革命	-9.72721
ノイズ	-9.72771
▁function	-9.72851
man	-9.72965
要求	-9.72973
パスワード	-9.73006
なければならない	-9.73032
流	-9.73047
恐怖	-9.73088
ロー	-9.73128
という言葉	-9.73182
ci	-9.7323
チュートリアル	-9.73236
mm	-9.73266
スケジュール	-9.7333
初心者	-9.73346
エン	-9.73497
ca	-9.73514
成分	-9.73587
を与えます	-9.73587
知性	-9.73725
シナリオ	-9.73733
他に	-9.73774
▁以下は	-9.73782
たとき	-9.7379
正確に	-9.73815
建設	-9.7383
アメリカ	-9.73834
▁1)	-9.73947
ター	-9.74013
の範囲	-9.74014
▁20	-9.7402
無料	-9.74047
することは	-9.7407
form	-9.74071
▁por	-9.74101
コードの	-9.74132
日本	-9.74133
選択肢	-9.74187
実際には	-9.74198
燃料	-9.74216
段落	-9.74216
島	-9.74227
独立	-9.74238
によって異なります	-9.74254
ウィンドウ	-9.74378
title	-9.74379
▁最後に	-9.74394
ant	-9.74485
鶏肉	-9.74494
**:	-9.74534
を取り	-9.74549
を構築する	-9.74564
ビーチ	-9.74619
プレイヤーは	-9.74646
教えてください	-9.74715
に必要な	-9.7475
▁public	-9.7476
分離	-9.74769
戦い	-9.74776
コピー	-9.74804
立	-9.74806
26	-9.7485
推論	-9.74866
編集	-9.74911
スコア	-9.74932
[1]	-9.7495
プロ	-9.74961
▁not	-9.74999
以上	-9.75054
user	-9.75089
▁W	-9.75129
no	-9.75148
深刻な	-9.75367
対話	-9.75513
圧力	-9.75717
混乱	-9.75785
左	-9.75834
シンボル	-9.75849
に到達する	-9.75854
なり	-9.75873
1000	-9.76039
my	-9.7604
過去	-9.7606
シート	-9.76204
fe	-9.76205
を取得する	-9.76274
船	-9.76314
声明	-9.76359
という名前の	-9.76423
▁k	-9.7648
チェーン	-9.76486
自転車	-9.7651
シミュレーション	-9.7651
がありません	-9.76563
str	-9.76601
関心	-9.76613
形状	-9.76788
サンプル	-9.76812
▁O	-9.76816
キャリア	-9.76903
be	-9.76953
サウンド	-9.77003
市民	-9.77073
リック	-9.77146
英語の	-9.77165
23	-9.77168
武器	-9.77174
をください	-9.77177
言語の	-9.77184
土地	-9.7725
労働	-9.77309
種類の	-9.77351
ユーザーに	-9.77415
の動き	-9.77456
主	-9.77496
川	-9.77505
の代わりに	-9.77523
魅力的な	-9.77534
▁これが	-9.77646
アカウント	-9.77698
フィルター	-9.77845
CO	-9.77864
ブラウザ	-9.77882
を提供しています	-9.77901
かもしれませんが	-9.77938
で知られています	-9.77946
情報を	-9.78154
ig	-9.7828
役割	-9.78304
脅威	-9.78306
ベッド	-9.78355
ことがあります	-9.78402
べき	-9.78403
mo	-9.78447
紹介	-9.78472
おいしい	-9.78506
電源	-9.78546
ック	-9.78552
ba	-9.78578
string	-9.7859
金	-9.78623
雨	-9.78685
ファ	-9.78762
を作成して	-9.78845
政策	-9.78848
監督	-9.78918
レベルの	-9.78951
伝統	-9.78978
エクササイズ	-9.79027
の概要	-9.79073
支払い	-9.79083
style	-9.79186
ファイルを	-9.79203
維持	-9.79247
質	-9.79455
の長さ	-9.79465
のリスク	-9.79495
を説明し	-9.79515
以下は	-9.79524
5,	-9.79531
ado	-9.79551
▁次に	-9.79643
タマネギ	-9.79705
を開発する	-9.79714
の上に	-9.79771
っている	-9.79834
include	-9.79883
▁+=	-9.79988
論文	-9.80029
精度	-9.8005
String	-9.8006
Microsoft	-9.80105
▁input	-9.80167
の値	-9.80171
基本	-9.80217
の説明	-9.80252
人生の	-9.80282
確かに	-9.80326
カル	-9.80363
item	-9.80505
先	-9.80512
▁main	-9.80523
-2	-9.8054
for	-9.8054
無料の	-9.80541
がより	-9.80554
回復	-9.80571
mat	-9.80697
example	-9.8074
JSON	-9.80741
文学	-9.80798
ロード	-9.80843
中の	-9.81069
てきました	-9.81117
▁text	-9.81131
ライセンス	-9.81161
部門	-9.81168
ている場合	-9.81316
」(	-9.81417
ゆっくりと	-9.81442
txt	-9.81451
";	-9.81521
自分で	-9.81522
サー	-9.81528
背景	-9.81539
科学者	-9.81662
トレーニングデータ	-9.81738
ドイツの	-9.81766
アルコール	-9.81787
瞬間	-9.81856
しており	-9.81913
age	-9.81919
母親	-9.81956
コーディング	-9.82024
外観	-9.82048
ユーザーは	-9.82059
は何	-9.82089
対応する	-9.82172
の間	-9.82294
キーワード	-9.82318
main	-9.82318
ります	-9.82327
image	-9.82335
始め	-9.8241
に適した	-9.82437
上記の	-9.82444
軌道	-9.82476
クライアント	-9.82533
仮想	-9.82559
を避ける	-9.82602
答えは	-9.82678
倍	-9.82703
code	-9.82776
2,	-9.82807
米国の	-9.82831
プロトコル	-9.82868
結合	-9.82972
label	-9.82975
しません	-9.82981
広く	-9.83002
ローカル	-9.83019
チャットボット	-9.83019
できません	-9.8302
哲学的	-9.83083
かつ	-9.83177
を書きます	-9.83197
大量の	-9.83274
í	-9.83328
ヤ	-9.83339
自然な	-9.83561
最も人気のある	-9.83566
時間の経過とともに	-9.83572
ためです	-9.83627
とともに	-9.83633
危険な	-9.83638
に向かって	-9.83722
報酬	-9.83723
ho	-9.83762
安全な	-9.83773
時に	-9.83793
することで	-9.83897
互いに	-9.83959
軍事	-9.84019
を決定します	-9.84076
選択した	-9.84078
を変更する	-9.84082
ていますか	-9.84113
高さ	-9.84151
貢献	-9.84217
->	-9.84252
ウイルス	-9.84258
最高	-9.84285
▁an	-9.84359
を意味します	-9.84361
であるか	-9.84371
性別	-9.84374
再	-9.84501
を見つけることができます	-9.8466
レイ	-9.84674
を定義する	-9.84786
段階	-9.8481
送信	-9.84829
それほど	-9.84912
髪	-9.84968
照明	-9.84978
決して	-9.84993
!」	-9.85098
その結果	-9.85112
古代の	-9.85113
色の	-9.85204
pa	-9.85298
角度	-9.85356
は常に	-9.85367
そこに	-9.8537
ゼロ	-9.85414
それらが	-9.85414
ヒ	-9.85443
▁void	-9.85444
を得る	-9.85464
銀行	-9.85518
プレーヤー	-9.85519
ハリー	-9.85527
パー	-9.8553
症状	-9.85565
黄色	-9.85572
▁range	-9.85592
ven	-9.85624
シー	-9.85633
以前に	-9.85634
投稿	-9.85699
ac	-9.85733
手段	-9.8579
ボット	-9.85848
CPU	-9.85887
確率	-9.8591
刺激	-9.85916
▁result	-9.85934
の重要性	-9.85941
ine	-9.85985
供給	-9.85996
ホ	-9.86025
▁=>	-9.86042
パートナー	-9.86066
▁World	-9.86088
言語で	-9.86124
に使用される	-9.86237
領土	-9.86246
パワー	-9.8628
ga	-9.86317
しない	-9.86322
の物語	-9.86341
確認	-9.86357
今日の	-9.86365
していない	-9.8642
学生	-9.86494
彼らに	-9.86545
スケール	-9.86561
の構築	-9.86572
のセット	-9.86604
冗談	-9.86607
バター	-9.86613
read	-9.8662
倫理	-9.8664
タイ	-9.86646
スレッド	-9.86656
у	-9.8666
head	-9.86728
角	-9.86777
と同様に	-9.86783
を取得します	-9.86881
魂	-9.86979
できること	-9.87133
['	-9.8716
できるようにする	-9.87165
テンプレート	-9.87168
軍	-9.87216
をもたらす	-9.87233
手法	-9.87236
をインポートします	-9.87239
▁J	-9.87311
▁or	-9.87314
▁it	-9.87316
認証	-9.87346
メニュー	-9.87352
電流	-9.87354
line	-9.87362
width	-9.874
カテゴリ	-9.87401
ソン	-9.87421
po	-9.87477
チャネル	-9.87534
ich	-9.87539
多	-9.87544
を引き起こす	-9.87623
森	-9.87634
は誰ですか	-9.87643
ダー	-9.8766
▁l	-9.87768
破壊	-9.87795
動作	-9.87804
600	-9.8787
という事実	-9.88025
SQL	-9.88074
が何であるか	-9.88141
tr	-9.882
最近	-9.88201
モデルの	-9.88203
ストレージ	-9.88274
構築	-9.88276
Open	-9.88293
従業員	-9.88294
定期的に	-9.88339
のサイズ	-9.8835
メートル	-9.8855
を定義します	-9.88579
の理論	-9.88614
られ	-9.88619
博物館	-9.88637
貴重な	-9.88643
ルーチン	-9.88667
物理的な	-9.88721
を避けるために	-9.88721
init	-9.88751
へのアクセス	-9.88758
オンラインで	-9.88764
黒	-9.88811
▁結論として	-9.88845
と思いますか	-9.88849
の状態	-9.88886
時間の	-9.88932
エイリアン	-9.88968
世界中の	-9.88983
トークン	-9.89026
疾患	-9.89211
▁...	-9.89223
を示しています	-9.89248
始める	-9.89341
でさえ	-9.89346
だけで	-9.89354
歴史的	-9.89553
親	-9.8956
専門的な	-9.8962
指定された	-9.89628
費用	-9.89691
au	-9.89729
はすべて	-9.89812
自体	-9.89834
マーク	-9.89834
月の	-9.89917
の実装	-9.89921
URL	-9.89951
インデックス	-9.89969
チャンネル	-9.8997
源	-9.90007
2000	-9.90011
ことができない	-9.90043
а	-9.90051
▁2)	-9.90077
感情的な	-9.90145
br	-9.90158
に関係なく	-9.90159
ers	-9.90184
と考えられています	-9.90232
や他の	-9.90247
際に	-9.90253
表	-9.90292
以下	-9.90379
できるように	-9.90397
言った	-9.90453
金融	-9.90479
推奨	-9.90495
のに十分な	-9.90563
tion	-9.90622
はどのように	-9.90657
詳細な	-9.90662
チェス	-9.9067
大気	-9.90692
人に	-9.90706
時々	-9.90736
error	-9.90757
のはなぜですか	-9.90775
通知	-9.90896
▁Web	-9.90934
のレベル	-9.90984
ありません	-9.91022
マスター	-9.91117
オブジェクトの	-9.91141
color	-9.91288
400	-9.91458
教師	-9.91493
ドライバー	-9.915
訓練	-9.91595
国際	-9.91852
推奨事項	-9.91897
発	-9.91907
time	-9.91983
http	-9.92038
創造的な	-9.92134
ようにしてください	-9.92145
base	-9.92187
たいです	-9.92197
を実行します	-9.92235
よりもはるかに	-9.92237
サイクル	-9.92244
南	-9.92245
ab	-9.92279
ラベル	-9.92285
通り	-9.92296
car	-9.92302
魔法	-9.9234
あなたは私に	-9.92366
event	-9.92375
ニー	-9.92429
重量	-9.92466
ang	-9.92573
重要です	-9.92613
円	-9.92647
ry	-9.9266
にアクセスする	-9.92666
感	-9.92679
役立つ	-9.92703
sum	-9.92737
29	-9.92751
lu	-9.92776
いくつかは次のとおりです	-9.9278
▁your	-9.9284
することもできます	-9.92846
を使用すること	-9.92854
の役割	-9.92905
▁my	-9.92923
最良の	-9.92933
▁get	-9.931
はるかに	-9.93104
ピン	-9.93156
PHP	-9.93245
37	-9.9327
道路	-9.93287
あなたの名前	-9.93287
診断	-9.93308
難しい	-9.93351
することが重要です	-9.93362
ナー	-9.93368
リズム	-9.93388
任意の	-9.9344
検索エンジン	-9.93464
であると	-9.93521
長く	-9.93524
▁De	-9.93555
む	-9.93618
岩	-9.93637
▁<<	-9.93713
に最適な	-9.93758
▁100	-9.93769
LED	-9.93822
商品	-9.93831
レン	-9.93838
ビット	-9.93843
公開	-9.9388
明るい	-9.93951
アプリケーションの	-9.94
ないように	-9.94097
の意味	-9.94148
ロン	-9.94165
▁std	-9.94184
ご	-9.9421
▁let	-9.94273
月に	-9.94385
port	-9.94398
することです	-9.94485
自動化	-9.94492
の詳細	-9.94529
▁__	-9.94548
次のように	-9.94613
▁一般に	-9.94618
バック	-9.94619
重	-9.94622
ジャンプ	-9.9463
表示	-9.94682
いつも	-9.94699
などの他の	-9.94746
hi	-9.94758
バンド	-9.94766
適切に	-9.9482
ビジョン	-9.94839
トップ	-9.94898
Re	-9.94922
章	-9.94929
多数の	-9.9493
object	-9.94931
続け	-9.94938
を購入する	-9.94945
比較的	-9.95017
いません	-9.9506
発展	-9.95064
len	-9.95109
時間と	-9.95112
始めます	-9.95113
共産主義	-9.95224
ドメイン	-9.95235
それから	-9.95285
具体的な	-9.95293
せずに	-9.95435
信頼	-9.95527
使用される	-9.95537
ie	-9.95555
を完全に	-9.95618
300	-9.95633
の基本的な	-9.95634
残りの	-9.95644
作家	-9.95646
まったく	-9.95698
である可能性があります	-9.95742
ことに留意することが重要です	-9.95825
Openai	-9.95843
▁num	-9.95883
のグループ	-9.95891
のでしょうか	-9.95939
▁h	-9.95971
哲学者	-9.95978
べきですか	-9.95979
2021	-9.96027
ts	-9.96029
平和	-9.96082
▁end	-9.96085
▁id	-9.96101
存在する	-9.9621
に役立つ	-9.96269
主題	-9.96308
人間は	-9.9638
誰も	-9.96411
技術的	-9.96414
インフラストラクチャ	-9.9643
文書	-9.9645
以下の	-9.96464
@	-9.96489
tor	-9.96509
事前に	-9.96598
マー	-9.96611
登録	-9.96612
オーディオ	-9.96632
残	-9.96639
冷却	-9.96641
ると	-9.96645
っ	-9.9667
飛行機	-9.96709
arr	-9.96727
執筆	-9.96776
次	-9.96794
しか	-9.96813
をお勧めしますか	-9.96814
プレゼンテーション	-9.96835
▁https	-9.96882
万	-9.96997
ニューロン	-9.97006
側	-9.97018
OS	-9.97034
自動	-9.97116
北	-9.97138
はより	-9.97168
部	-9.97202
▁value	-9.97248
フランスの	-9.9729
を表示する	-9.97417
合成	-9.97426
遺伝子	-9.97441
フォルダー	-9.97452
load	-9.97468
旅	-9.97513
of	-9.97546
音声	-9.97582
エンティティ	-9.97651
学	-9.97659
▁list	-9.97782
地域の	-9.97829
収入	-9.97852
巨大な	-9.9786
▁9	-9.97956
効果的な	-9.9797
なります	-9.97972
生命	-9.97973
があるため	-9.98013
▁frac	-9.98051
▁どういたしまして	-9.98053
箱	-9.98057
プラグイン	-9.98061
Docker	-9.98063
プレート	-9.98117
仮定	-9.98136
レース	-9.98138
識別	-9.98149
方	-9.98225
削除	-9.98239
回路	-9.98256
クラブ	-9.98263
システムが	-9.98268
サラダ	-9.98278
運転	-9.98336
っています	-9.98377
可能	-9.98378
を返す	-9.98411
美しさ	-9.9847
を使う	-9.98504
支配	-9.98554
mi	-9.98561
引数	-9.98668
チョコレート	-9.98679
▁output	-9.98723
をする	-9.98735
PI	-9.98783
](	-9.98842
ドラゴン	-9.98886
á	-9.98946
を書いて	-9.98992
を評価する	-9.99005
環境で	-9.99013
真	-9.99049
▁});	-9.9906
爆発	-9.99086
真の	-9.99092
シェル	-9.99115
返信	-9.99227
ホスト	-9.9923
ity	-9.99234
グラフ	-9.99261
の世界	-9.99292
されていません	-9.99296
ist	-9.99441
をお勧めします	-9.99579
記録	-9.99647
こんにちは	-9.99679
かなり	-9.99686
の基礎	-9.99696
宣言	-9.99828
帝国	-9.99892
'、	-9.9991
state	-9.99942
続ける	-9.99972
ap	-10.0003
関数の	-10.0005
36	-10.0007
インスタンス	-10.0014
推定	-10.0016
本当の	-10.0024
の重要な	-10.0024
を生成し	-10.0027
ver	-10.0029
▁do	-10.0031
▁time	-10.0034
をサポートする	-10.0035
ダン	-10.0036
':	-10.0037
場所に	-10.0038
実行する	-10.0039
べきです	-10.004
話す	-10.0041
組み合わせ	-10.0044
='	-10.005
フェ	-10.0055
汚染	-10.0055
アイデンティティ	-10.0056
神話	-10.0057
を共有し	-10.0066
するのに役立ちます	-10.0069
を説明できますか	-10.0069
bi	-10.007
突然	-10.0074
que	-10.0077
ロジック	-10.0077
日本の	-10.0082
試み	-10.0089
のパフォーマンス	-10.0097
ハードドライブ	-10.0098
に変換する	-10.0101
▁this	-10.0101
ギ	-10.0104
必要がありますか	-10.0106
兄弟	-10.0107
意図	-10.0107
検出	-10.011
0%	-10.0113
あなたがあなたの	-10.0115
ana	-10.0118
ll	-10.0121
視聴者	-10.0127
を引き起こす可能性があります	-10.0127
を作成するには	-10.0127
と見なされる	-10.0128
ファンタジー	-10.0134
app	-10.0144
発明	-10.0145
節	-10.0157
EU	-10.0159
物事	-10.016
検査	-10.0162
映画の	-10.0163
ER	-10.0163
に入る	-10.0163
結婚	-10.017
動機	-10.0175
を示します	-10.0178
を見	-10.018
女の子	-10.0183
車両	-10.0184
見る	-10.0184
栄養	-10.0188
トラック	-10.0194
の位置	-10.0197
エッセイ	-10.0198
歳の	-10.0207
上で	-10.0209
最適な	-10.0215
を伴う	-10.0216
ive	-10.0218
アジア	-10.0226
を見つけます	-10.023
実用的な	-10.0231
あり	-10.0241
密度	-10.0242
傷	-10.0245
に関して	-10.0246
近くの	-10.0246
私はそれを	-10.0256
ロール	-10.0256
を持っていません	-10.0261
ることができる	-10.0265
教え	-10.0266
はしばしば	-10.0269
テキストの	-10.0272
を食べ	-10.0279
▁In	-10.028
に直接	-10.0287
▁Pi	-10.0288
▁Pro	-10.0298
を行い	-10.0301
スイッチ	-10.0312
link	-10.0314
建築	-10.0327
以上の	-10.033
業界	-10.0331
td	-10.0331
index	-10.0333
元	-10.0334
英国	-10.0336
の専門家	-10.0336
ジャンル	-10.0343
問題を解決する	-10.0347
bar	-10.0355
定期的な	-10.0357
保証	-10.0366
を変える	-10.0367
オレンジ	-10.037
ガラス	-10.0371
にする	-10.0372
学ぶ	-10.0374
世界で	-10.0375
に依存する	-10.0377
発達	-10.0382
を減らし	-10.0385
つながり	-10.0387
able	-10.0391
有用な	-10.0391
させます	-10.0394
レポート	-10.04
ip	-10.0409
正しく	-10.0419
ブロックチェーン	-10.042
素材	-10.0421
ポリシー	-10.0422
継続的な	-10.0422
を共有する	-10.0424
東	-10.043
次のような	-10.0442
のおかげで	-10.0443
電圧	-10.0443
戦闘	-10.0444
太陽の	-10.0448
ノート	-10.0449
あなたはあなたの	-10.0449
無限の	-10.0454
オイル	-10.0465
と呼ばれます	-10.0465
間で	-10.0467
▁---	-10.0471
[0]	-10.0472
new	-10.0479
▁12	-10.0479
▁r	-10.0481
鼻	-10.0486
修理	-10.0487
私はそれ	-10.0488
鉄	-10.0497
▁can	-10.05
たいと思っています	-10.0501
土壌	-10.0509
net	-10.0509
▁while	-10.0516
を確認する	-10.0518
];	-10.0518
脚	-10.0522
result	-10.0523
ために使用できる	-10.0524
高速	-10.0538
▁Ma	-10.0538
雇用	-10.0542
を実行し	-10.0545
0.0	-10.0548
木材	-10.0549
炎	-10.0552
行為	-10.0553
シュ	-10.0559
批判	-10.0564
с	-10.0564
▁Y	-10.0569
固定	-10.0571
でなければなりません	-10.0573
が存在する	-10.0574
する可能性があります	-10.0575
],	-10.0583
▁sin	-10.0587
判断	-10.059
ニンニク	-10.0594
激しい	-10.0597
参加	-10.0603
楽しみ	-10.0603
数の	-10.0617
マルチ	-10.0619
リポジトリ	-10.0619
Facebook	-10.0619
酸	-10.062
より高い	-10.062
命令	-10.0622
にします	-10.0623
使用できる	-10.0626
につれて	-10.063
に影響を与える可能性があります	-10.0632
対処	-10.0638
道徳的	-10.0643
),	-10.0643
の前に	-10.065
銀河	-10.0657
オン	-10.0658
キャラクターの	-10.0659
反復	-10.0659
を構築し	-10.0661
アニメ	-10.0663
歯	-10.0664
解	-10.0665
他の多くの	-10.0667
乾燥	-10.0673
政府の	-10.0675
として知られる	-10.0675
che	-10.0681
配置	-10.0687
複雑さ	-10.0695
ルー	-10.0698
労働者	-10.0702
op	-10.0705
暴力	-10.0707
精神	-10.0713
長さ	-10.0714
圧縮	-10.0717
長期的な	-10.0719
フレーム	-10.0721
強度	-10.0721
ことを確認してください	-10.0724
時代	-10.0727
を実装する	-10.073
対応	-10.073
ボトル	-10.0732
array	-10.0737
per	-10.0738
ы	-10.0743
論理	-10.0744
ja	-10.0749
open	-10.0751
新鮮な	-10.0753
ますが	-10.0754
の原因	-10.0757
需要	-10.076
を支援する	-10.0764
ほぼ	-10.0766
与えられた	-10.0768
max	-10.0772
になった	-10.0774
ものであり	-10.0774
資産	-10.0777
о	-10.0787
に焦点を当てています	-10.0787
の一般的な	-10.0793
道徳	-10.0795
富	-10.0799
バナナ	-10.0799
ss	-10.0803
する前に	-10.0805
にいる	-10.0808
たびに	-10.0809
0,	-10.0812
を超える	-10.0814
ジャ	-10.0815
リリース	-10.0816
イギリス	-10.0818
▁JavaScript	-10.0821
count	-10.0821
バックエンド	-10.0822
呪文	-10.0824
持続可能な	-10.0824
1.	-10.0828
低い	-10.0828
tu	-10.0834
私は自分の	-10.084
なし	-10.0843
ことは困難です	-10.0845
コードは	-10.0847
勉強	-10.0848
▁type	-10.0852
られた	-10.0854
損傷	-10.0857
加速	-10.0858
一貫性	-10.0868
ホイール	-10.0868
ケーブル	-10.0868
カフェイン	-10.0868
を開く	-10.0879
の特定の	-10.0881
証明	-10.0882
革新	-10.0883
を使用しています	-10.0885
生き	-10.0887
vel	-10.0887
ことはありません	-10.0887
鍋	-10.0888
Twitter	-10.089
多様な	-10.0892
個人の	-10.0895
明らかに	-10.0898
洞察	-10.0898
コンソール	-10.09
架空の	-10.0909
を提供してください	-10.0913
廃棄物	-10.0914
ッド	-10.0916
必要はありません	-10.0917
を増やす	-10.0922
table	-10.0923
け	-10.0928
と言う	-10.093
もしそうなら	-10.0936
length	-10.0936
マウス	-10.0938
を見つけて	-10.0946
を促進し	-10.0948
十分に	-10.0949
я	-10.0949
幅	-10.0956
空の	-10.0968
安全で	-10.0972
自信	-10.0973
歴史的な	-10.0976
症	-10.0976
王国	-10.0977
影	-10.0982
財務	-10.0987
しなければならない	-10.0989
キロメートル	-10.099
葉	-10.0994
の力	-10.0996
現代	-10.1
ために使用できます	-10.1002
コラボレーション	-10.1004
窓	-10.1006
柔軟性	-10.1008
属性	-10.1008
の主な	-10.1013
を変え	-10.1016
秒	-10.1023
との関係	-10.1025
転送	-10.1035
につながる	-10.1035
毎日の	-10.1043
ソーシャルネットワーク	-10.1046
▁""	-10.1049
を持って	-10.1055
するように	-10.1057
人種	-10.1057
Minecraft	-10.1059
▁python	-10.1061
のうち	-10.1061
を追加して	-10.1069
成功した	-10.107
を生み出す	-10.1077
街	-10.1078
徐々に	-10.1087
に適しています	-10.1088
▁per	-10.1089
message	-10.1097
キッチン	-10.1099
プレイヤーが	-10.1099
用途	-10.1099
RAM	-10.11
マイル	-10.1108
傾向	-10.1108
д	-10.1108
することができる	-10.111
ことが含まれます	-10.1111
対立	-10.1122
さまざまな種類の	-10.1122
いつ	-10.1125
の基本	-10.1133
行う	-10.1135
(2	-10.1137
33	-10.1142
資本主義	-10.1146
雪	-10.1146
ニンジン	-10.1146
の仕事	-10.1146
の経験	-10.1153
ell	-10.1161
モバイル	-10.1167
胸	-10.1169
資源	-10.1169
善	-10.1169
に似た	-10.117
ジョージ	-10.117
知覚	-10.117
を測定する	-10.1172
矛盾	-10.1172
情報源	-10.1176
pi	-10.1177
bo	-10.1179
著者	-10.118
の設計	-10.1182
間違い	-10.1187
玉ねぎ	-10.1193
センサー	-10.1193
決定を下す	-10.1194
к	-10.1198
ローマ	-10.1199
希望	-10.12
ベル	-10.12
たときに	-10.1206
通常は	-10.1207
砂	-10.1216
赤ちゃん	-10.1216
贈り物	-10.1217
ri	-10.1217
パーソナライズされた	-10.1218
モデルが	-10.1219
速く	-10.1219
の価値	-10.1222
に存在する	-10.1224
赤い	-10.1224
医学	-10.1227
持っている	-10.1229
私はあなた	-10.1229
曲線	-10.1229
女性の	-10.123
牛	-10.1239
▁by	-10.124
危機	-10.124
ようとします	-10.1244
そこで	-10.1246
この関数は	-10.1254
オープンソースの	-10.1254
量の	-10.1254
ペン	-10.1256
ビー	-10.1256
技術的な	-10.1267
大規模な言語モデル	-10.1269
に従う	-10.1271
の主要な	-10.1273
根	-10.1283
杯の	-10.1284
レッスン	-10.1286
神の	-10.1286
母	-10.1286
最小	-10.129
を開き	-10.1291
を調整する	-10.1292
ハイ	-10.1294
混合	-10.1295
ん	-10.1296
▁we	-10.1306
比	-10.1308
気分	-10.1314
gen	-10.1315
互換性	-10.1318
脆弱性	-10.1321
問題の	-10.1323
がいます	-10.1323
トリ	-10.1324
IV	-10.1326
if	-10.1329
枝	-10.1335
ación	-10.1341
^3	-10.1346
再生	-10.1348
線形	-10.135
あなた自身の	-10.1353
up	-10.1353
プレイヤー	-10.1357
▁und	-10.1359
乗算	-10.136
自分	-10.136
周波数	-10.1362
▁Assistant	-10.137
逆	-10.137
▁ステップ	-10.1377
プラスチック	-10.1383
公園	-10.1383
48	-10.1384
カバー	-10.1386
ことにしました	-10.1387
日光	-10.1389
を使用してください	-10.139
雲	-10.1391
を私に	-10.1393
効率的な	-10.1398
ゼ	-10.1402
プラ	-10.1406
形式で	-10.1406
のに役立つことを願っています	-10.1407
こ	-10.1412
▁18	-10.1413
お互い	-10.1414
');	-10.1415
またはその他の	-10.1418
変化する	-10.1419
ような	-10.142
ではありませんが	-10.1421
エンジニア	-10.1423
につながります	-10.1427
食	-10.1431
軸	-10.1432
資料	-10.1432
暗号通貨	-10.1432
風景	-10.1432
our	-10.1432
Excel	-10.1434
火星	-10.1439
バイナリ	-10.144
run	-10.1444
天気	-10.1447
の発展	-10.1449
オリーブオイル	-10.1456
慣行	-10.1456
den	-10.1458
身体的	-10.1463
社会の	-10.1473
に参加する	-10.1474
拡張機能	-10.1474
var	-10.1476
アー	-10.1476
以外の	-10.1477
node	-10.1488
Text	-10.1489
75	-10.149
ワ	-10.149
を制御する	-10.1494
総	-10.1502
血	-10.1503
施設	-10.1505
サッカー	-10.1505
損失	-10.1507
center	-10.1507
か月	-10.1508
リス	-10.1513
レス	-10.1514
ジェ	-10.1516
移動する	-10.1521
タグ	-10.1522
職業	-10.1529
警告	-10.1529
’	-10.1529
対	-10.1532
最終	-10.1532
言う	-10.1534
を減らす	-10.1537
タン	-10.1538
ブラ	-10.154
を処理する	-10.1544
演奏	-10.1548
文明	-10.1551
ヴィ	-10.1554
明確に	-10.1556
深く	-10.1557
ものを	-10.1559
人々に	-10.1562
お気に入りの	-10.1566
つであり	-10.1569
の生産	-10.157
それ自体	-10.1572
限り	-10.1573
append	-10.1579
800	-10.1581
そ	-10.1583
ate	-10.1592
が必要な場合は	-10.1602
主張	-10.1602
雰囲気	-10.1602
オフィス	-10.1604
の一人	-10.1605
の形	-10.1606
患者	-10.1607
画像の	-10.1612
進	-10.1615
start	-10.1616
平等	-10.1622
を知っていますか	-10.1626
ウクライナ	-10.1627
同僚	-10.1627
季節	-10.1627
試験	-10.1627
ラップトップ	-10.1628
作物	-10.1628
関連	-10.163
65	-10.1632
ユニークで	-10.1635
の変更	-10.1635
広範な	-10.1644
誰か	-10.1645
消費者	-10.1646
を追加し	-10.1654
プログラマー	-10.1655
あたり	-10.1662
の原則	-10.1662
一部の人々は	-10.1663
so	-10.1668
を再	-10.1673
安定した	-10.1674
飲み物	-10.1678
可能な限り	-10.1684
の合計	-10.1684
▁float	-10.1686
人物	-10.1687
書く	-10.1689
が高い	-10.1697
まれ	-10.1699
を達成する	-10.1702
の機能	-10.1702
生物学	-10.1703
スタイルの	-10.1704
研究者	-10.171
の関係	-10.1715
るために	-10.1716
ていますが	-10.1716
コンピューティング	-10.1722
適用	-10.1723
正義	-10.1724
炭水化物	-10.1724
床	-10.1726
かった	-10.1727
パーティー	-10.1727
品種	-10.1728
生物学的	-10.1729
いない	-10.1735
来	-10.1741
ずに	-10.1742
正	-10.1747
76	-10.1748
反射	-10.1751
6,	-10.1754
▁are	-10.1755
sp	-10.1759
家の	-10.1763
ve	-10.1766
を形成する	-10.1767
情熱	-10.1771
同様に	-10.1772
を以下に示します	-10.1776
必ずしも	-10.1779
がなく	-10.1781
を提供できますか	-10.1785
楽器	-10.1786
ように設計されています	-10.1789
性質	-10.1794
アルゼンチン	-10.1797
世紀の	-10.1797
map	-10.1798
マーケティング	-10.1798
println	-10.1803
展開	-10.1806
ようにします	-10.1813
"]	-10.1818
の本	-10.1821
val	-10.1822
げ	-10.1822
ギター	-10.1824
ヘ	-10.1825
ポータル	-10.1826
を考慮する	-10.1829
シンプルで	-10.1837
▁pro	-10.1841
るため	-10.1842
を高める	-10.1843
▁ball	-10.185
シャ	-10.185
img	-10.1851
ショー	-10.1853
を説明します	-10.1853
ía	-10.1856
IT	-10.1858
に最適です	-10.1859
になるまで	-10.186
マル	-10.186
最初は	-10.1863
テキストを	-10.1863
終了	-10.1865
身体	-10.1871
成果	-10.1874
害	-10.1875
示	-10.1876
ブル	-10.188
提供する	-10.1883
世紀に	-10.1888
本の	-10.1889
でもあります	-10.189
を作成するための	-10.1891
英語で	-10.19
スピーチ	-10.1902
複雑	-10.1905
3,	-10.1905
▁else	-10.1906
緊急	-10.1908
スペイン語	-10.1908
va	-10.1909
42	-10.1911
を防ぐ	-10.1918
ール	-10.1922
メンバー	-10.1922
誰	-10.1927
指導者	-10.193
ディスク	-10.1931
それでも	-10.1931
を楽しむ	-10.1933
▁X	-10.1935
を作成するために	-10.1938
私はそれが	-10.1943
する能力	-10.1944
などのさまざまな	-10.1948
ヘッド	-10.1951
si	-10.1952
▁console	-10.1953
▁app	-10.1954
杯	-10.1958
に役立ちます	-10.1964
市	-10.1969
を認識し	-10.197
デル	-10.1971
どこ	-10.1971
を準備する	-10.1971
ka	-10.1973
を計算します	-10.1974
を解決する	-10.1977
ビルド	-10.1981
34	-10.1984
健康的な	-10.1986
反対	-10.1992
sta	-10.1993
ans	-10.1997
尊敬	-10.2004
後の	-10.2005
を確立する	-10.2014
の生活	-10.2016
points	-10.2016
署名	-10.2019
▁u	-10.202
ite	-10.2028
語彙	-10.203
の選択は	-10.2038
食べる	-10.2042
尋ね	-10.2044
引用	-10.2053
余分な	-10.2055
間違いなく	-10.2056
カスタマイズ	-10.2056
は何でしたか	-10.2056
端	-10.2057
password	-10.206
CSV	-10.2061
関数を使用して	-10.2062
あなたにとって	-10.2062
バックアップ	-10.2069
最終的には	-10.2069
全体的な	-10.2083
困難な	-10.2084
バグ	-10.2086
依存	-10.2087
壁	-10.2093
を作ります	-10.2098
迅速に	-10.21
を読む	-10.2102
▁今	-10.2102
もう少し	-10.2104
んだ	-10.2106
を求める	-10.2107
一貫した	-10.2107
偉大な	-10.2107
▁第	-10.2111
ol	-10.2116
最終的な	-10.2117
共通の	-10.2125
ロシアの	-10.213
31	-10.2131
工学	-10.2133
発音	-10.2135
▁die	-10.2139
どちらも	-10.214
容器	-10.2141
word	-10.2142
歌詞	-10.2146
人工	-10.215
メンテナンス	-10.2151
満足	-10.2153
エンジニアリング	-10.2153
shape	-10.2159
インタビュー	-10.2161
役立ちます	-10.2161
ときは	-10.2165
数学の	-10.2165
の利点	-10.2166
柔らかい	-10.2185
ウェブ	-10.2188
てもらえますか	-10.219
動物の	-10.2196
ha	-10.2196
м	-10.2198
の構造	-10.22
所有者	-10.2203
について教えてください	-10.2207
素数	-10.2213
ランダムな	-10.2216
世界で最も	-10.2217
ian	-10.2218
▁pygame	-10.2222
作成された	-10.2226
の選択	-10.2228
結果を	-10.223
製品の	-10.2234
剤	-10.2237
栄養素	-10.2238
いつでも	-10.2238
を予測する	-10.2239
▁response	-10.2252
イタリア	-10.2254
生まれ	-10.2257
lib	-10.2257
コンピューターの	-10.2261
RE	-10.2261
多く	-10.2262
絵画	-10.2264
ツリー	-10.2265
文脈	-10.2266
とは異なり	-10.2267
era	-10.227
代数	-10.2271
引き	-10.2273
残り	-10.2273
を紹介します	-10.2274
ES	-10.2279
ていること	-10.2279
することにより	-10.2284
])	-10.2284
商業	-10.2287
なしに	-10.2289
喫煙	-10.229
by	-10.229
ング	-10.2293
ke	-10.23
緑の	-10.2311
インド	-10.2312
てほしい	-10.2312
ソースコード	-10.2315
西	-10.2315
融合	-10.2316
会	-10.2316
だろう	-10.2316
運命	-10.2316
アパート	-10.2318
ピース	-10.2318
を書き	-10.2322
探求	-10.2331
ロケット	-10.2331
▁-1	-10.2332
ze	-10.2337
の背後にある	-10.2339
と彼の	-10.234
ガン	-10.234
悲しみ	-10.2343
サラ	-10.2343
に焦点を当てた	-10.235
保持	-10.2352
▁sum	-10.2354
ps	-10.2356
という考え	-10.236
食べ	-10.2362
停止	-10.2366
カン	-10.2368
趣味	-10.2369
ガー	-10.2371
II	-10.2371
深い学習	-10.2372
ier	-10.2372
複雑で	-10.2374
ファイルの	-10.2376
馬	-10.2382
tra	-10.2383
ことを知っています	-10.239
グラ	-10.2391
強く	-10.2392
つの異なる	-10.2392
挑戦	-10.2394
昆虫	-10.2396
を提供できる	-10.2398
書	-10.2399
キング	-10.24
いいえ	-10.2401
たいですか	-10.2403
に焦点を当て	-10.2407
▁paddle	-10.2407
使用されている	-10.2409
行く	-10.2415
を特定する	-10.2416
アップ	-10.2417
ラス	-10.2417
だと思います	-10.2419
小	-10.2419
基盤	-10.2422
包括的な	-10.2424
ことも	-10.2425
の減少	-10.2427
レベルで	-10.2429
hu	-10.2429
を確認します	-10.2431
発生する	-10.244
なので	-10.2444
までの	-10.2446
失敗	-10.2446
古代	-10.2448
nn	-10.2449
т	-10.2453
すぎる	-10.2453
世	-10.2457
は彼の	-10.2459
の後に	-10.2461
を設定します	-10.2462
保険	-10.2463
ランダム	-10.2471
の要素	-10.2475
製造	-10.2475
尾	-10.2476
Name	-10.2476
インフレ	-10.2476
hello	-10.2477
ドライブ	-10.2479
化された	-10.2479
▁System	-10.2479
黒い	-10.2481
れば	-10.2482
ニア	-10.2485
追跡	-10.2492
VR	-10.2497
父	-10.2502
民主主義	-10.2503
github	-10.2503
の形で	-10.2505
マスク	-10.2506
垂直	-10.2506
col	-10.2506
場所で	-10.251
した場合	-10.252
iz	-10.2521
())	-10.2521
庭	-10.2522
パリ	-10.2524
を見ました	-10.2525
住宅	-10.2529
このタイプの	-10.2533
In	-10.2546
差別	-10.2551
犬の	-10.2551
▁"、"	-10.2553
悪魔	-10.2557
耐性	-10.2558
Git	-10.2558
怪我	-10.256
長い間	-10.2561
л	-10.2563
を確立し	-10.2566
/2	-10.2567
を明確に	-10.2568
ハン	-10.2571
積分	-10.2576
が含まれ	-10.2578
粉	-10.2582
を正確に	-10.2582
カラー	-10.2583
ステートメント	-10.2584
いくつか	-10.2584
の性質	-10.2585
を加え	-10.2585
tal	-10.2587
($	-10.2589
タブ	-10.259
より複雑な	-10.2598
退屈	-10.2603
▁Java	-10.2607
間違っている	-10.2609
ボリューム	-10.2611
Ubuntu	-10.2611
ブランチ	-10.2611
の平均	-10.2617
が非常に	-10.2621
アリ	-10.2622
ord	-10.2625
ada	-10.2626
イメージ	-10.2626
勝利	-10.263
を食べる	-10.263
仮説	-10.2635
喜んで	-10.2635
正式な	-10.2637
人気	-10.2639
za	-10.264
send	-10.2643
を避け	-10.265
質問に答え	-10.2651
++	-10.2653
gu	-10.266
url	-10.2661
▁df	-10.2662
▁El	-10.2665
ゲ	-10.2668
しましょう	-10.267
流れ	-10.2671
han	-10.2674
文章	-10.2675
加熱	-10.2675
半	-10.2676
▁so	-10.268
の色	-10.2681
▁set	-10.2684
ción	-10.2685
がたくさんあります	-10.2686
▁ここで	-10.2689
カスタム	-10.2693
半分	-10.2697
幸せ	-10.2705
ペア	-10.2705
上げ	-10.2705
8,	-10.2711
▁この例では	-10.2712
しようとする	-10.2717
血液	-10.2718
資金	-10.2723
ップ	-10.2728
に使用されます	-10.2731
username	-10.2732
カウント	-10.2736
を感じ	-10.2742
を考慮して	-10.2745
税	-10.2746
スキルと	-10.2746
クリーム	-10.2747
パズル	-10.2748
ビタミン	-10.2748
そこでは	-10.2749
Data	-10.2752
には多くの	-10.2754
2020	-10.276
分野で	-10.2765
をインストールする	-10.2768
日目	-10.2769
の中心	-10.277
もう一度	-10.277
生存	-10.2771
第二次世界大戦	-10.2773
pdf	-10.2774
▁Con	-10.2776
妻	-10.2776
辞書	-10.2776
▁document	-10.2782
ますます	-10.2784
ターン	-10.2784
エンド	-10.2786
できるようにします	-10.2788
両親	-10.2789
▁ex	-10.2791
▁ああ	-10.2797
トランス	-10.2804
に関連しています	-10.2805
を確保する	-10.2807
が低い	-10.281
腐敗	-10.2816
ex	-10.2817
を開発し	-10.2819
▁###	-10.2819
投票	-10.2821
タイム	-10.2824
効果的に	-10.2825
π	-10.2831
繊維	-10.2831
クラウド	-10.2831
プリンター	-10.2831
オフ	-10.2834
短く	-10.2835
していません	-10.2839
たりする	-10.2855
装置	-10.2859
着	-10.2859
首相	-10.2859
この問題	-10.286
▁plt	-10.286
▁まず	-10.2863
root	-10.2864
都市の	-10.2864
安定性	-10.287
les	-10.2871
2:	-10.2871
読む	-10.2877
の定義	-10.2879
バイ	-10.2886
措置	-10.2887
ゾーン	-10.2887
ジョ	-10.2889
ビーガン	-10.2889
完了	-10.2892
ツールです	-10.2892
大きく	-10.2895
豆	-10.291
コレクション	-10.2911
86	-10.2911
単位	-10.2914
を確認し	-10.2918
分解	-10.2921
海洋	-10.2923
を始める	-10.2927
器	-10.2928
午後	-10.2929
ただ	-10.2943
に沿って	-10.2944
理論は	-10.2946
自動車	-10.2947
バン	-10.2949
を改善するために	-10.2952
何ができますか	-10.2953
に影響を与え	-10.2954
▁19	-10.296
と見なされます	-10.2963
rec	-10.2966
モン	-10.2968
橋	-10.2971
the	-10.2974
38	-10.2978
快適な	-10.2979
▁最初の	-10.2984
▁str	-10.2984
父親	-10.2987
47	-10.2992
重い	-10.2992
最	-10.2993
mod	-10.2994
フル	-10.2995
ジュ	-10.2998
炭素	-10.2999
oc	-10.3001
物理	-10.3005
切断	-10.3005
データ構造	-10.301
だから	-10.3011
に対応する	-10.3013
here	-10.3017
感謝	-10.3023
発生します	-10.3023
ことを示しています	-10.3025
鶏	-10.3026
図	-10.3026
▁arr	-10.3026
電気自動車	-10.3029
チャ	-10.3034
の理解	-10.3038
を防ぐために	-10.3041
▁親愛なる	-10.3045
light	-10.3045
cha	-10.3046
vo	-10.3048
▁To	-10.3049
無料で	-10.3053
の形成	-10.3054
インスピレーション	-10.3055
承認	-10.3056
を研究する	-10.3058
db	-10.306
を指す	-10.306
▁クリア	-10.3061
を好む	-10.3063
軍隊	-10.3065
LLM	-10.3065
ケア	-10.3067
するにはどうすればよいですか	-10.3075
で作られた	-10.3077
秘密	-10.3079
ボブ	-10.3081
腕	-10.3084
デザイナー	-10.3085
容量	-10.3085
動詞	-10.3085
既知の	-10.3085
カット	-10.3089
中程度の	-10.3092
メキシコ	-10.3095
かについて	-10.3106
とは何か	-10.3108
67	-10.3109
少ない	-10.3109
ボート	-10.311
н	-10.3111
モデリング	-10.3113
部品	-10.3114
見解	-10.3114
height	-10.3117
を含める	-10.3118
戦	-10.3118
List	-10.312
続けています	-10.3122
学者	-10.3122
▁double	-10.3137
ようとしています	-10.3139
を表します	-10.3141
謎	-10.3142
友情	-10.3142
教授	-10.3142
制約	-10.3143
▁key	-10.3145
刻んだ	-10.3148
かかる	-10.3149
La	-10.3149
3)	-10.3151
を作り	-10.3151
いい	-10.3158
インチ	-10.316
あなたの質問	-10.3167
可能であれば	-10.317
規則	-10.3171
よ	-10.3174
App	-10.3176
明確で	-10.3178
キャンペーン	-10.3179
を正しく	-10.318
否定的な	-10.3187
時には	-10.3195
ギャップ	-10.3199
集団	-10.32
おもちゃ	-10.32
バルセロナ	-10.32
アルバム	-10.32
GB	-10.32
極端な	-10.3201
向けの	-10.3203
を意味する	-10.3204
夕食	-10.3206
を学び	-10.3209
水の	-10.321
token	-10.321
開	-10.3212
ls	-10.3212
あります	-10.3213
はありませんが	-10.322
son	-10.3222
豊かな	-10.3223
▁En	-10.3225
red	-10.3225
大学の	-10.3227
充電	-10.3228
の兆候	-10.3229
クリック	-10.3231
今日は	-10.3232
ディスプレイ	-10.3232
(「	-10.3234
物理的	-10.3236
display	-10.3239
▁des	-10.3243
の終わり	-10.3245
▁@	-10.3249
氷	-10.325
わずかに	-10.325
自由に	-10.3253
を受け	-10.3255
To	-10.3255
ショット	-10.3257
訪問	-10.3259
想像	-10.3259
km	-10.326
USB	-10.3261
99	-10.3264
vi	-10.3272
抽出	-10.3274
ファイルに	-10.3278
bin	-10.3283
していますか	-10.3285
共同	-10.3286
憲法	-10.3287
細菌	-10.3287
自然言語処理	-10.329
▁cm	-10.3297
з	-10.3301
正規化	-10.3301
強力で	-10.3301
▁残念ながら	-10.3302
仲間	-10.3303
ていて	-10.3307
を可能にする	-10.3308
▁現在	-10.3311
git	-10.3312
進行	-10.3313
を設定する	-10.3315
を克服する	-10.3316
せ	-10.3316
数学者	-10.3318
▁No	-10.3321
00	-10.3323
を構成する	-10.3328
を伝える	-10.3328
定数	-10.3331
に住んでいる	-10.3335
アフリカ	-10.3342
je	-10.3344
の起源	-10.3345
個	-10.3347
安全性	-10.3348
限られた	-10.3348
それぞれが	-10.3355
大陸	-10.3356
スタ	-10.3356
android	-10.3362
float	-10.3364
クラスの	-10.3366
することをお勧めします	-10.3367
number	-10.3372
stream	-10.3373
貿易	-10.3374
)=>	-10.3374
カレンダー	-10.3374
時間を	-10.3376
印象的な	-10.3378
小さく	-10.3379
と言います	-10.338
ことができるように	-10.3381
方法について	-10.3381
わけではありません	-10.3383
革新的な	-10.3383
採用	-10.3388
ドン	-10.3388
であるという	-10.3389
39	-10.3395
を保存する	-10.3396
ライフスタイル	-10.3398
を特定し	-10.34
wa	-10.34
日常生活	-10.3402
PDF	-10.3403
の分野で	-10.3404
バリエーション	-10.3404
エージェント	-10.3404
時計	-10.3404
可能性が高い	-10.3405
剣	-10.3406
個人が	-10.3408
慎重に	-10.3409
穴	-10.3412
バラ	-10.3415
リーダー	-10.3418
ak	-10.3421
インポート	-10.3421
メーカー	-10.3422
ておらず	-10.3425
▁Al	-10.3425
と見なされ	-10.3432
ガイダンス	-10.3433
していました	-10.3433
Unity	-10.3435
パスタ	-10.3439
1)	-10.3448
目的地	-10.345
あなたと	-10.3451
付け	-10.3452
▁static	-10.3453
でしたが	-10.3453
client	-10.3458
高レベルの	-10.3462
事故	-10.3463
の品質	-10.3467
心理学	-10.3473
好きな	-10.348
典型的な	-10.3481
およびその他の	-10.3482
プロセスです	-10.3482
IN	-10.3483
を行います	-10.3483
あまりにも	-10.3483
の知識	-10.3485
版	-10.3486
猫は	-10.3486
59	-10.3487
マネージャー	-10.3488
ren	-10.3492
レイアウト	-10.3492
寸法	-10.3492
衛星	-10.3493
board	-10.3493
立場	-10.3493
▁Z	-10.3499
pre	-10.3501
たくさんの	-10.3502
の特性	-10.3505
ブラック	-10.3513
彼はまた	-10.3514
言語は	-10.3515
():	-10.3516
方法はありますか	-10.3516
her	-10.3517
紀元前	-10.3518
企業の	-10.352
態度	-10.3522
とはどういう意味ですか	-10.3523
をとる	-10.3526
完璧な	-10.3526
qui	-10.3528
ボウル	-10.3529
状況で	-10.3538
ジン	-10.3538
を探している	-10.3544
▁left	-10.3547
を持っていますか	-10.3549
創造	-10.355
トルティーヤ	-10.3552
神秘的な	-10.3553
軽い	-10.3554
キャンプ	-10.3563
猫の	-10.3564
問題は	-10.357
Sa	-10.3571
一日	-10.3577
について話す	-10.3578
エクスペリエンス	-10.358
ピクセル	-10.3581
ミッション	-10.3581
ソート	-10.3582
普遍的な	-10.3582
場合によっては	-10.3584
コンパイル	-10.3589
sort	-10.359
を探しています	-10.3591
科学者は	-10.3592
証明書	-10.3592
▁color	-10.3593
を受け取る	-10.3594
反	-10.3611
初めて	-10.3615
スライス	-10.3616
がまだ	-10.3616
1>	-10.3621
感染	-10.3626
66	-10.3626
の速度	-10.3629
有害な	-10.3631
のタイプ	-10.3634
の使用は	-10.3635
アイデアは	-10.364
通貨	-10.3641
としても	-10.3642
メロディー	-10.3642
絶えず	-10.3642
検討	-10.3642
私たちに	-10.3643
若者	-10.3643
を考えると	-10.3644
リサイクル	-10.3646
精神的	-10.365
の成功	-10.3652
の例です	-10.3653
異	-10.3659
最近の	-10.366
を知る	-10.3667
SSD	-10.3668
によれば	-10.3669
共和国	-10.3672
耳	-10.3672
可能です	-10.3674
薬物	-10.3675
UI	-10.3676
を助け	-10.3678
概要	-10.3681
43	-10.3682
▁si	-10.3688
を扱う	-10.369
が少ない	-10.3693
▁was	-10.3696
段階で	-10.3699
があれば	-10.3702
釣り	-10.3703
リモート	-10.3703
肯定的な	-10.3703
勇気	-10.3703
ゲームは	-10.3706
で構成される	-10.3708
使用されています	-10.3712
息子	-10.3712
の周りの	-10.3714
を定義し	-10.3715
切り	-10.3721
皮膚	-10.3725
mon	-10.3725
報告	-10.3725
エピソード	-10.3733
権力	-10.3734
を強化する	-10.3735
▁11	-10.3737
結果は	-10.3739
したりする	-10.3743
date	-10.3746
й	-10.3749
を加えます	-10.3749
▁3)	-10.376
体の	-10.3761
タル	-10.3762
ä	-10.3763
海岸	-10.3763
小さい	-10.3763
セッション	-10.3764
摂氏	-10.3764
がどのように機能するか	-10.3765
について話し	-10.3769
配布	-10.377
▁como	-10.377
子供の	-10.3773
なく	-10.3776
独立した	-10.3781
予約	-10.3782
創造性	-10.3786
描画	-10.3788
極	-10.3788
のレシピ	-10.3791
US	-10.3791
Get	-10.3791
方法を	-10.3796
ランド	-10.3801
地面	-10.3803
を超えて	-10.3808
無限	-10.3809
▁string	-10.3809
▁Me	-10.3812
ko	-10.3814
同意	-10.3818
を管理する	-10.382
系	-10.3823
ログ	-10.3824
装飾	-10.3825
Button	-10.3825
ビットコイン	-10.3825
Time	-10.3826
ダンス	-10.3833
を知っている	-10.3834
開発者は	-10.3837
有効な	-10.3847
であった	-10.3849
ように見える	-10.3853
シーズン	-10.3856
close	-10.3856
すべき	-10.3863
を探す	-10.3864
画像を	-10.3869
のようなものです	-10.3873
▁root	-10.3875
1/2	-10.388
を獲得し	-10.3881
ial	-10.3886
ポジション	-10.3886
プライベート	-10.3886
指定	-10.3886
がなければ	-10.3889
どこで	-10.389
ポリ	-10.3892
考慮すべき	-10.3893
パラドックス	-10.3894
のを助ける	-10.3898
1:	-10.3899
拡大	-10.3904
が必要ですか	-10.3904
以来	-10.3906
▁HTML	-10.3906
一般	-10.391
test	-10.3912
の高さ	-10.3912
ことを学ぶ	-10.3912
湖	-10.3918
config	-10.3918
理解する	-10.3919
となる	-10.3923
を考慮し	-10.3932
グローバル	-10.3943
post	-10.3944
ダウン	-10.3947
表記	-10.3949
燃焼	-10.3949
フィート	-10.395
コミット	-10.3951
上に	-10.3955
ブラジル	-10.3956
ボディ	-10.3956
死んだ	-10.3957
さらなる	-10.396
を受け入れ	-10.3961
自然の	-10.3962
にあり	-10.3962
クリ	-10.3965
SS	-10.3967
ock	-10.3968
あなたが私に	-10.397
はまた	-10.3977
パラメータ	-10.3978
癌	-10.398
当局	-10.398
グリッド	-10.398
は何でしょうか	-10.3981
ゲームで	-10.3984
フライト	-10.3986
自身	-10.3989
のに最適な	-10.4
が異なる	-10.4
°	-10.4001
エントリ	-10.4004
ライブラリを使用して	-10.4004
チームは	-10.4007
戦術	-10.4011
たくさん	-10.4011
収集	-10.4012
ライオン	-10.4015
tri	-10.4018
住民	-10.402
ue	-10.4022
肌	-10.4022
マクロ	-10.4024
から始めて	-10.4031
De	-10.4034
当	-10.4037
身	-10.4037
レート	-10.4037
フロー	-10.4041
スピーカー	-10.4042
忍耐	-10.4045
batch	-10.4045
記述	-10.4046
プロセスは	-10.4051
を開始し	-10.4053
と信じています	-10.4054
東京	-10.4056
撮影	-10.4064
年代に	-10.4066
▁Q	-10.4069
の一部です	-10.4073
爪	-10.4074
ナッツ	-10.4075
を維持するために	-10.4077
DNA	-10.4078
を削除する	-10.4082
大さじ	-10.4083
たくない	-10.4083
▁私たちは	-10.4095
JS	-10.4096
の周りに	-10.4101
雇用主	-10.4102
ステータス	-10.4105
選挙	-10.4105
キューブ	-10.4106
コメディ	-10.4107
ステ	-10.4109
▁в	-10.411
家族の	-10.4113
途中で	-10.4118
残念ながら	-10.412
zero	-10.4122
の一種です	-10.4122
▁2023	-10.4122
5%	-10.4124
を送信する	-10.4125
▁わかりました	-10.4126
事	-10.4127
ido	-10.4129
があること	-10.413
削減	-10.4134
ページの	-10.4135
三角形	-10.4135
テクスチャ	-10.4135
に参加し	-10.4135
番目	-10.4136
ロス	-10.4136
循環	-10.4137
ita	-10.4138
グラフィックカード	-10.4139
笑い	-10.414
てから	-10.4141
理想的な	-10.4141
必要があり	-10.4144
シン	-10.4144
を保護する	-10.4145
を見つけました	-10.4148
-5	-10.4149
バル	-10.4152
function	-10.4153
ot	-10.4155
読み取り	-10.4155
間隔	-10.4156
Ar	-10.4162
コンピューターサイエンス	-10.4164
潜在的に	-10.4165
彼らを	-10.4166
▁..	-10.4167
プラン	-10.4167
ジェームズ	-10.4168
ターミナル	-10.4168
湿度	-10.4169
合理的な	-10.4173
関連性	-10.4174
の場所	-10.4177
利用	-10.4183
脳の	-10.4184
▁all	-10.4185
▁os	-10.4186
ない場合	-10.4187
年代	-10.4195
your	-10.4196
車の	-10.4198
を探索し	-10.42
オーバー	-10.4203
が好きです	-10.4211
に対処する	-10.4212
まあ	-10.4215
プラットフォームで	-10.4218
サイトの	-10.4221
付	-10.4221
と思う	-10.4226
-1)	-10.4228
感じ	-10.4228
▁true	-10.4232
錆	-10.4232
と同じくらい	-10.4232
直接的な	-10.4232
カナダ	-10.4233
機能する	-10.4233
驚くべき	-10.4234
週間	-10.4235
問題を	-10.4237
この本は	-10.4241
を直接	-10.4245
▁с	-10.4249
村	-10.425
違法	-10.425
ng	-10.4252
全	-10.4254
入	-10.4255
2022	-10.4255
HTTP	-10.426
フリー	-10.4263
キャッシュ	-10.4265
69	-10.4266
植民地	-10.4269
calc	-10.427
によって異なる場合があります	-10.4275
My	-10.4277
▁U	-10.4278
の時間	-10.428
php	-10.4281
▁どの	-10.4283
を選ぶ	-10.4285
妹	-10.4286
改革	-10.4292
半径	-10.4297
甘い	-10.4297
行われます	-10.4299
но	-10.4301
を避けてください	-10.4302
代替品	-10.4304
PS	-10.4309
チャー	-10.4311
視覚化	-10.4311
拒否	-10.4311
に置き換える	-10.4311
一定の	-10.4311
メトリック	-10.4316
▁kg	-10.4318
これを行うには	-10.4321
コール	-10.4322
ミー	-10.4324
ことを検討してください	-10.4327
フォーラム	-10.4328
負荷	-10.4329
知恵	-10.4329
それについて	-10.4334
Mac	-10.4342
のようなもの	-10.4349
▁max	-10.4351
を求め	-10.4351
2018	-10.4354
への影響	-10.4359
mar	-10.4363
いますか	-10.4363
書き	-10.4364
ワード	-10.4368
割り当て	-10.4369
を満たす	-10.437
何かを	-10.4371
▁row	-10.4372
傾向があります	-10.438
パイ	-10.4381
ag	-10.4381
合	-10.4383
';	-10.4383
初期	-10.4385
7,	-10.4386
エッジ	-10.4388
区別	-10.4389
ガイドライン	-10.4395
働き	-10.4396
が必要である	-10.4396
過剰	-10.4396
、18	-10.4399
パイプ	-10.44
を備えています	-10.44
train	-10.4406
▁};	-10.4408
が提供する	-10.4408
場	-10.4412
のほんの一部です	-10.4413
の要約	-10.4413
ヘルスケア	-10.4413
と呼ばれ	-10.4418
ml	-10.4419
が必要な	-10.4421
のテーマ	-10.4421
機	-10.4424
私には	-10.4424
チリ	-10.4424
列車	-10.4425
複製	-10.4426
テンソル	-10.4426
につながりました	-10.4435
義務	-10.4439
を持っていました	-10.4443
誤って	-10.4443
を高め	-10.4449
アルゴリズムの	-10.445
私のために	-10.445
形式の	-10.4453
られる	-10.4459
開発者が	-10.4459
することができ	-10.4461
より速く	-10.4463
を評価し	-10.4465
▁world	-10.4466
遺伝的	-10.4469
の価格	-10.4471
経済学	-10.4473
これを行う	-10.4474
▁Se	-10.4474
言語です	-10.4477
ي	-10.4482
ach	-10.4483
に移動し	-10.4484
ね	-10.4485
55	-10.4487
有	-10.4487
ST	-10.4488
笑	-10.4488
トラフィック	-10.4489
豚	-10.4491
交渉	-10.4491
であることを	-10.4491
休息	-10.4492
ことを覚えておくことが重要です	-10.4495
書き込み	-10.4495
▁min	-10.4496
ライ	-10.4497
join	-10.4497
トリック	-10.4502
サイズの	-10.4508
▁code	-10.451
かつて	-10.4512
ft	-10.4515
性の	-10.4515
一度に	-10.4523
44	-10.4523
すべてを	-10.4525
春	-10.4525
タッチ	-10.4526
の向上	-10.4529
想像力	-10.4532
排除	-10.4533
特定	-10.4535
太陽系	-10.4537
(18	-10.454
る可能性があります	-10.454
ことによって	-10.4544
を教える	-10.4545
公式	-10.4548
cm	-10.455
ている場合は	-10.4555
苦しみ	-10.4557
言い換えれば	-10.4558
-19	-10.4558
あらゆる種類の	-10.4559
▁false	-10.4562
アクティブ	-10.4562
2019	-10.4564
を参照する	-10.4567
キン	-10.4568
150	-10.4568
pri	-10.4571
▁LA	-10.4575
何かが	-10.4577
中間	-10.4582
con	-10.4583
をもたらします	-10.4584
読者	-10.4584
idad	-10.4584
▁Google	-10.4585
sk	-10.4587
理解できる	-10.4587
皿	-10.4591
ありがとうございます	-10.4591
ことがよくあります	-10.4591
収穫	-10.4591
に移動する	-10.4592
パック	-10.4592
▁We	-10.4593
を探してください	-10.4595
ave	-10.4596
視覚	-10.4603
過去の	-10.4609
公	-10.4611
疑問	-10.4612
があるかもしれません	-10.4617
▁model	-10.4619
の新しい	-10.4623
コショウ	-10.4624
view	-10.4624
フード	-10.4625
が必要になる場合があります	-10.4626
▁そうです	-10.4627
bu	-10.4628
▁at	-10.4632
を引き起こし	-10.4635
▁z	-10.4643
速い	-10.4648
スティック	-10.465
の複雑さ	-10.4653
▁user	-10.4654
探索	-10.4655
継続	-10.4655
楽しむ	-10.4657
スナック	-10.4657
スタック	-10.4658
コマンドライン	-10.466
mit	-10.4665
最低	-10.4665
形成	-10.4667
実践	-10.4673
を獲得する	-10.4675
焦点	-10.4677
▁##	-10.468
ツールを使用して	-10.4683
性と	-10.4683
目の	-10.4686
▁le	-10.4687
についてもっと	-10.4689
飛ぶ	-10.469
俳優	-10.4691
量子力学	-10.47
の低下	-10.4704
の高い	-10.4708
を分析し	-10.4722
デバイスの	-10.4722
風味	-10.4723
ことは可能ですか	-10.4724
仕様	-10.4724
水が	-10.4725
▁Open	-10.4729
システムに	-10.4734
冷	-10.4735
マージ	-10.4739
精神的な	-10.4742
者の	-10.4743
しく	-10.4743
Fi	-10.4744
サイド	-10.4745
output	-10.4751
の制限	-10.4752
へ	-10.4757
兆候	-10.4758
例です	-10.4758
防御	-10.4758
内に	-10.4758
ポーン	-10.4759
運用	-10.476
ネット	-10.476
惑星の	-10.476
波長	-10.476
このようにして	-10.4762
起源	-10.4766
多様性	-10.4766
方法の	-10.4769
をよりよく	-10.4771
を見ることができます	-10.4774
キャ	-10.4775
mg	-10.478
始まり	-10.4781
▁lo	-10.4786
ストリーミング	-10.4789
Amazon	-10.4792
光の	-10.4793
を描く	-10.4794
の管理	-10.4798
の作品	-10.4801
専門知識	-10.4807
認知	-10.4808
トロ	-10.4814
方向に	-10.4816
ち	-10.4817
▁最終的に	-10.4821
娘	-10.4824
してほしい	-10.4833
▁Po	-10.4835
アイ	-10.4838
アウト	-10.484
単なる	-10.4844
渡	-10.4845
シア	-10.4849
を修正する	-10.4851
の両方で	-10.4851
▁add	-10.4854
学生が	-10.4856
朝	-10.4858
draw	-10.4861
▁%	-10.4863
適切	-10.4864
メッセージを	-10.4864
▁Do	-10.4867
が最も	-10.4868
とは異なる	-10.4871
意味のある	-10.4872
ツアー	-10.4873
デン	-10.4875
お知らせください	-10.4876
▁zu	-10.4877
を研究し	-10.4881
б	-10.4885
に行きます	-10.4886
子供たち	-10.4886
学び	-10.4889
▁más	-10.489
の動作	-10.4893
を追加	-10.4893
エキサイティングな	-10.4897
の法則	-10.4898
の各	-10.4899
重要である	-10.49
であるかどうか	-10.4901
の現在の	-10.4906
参加者	-10.4906
間に	-10.4906
▁15	-10.4913
があなた	-10.4914
整理	-10.4917
▁''	-10.4919
年まで	-10.4926
(){	-10.4926
の正確な	-10.4927
履歴	-10.4928
ユーモア	-10.4928
▁button	-10.4928
トランザクション	-10.4928
幽霊	-10.4928
▁Windows	-10.493
プロの	-10.493
てきた	-10.4931
有害	-10.4933
▁square	-10.4938
mos	-10.494
tar	-10.4942
に直面し	-10.4943
を感じる	-10.4948
ance	-10.4949
あなたは私の	-10.4949
トル	-10.4953
180	-10.4954
モデルを	-10.4955
強化	-10.4959
質問を	-10.4959
と主張しています	-10.496
を示し	-10.496
平	-10.4961
と述べています	-10.4963
チップ	-10.4964
ことができますが	-10.4964
df	-10.497
に感謝します	-10.497
を開始します	-10.497
ああ	-10.4971
89	-10.4974
消化	-10.4975
定理	-10.4977
連続	-10.4978
市場で	-10.4978
置	-10.4985
吸収	-10.4985
栽培	-10.4987
pl	-10.4988
にどのように	-10.4988
生きる	-10.4989
スイス	-10.4997
世界に	-10.5
中心	-10.5002
していること	-10.5003
ツールと	-10.5003
走	-10.5008
相互	-10.5008
LE	-10.5009
レンダリング	-10.5009
光の速度	-10.501
不足	-10.501
ron	-10.5014
を探し	-10.5015
世代	-10.5017
ju	-10.5019
▁и	-10.5022
を取る	-10.5023
クロ	-10.5024
町	-10.5029
radius	-10.5031
▁height	-10.5032
インタラクティブな	-10.5034
を決定し	-10.5037
ユーザーインターフェイス	-10.5037
あなた自身	-10.5048
実現	-10.5052
▁2,	-10.5052
同	-10.5054
強さ	-10.5055
推奨される	-10.5055
ber	-10.5058
を達成し	-10.5058
または他の	-10.5059
▁install	-10.506
州の	-10.506
ris	-10.5061
英国の	-10.5063
ا	-10.5066
座標	-10.5066
シフト	-10.5066
を添えた	-10.5066
NLP	-10.5067
壮大な	-10.5068
hat	-10.5068
つ以上の	-10.5072
政府は	-10.5072
9,	-10.5074
々	-10.5074
ou	-10.5079
自分が	-10.5079
自	-10.5079
寒い	-10.5086
機能します	-10.5092
3000	-10.5095
死亡	-10.51
給与	-10.51
タバコ	-10.5101
たいのですが	-10.5101
うつ病	-10.5101
直径	-10.5101
地形	-10.5102
タイヤ	-10.5102
読み	-10.5103
を探求し	-10.5105
["	-10.5105
それはあなたが	-10.5107
継承	-10.5119
を得るために	-10.5122
▁tk	-10.5123
ジム	-10.5124
資格	-10.5125
Mo	-10.5125
の準備	-10.5126
sion	-10.5126
あなたの人生	-10.5128
私はこの	-10.5128
成長する	-10.5129
(1)	-10.513
を置く	-10.5131
はどのような	-10.5134
ているので	-10.5138
ことを知っていました	-10.5147
されると	-10.5153
凍結	-10.5153
によって引き起こされる	-10.5159
000	-10.516
と想像してください	-10.5162
ない場合は	-10.5164
▁Li	-10.5164
弦	-10.5165
タスクの	-10.5166
rate	-10.5166
ホワイト	-10.5171
信頼性	-10.5171
スープ	-10.5173
du	-10.5173
彼は彼の	-10.5178
疑い	-10.5184
ことを示唆しています	-10.5185
象徴的な	-10.5186
周囲	-10.519
オブジェクトを	-10.5194
now	-10.5195
超	-10.5198
IA	-10.5199
ヴァ	-10.5201
生成された	-10.5202
68	-10.5204
в	-10.5205
重要	-10.5206
に移動します	-10.5208
個人的な好み	-10.5209
ong	-10.521
企業は	-10.5211
やすい	-10.5211
▁材料	-10.5213
+1	-10.5221
どれほど	-10.5222
言及	-10.5223
を達成するために	-10.5223
ces	-10.5224
地球が	-10.5226
日間	-10.5227
企業が	-10.5228
に戻る	-10.5236
を使用している	-10.5237
皮	-10.5239
sch	-10.5239
実	-10.5241
遅延	-10.5242
前向きな	-10.5244
ことも重要です	-10.5247
米	-10.525
▁count	-10.5252
を提示します	-10.5254
汚れ	-10.5254
にのみ	-10.5257
本質的に	-10.5259
を読んで	-10.5259
謝罪	-10.526
EC	-10.5268
香り	-10.5273
音楽の	-10.5273
を効果的に	-10.5273
何らかの	-10.5277
×	-10.5277
除去	-10.5278
ヒット	-10.5278
grid	-10.5281
を確認してください	-10.5281
のコード	-10.5282
ビール	-10.5282
振動	-10.5291
ブログ	-10.5293
殺人	-10.5293
を形成し	-10.5293
増加	-10.5295
今では	-10.5295
:=	-10.5295
▁column	-10.5296
になっている	-10.5298
メタ	-10.53
永遠に	-10.5304
ty	-10.5307
崩壊	-10.5311
鏡	-10.5313
制度	-10.5313
プリ	-10.5314
の混合物	-10.5315
日の	-10.5317
簡単で	-10.5318
ノー	-10.5319
があるかどうか	-10.5324
ウィ	-10.5327
ストア	-10.5329
プログラミング言語です	-10.5334
卵を	-10.5338
生きている	-10.534
はどれですか	-10.5343
▁0)	-10.5346
力と	-10.5346
賞	-10.5347
カーネル	-10.5348
厳しい	-10.5348
iPhone	-10.5348
認定	-10.5348
偏見	-10.5349
▁ha	-10.5349
プログラムの	-10.535
を加えて	-10.535
を強調し	-10.5354
改善する	-10.5358
直	-10.5359
欠点	-10.5363
Con	-10.5366
公共	-10.5367
共感	-10.5367
を提供することができます	-10.5368
▁command	-10.5373
qu	-10.5379
ドラマ	-10.5381
アナ	-10.5381
肩	-10.5384
Raspberry	-10.5384
の両方が	-10.5385
していた	-10.5389
自動的に	-10.5392
時代の	-10.5394
青い	-10.5395
49	-10.5395
に接続する	-10.5396
オブジェクトが	-10.5398
オーストラリア	-10.5399
の特徴	-10.5408
を適用する	-10.5408
局	-10.5411
権	-10.5412
私にとって	-10.5414
ya	-10.5416
基本的に	-10.5417
nginx	-10.542
永続的な	-10.5422
に大きな影響を与え	-10.5424
を改善するための	-10.5425
Le	-10.5425
している場合	-10.5425
イギリスの	-10.5426
MA	-10.5426
カップの	-10.5427
このプロセス	-10.5428
しなければなりません	-10.5429
移行	-10.5432
豊富な	-10.5435
起こった	-10.5437
安定した拡散	-10.5438
知る	-10.5441
eu	-10.5444
ことを保証する	-10.545
をありがとう	-10.5451
AC	-10.5456
セグメント	-10.5456
build	-10.5456
ポインター	-10.5457
家具	-10.5458
curl	-10.546
を設定し	-10.546
るべき	-10.5461
ことを理解しています	-10.5461
fi	-10.5462
グラフィックス	-10.5463
人類の	-10.5464
をさらに	-10.5465
いくつかの一般的な	-10.5466
してみてください	-10.547
の内容	-10.547
全体の	-10.5472
jo	-10.5474
▁このコードは	-10.5479
46	-10.5484
、19	-10.5485
されている場合	-10.549
絵	-10.549
党	-10.5492
邪悪な	-10.5493
するため	-10.5494
ジョーク	-10.5494
遺産	-10.5498
▁du	-10.5501
dr	-10.5504
サイトで	-10.5506
漫画	-10.5512
▁13	-10.5512
キャプチャ	-10.5516
何でも	-10.5518
の他の	-10.552
css	-10.5522
続けます	-10.5524
弁護士	-10.5529
ファッション	-10.5529
宝物	-10.5529
向	-10.5535
▁kcal	-10.554
men	-10.5543
することができますか	-10.5543
んで	-10.5545
iOS	-10.5548
note	-10.555
ビル	-10.5552
▁me	-10.5554
自然言語	-10.5558
オーブン	-10.5558
▁der	-10.5561
ec	-10.5561
▁Set	-10.5561
確立された	-10.5564
分の	-10.5564
の目的	-10.5565
農場	-10.5565
elif	-10.557
ハード	-10.5575
アプリケーションを	-10.5576
のスタイルで	-10.5578
を認識する	-10.5582
たこと	-10.5585
知っている	-10.5585
に大きな	-10.5588
生まれた	-10.5591
iter	-10.5591
ホーム	-10.5592
があった	-10.5593
誤った	-10.5594
色は	-10.5599
わからない	-10.56
裁判所	-10.5602
恐ろしい	-10.5602
の大部分	-10.5602
ディストリビューション	-10.5602
遊び	-10.5602
が含まれる場合があります	-10.5603
▁これ	-10.5604
化学物質	-10.5604
するのに役立つ	-10.5609
null	-10.5611
score	-10.5613
他の人が	-10.5619
平均的な	-10.5623
▁<=	-10.5623
笑顔	-10.5624
額	-10.5625
実行できる	-10.5626
スーパー	-10.5627
order	-10.5636
文化と	-10.5636
がいる	-10.5639
ホット	-10.564
国内	-10.564
ear	-10.5641
仮想マシン	-10.5641
の実行	-10.5643
emp	-10.5643
email	-10.5643
があなたの	-10.5645
▁he	-10.5647
同盟国	-10.5647
されているため	-10.5649
のため	-10.5649
を計算し	-10.5651
代	-10.5652
EN	-10.5654
▁30	-10.5655
(0,	-10.5656
ct	-10.5657
依存関係	-10.566
ものではありません	-10.5662
例は	-10.5662
休憩	-10.5664
質問や	-10.5665
するまで	-10.5666
om	-10.5668
click	-10.5675
のいくつかは	-10.5675
聴衆	-10.5676
ón	-10.5677
時代に	-10.568
絶対	-10.5681
視覚的な	-10.5683
によって開発された	-10.5685
items	-10.569
たい場合	-10.569
GO	-10.5692
セットアップ	-10.5693
説明できますか	-10.5695
スマート	-10.5696
にもっと	-10.5698
random	-10.5702
柔らかく	-10.5702
を生み出し	-10.5704
kg	-10.5705
教えてもらえますか	-10.5706
反対側	-10.5708
たぶん	-10.5713
頂点	-10.5713
ものに	-10.5714
が常に	-10.5717
の下に	-10.5725
ためのいくつかの	-10.5728
tic	-10.5732
さえ	-10.5734
位	-10.5736
▁Bo	-10.5738
を試して	-10.5738
法則	-10.5739
:[	-10.574
物語は	-10.5742
摂取	-10.5743
データが	-10.5744
化合物	-10.5749
Image	-10.575
帽子	-10.575
ごめんなさい	-10.575
ご飯	-10.575
ヘッダー	-10.575
料金	-10.575
であるかのように	-10.5751
素	-10.5751
▁event	-10.5752
ダイ	-10.5753
者は	-10.5755
守	-10.5756
▁start	-10.5756
-18	-10.5756
衣服	-10.5757
を作成できますか	-10.5761
逃げ	-10.5765
周囲の	-10.5767
首	-10.5768
で使用する	-10.577
ていただけますか	-10.5771
クロス	-10.5771
オープンソースソフトウェア	-10.5773
仕事の	-10.5773
su	-10.5773
100%	-10.5773
▁echo	-10.5774
そうする	-10.5774
▁素晴らしい	-10.5777
孤独	-10.578
地域で	-10.5781
異なります	-10.5784
人間の脳	-10.5788
と同じように	-10.579
するのに	-10.5792
実行される	-10.5797
を指定する	-10.5798
二重	-10.5799
使用している	-10.5801
をサポートし	-10.5803
価値があります	-10.5806
▁–	-10.5807
の健康	-10.5808
微調整	-10.5813
境界	-10.5813
知られている	-10.5814
ни	-10.5816
受け入れ	-10.5818
の最後の	-10.5818
を作成する方法	-10.5818
細	-10.5821
闘争	-10.5822
固有の	-10.5825
であっても	-10.5825
疲労	-10.5825
履歴書	-10.5825
因子	-10.5825
と確信しています	-10.5826
便利な	-10.5827
地球上の	-10.5828
の音	-10.5828
レット	-10.5828
96	-10.5829
math	-10.5829
を選択してください	-10.5836
もし	-10.5836
▁St	-10.5837
それで	-10.5837
るように	-10.5838
動的	-10.5839
に行き	-10.5845
目的の	-10.5847
の小さな	-10.5849
古典	-10.5849
職場	-10.5849
ゲームエンジン	-10.5851
ger	-10.5855
どのようにして	-10.5855
の喪失	-10.5861
問題を解決し	-10.5861
人の担当者の	-10.5862
Py	-10.5863
に満ちた	-10.5863
ハンド	-10.5864
par	-10.5865
がないため	-10.587
訓練された	-10.5873
ero	-10.5876
受信	-10.588
形態	-10.588
株式	-10.5882
が発生する	-10.5882
angle	-10.5883
データと	-10.5885
に基づいている	-10.5885
人生は	-10.5888
使用できます	-10.5892
に等しい	-10.5896
レー	-10.59
旗	-10.59
をご覧ください	-10.59
欲望	-10.59
モニター	-10.59
ダイヤモンド	-10.59
読書	-10.59
レンズ	-10.5904
▁要するに	-10.5905
冬	-10.5908
簡単	-10.5908
の下	-10.591
ボルト	-10.5911
水を	-10.5912
への投資	-10.5915
できるだけ	-10.5918
アップグレード	-10.5918
は一般に	-10.5919
と戦う	-10.592
({	-10.592
ラム	-10.5922
あなたはそれ	-10.5923
取得	-10.5925
プログラムは	-10.5925
Ex	-10.5931
を適切に	-10.5933
データ分析	-10.5933
欠陥	-10.5938
には次のものがあります	-10.5938
調和	-10.5938
相談	-10.5939
bash	-10.594
夏	-10.594
遠く	-10.5941
光合成	-10.5942
av	-10.5943
ウス	-10.5944
OR	-10.5945
ことが不可欠です	-10.5948
チキン	-10.595
85	-10.5973
を確保するために	-10.5974
チームの	-10.5975
兵士	-10.5976
肺	-10.5976
迅速かつ	-10.5976
不動産	-10.5976
午前	-10.5976
バックグラウンド	-10.5976
AN	-10.5976
0.1	-10.5976
歩く	-10.5977
いくつかの例	-10.5978
入力データ	-10.5979
速度で	-10.5982
を表現する	-10.5983
current	-10.5985
重み	-10.5986
イタリアの	-10.5986
▁Es	-10.5989
gg	-10.599
▁Si	-10.5991
隠された	-10.5994
を持っていること	-10.5994
の成長	-10.5995
ida	-10.5996
ゲームを	-10.5996
準備ができています	-10.5999
プロセスの	-10.6
ティー	-10.6003
CD	-10.6003
ローマの	-10.6004
のキャラクター	-10.6006
全体で	-10.6006
を定期的に	-10.6007
ff	-10.6008
DE	-10.6009
マイクロ	-10.601
心理的	-10.6013
鉛筆	-10.6014
介入	-10.6014
を制限する	-10.6015
ことはできますか	-10.6015
普通の	-10.6015
あなたを助ける	-10.6016
に使用する	-10.6024
を繰り返し	-10.6029
作	-10.603
正方形	-10.603
人間と	-10.6032
の言葉	-10.6039
コロンビア	-10.6042
ビュー	-10.6049
うまく	-10.6049
期	-10.605
gi	-10.6051
4,	-10.6052
クラフト	-10.6052
ターゲットオーディエンス	-10.6052
を購入し	-10.6053
グリーン	-10.6054
ロマンチックな	-10.6054
現実的な	-10.606
ものは何ですか	-10.6061
節約	-10.6063
ano	-10.6077
意	-10.6081
航空機	-10.6082
でのみ	-10.6087
ik	-10.6087
ることができますか	-10.6088
才能	-10.6089
のが難しい	-10.6089
を増やし	-10.609
干渉	-10.6091
ブラックホール	-10.6091
err	-10.6094
水素	-10.6095
Code	-10.6099
洗練された	-10.61
トラ	-10.6102
に追加する	-10.6102
グラム	-10.6107
java	-10.6108
める	-10.6109
一致	-10.611
ビデオの	-10.6111
▁16	-10.6115
std	-10.6118
視	-10.6119
世界的な	-10.612
に関与する	-10.612
予防	-10.612
有効	-10.6122
未満	-10.6123
の端	-10.6123
を見つけるために	-10.6128
恐竜	-10.6129
開口部	-10.6129
考慮事項	-10.613
lang	-10.6132
▁right	-10.6133
存在し	-10.6134
性的	-10.6136
透明性	-10.6137
フランス語	-10.6139
ソーシャル	-10.6145
ウェブサイトの	-10.6155
できるため	-10.6157
▁0,	-10.6158
▁number	-10.6158
あなたはそれを	-10.616
にアクセスできる	-10.6167
警察	-10.6168
ネイティブ	-10.6168
コンセンサス	-10.6168
に基づく	-10.6168
ud	-10.6169
▁<!	-10.6169
モンスター	-10.6169
人工知能は	-10.6173
ハウス	-10.6173
ight	-10.6174
アクティブな	-10.6175
ユ	-10.6175
の多く	-10.6176
▁va	-10.6176
そして私は	-10.6179
二	-10.6184
のに役立ち	-10.6186
が高く	-10.6187
ern	-10.6188
Node	-10.6189
生産性	-10.6192
ランプ	-10.6195
ユースケース	-10.6197
溶け	-10.6201
ロゴ	-10.6204
皇帝	-10.6207
抑圧	-10.6207
煙	-10.6207
補償	-10.6207
ブレーキ	-10.6207
、$	-10.6207
ChatGPT	-10.6208
ホテル	-10.6208
レモン	-10.6209
の半分	-10.6209
▁GB	-10.6211
▁{\	-10.6212
乗	-10.6214
猫が	-10.6215
米国で	-10.6219
ice	-10.6221
を手に入れ	-10.6225
所	-10.6229
人工知能の	-10.6233
光が	-10.6234
ラップ	-10.6237
によって作成された	-10.6238
Go	-10.6243
どうやって	-10.6246
貧困	-10.6246
韻	-10.6246
交通	-10.6246
フロントエンド	-10.6247
両側	-10.6248
方法論	-10.6253
フォーク	-10.6258
▁Mo	-10.6262
戦争の	-10.6269
▁res	-10.6272
時期	-10.6272
LA	-10.628
р	-10.6282
)^2	-10.6283
カウンター	-10.6285
迅速な	-10.6285
let	-10.6287
レコード	-10.6287
人々を	-10.6287
種子	-10.6287
水平	-10.6287
を信じ	-10.6292
util	-10.6294
ies	-10.6296
人と	-10.6296
700	-10.6299
隣人	-10.6301
に集中する	-10.6304
太陽が	-10.6305
に貢献する	-10.6306
を実装し	-10.6308
ロボットは	-10.631
陰謀	-10.6317
content	-10.6318
大人	-10.6319
書かれた	-10.6322
م	-10.6325
マザーボード	-10.6325
であろうと	-10.6325
Game	-10.6326
dy	-10.6328
違反	-10.6329
を追加できます	-10.633
コーン	-10.633
プロファイル	-10.6331
国際的な	-10.6332
▁client	-10.6332
タスクを実行する	-10.6332
望ましい	-10.6334
送	-10.6335
解放	-10.6344
スクリーン	-10.6347
を知っています	-10.6354
ワン	-10.6358
▁mi	-10.6359
すか	-10.6359
に使用できる	-10.6361
在	-10.6363
鎧	-10.6364
マイケル	-10.6364
詐欺	-10.6364
できるだけ早く	-10.6364
マイナー	-10.6365
純粋な	-10.6366
に戻り	-10.6367
演算子	-10.6367
lic	-10.6372
高く	-10.6372
るまで	-10.6374
人にとって	-10.6374
を検討してください	-10.6374
▁image	-10.6376
ek	-10.6377
ante	-10.6382
このプロセスは	-10.6384
ドルの	-10.6391
95	-10.6393
を分析する	-10.6395
のバランス	-10.6396
長所と短所	-10.6398
ほとんどの場合	-10.64
べきではありません	-10.64
▁人工知能	-10.6401
の源	-10.6401
ミュージック	-10.6404
物体	-10.6404
悪意のある	-10.6404
af	-10.6404
係数	-10.6404
コミュニティの	-10.6406
固体	-10.6407
をいくつか	-10.6408
国立	-10.641
を忘れ	-10.6411
セン	-10.6413
それに応じて	-10.6419
本物の	-10.6419
▁element	-10.642
を使用することです	-10.642
付きの	-10.6421
ーター	-10.6422
保管	-10.6424
の認識	-10.6424
を形成します	-10.6426
ind	-10.643
場合にのみ	-10.6433
▁width	-10.6433
したこと	-10.6436
起動	-10.6437
投資家	-10.6438
service	-10.6442
スピード	-10.6444
洞窟	-10.6444
目を覚まし	-10.6444
貯蔵	-10.6444
tter	-10.6444
を持つことができます	-10.6451
und	-10.6451
グリ	-10.6455
それは非常に	-10.6458
どう	-10.6459
CT	-10.6465
iv	-10.6466
表示する	-10.6468
Pa	-10.6471
排出	-10.6473
方が	-10.6481
思い出	-10.6482
スキャン	-10.6484
Instagram	-10.6484
Chrome	-10.6484
暖かい	-10.6484
▁ser	-10.6484
理由は	-10.6484
階層	-10.6484
薄い	-10.6485
怒り	-10.6485
心臓	-10.6485
ええ	-10.6486
かについての	-10.6486
の計算	-10.6486
興奮	-10.6487
不確実性	-10.6487
グローバルな	-10.649
▁どうすれば	-10.6496
▁random	-10.6496
create	-10.6498
AMD	-10.6498
問題解決	-10.6499
を確実に	-10.6499
ザー	-10.6501
フォ	-10.6506
コンピューターに	-10.6508
現実の	-10.6512
の仕組み	-10.6512
的および	-10.6517
多くの要因	-10.6517
に適している	-10.6518
簡単です	-10.6519
を追跡する	-10.6519
和	-10.6522
を受け取り	-10.6522
▁上記の	-10.6523
魔術師	-10.6524
絶え間ない	-10.6524
愛好家	-10.6524
イエス	-10.6524
弱い	-10.6525
明	-10.653
の最大	-10.6533
したら	-10.6536
深	-10.6537
プログラミングの	-10.6538
そうです	-10.6539
天	-10.6539
深さ	-10.6543
生地を	-10.6543
このプロジェクト	-10.6543
説明する	-10.6545
平面	-10.6545
のを手伝ってください	-10.6547
でそれ	-10.6549
0.5	-10.655
安定	-10.6552
ton	-10.6552
広い	-10.6556
コミットメント	-10.6557
を引き付ける	-10.6557
られています	-10.6561
便	-10.6563
▁torch	-10.6563
を通過する	-10.6563
à	-10.6564
時間がかかる	-10.6565
動く	-10.6566
ことを示す	-10.6568
重要性	-10.6568
を作成する必要があります	-10.657
等	-10.6571
問題です	-10.6573
ens	-10.6573
hr	-10.6573
78	-10.6574
ions	-10.6574
従業員の	-10.6576
言	-10.6577
の時代	-10.6579
ようとしている	-10.658
は完全に	-10.6581
▁だから	-10.6582
タスクを	-10.659
乾燥した	-10.6591
航空	-10.6592
影響を与え	-10.6599
オオカミ	-10.6603
ニューヨーク	-10.6603
気象	-10.6604
を止め	-10.6604
るか	-10.6604
舌	-10.6605
療法	-10.6605
事件	-10.6605
そんなに	-10.6605
▁ここでは	-10.6605
ピアノ	-10.6606
▁1;	-10.6606
アップロード	-10.6608
を訪れる	-10.6608
電子機器	-10.6608
しましたか	-10.6611
▁have	-10.6613
をお楽しみください	-10.6614
の流れ	-10.6616
▁Le	-10.6617
ことを意味する	-10.6617
のリストを教えてください	-10.6617
ている間	-10.6617
考える	-10.6618
政治家	-10.6619
mb	-10.662
リストを	-10.6624
場所です	-10.6624
の側面	-10.6627
の良い	-10.6628
fr	-10.6631
世界を	-10.6632
▁今日	-10.6635
どちらの	-10.6635
▁current	-10.6636
測定値	-10.6639
ando	-10.6639
押し	-10.6641
であれば	-10.6642
デッキ	-10.6645
ズッキーニ	-10.6645
ドワーフ	-10.6646
(3	-10.6646
response	-10.6646
Date	-10.6647
オー	-10.6651
の設定	-10.6652
Te	-10.6654
静的	-10.6655
を検出する	-10.6656
01	-10.6659
ことを確認する	-10.6659
74	-10.6661
▁*/	-10.6661
に適応する	-10.6663
の戦い	-10.6664
([	-10.6666
少量の	-10.6666
El	-10.6667
show	-10.6668
財政	-10.6671
後で	-10.6672
良く	-10.6675
▁Ha	-10.6676
続く	-10.6676
び	-10.668
0°	-10.6686
同期	-10.6686
草	-10.6686
胃	-10.6686
インテリジェンス	-10.6686
桁	-10.6686
リラクゼーション	-10.6687
レタス	-10.6687
強み	-10.6687
ハイキング	-10.6687
RPG	-10.6687
和音	-10.6687
▁using	-10.6688
少年	-10.6688
国は	-10.6688
彼女に	-10.6689
衝突	-10.6692
fa	-10.6694
になること	-10.6696
char	-10.6698
したいと思います	-10.6705
プロバイダー	-10.6706
他の人と	-10.6706
論	-10.6714
システムで	-10.6715
にし	-10.6717
mas	-10.6718
ei	-10.6718
方法に関する	-10.6721
靴	-10.6726
は本当に	-10.6726
フレーバー	-10.6727
ステージ	-10.6727
誤解	-10.6727
死ぬ	-10.6727
景色	-10.6728
の終わりに	-10.6731
週	-10.6731
値を	-10.6733
ize	-10.6734
困難です	-10.6734
の場合は	-10.6734
カール	-10.6735
ロシア語	-10.6736
ブック	-10.6738
するのが	-10.6738
はすでに	-10.674
に使用できます	-10.6741
ルーム	-10.6755
に近い	-10.6757
の割合	-10.6757
▁then	-10.6761
frame	-10.6762
科	-10.6762
Ac	-10.6764
▁YouTube	-10.6764
異常	-10.6765
規範	-10.6767
指標	-10.6768
▁private	-10.6768
上部	-10.6769
を採用し	-10.677
過	-10.6772
微生物	-10.6772
一種の	-10.6772
キュー	-10.6776
ニューロンネットワーク	-10.6777
として知られています	-10.6779
メン	-10.6781
を説明しています	-10.6782
にはいくつかの	-10.6785
人もいます	-10.6786
を助ける	-10.6787
尋ねる	-10.6788
を制御し	-10.679
```	-10.6792
夜に	-10.6795
▁cos	-10.6797
Wi	-10.6801
は現在	-10.6805
時間は	-10.6807
説明してください	-10.6809
Telegram	-10.681
再生可能エネルギー	-10.681
youtube	-10.681
エンコード	-10.681
愛する人	-10.681
メソッドを使用して	-10.681
順序	-10.6811
アヒル	-10.6811
><	-10.6811
が表示されます	-10.6814
グループの	-10.6821
一般化	-10.6821
を利用して	-10.6821
にアクセスし	-10.6824
質問に	-10.6824
に焦点を当てる	-10.6825
▁vi	-10.6825
ung	-10.6832
Pro	-10.6833
がどれほど	-10.6834
hash	-10.6837
2015	-10.6839
と考えています	-10.684
電	-10.684
多項式	-10.6841
try	-10.6841
unning	-10.6841
よりも多くの	-10.6844
250	-10.6844
▁character	-10.6845
派	-10.6849
folder	-10.685
120	-10.6851
磁場	-10.6853
収益	-10.6853
ras	-10.6853
ica	-10.6854
見た	-10.6855
を解決し	-10.6856
▁ここに	-10.6859
心理学者	-10.686
近年	-10.6861
PAD	-10.6863
1/4	-10.6866
の影響を受け	-10.6872
の水	-10.6873
眠	-10.6875
あ	-10.6875
ものと	-10.688
私はあなたを	-10.6881
ソフトウェアの	-10.6882
97	-10.6885
cur	-10.6885
のさまざまな	-10.6892
にどのように影響するか	-10.6893
キャベツ	-10.6893
鋭い	-10.6893
▁will	-10.6894
目標と	-10.6894
ベリー	-10.6898
抱	-10.6901
ことに気づきました	-10.6901
効率的に	-10.6902
ッシュ	-10.6902
両方	-10.6904
を表し	-10.6905
は主に	-10.6906
取り	-10.6908
されない	-10.6912
▁up	-10.6912
私も	-10.6914
ここにあなたが	-10.6916
この情報	-10.6918
の人々	-10.6918
Th	-10.6927
約束	-10.6928
ライブ	-10.693
スペクトル	-10.6935
接	-10.6935
交差点	-10.6935
▁create	-10.6937
存在しない	-10.6938
の最も	-10.6938
質問は	-10.6939
we	-10.694
fill	-10.6941
のコレクション	-10.6941
03	-10.6942
を入力する	-10.6943
高価な	-10.6944
0)	-10.6949
正確で	-10.695
状	-10.6955
▁1-	-10.6955
成長し	-10.6959
cal	-10.6965
速	-10.6967
自然に	-10.6967
される可能性があります	-10.6969
家に	-10.697
pip	-10.6971
観光	-10.6972
に投資する	-10.6974
キャラクターは	-10.6974
コンピュータ	-10.6974
アボカド	-10.6977
ASCII	-10.6977
マドリード	-10.6977
有機	-10.6977
代謝	-10.6977
ジョブ	-10.6979
ピンク	-10.6982
接触	-10.6983
yo	-10.6985
要素の	-10.6985
に到達し	-10.6988
人々と	-10.6988
の分野	-10.699
old	-10.6991
book	-10.6993
ボードゲーム	-10.6997
п	-10.6998
▁Engine	-10.6998
冷たい	-10.6998
答えます	-10.7006
▁pd	-10.7012
を回避する	-10.7012
のメンバー	-10.7012
チャック	-10.7016
ぶ	-10.7018
パッチ	-10.7018
散歩	-10.7018
開催され	-10.7019
ポンプ	-10.7019
ピーター	-10.702
を自動的に	-10.7024
有益な	-10.7025
inter	-10.7026
88	-10.7032
例外	-10.7033
Element	-10.7034
nd	-10.7035
は依然として	-10.7035
物理学の	-10.7036
熱い	-10.7039
拡散	-10.7046
ようになります	-10.7046
カタロニア	-10.7047
背中	-10.7047
メント	-10.7048
▁コーラス	-10.7048
:00	-10.7049
毒	-10.7051
がない場合	-10.7058
機械的	-10.706
障壁	-10.7061
悲しい	-10.7062
隠れ	-10.7065
はどのように機能しますか	-10.7066
を検出し	-10.7067
私たちを	-10.7069
スペル	-10.707
週に	-10.7072
朝食	-10.7072
▁小さじ	-10.7074
▁3-	-10.7074
ISO	-10.7076
関与	-10.7076
らせ	-10.7077
ポスト	-10.7078
ものは	-10.7082
An	-10.7083
ば	-10.7084
する場合	-10.7084
献身	-10.7085
を保護し	-10.7086
市場の	-10.709
説明してもらえますか	-10.7091
を実行して	-10.7092
断	-10.7099
について学ぶ	-10.71
▁requests	-10.7104
珍しい	-10.7104
を使用	-10.7104
経験豊富な	-10.7104
push	-10.7104
積極的な	-10.7106
ドラム	-10.7107
することなく	-10.7111
ことができれば	-10.7113
幸運を	-10.7115
を排除する	-10.7118
提供された	-10.7118
を見つけてください	-10.7119
働く	-10.7119
どれだけ	-10.7121
を更新する	-10.7121
▁An	-10.7125
私は私の	-10.7126
パンケーキ	-10.7126
▁use	-10.7127
ハッシュ	-10.7128
-8	-10.7131
3.	-10.7133
動	-10.7136
ように設計された	-10.7137
伝説	-10.7143
write	-10.7146
夫	-10.7146
annotation	-10.7147
و	-10.7147
戦士	-10.7147
議会	-10.7147
価格は	-10.7148
リストに	-10.7149
File	-10.7154
TI	-10.7158
金額	-10.7158
エディター	-10.7158
part	-10.7159
子供が	-10.7159
ブルー	-10.7159
予想される	-10.716
考えられる	-10.7166
を追跡し	-10.7168
クラ	-10.7168
ギリシャの	-10.717
元気	-10.7172
▁Ho	-10.7175
▁大さじ	-10.7177
の潜在的な	-10.7178
愛と	-10.7182
関数が	-10.7182
仕事を	-10.7182
を最適化する	-10.7184
が完全に	-10.7184
あなたの答え	-10.7189
Arduino	-10.719
城	-10.719
plot	-10.719
種の	-10.719
厳格な	-10.7191
鍵	-10.7193
サル	-10.7199
tan	-10.72
つか	-10.7205
クリーニング	-10.721
が同じ	-10.721
第二に	-10.7211
une	-10.7214
を必要とします	-10.7215
の期間	-10.7215
が必要であり	-10.7215
ある日	-10.7216
命	-10.7221
だけが	-10.7221
知識と	-10.7225
パネル	-10.7225
カイ	-10.7226
connect	-10.7226
放射	-10.7226
ガールフレンド	-10.7227
▁window	-10.7227
した後	-10.7228
基礎	-10.7231
時間が	-10.7232
誕生日	-10.7233
ちょっと	-10.7233
欧州連合	-10.7233
ユーティリティ	-10.7233
井戸	-10.7233
イノベーション	-10.7233
明るく	-10.7233
▁Su	-10.7233
フラット	-10.7234
経路	-10.7234
安全に	-10.7235
オブジェクトは	-10.7237
付き	-10.7237
プール	-10.7238
の権利	-10.7238
」:「	-10.724
2010	-10.7241
彼女を	-10.7243
理論的	-10.7244
国で	-10.7244
▁Co	-10.7248
利用できます	-10.725
短所	-10.7252
走り	-10.7253
起	-10.7254
世界中で	-10.7258
ベン	-10.7258
アシスタントとして	-10.7262
▁Minecraft	-10.7264
を開きます	-10.7264
の首都	-10.7267
乳	-10.7269
SI	-10.7269
変化し	-10.7273
を表示します	-10.7273
▁message	-10.7275
何世紀にもわたって	-10.7276
地下	-10.7277
を選択して	-10.7277
ib	-10.7278
快適さ	-10.7279
Xbox	-10.7279
客観的な	-10.728
をもたらしました	-10.728
を止める	-10.7281
III	-10.7282
考慮	-10.7284
auto	-10.7284
second	-10.7286
TE	-10.7289
▁dis	-10.7291
▁オープンアシスタント	-10.7291
についてどう思いますか	-10.7292
見つける	-10.7294
テン	-10.7294
の温度	-10.7295
ت	-10.7296
Pu	-10.7299
▁more	-10.7301
の数は	-10.7302
ill	-10.7303
ラテン語	-10.7303
キャラクターが	-10.7307
ボランティア	-10.7312
を求めて	-10.7313
行われ	-10.7314
ub	-10.7315
頻度	-10.7316
で使用されます	-10.7319
の生成	-10.7319
アイルランド	-10.7319
見積もり	-10.732
を殺す	-10.732
のゲーム	-10.732
としても知られる	-10.732
チェ	-10.7322
現れ	-10.7322
祈り	-10.7323
候補者	-10.7323
AWS	-10.7323
などの要因	-10.7323
の概念は	-10.7325
▁FA	-10.7325
プル	-10.7328
作成する	-10.7328
スクリプトは	-10.7328
range	-10.733
場合に	-10.7332
チームが	-10.7333
理解し	-10.7334
▁これで	-10.734
を指定します	-10.7346
間違った	-10.7352
に集中し	-10.7352
room	-10.7355
---	-10.7355
57	-10.7356
を拡大し	-10.7357
▁pre	-10.7359
fer	-10.7361
士	-10.7362
ガソリン	-10.7363
▁よろしくお願いします	-10.7363
漏れ	-10.7364
税金	-10.7365
逃	-10.7366
をインストールします	-10.7368
の内部	-10.7373
ベイ	-10.7375
▁As	-10.7375
そうではありません	-10.7377
mini	-10.7377
▁Mu	-10.7377
5,000	-10.7377
ゾ	-10.7377
冷蔵庫	-10.7378
キリスト教	-10.7378
ка	-10.7378
でしたか	-10.7379
ax	-10.7381
一般的	-10.7382
cri	-10.7382
を上げる	-10.7386
人にとっては	-10.7388
流れる	-10.7389
lt	-10.7393
小さじ	-10.7394
pt	-10.7395
論理的	-10.7398
ローン	-10.7401
違いは	-10.7405
友人や家族	-10.7406
lf	-10.7406
ストリーム	-10.7407
演習	-10.7407
アセンブリ	-10.7407
生態系	-10.7407
近似	-10.7407
ことに留意してください	-10.7407
を強調する	-10.7408
変動	-10.7409
体が	-10.7411
星の	-10.7412
するとき	-10.7414
磁気	-10.7414
過去に	-10.7414
▁2-	-10.7415
way	-10.7416
不平等	-10.7418
誤った情報	-10.7419
ジャック	-10.7425
産	-10.7426
これで	-10.7427
他の国	-10.7427
▁注	-10.7428
az	-10.7428
▁14	-10.7429
sc	-10.7432
所有	-10.7434
あたりの	-10.7434
きれい	-10.7436
に直面する	-10.7436
楽しく	-10.7438
world	-10.7441
放	-10.7443
手に	-10.7448
連邦	-10.745
奴隷	-10.745
を続け	-10.7451
プレー	-10.7451
チケット	-10.7451
リーダーシップ	-10.7451
▁0.0	-10.7452
のいくつかの	-10.7454
反映	-10.7455
▁te	-10.7456
これまで	-10.746
愚かな	-10.7462
ck	-10.7469
デフォルト	-10.7471
使用して	-10.7471
ヌ	-10.7476
をカバーする	-10.7476
会話を	-10.7477
AS	-10.748
IDE	-10.7484
ことを確認します	-10.7484
の更新	-10.7484
print	-10.7489
布	-10.7493
process	-10.7495
がん	-10.7495
▁require	-10.7495
飽和	-10.7495
露出	-10.7499
png	-10.7501
周り	-10.7502
を訪れ	-10.7504
に関連して	-10.7506
最も重要なことは	-10.7507
ish	-10.7508
▁ln	-10.7511
答える	-10.7513
私の答え	-10.7515
酸化	-10.7517
を使用する必要があります	-10.7517
を説明していただけますか	-10.7519
起こる	-10.752
征服	-10.7522
ッツ	-10.7523
gar	-10.7525
box	-10.7528
高速で	-10.7528
愛は	-10.7529
人口の	-10.7533
代表	-10.7534
ろ	-10.7537
秩序	-10.7537
......	-10.7537
1.5	-10.7537
cor	-10.7538
バッグ	-10.7539
に連絡する	-10.7539
キツネ	-10.7539
特許	-10.754
出版物	-10.754
docker	-10.7541
ui	-10.7541
right	-10.7542
host	-10.7542
サイ	-10.7543
太陽は	-10.7544
nt	-10.7548
gr	-10.7549
目的で	-10.7552
wiki	-10.7553
の点で	-10.7553
情報と	-10.7554
の家	-10.7555
▁Ro	-10.7555
を使用する場合	-10.7555
一定	-10.7556
わずか	-10.7557
[]	-10.7558
損害	-10.7558
2006	-10.756
方法は何ですか	-10.7564
にわたって	-10.7565
ことがわかります	-10.7565
好き	-10.7566
込み	-10.7567
()`	-10.7568
オープンアシスタントは	-10.7569
ことができませんでした	-10.7572
放出	-10.7572
ns	-10.7573
到達	-10.7574
がいました	-10.7577
的であり	-10.7577
を保証する	-10.7578
No	-10.7584
に注意してください	-10.7584
WordPress	-10.7584
永遠の	-10.7584
の領域	-10.7584
スマートフォン	-10.7584
ハンバーガー	-10.7584
プッシュ	-10.7585
mu	-10.7585
セクター	-10.7585
Enter	-10.7587
を変更し	-10.7589
さらには	-10.7591
true	-10.7593
知らない	-10.7594
海の	-10.7597
男性の	-10.7598
洗	-10.7599
58	-10.7603
を持っていた	-10.7603
犬が	-10.7606
▁Ba	-10.7606
dl	-10.7607
の第	-10.7608
年代の	-10.7616
ny	-10.7617
ビン	-10.7618
を発見し	-10.7618
業界の	-10.7619
を実行できます	-10.7621
ner	-10.7621
あなたが持っている	-10.7622
は誰でしたか	-10.7629
にアクセスして	-10.7632
遠	-10.7634
見える	-10.7634
を考慮することが重要です	-10.7634
レッド	-10.7638
を検索する	-10.7638
を与えることができます	-10.7639
low	-10.7646
必要がある場合があります	-10.7652
の表面	-10.7652
提示	-10.7652
詩人	-10.7652
地区	-10.7653
特定のタスク	-10.7656
内容	-10.7657
このように	-10.7658
ではありませんでした	-10.766
テープ	-10.7661
Int	-10.7662
の中に	-10.7663
私はまだ	-10.7665
nen	-10.7665
EM	-10.7667
品	-10.7668
シェフ	-10.767
84	-10.7672
▁puede	-10.7674
副作用	-10.7674
エンターテイメント	-10.7674
プロモーション	-10.7674
聖書	-10.7675
アイコン	-10.7675
クレジットカード	-10.7676
page	-10.7677
rm	-10.7682
心配	-10.7684
long	-10.7685
の両方の	-10.7685
自宅で	-10.7686
next	-10.7687
▁1,	-10.7688
ente	-10.7689
に興味がある	-10.7689
ard	-10.769
▁['	-10.7691
必要なもの	-10.7692
のコスト	-10.7693
底	-10.7695
を考慮する必要があります	-10.7698
を保持する	-10.7698
▁по	-10.7698
スク	-10.77
それはあなたの	-10.7701
left	-10.7701
Pl	-10.7702
ador	-10.7704
相	-10.7705
情報を提供する	-10.7707
Can	-10.7708
を組み合わせて	-10.7711
||	-10.7712
書いた	-10.7712
業界で	-10.7715
たので	-10.7716
質問に答える	-10.7718
暖房	-10.7719
speed	-10.7719
パイプライン	-10.7721
牛肉	-10.7721
フライパン	-10.7722
ペルー	-10.7722
search	-10.7722
無視	-10.7722
かどうかを	-10.7723
が好き	-10.7724
エネルギー源	-10.7727
ara	-10.7727
週末	-10.773
禁止	-10.7731
を刺激し	-10.7732
プラトン	-10.7734
行った	-10.7734
学生の	-10.7735
を収集し	-10.7736
▁まあ	-10.7738
エア	-10.7743
ure	-10.7744
1980	-10.7744
));	-10.7745
開始する	-10.7747
的または	-10.775
が得られます	-10.7751
▁das	-10.7751
を完了する	-10.7752
数は	-10.7755
皮肉	-10.7755
現時点では	-10.7756
と話す	-10.7757
専門	-10.7761
▁et	-10.7761
意志	-10.7764
ちょうど	-10.7764
むしろ	-10.7765
ほこり	-10.7765
Service	-10.7765
google	-10.7765
いただきありがとうございます	-10.7765
録音	-10.7765
衛生	-10.7765
Kubernetes	-10.7765
多くの異なる	-10.7765
巣	-10.7765
lan	-10.7767
フォント	-10.7767
を発見する	-10.7767
ries	-10.7767
▁Create	-10.7768
select	-10.7769
の機会	-10.7773
tf	-10.7775
ことから始めます	-10.7776
ったり	-10.7777
長期	-10.7778
可能性がありますが	-10.7781
bot	-10.7782
ph	-10.7786
数学的な	-10.7787
eb	-10.7795
ow	-10.7801
が含まれている	-10.7801
を生み出します	-10.7804
誘導	-10.7804
cho	-10.7805
``	-10.7807
98	-10.7808
ピア	-10.7808
債務	-10.7811
chatgpt	-10.7811
▓	-10.7811
民族	-10.7811
を強化し	-10.7813
建物の	-10.7814
テクノロジーの	-10.7814
GUI	-10.7816
ついに	-10.7817
のルール	-10.7819
差	-10.7823
共通	-10.7825
87	-10.7825
tes	-10.7825
交差	-10.7828
▁Be	-10.7828
当時の	-10.783
▁私はあなたの	-10.7834
scale	-10.7835
に感謝し	-10.7838
の建設	-10.784
しようとしている	-10.7844
の症状	-10.7846
のサポート	-10.785
真空	-10.7851
SP	-10.7852
foo	-10.7853
を奨励し	-10.7855
毛	-10.7855
市民の	-10.7855
二酸化炭素	-10.7856
少女	-10.7856
パイロット	-10.7857
MySQL	-10.7857
トリガー	-10.7857
の安全性	-10.7857
もはや	-10.7857
遅い	-10.7858
はどれくらいですか	-10.7858
▁やあ	-10.7858
ニック	-10.7859
屋外	-10.786
stack	-10.786
スパイス	-10.7861
聞いて	-10.7862
エジプト	-10.7862
つの主要な	-10.7862
dx	-10.7864
大きい	-10.7865
に耐える	-10.7867
研究所	-10.7872
を最小限に抑え	-10.7872
を受ける	-10.7873
情報を提供し	-10.7873
ual	-10.7874
の分析	-10.7876
取る	-10.7878
クス	-10.7881
の未来	-10.7887
知っていますか	-10.7888
▁***	-10.7888
楽	-10.7889
配	-10.7889
システムを	-10.7889
に最も	-10.789
を探求する	-10.789
彼らはまた	-10.7892
の重量	-10.7893
過度に	-10.7895
合理的	-10.7897
▁loop	-10.7897
St	-10.7899
出版	-10.7902
フィクション	-10.7902
を除いて	-10.7902
matrix	-10.7902
第一次世界大戦	-10.7903
ライティング	-10.7903
電球	-10.7903
パラ	-10.7903
チューリングマシン	-10.7903
データサイエンス	-10.7904
ことはありますか	-10.7904
ч	-10.7906
ンド	-10.7906
多分	-10.7907
われ	-10.7908
ez	-10.791
▁system	-10.7912
62	-10.7913
他の人に	-10.7915
さまざまな方法で	-10.7916
要素を	-10.7917
ко	-10.7919
十分	-10.7919
方法を教えてください	-10.7919
熱力学	-10.7919
街の	-10.7922
私はいつも	-10.7922
SCP	-10.7924
込む	-10.7924
ラウンド	-10.7925
と見なすことができます	-10.7925
わかりません	-10.7929
ないこと	-10.7929
を検討する	-10.7929
初期の	-10.7935
▁Pa	-10.7936
テル	-10.7939
をかけ	-10.794
}}	-10.7941
にどのよう	-10.7941
0000	-10.7942
宗教的	-10.7943
しばらく	-10.7943
リラックスして	-10.7943
ブリ	-10.7946
番	-10.7946
評判	-10.7949
ディープラーニング	-10.7949
フォロワー	-10.7949
機能と	-10.7949
ミルク	-10.7949
よね	-10.7949
ナイフ	-10.795
になりますか	-10.7958
方法があります	-10.796
の画像	-10.7961
ales	-10.7961
動作する	-10.7963
を提供するために	-10.7964
ра	-10.7965
ここには	-10.7967
広	-10.7968
につながり	-10.7969
を持っていない	-10.7974
を調べる	-10.7974
かどうかを確認します	-10.7975
True	-10.7977
56	-10.7978
own	-10.7979
シリーズの	-10.798
ados	-10.7981
研究では	-10.7981
header	-10.7981
遠い	-10.7981
をリストします	-10.7982
を手に入れる	-10.7982
メンタルヘルス	-10.7984
リストの	-10.7984
近く	-10.7986
を引き起こします	-10.7988
繁栄	-10.7993
解像度	-10.7994
ないため	-10.7995
好奇心	-10.7995
計算機	-10.7995
コンパイラ	-10.7995
を押す	-10.7995
mente	-10.7997
作成した	-10.7998
4)	-10.8
最も有名な	-10.8
に合った	-10.8001
の紹介	-10.8004
中毒	-10.8004
▁context	-10.8005
▁ist	-10.8006
ていましたが	-10.8007
▁comp	-10.8009
より正確な	-10.801
▁200	-10.801
▁href	-10.8011
のニーズ	-10.8014
と感じる	-10.8016
ドイツ語	-10.8018
のみが	-10.8018
の多くは	-10.8019
部屋の	-10.8019
片	-10.802
たのですか	-10.8022
rand	-10.8022
閉じた	-10.8025
かなりの	-10.8026
帝国の	-10.803
を要求する	-10.8031
82	-10.8031
tk	-10.8031
コマンドを使用して	-10.8033
から始める	-10.8033
する必要がありますか	-10.8033
を提案します	-10.8035
研究は	-10.8036
を導く	-10.8038
と言った	-10.8038
たとえ	-10.8038
教	-10.8039
▁Studio	-10.8042
ほうれん草	-10.8042
お気軽にお問い合わせください	-10.8042
暖かく	-10.8042
学術	-10.8042
そうすれば	-10.8042
時間が経つにつれて	-10.8043
敵の	-10.8043
sed	-10.8044
ハム	-10.8048
リラックスした	-10.8048
しているため	-10.805
クローン	-10.8051
眠る	-10.806
:{	-10.8061
が互いに	-10.8061
▁math	-10.8062
あなたがそれ	-10.8062
パル	-10.8066
だからです	-10.8067
ゴール	-10.8067
-6	-10.8069
歳で	-10.8072
組み込み	-10.8073
の最適化	-10.8074
ボス	-10.8076
を見せ	-10.8076
システムです	-10.8077
ence	-10.8078
と見なされています	-10.8079
▁朝食	-10.8081
人気の	-10.8084
ホルモン	-10.8088
ようとし	-10.8088
騎士	-10.8089
請求	-10.8089
フェーズ	-10.8089
マウント	-10.8089
RTX	-10.8089
穀物	-10.8089
トランジスタ	-10.8089
メンター	-10.809
ハンター	-10.809
王朝	-10.8092
カラ	-10.8093
一度	-10.8094
グリル	-10.8096
にアクセスできます	-10.8097
支配的な	-10.8098
端末	-10.81
GIT	-10.8101
リオ	-10.8105
財政的	-10.8107
の行動	-10.8108
を特定します	-10.8108
考え方	-10.8111
New	-10.8111
高度に	-10.8112
オープンソースプロジェクト	-10.8114
必要性	-10.8117
▁それで	-10.8118
wie	-10.8119
MOD	-10.8122
ネス	-10.8122
についても	-10.8124
成功する	-10.8125
ient	-10.8126
に対処し	-10.8128
分配	-10.813
材料の	-10.813
、20	-10.8131
著作権	-10.8134
をインストールし	-10.8136
いずれにせよ	-10.8136
ミュージシャン	-10.8136
濃度	-10.8137
status	-10.8137
メッシュ	-10.8137
呼び出し	-10.8139
ことについて	-10.8139
シングル	-10.8141
sis	-10.8142
走る	-10.8143
自由な	-10.8143
を実施する	-10.8144
きます	-10.8146
ound	-10.8148
マス	-10.815
Al	-10.8152
指数	-10.8152
ダーク	-10.8153
の外観	-10.8159
values	-10.816
たため	-10.8162
導入	-10.8163
高度	-10.8164
thread	-10.8168
をクリックして	-10.8169
ble	-10.817
cl	-10.8171
▁other	-10.8171
いくつかの重要な	-10.8172
大丈夫	-10.8173
▁[0]	-10.8177
ビート	-10.8177
の初期	-10.8179
影響を受ける	-10.818
の構成	-10.8181
▁11.	-10.8182
Discord	-10.8184
スケーラビリティ	-10.8184
Photoshop	-10.8184
オペレーター	-10.8184
秘密の	-10.8184
お茶	-10.8184
▁auf	-10.8184
一時的な	-10.8185
ki	-10.8186
のプロセス	-10.8188
cent	-10.8188
宇宙船	-10.8189
行うことができます	-10.819
▁このコードでは	-10.819
プリント	-10.8191
人体	-10.8192
ブロ	-10.8192
を保護するために	-10.8193
滞在	-10.8193
あなたがそれを	-10.8197
できれば	-10.82
ヨ	-10.8201
場合でも	-10.8202
プレス	-10.8203
を作成しました	-10.8206
メイ	-10.8206
ありますか	-10.8207
されるか	-10.821
から始まる	-10.8211
-0	-10.8212
デス	-10.8215
相関	-10.8215
の必要性	-10.8216
ドラ	-10.8217
天文学	-10.822
広く使用されている	-10.8223
のタイトル	-10.8226
蒸気	-10.8226
どちらが	-10.8227
すべての人	-10.8229
を含めます	-10.8229
トゥ	-10.823
Se	-10.8231
ところ	-10.8231
新聞	-10.8231
入り	-10.8231
クリエイター	-10.8231
Red	-10.8231
幸せな	-10.8232
の上部	-10.8232
フルーツ	-10.8232
選手	-10.8233
チャンス	-10.8234
あなたのために	-10.8234
alt	-10.8235
from	-10.8238
人です	-10.8238
はどちらも	-10.824
サイン	-10.824
それ以来	-10.824
増加する	-10.8242
サム	-10.8242
des	-10.8243
べきか	-10.8243
aus	-10.8244
の始まり	-10.8246
を殺し	-10.8249
不可能な	-10.8252
克服	-10.8253
eg	-10.8254
TS	-10.8256
を設計する	-10.826
さない	-10.826
то	-10.8261
[2]	-10.8263
大量のデータ	-10.8264
値は	-10.8267
明日	-10.8268
***	-10.8269
であることを忘れないでください	-10.8272
と協力して	-10.8273
統一	-10.8273
アプリケーションで	-10.8275
マッピング	-10.8276
クレジット	-10.8277
銃	-10.8279
GraphQL	-10.8279
▁25	-10.8279
▁which	-10.8279
すみません	-10.8279
委員会	-10.8279
ラテックス	-10.8279
観光客	-10.8279
過度の	-10.8279
ベーコン	-10.8279
バッチ	-10.8281
学生は	-10.8281
2008	-10.8283
地球は	-10.8284
ことを確認し	-10.8284
をクリックします	-10.8289
使用され	-10.8291
火山	-10.8291
遅く	-10.8295
を失う	-10.8298
ローマ帝国	-10.8299
私は本当に	-10.8299
に答える	-10.8304
Inter	-10.8305
2017	-10.8308
が彼の	-10.8308
sen	-10.8311
サイエンスフィクション	-10.8313
透明	-10.8313
加	-10.8314
多くの人が	-10.8314
方法と	-10.8315
ソフトウェア開発	-10.8317
AT	-10.8323
zi	-10.8324
協力して	-10.8326
オムレツ	-10.8327
防衛	-10.8327
Reddit	-10.8327
酵母	-10.8327
祖父	-10.8328
SEO	-10.8329
ドローン	-10.8329
をすばやく	-10.833
▁tu	-10.8336
はとても	-10.8337
デスクトップ	-10.8337
▁SI	-10.8338
を削除し	-10.8339
レーザー	-10.8339
▁Mi	-10.8341
sign	-10.8345
land	-10.8345
上昇し	-10.8346
る必要があります	-10.8347
最適	-10.8347
▁私はあなたが	-10.8353
ball	-10.8355
ランニング	-10.8356
に住んでいた	-10.8357
勾配	-10.8358
混合物	-10.8359
魅力的で	-10.8364
を消費する	-10.8366
になる可能性がある	-10.8369
平ら	-10.8372
ために使用され	-10.8372
形の	-10.8372
積極的に	-10.8374
ε	-10.8375
ワクチン	-10.8375
とも呼ばれる	-10.8375
の助けを借りて	-10.8375
寺院	-10.8375
生徒	-10.8376
ことを目的としています	-10.8376
ヨガ	-10.8376
ソースから	-10.8377
らない	-10.8379
員	-10.838
軽量	-10.8381
を指し	-10.8381
の実践	-10.8383
何かありますか	-10.8384
がない場合は	-10.8386
鳥の	-10.8386
尋ねた	-10.8387
reg	-10.8389
1.0	-10.839
IS	-10.8393
反対の	-10.8395
提出	-10.8396
ли	-10.8397
の完全な	-10.8397
一意の	-10.8397
質問です	-10.8399
をテストする	-10.8401
▁ある日	-10.8406
予想	-10.8409
マリア	-10.8411
▁HA	-10.8412
PM	-10.8412
提供し	-10.8412
支払う	-10.8413
同等	-10.8415
Gu	-10.8417
ゲームです	-10.8418
はいつ	-10.8419
私の名前は	-10.842
レーダー	-10.8422
cond	-10.8422
膜	-10.8423
火災	-10.8424
工場	-10.8424
を残します	-10.8425
ase	-10.8427
ミックス	-10.8428
絶対的な	-10.8429
▁ねえ	-10.8435
助けを求める	-10.8436
を生産する	-10.8438
を提案し	-10.844
Type	-10.8442
を解く	-10.8446
と仮定します	-10.8446
の効果	-10.8449
nal	-10.8449
を大幅に	-10.845
に投資し	-10.8451
を読み	-10.8453
望	-10.8454
他の人の	-10.8454
server	-10.8455
アレイ	-10.8455
ise	-10.8458
コンピューターで	-10.8461
量子コンピューター	-10.8462
しましたが	-10.8467
単語の	-10.8467
を破壊する	-10.8468
▁それ以外	-10.8468
ジャー	-10.847
を受け入れる	-10.8471
売	-10.8472
ヨーグルト	-10.8472
羽	-10.8473
眠りにつく	-10.8473
部族	-10.8473
act	-10.8473
騒音	-10.8473
弱点	-10.8473
▁0:	-10.8473
ハーブ	-10.8474
愛の	-10.848
GPS	-10.8481
を抽出する	-10.8482
信じられないほどの	-10.8485
挑戦的な	-10.8485
するのは	-10.8487
種類	-10.849
▁find	-10.8491
できる限り	-10.8491
61	-10.8492
▁base	-10.8497
256	-10.8497
をシミュレートする	-10.8499
を調査し	-10.8501
手を	-10.8503
ものの	-10.8503
に入れ	-10.8504
▁open	-10.8504
座	-10.8505
ているか	-10.8505
ことわざ	-10.8505
を始め	-10.8506
の提案	-10.8512
かどうかを判断する	-10.8512
室	-10.8513
を表しています	-10.8513
の味	-10.8514
させてください	-10.8516
野	-10.8518
作品の	-10.8521
言います	-10.8521
インセンティブ	-10.8521
侵略	-10.8522
女王	-10.8522
property	-10.8522
ステレオタイプ	-10.8522
ソーセージ	-10.8522
泡	-10.8522
頭痛	-10.8522
スキー	-10.8523
ña	-10.8523
質問をする	-10.8524
土星	-10.8525
encia	-10.8525
ことを意味し	-10.8525
が必要になります	-10.8527
はほとんど	-10.8528
ult	-10.8531
カップル	-10.8532
手で	-10.8535
割合	-10.8535
を構築します	-10.8536
を操作する	-10.8537
ページに	-10.8539
exp	-10.8539
枚の	-10.854
成	-10.8543
▁.-	-10.855
説明し	-10.8552
2〜3	-10.8553
ワーク	-10.8554
繁殖	-10.8554
▁Microsoft	-10.8556
ect	-10.8556
通過	-10.8556
▁ال	-10.8561
Li	-10.8562
保守	-10.8564
アプローチは	-10.8566
ere	-10.8566
rt	-10.8567
解決する	-10.8567
に住んでいます	-10.8567
天然	-10.857
作られ	-10.857
急速に	-10.8571
の台頭	-10.8571
フィットネス	-10.8571
に近づく	-10.8571
不快感	-10.8571
入手	-10.8572
プラス	-10.8573
一貫して	-10.8573
シリアル	-10.8573
▁{2}	-10.8573
target	-10.8573
一人	-10.8579
が正しく	-10.8581
に向けて	-10.8582
蒸発	-10.8583
ソー	-10.8585
聞いてください	-10.8592
地理的	-10.8592
▁path	-10.8595
概念です	-10.8597
と同様の	-10.8599
ros	-10.8599
г	-10.86
になっています	-10.8605
▁4)	-10.861
mut	-10.8611
フィルタリング	-10.8612
視聴	-10.8617
に依存しています	-10.862
コントローラー	-10.862
Define	-10.8621
規律	-10.8621
枠組み	-10.8621
高性能	-10.8621
連絡先	-10.8621
Color	-10.8621
▁index	-10.8623
ptr	-10.8624
テクノロジーと	-10.8624
高価	-10.8625
の主な違いは	-10.8628
にはいくつの	-10.8629
ood	-10.8629
に会う	-10.863
Intel	-10.8636
63	-10.8636
使用します	-10.8641
の質問	-10.8644
デバイスを	-10.8648
聖	-10.8649
wi	-10.8649
研究と	-10.8649
あなたの仕事	-10.8652
▁},	-10.8652
具体的には	-10.8653
寿命	-10.8654
を確立します	-10.8656
クラシック	-10.8656
ブレ	-10.8656
データは	-10.8657
かどうかを確認する	-10.8658
たくありません	-10.8658
に影響を与える可能性のある	-10.8659
軽	-10.8659
実行できます	-10.8662
ント	-10.8662
▁ca	-10.8665
)}	-10.8666
不可能	-10.8667
で知られている	-10.8668
知りたい	-10.8669
辺	-10.8669
Django	-10.867
変圧器	-10.867
落ち着いて	-10.867
を取り除く	-10.8672
ギア	-10.8675
に含まれる	-10.8675
change	-10.8678
の死	-10.8679
ウェ	-10.868
ほしい	-10.868
を強調しています	-10.868
ではないかもしれません	-10.868
挿入	-10.8681
そこ	-10.8682
全体に	-10.8683
src	-10.8684
に追加します	-10.8687
を提供することはできません	-10.8689
(0)	-10.8691
テラ	-10.8691
恐れ	-10.8693
の方向	-10.8695
コー	-10.8696
を提供することです	-10.8698
不明	-10.8699
を上げ	-10.8699
腸	-10.8699
いること	-10.87
強制	-10.8701
を得ることができます	-10.8703
▁begin	-10.8708
のリストです	-10.8711
を促進します	-10.8712
コードが	-10.8714
決意	-10.8714
ポーランド	-10.8716
図書館	-10.872
とにかく	-10.872
HEIGHT	-10.872
ر	-10.872
Firefox	-10.872
ハンガリー	-10.872
Power	-10.8722
車輪	-10.8722
産業革命	-10.8722
▁50	-10.8723
目標は	-10.8723
開発された	-10.8725
Tra	-10.8727
bool	-10.8728
環境への影響	-10.8728
理解しやすい	-10.8731
を可能にします	-10.8732
を含める必要があります	-10.8732
を保持し	-10.8735
に合わせて	-10.8737
戦略的	-10.8739
▁Ra	-10.874
▁has	-10.8744
Arch	-10.8744
の前	-10.8746
特定の要件	-10.8747
チン	-10.8748
bit	-10.8753
▁sal	-10.8754
és	-10.8754
とリソース	-10.8756
with	-10.8762
ary	-10.8762
揚げ	-10.8764
愛する	-10.8764
ista	-10.8768
政治システム	-10.877
重複	-10.877
頭字語	-10.877
洗浄	-10.8771
地平線	-10.8771
高校	-10.8771
▁--	-10.8771
キット	-10.8774
お願いします	-10.8775
filename	-10.8776
サービスの	-10.8777
きれいな	-10.878
コイン	-10.878
ele	-10.8782
することを	-10.8783
を処理し	-10.8783
lar	-10.8784
に見られる	-10.8787
ye	-10.8789
ake	-10.8793
PA	-10.8794
1990	-10.8795
AM	-10.8796
行われる	-10.8797
異なって	-10.8798
中断	-10.8799
感情的	-10.8799
当時	-10.8801
point	-10.8803
通	-10.8803
ックス	-10.8806
ms	-10.8811
Ha	-10.8813
を改善するのに役立ちます	-10.8815
次のとおりです	-10.8816
銀	-10.8816
のトレーニング	-10.8818
追	-10.882
jpg	-10.8821
インタビュアー	-10.8821
出会い	-10.8821
ソビエト連邦	-10.8821
メジャー	-10.8822
知りません	-10.8822
子どもたち	-10.8822
ブラシ	-10.8824
見出し	-10.8824
タンク	-10.8826
の法律	-10.8828
の中には	-10.8829
かかります	-10.8829
夜の	-10.8833
学校の	-10.8834
ن	-10.8836
脱	-10.8837
▁{}	-10.884
ku	-10.884
天国	-10.884
したい場合は	-10.8842
▁mm	-10.8842
合意	-10.8843
クレ	-10.8844
hen	-10.8844
を理解するために	-10.8845
ファイル名	-10.8846
に合う	-10.8847
影響力	-10.8849
グラムの	-10.885
閉鎖	-10.8851
に多くの	-10.8852
価値がある	-10.8854
ボン	-10.8854
歳です	-10.8854
テクノロジーは	-10.8858
る方法	-10.8858
gue	-10.8859
人生の意味	-10.8861
ヘル	-10.8862
正確	-10.8863
どこに	-10.8864
を知る必要があります	-10.8869
伝	-10.887
根本的な	-10.8871
→	-10.8872
当事者	-10.8872
México	-10.8872
プロトタイプ	-10.8872
キャンセル	-10.8872
役割を果たす	-10.8872
寄付	-10.8872
稲妻	-10.8872
羊	-10.8873
スタート	-10.8875
出口	-10.8876
の日	-10.8876
ポンド	-10.8878
分散型	-10.8878
することが	-10.8879
クラスター	-10.8879
find	-10.8882
蓄積	-10.8883
構築された	-10.8884
投げ	-10.8887
に保つ	-10.8887
を指定し	-10.8889
方程式の	-10.8894
を書くことができますか	-10.8895
問題が	-10.8896
知的	-10.8897
せず	-10.8897
▁4-	-10.8898
植物の	-10.8898
▁position	-10.8903
混ぜます	-10.8905
/)	-10.8907
結果の	-10.8907
を最小限に抑える	-10.8908
医療専門家	-10.8911
有用	-10.8912
ヨーロッパで	-10.8912
のを手伝うことができます	-10.8913
国家の	-10.8914
そうでなければ	-10.8918
直線	-10.8919
モー	-10.892
イデオロギー	-10.8922
嵐	-10.8922
日曜日	-10.8922
電荷	-10.8923
コンクリート	-10.8923
正規表現	-10.8923
lambda	-10.8923
彼自身の	-10.8924
厚い	-10.8924
スライド	-10.8924
javascript	-10.8925
を経験する	-10.8926
Key	-10.8926
▁fn	-10.8927
以下に	-10.8928
の総	-10.8928
(4	-10.8929
確立	-10.893
▁Ka	-10.8933
ting	-10.8934
▁mit	-10.8935
名前は	-10.8935
の哲学	-10.8936
がその	-10.8937
wo	-10.8939
人生で	-10.8942
更新された	-10.8943
扱い	-10.8943
クリーン	-10.8948
ジャン	-10.895
プロジェクトで	-10.8951
コードで	-10.8954
ted	-10.8955
言語モデルです	-10.8959
主観的な	-10.896
Com	-10.896
77	-10.8961
主義者	-10.8961
に達する	-10.8961
だと思いますか	-10.8961
生き残る	-10.8962
を提示する	-10.8962
window	-10.8963
到着	-10.8965
作成するにはどうすればよいですか	-10.8968
失われた	-10.8968
毛皮	-10.8972
輪	-10.8973
侵害	-10.8974
ل	-10.8974
博士	-10.8974
マニュアル	-10.8974
入り口	-10.8975
可能性は	-10.8976
穏やかな	-10.8976
テクスチャー	-10.8977
ED	-10.8978
を最大化する	-10.898
方が良い	-10.898
基礎となる	-10.8982
の出力	-10.8984
block	-10.8985
球体	-10.8986
ことを発見しました	-10.8988
便利	-10.899
フライ	-10.899
勝つ	-10.8995
快適	-10.8997
query	-10.8997
チェスの	-10.9
スパイ	-10.9001
これまでに	-10.9002
に焦点を合わせ	-10.9002
を探索する	-10.9003
top	-10.9004
▁For	-10.9004
貧しい	-10.9004
準備ができている	-10.9006
強調	-10.9007
lin	-10.901
ための鍵	-10.9011
彼の作品	-10.9014
山の	-10.9018
use	-10.9019
サイバーセキュリティ	-10.902
爆弾	-10.9025
ゴブリン	-10.9025
敗北	-10.9026
クリスマス	-10.9026
酢	-10.9026
あるいは	-10.9026
を支援し	-10.9029
によるものです	-10.903
▁/>	-10.903
と考える	-10.9034
rows	-10.9038
パーク	-10.9039
プロジェクトに	-10.9042
できるか	-10.9048
ことが重要である	-10.9049
を経験し	-10.9049
を知り	-10.9052
楽し	-10.9053
完全	-10.9054
を一緒に	-10.9056
顕著な	-10.9057
ものである	-10.9058
最初	-10.906
を聞く	-10.906
▁Un	-10.9062
しないように	-10.9062
効果は	-10.9063
Co	-10.9063
プレーヤーは	-10.9066
オプションです	-10.9066
理論の	-10.9069
フォー	-10.907
ハー	-10.9071
ことを確認するために	-10.9071
モデルです	-10.9073
tus	-10.9074
犬は	-10.9074
シリンダー	-10.9077
ndo	-10.9077
を尊重し	-10.9077
賢い	-10.9077
ピラミッド	-10.9077
Error	-10.9077
コーティング	-10.9078
有料	-10.9078
司法	-10.9078
ポップ	-10.9079
▁run	-10.9082
という用語は	-10.9087
モル	-10.9088
down	-10.9089
獲得	-10.9092
segments	-10.9093
auth	-10.9093
41	-10.9095
AD	-10.9095
class	-10.9096
ations	-10.9097
が大好きです	-10.9099
データフレーム	-10.9101
負	-10.9105
"))	-10.9106
ú	-10.9108
起こります	-10.9109
論理的な	-10.911
公平	-10.9112
//	-10.9113
▁esta	-10.9117
壊れ	-10.9117
するために必要な	-10.9119
▁夕食	-10.9119
動機付け	-10.912
▁canvas	-10.9121
エアコン	-10.9122
つもりです	-10.9123
rá	-10.9126
衝撃	-10.9126
銅	-10.9129
売り手	-10.913
art	-10.913
感染症	-10.913
広がり	-10.913
お元気ですか	-10.913
グルコース	-10.913
2016	-10.9131
環境の	-10.9132
文字通り	-10.9134
されていました	-10.9135
で最高の	-10.9136
つまたは	-10.914
を移動する	-10.9142
あなたを助けるためにここにいます	-10.9143
ロープ	-10.9143
Read	-10.9144
オプションは	-10.9146
LF	-10.9147
コーラス	-10.9148
ワークショップ	-10.9148
numpy	-10.9149
歴史を通じて	-10.915
をすべて	-10.915
繰り返します	-10.915
▁1/2	-10.9155
印象	-10.9158
決定的な	-10.9158
▁印刷	-10.9164
するときに	-10.9164
に関連している	-10.9165
回の	-10.9167
sin	-10.9168
主人公	-10.917
tt	-10.917
▁their	-10.9175
世界は	-10.9178
できない場合	-10.9179
ami	-10.918
フォルダ	-10.918
年生	-10.9181
アインシュタイン	-10.9181
gan	-10.9181
聴	-10.9182
歓迎	-10.9182
▁&&	-10.9183
Unreal	-10.9183
新	-10.9183
の例を教えてください	-10.9183
ピーマン	-10.9183
cos	-10.9185
を守る	-10.9185
を使った	-10.9185
と機能	-10.9187
▁font	-10.9189
▁на	-10.919
について話している	-10.9191
段階的な	-10.9192
お手伝い	-10.9193
を支払う	-10.9195
の挙動	-10.9195
day	-10.9195
の距離	-10.9196
sub	-10.9196
▁len	-10.9198
bl	-10.9199
をチェックする	-10.9202
▁True	-10.9202
position	-10.9202
ティン	-10.9203
結	-10.9204
重要であり	-10.9205
Or	-10.9206
[0])	-10.9206
完璧	-10.9206
08	-10.9206
専門家の	-10.9207
賞賛	-10.9209
2014	-10.921
セー	-10.921
そこから	-10.9211
を作るために	-10.9211
yt	-10.9211
幾何学	-10.9212
茶色	-10.9213
アルファ	-10.9214
であることは	-10.9217
~~~~~~~~~~~~~~~~	-10.9217
をします	-10.9219
のに十分	-10.922
変	-10.922
あなたは私が	-10.9221
テーブルに	-10.9223
▁sus	-10.9223
申請	-10.9225
を実施し	-10.9226
年以上	-10.9227
Mi	-10.9227
優先順位	-10.9229
今後	-10.9229
木の	-10.9229
オーストリア	-10.9234
にすることができます	-10.9234
に変換します	-10.9234
bucket	-10.9234
GPIO	-10.9235
住所	-10.9235
ple	-10.9235
スキーム	-10.9236
ッカー	-10.9236
はいくらですか	-10.9236
柔軟な	-10.9238
column	-10.9239
バイト	-10.924
持続可能性	-10.924
システムと	-10.9241
という言葉は	-10.9242
cas	-10.9243
を監視し	-10.9245
ssh	-10.9245
を得	-10.9245
失	-10.9245
負傷	-10.9249
ナス	-10.9249
го	-10.9253
連合	-10.9253
コンピューターが	-10.9256
しますが	-10.9257
を学ぶための	-10.9261
ify	-10.9263
去り	-10.927
ug	-10.9273
ない限り	-10.9276
普及	-10.9277
▁cv	-10.9279
に見える	-10.9282
両方とも	-10.9282
エネルギー消費	-10.9282
を探して	-10.9283
ous	-10.9283
プログラミング言語で	-10.9284
特殊な	-10.9287
協会	-10.9287
吸血鬼	-10.9287
使いやすさ	-10.9287
教義	-10.9288
有限	-10.9288
パイナップル	-10.9288
Math	-10.9288
モーター	-10.9288
冬の	-10.9289
バッシュ	-10.929
静かな	-10.929
パレット	-10.929
▁It	-10.9295
を持つこと	-10.9296
落ち	-10.9297
、2023	-10.9298
で使用されている	-10.9298
を恐れ	-10.9301
研究者は	-10.9304
▁12.	-10.9308
住んでいる	-10.9308
().	-10.9311
の検索	-10.9315
決め	-10.9316
されていますか	-10.9317
の目的は	-10.9319
として機能します	-10.9319
の探求	-10.932
ないのですか	-10.9322
dar	-10.9324
コンテンツを	-10.9326
いくつかのヒント	-10.9327
▁size	-10.9327
を開発しました	-10.9329
▁["	-10.9329
平らな	-10.933
見つけ	-10.9333
ゲームプレイ	-10.9333
オプションがあります	-10.9334
▁async	-10.9336
オランダ	-10.9336
の能力	-10.9338
最小限の	-10.9339
ならば	-10.9339
ギリシャ	-10.934
問題を解決するために	-10.934
思いやり	-10.9341
結晶	-10.9341
犠牲者	-10.9341
インターフェース	-10.9341
▁millones	-10.9341
😊	-10.9341
キノコ	-10.9341
にすぎません	-10.9341
アーサー	-10.9342
度の	-10.9342
であると考えられています	-10.9344
ロールプレイ	-10.9344
ローリング	-10.9345
未	-10.9346
を軽減する	-10.9347
水分	-10.9348
機能し	-10.9349
進化し	-10.9351
を探します	-10.9352
の全体的な	-10.9353
を作成すること	-10.9357
と呼ばれています	-10.9357
ran	-10.9358
磁石	-10.9358
cc	-10.9359
zip	-10.9362
パターンと	-10.9362
AP	-10.9368
へのリンク	-10.937
images	-10.9372
マックスは	-10.9373
ために使用する	-10.9374
を満たし	-10.9378
リード	-10.9378
民	-10.938
▁===	-10.9381
79	-10.9382
圧	-10.9384
ルド	-10.9388
▁не	-10.9388
コル	-10.939
想	-10.9393
フロント	-10.9393
政権	-10.9394
ワシントン	-10.9394
必須	-10.9394
魔女	-10.9394
缶	-10.9394
生息地	-10.9394
サングラス	-10.9395
神経系	-10.9395
丸い	-10.9396
休日	-10.9396
を含めることができます	-10.9397
▁files	-10.9398
瞑想は	-10.9398
ピー	-10.9399
states	-10.9403
をよりよく理解する	-10.9404
format	-10.9405
裂	-10.9406
サーバーに	-10.9407
つである	-10.9409
もありません	-10.9409
自分自身に	-10.9411
を準備し	-10.9415
シャー	-10.9415
と一致する	-10.9416
▁So	-10.9417
AL	-10.9423
ドゥ	-10.9423
労働者の	-10.9424
ert	-10.9424
を紹介し	-10.9426
▁Ge	-10.9428
then	-10.9428
dis	-10.9433
ベトナム	-10.9434
のスタイル	-10.9435
cy	-10.9436
人を	-10.9436
を比較する	-10.9437
▁total	-10.9437
の最も重要な	-10.9439
それを行う	-10.9442
便利です	-10.9445
ポテト	-10.9447
GitHub	-10.9448
ö	-10.9448
故障	-10.9448
宿泊施設	-10.9448
含有量	-10.9448
針	-10.9448
潮	-10.9448
権限	-10.9448
を想像してください	-10.9451
最小の	-10.9451
▁"""	-10.9451
ws	-10.9452
料理の	-10.9454
に分割する	-10.9454
モデルと	-10.9455
程度	-10.9456
意識の	-10.9459
の公式	-10.9459
キャスト	-10.946
落	-10.9463
の追加	-10.9465
gra	-10.9465
の大きさ	-10.9466
を常に	-10.9466
los	-10.9466
pass	-10.9467
をもたらし	-10.9472
があるか	-10.9475
BA	-10.9479
私の心	-10.948
の出現	-10.9481
させることができます	-10.9482
に非常に	-10.9483
テーブルの	-10.9484
事前	-10.9487
▁html	-10.9489
として使用する	-10.949
スペイン語で	-10.9493
54	-10.9493
閉じ	-10.9494
94	-10.9496
密	-10.9497
zy	-10.9497
この理論は	-10.9498
苦	-10.9498
盗	-10.9499
調理します	-10.95
を慎重に	-10.95
板	-10.9502
ホール	-10.9502
論争	-10.9502
ソーラーパネル	-10.9502
豆腐	-10.9502
魔法使い	-10.9502
ことができるため	-10.9504
経済成長	-10.9506
言語と	-10.9506
SF	-10.951
ゲート	-10.9511
で覆い	-10.9512
とサポート	-10.9513
の評価	-10.9513
SSH	-10.9514
獣医	-10.9516
▁ver	-10.9516
イオン	-10.9517
水は	-10.9518
ii	-10.9519
言語学	-10.952
プログラミング言語の	-10.9523
の有効性	-10.9524
神が	-10.9528
フィン	-10.9529
ria	-10.9529
になるでしょう	-10.953
私があなたに	-10.9531
▁1.「	-10.9531
一人で	-10.9536
を使用することをお勧めします	-10.954
てくれてありがとう	-10.954
細胞の	-10.9541
私の友人	-10.9542
神は	-10.9543
socket	-10.9546
Sc	-10.9547
横	-10.955
ライフ	-10.9552
Jo	-10.9553
▁inter	-10.9554
慣習	-10.9556
Visual	-10.9556
screen	-10.9556
ide	-10.9556
地球温暖化	-10.9557
森林	-10.9557
ゲスト	-10.9558
シンプルさ	-10.9559
安価な	-10.9561
グラス	-10.9561
最短	-10.9561
CR	-10.9564
しているか	-10.9565
エルフ	-10.9566
のデザイン	-10.9569
人のために	-10.9569
UN	-10.9569
砂漠	-10.9569
に適応し	-10.957
(&	-10.9572
平均して	-10.9572
人権	-10.9573
how	-10.9575
サーバーの	-10.9576
レオ	-10.9576
gl	-10.9578
vec	-10.9578
▁{(2	-10.958
apt	-10.958
MP	-10.958
待って	-10.9582
組織の	-10.9584
▁sub	-10.9586
の実施	-10.9587
病院	-10.9587
に従ってください	-10.9588
から始めます	-10.9589
ciones	-10.9592
TO	-10.9593
の保護	-10.9593
EX	-10.9594
実証	-10.9595
個別の	-10.9596
lay	-10.9597
を作成	-10.9599
月曜日	-10.9602
限	-10.9602
病気の	-10.9602
NP	-10.9604
を比較し	-10.9606
▁DO	-10.9606
次の手順	-10.9606
を送る	-10.9608
ていませんでした	-10.9609
眠り	-10.9609
ニューラルネットワークの	-10.9609
オブ	-10.961
製	-10.961
被験者	-10.961
ジュース	-10.9611
刑務所	-10.9611
絶滅	-10.9611
ストレッチ	-10.9611
秋	-10.9611
配信	-10.9611
はどこですか	-10.9611
臭い	-10.9612
マークダウン	-10.9612
\`	-10.9613
▁want	-10.9614
表面に	-10.9617
追求	-10.9617
等しい	-10.9617
知らせ	-10.9618
興味のある	-10.962
が可能になります	-10.9623
キログラム	-10.9624
目標を達成するために	-10.9629
価値のある	-10.9631
それに	-10.9631
を無視し	-10.9632
取り外し	-10.9635
未知の	-10.9635
感じる	-10.9637
></	-10.964
コンテキストで	-10.9645
かのように	-10.9646
▁player	-10.9647
球	-10.9649
▁any	-10.9652
健康と	-10.9654
目標を達成する	-10.9656
個人は	-10.9658
関数を	-10.9658
を説明するために	-10.9659
の歌	-10.9659
象	-10.9664
ナビゲーション	-10.9666
はどこにありますか	-10.9666
ベクター	-10.9667
ストリップ	-10.9667
心配しないでください	-10.9669
Fu	-10.9669
ディス	-10.9671
マイク	-10.9672
Laion	-10.9673
衝動	-10.9674
▁bpy	-10.9674
炒めます	-10.9675
ファー	-10.9677
量子物理学	-10.9679
ook	-10.9683
夢の	-10.9686
トム	-10.9687
ick	-10.9688
尋ねます	-10.9688
トレ	-10.969
の消費	-10.9692
ないので	-10.9692
クル	-10.9692
ジョンは	-10.9693
間の関係	-10.9693
2011	-10.9693
減少	-10.9694
ッチ	-10.9696
トルコ	-10.9696
に続いて	-10.9696
las	-10.9698
dos	-10.97
話している	-10.9703
▁Mar	-10.9704
を調整して	-10.9706
コート	-10.9708
スキルを向上させる	-10.9711
its	-10.9711
をもたらす可能性があります	-10.9718
ster	-10.9719
排出量	-10.972
順序で	-10.972
免疫	-10.9721
ウィキペディア	-10.9721
弾	-10.9721
AGI	-10.9721
使いやすい	-10.9721
請求書	-10.9722
を記述する	-10.9724
ユーザーエクスペリエンス	-10.9725
トー	-10.9725
汎用性	-10.9725
▁++){	-10.9726
を支持する	-10.9728
Hu	-10.9731
を評価します	-10.9732
ゲン	-10.9732
をして	-10.9732
への旅行	-10.9733
▁3,	-10.9737
のパターン	-10.9741
の都市	-10.9744
管理者	-10.9744
類似	-10.9745
={	-10.9745
強力	-10.9746
次のこと	-10.9748
テロ	-10.975
fu	-10.9755
Ma	-10.9756
色合い	-10.9765
と言われています	-10.9767
に変える	-10.9768
▁next	-10.9769
ーク	-10.977
息	-10.9771
2.0	-10.9772
罪	-10.9774
省	-10.9775
書かれています	-10.9776
に限定され	-10.9776
クリーチャー	-10.9777
美しく	-10.9777
広大な	-10.9777
抗議	-10.9777
√	-10.9777
スクロール	-10.9777
レンタル	-10.9778
フラグ	-10.9779
に到着し	-10.9779
デバッグ	-10.9779
を作成できる	-10.9781
上記	-10.9783
だと	-10.9784
canvas	-10.9785
ミーム	-10.9786
知	-10.9788
戦争は	-10.9789
illa	-10.9791
消え	-10.9793
のもう	-10.9795
で満たされた	-10.9798
を救う	-10.9798
シェ	-10.9798
並べ替え	-10.98
例として	-10.9801
を支配する	-10.9802
リーグ	-10.9803
私の人生	-10.9803
を持っている場合	-10.9804
72	-10.9805
▁its	-10.9809
逃げる	-10.981
を開始する前に	-10.981
たいと考えています	-10.981
服	-10.9812
再利用	-10.9813
用に	-10.9814
最良の方法は	-10.9815
運営	-10.9815
mal	-10.982
source	-10.982
zo	-10.982
について考える	-10.9821
back	-10.9822
筋	-10.9823
は次のように	-10.9826
ようにする	-10.9828
オリジナル	-10.9829
になるように	-10.983
呼び	-10.9831
愛情	-10.9831
ランチ	-10.9831
ヒトラー	-10.9832
アーティファクト	-10.9832
ب	-10.9833
ブドウ	-10.9833
イラスト	-10.9833
化する	-10.9833
TR	-10.9834
オンラインコース	-10.9834
ステーション	-10.9835
の精度	-10.9836
効率的	-10.9838
ah	-10.9839
ть	-10.9839
5)	-10.9841
の条件	-10.9843
連絡	-10.9846
覚	-10.9846
во	-10.9846
科学的な	-10.9847
CA	-10.985
何か他のもの	-10.985
グループが	-10.9851
内のすべての	-10.9852
強	-10.9853
ico	-10.9854
▁pi	-10.9856
х	-10.9862
ML	-10.9864
複合	-10.9864
アラ	-10.9865
__(	-10.9865
どちら	-10.9866
を考え	-10.9867
オンス	-10.9872
必要があるかもしれません	-10.9873
集	-10.9876
なぜあなたは	-10.9879
値が	-10.988
リリー	-10.9884
是	-10.9885
地位	-10.9886
発生した	-10.9886
loss	-10.9887
続きます	-10.9888
嘘	-10.9889
メカニック	-10.9889
コンセプト	-10.9889
(2)	-10.9889
を提供するため	-10.9889
]]	-10.989
彼の人生	-10.9892
▁Pl	-10.9892
を教え	-10.9893
UT	-10.9894
ва	-10.9894
環境に	-10.9895
uc	-10.9899
しっかりと	-10.99
ien	-10.9903
社会主義	-10.9903
タスクで	-10.9905
時空	-10.9905
NET	-10.9906
ジー	-10.9908
能力と	-10.9911
したか	-10.9912
TA	-10.9914
0.2	-10.9914
合法	-10.9915
MB	-10.9917
ラル	-10.9918
án	-10.9919
公式の	-10.9919
SO	-10.9921
uch	-10.9921
エネルギーを	-10.9922
を練習する	-10.9923
単	-10.9924
rel	-10.9924
Page	-10.9925
ヘビ	-10.9925
データ型	-10.9927
ファイルが	-10.9927
の平方根	-10.9929
▁22	-10.9929
開いた	-10.9929
DA	-10.9929
いる場合	-10.993
から始まります	-10.993
さて	-10.9931
続き	-10.9932
中火で	-10.9932
を消費し	-10.9932
目的と	-10.9933
強化学習	-10.9939
コードブロック	-10.994
向け	-10.9942
すぎ	-10.9944
に置きます	-10.9945
配達	-10.9945
サンドイッチ	-10.9945
Ruby	-10.9945
屋根	-10.9946
シャワー	-10.9946
リスナー	-10.9946
Input	-10.9947
のを助けるために	-10.9948
を参照してください	-10.9949
詰め物	-10.9949
を行うことができます	-10.9951
を引き付け	-10.9953
チリの	-10.9956
理由です	-10.9957
差し	-10.9958
というフレーズ	-10.9959
教会	-10.996
もある	-10.996
pro	-10.9962
エイリアンの	-10.9962
歩き	-10.9963
をよりよく理解し	-10.9964
プロセスを	-10.997
と一致し	-10.9971
の違いは	-10.9972
まり	-10.9974
▁範囲の	-10.9974
non	-10.9976
魚の	-10.9978
出発	-10.9979
このコード	-10.998
を変更して	-10.9981
を掛け	-10.9982
具体的に	-10.9982
と主張する	-10.9984
利点があります	-10.9991
をしている	-10.9992
ていなかった	-10.9992
に挑戦し	-10.9993
話し	-10.9994
出発点	-10.9996
了	-10.9998
休暇	-11
For	-11.0001
ネットワークの	-11.0001
管	-11.0001
なりました	-11.0001
ゾンビ	-11.0002
WIDTH	-11.0002
仏教	-11.0002
92	-11.0002
ワールドカップ	-11.0003
Ba	-11.0004
病	-11.0004
に置き	-11.0005
ダブル	-11.0005
このため	-11.0006
HA	-11.0007
を考えてください	-11.001
を理解すること	-11.0011
に依存し	-11.0012
挑戦的	-11.0012
objects	-11.0012
2005	-11.0013
アルゼンチンの	-11.0013
の議論	-11.0013
に座って	-11.002
を置き換える	-11.0022
として機能する	-11.0024
のが最善です	-11.0025
SA	-11.0027
をしてください	-11.0029
日中	-11.003
していますが	-11.0031
と行動	-11.0031
gov	-11.0034
購入する	-11.0035
▁node	-11.0035
書かれ	-11.0036
それらのいくつか	-11.0037
Mar	-11.0037
カート	-11.0039
の長所と短所	-11.0041
の証拠	-11.0041
の短い	-11.0042
が作成されます	-11.0042
2003	-11.0042
を作成してください	-11.0043
を生成できます	-11.0045
述べ	-11.0045
チューリング	-11.0046
会社が	-11.0046
を続ける	-11.0047
族	-11.0048
ニング	-11.005
ーション	-11.0057
対照的に	-11.0057
可	-11.0057
つけ	-11.0059
行政	-11.0059
因数分解	-11.0059
箇条書き	-11.0059
ウォーター	-11.006
医学的	-11.006
▁{1}	-11.006
長年にわたって	-11.006
を挿入	-11.006
放射線	-11.006
昨日	-11.0061
split	-11.0062
適用される	-11.0062
XML	-11.0062
▁await	-11.0063
つもり	-11.0063
sorted	-11.0064
の効率	-11.0064
を実現する	-11.0065
model	-11.0065
5000	-11.0066
リアルタイム	-11.0068
あなたに役立つことを願っています	-11.0069
次のコード	-11.007
pair	-11.007
年間の	-11.0071
フアン	-11.0076
熟練した	-11.0076
たりすること	-11.0077
リラックス	-11.0081
ura	-11.0082
の発達	-11.0085
治療法	-11.0085
▁¡	-11.0089
利点と短所	-11.0092
sudo	-11.0092
提供	-11.0093
これらすべての	-11.0094
私たちの生活	-11.0097
多数	-11.0098
を破壊し	-11.01
を管理し	-11.0101
を含め	-11.0101
プラットフォームです	-11.0103
を書いてもらえますか	-11.0103
いる間	-11.0104
の順序	-11.0105
快適で	-11.0107
正常	-11.011
本当	-11.0111
ser	-11.0111
はあまり	-11.0112
刺	-11.0115
剪定	-11.0116
トンネル	-11.0116
wikipedia	-11.0116
名誉	-11.0117
説得力のある	-11.0117
疑わしい	-11.0117
蜂蜜	-11.0117
哺乳類	-11.0117
木製の	-11.0117
使命	-11.0117
ソクラテス	-11.0117
pepper	-11.0117
を倒す	-11.0117
マイクロコントローラー	-11.0117
使用し	-11.0118
real	-11.0118
ようとしました	-11.0119
到着する	-11.0119
を練習し	-11.0119
この映画は	-11.0122
方法はいくつかあります	-11.0124
くて	-11.0125
ok	-11.0126
ディング	-11.0126
標準的な	-11.0129
▁Add	-11.0134
ds	-11.0135
sy	-11.0135
Me	-11.0136
自動学習	-11.0136
mask	-11.0136
cmd	-11.0138
▁,,	-11.0139
界	-11.014
2>	-11.0142
西洋の	-11.0143
私があなたを助けることができる他	-11.0146
ノン	-11.0149
▁into	-11.0149
意味で	-11.0152
イド	-11.0152
9/	-11.0153
活用	-11.0154
CC	-11.0157
パンク	-11.0157
local	-11.0158
env	-11.0159
360	-11.0159
首都	-11.016
不十分	-11.0162
説明します	-11.0163
73	-11.0163
日から	-11.0164
国境	-11.0166
有益	-11.0166
アス	-11.0167
▁誰が	-11.0169
を紹介する	-11.0171
▁о	-11.0171
ling	-11.0172
に関する詳細情報	-11.0173
モスクワ	-11.0174
リチャード	-11.0174
Import	-11.0174
スプーン	-11.0174
ことに気付きました	-11.0175
prompt	-11.0175
返品	-11.0175
dist	-11.0176
アルゴリズムを使用して	-11.0176
接続された	-11.0178
に乗る	-11.0178
ポジティブな	-11.018
明確	-11.0184
妊娠	-11.0184
▁conn	-11.0184
bb	-11.0187
フェル	-11.019
掃除	-11.0191
をいくつか紹介します	-11.0192
tos	-11.0196
低く	-11.0201
のインストール	-11.0201
ender	-11.0202
van	-11.0202
に従事し	-11.0204
ライス	-11.0205
チューブ	-11.0206
dev	-11.0208
から保護する	-11.0213
▁first	-11.0214
を作ることができます	-11.0214
ina	-11.0216
▁server	-11.0216
▁array	-11.0218
管理システム	-11.0218
はすぐに	-11.0219
CH	-11.0222
出し	-11.0224
▁安定した拡散	-11.0225
本物	-11.0225
技術の進歩	-11.0226
handle	-11.0227
FA	-11.0228
ins	-11.0229
水と	-11.023
default	-11.0233
OpenBSD	-11.0233
お金を稼ぐ	-11.0233
激しく	-11.0233
ArrayList	-11.0233
手術	-11.0233
誰でも	-11.0233
除外	-11.0234
パッケージマネージャー	-11.0235
на	-11.0237
で発生する	-11.0238
メタン	-11.0238
られている	-11.0239
5/	-11.0245
著者の	-11.0246
Path	-11.0247
ませんか	-11.0248
時間とともに	-11.0249
を向上させる	-11.025
地理	-11.0252
言うこと	-11.0255
ET	-11.0261
と感じています	-11.0262
受け取った	-11.0264
試	-11.027
rb	-11.027
'}、	-11.0274
▁numpy	-11.0275
bre	-11.0279
利用できる	-11.028
的です	-11.0281
フィー	-11.0283
するのが難しい	-11.0284
ワー	-11.0284
はありませんでした	-11.0285
で構成され	-11.0287
ニュー	-11.0288
価格で	-11.029
トレンド	-11.029
ile	-11.029
関節	-11.0291
”	-11.0291
α	-11.0291
ペーパー	-11.0291
尿	-11.0291
何らかの形で	-11.0291
1970	-11.0291
得られた	-11.0292
硬い	-11.0292
cre	-11.0293
エネルギー効率	-11.0295
公正な	-11.0295
ピーク	-11.0295
植物油	-11.0296
摂取量	-11.0296
文の	-11.0297
を減らします	-11.0298
(0、	-11.0298
しい	-11.0301
欲求	-11.0301
られます	-11.0303
を通過し	-11.0303
ポルトガル	-11.0305
中国語	-11.0307
を迅速に	-11.0308
動物は	-11.031
良好な	-11.0311
ü	-11.0315
パート	-11.0315
に取り組み	-11.0316
殺	-11.0318
の結果として	-11.032
を聞いて	-11.0322
▁短所	-11.0323
を見つけること	-11.0327
で動作する	-11.0327
を開発します	-11.0327
メキシコの	-11.0328
機械学習アルゴリズム	-11.0328
ショップ	-11.0328
きました	-11.033
実行されます	-11.0332
標準の	-11.0333
物理学者	-11.0336
包	-11.0337
簡単な方法	-11.0338
作る	-11.0338
定義された	-11.0339
グラン	-11.0339
ロースト	-11.034
が必要	-11.034
あなたと一緒に	-11.0342
▁through	-11.035
サードパーティ	-11.035
手がかり	-11.035
競合他社	-11.035
台湾	-11.035
は必要ありません	-11.035
時代遅れ	-11.0351
まるで	-11.0351
量子コンピューティング	-11.0351
スロット	-11.0352
身体活動	-11.0353
長距離	-11.0355
透明な	-11.0356
学んだ	-11.0359
を印刷します	-11.0359
ート	-11.0359
歳の子供	-11.0359
しようとします	-11.036
++)	-11.0361
グループは	-11.0362
敬意	-11.0367
覚えておいてください	-11.0368
進数	-11.0369
this	-11.0371
-7	-11.0372
の例は	-11.0373
実践的な	-11.0373
の詩	-11.0374
を見つけることができる	-11.0375
Qua	-11.0375
見られ	-11.0376
たか	-11.0377
tre	-11.0381
他に何か	-11.0382
これは非常に	-11.0383
ものから	-11.0383
▁method	-11.0385
の旅	-11.0391
裏	-11.0393
の進歩	-11.0393
南アメリカ	-11.0394
をシミュレートし	-11.0394
人間の行動	-11.0395
を判断する	-11.0396
相対	-11.04
回避	-11.04
ホラー	-11.0401
急	-11.0401
を置きます	-11.0401
喜びと	-11.0404
TB	-11.0406
カリフォルニア	-11.0406
夏の	-11.0406
context	-11.0407
ポー	-11.0407
給	-11.0408
探偵	-11.0409
モナド	-11.0409
スケーリング	-11.0409
胡	-11.0409
volume	-11.0409
統計的	-11.041
▁palabras	-11.041
混合物を	-11.041
store	-11.0411
ナイト	-11.0411
タイムライン	-11.0411
ビア	-11.0412
ダンジョン	-11.0412
シング	-11.0412
DB	-11.0414
行き	-11.0414
を保存し	-11.0414
VI	-11.0415
この方法は	-11.0416
体は	-11.0419
独立して	-11.0419
必ず	-11.0419
distances	-11.042
▁each	-11.0421
ひ	-11.0421
日本語	-11.0423
によって特徴付けられます	-11.0423
あなたの体	-11.0424
ナビゲート	-11.0427
シス	-11.0428
▁Vi	-11.0429
に近づき	-11.0429
▁vector	-11.0431
ро	-11.0432
vs	-11.0432
Mon	-11.0435
と比較する	-11.0435
考えられ	-11.0435
に入り	-11.0435
ズム	-11.0437
chen	-11.0438
Ro	-11.0441
▁char	-11.0446
責任があります	-11.0446
nc	-11.0448
ニュートン	-11.0448
を最適化し	-11.0449
info	-11.0451
を取ります	-11.0451
を提供すること	-11.0456
те	-11.0458
ことが示されています	-11.0459
ator	-11.046
それは私が	-11.0462
問題があります	-11.0463
屋	-11.0463
09	-11.0466
数週間	-11.0466
氏	-11.0467
終	-11.0467
就	-11.0467
パウダー	-11.0468
宇宙飛行士	-11.0468
バーベキュー	-11.0469
担当者	-11.0469
ダイエット	-11.0469
麺	-11.0469
トイレ	-11.0469
ジャックは	-11.0469
▁})	-11.047
ワット	-11.047
情報が	-11.0471
を探ります	-11.0471
が発生し	-11.0472
持ち上げ	-11.0473
これらの問題	-11.0475
何をすべきか	-11.0476
に同意し	-11.0478
▁Lu	-11.0479
eta	-11.0483
MO	-11.0483
▁col	-11.0484
を観察する	-11.0484
予定	-11.0484
ていることを確認してください	-11.0486
サイエンスフィクションの	-11.0487
00000	-11.0487
ace	-11.0487
ロバート	-11.0489
ッター	-11.0489
1,000	-11.049
望む	-11.049
MS	-11.049
▁local	-11.0491
の典型的な	-11.0493
fin	-11.0494
+2	-11.0494
を採用する	-11.0495
見て	-11.0495
ことができるいくつかの	-11.0496
官	-11.0499
RA	-11.0506
分間の	-11.0506
持っています	-11.0507
を維持すること	-11.0507
備	-11.0509
を調整し	-11.0511
適用され	-11.0512
黄色の	-11.0513
fo	-11.0513
キューバ	-11.0516
と言いました	-11.0516
900	-11.0518
見つけることができます	-11.0518
液	-11.0521
コードを書く	-11.0524
問	-11.0527
前提	-11.0527
膨大な	-11.0527
ことを保証します	-11.0527
の中の	-11.0528
▁スペインの	-11.0528
進捗状況	-11.0528
長方形	-11.0528
太平洋	-11.0528
宝石	-11.0529
ロンドン	-11.0529
ヘルプ	-11.053
不一致	-11.053
数千	-11.0531
に旅行する	-11.0531
王子	-11.0532
copy	-11.0533
粒子が	-11.0534
etc	-11.0534
への移行	-11.0536
かれ	-11.0536
浸	-11.0537
責任ある	-11.0538
を試す	-11.0539
▁content	-11.0539
ード	-11.054
食品の	-11.0546
どこでも	-11.0547
プレーヤーの	-11.0548
が作成され	-11.055
配列の	-11.0551
を入力	-11.0552
▁Console	-11.0554
のシーケンス	-11.0555
を調べ	-11.0556
のが好きです	-11.0558
限界	-11.0558
小数	-11.056
し始め	-11.056
ミス	-11.0561
の表現	-11.0562
(3)	-11.0562
が追加され	-11.0563
文化的および	-11.0563
を同時に	-11.0564
主観的	-11.0566
する方法は	-11.0567
tis	-11.057
で最も人気のある	-11.0571
を検証する	-11.0572
飛び	-11.0573
▁numbers	-11.0574
子供は	-11.0577
暗く	-11.058
訪問者	-11.058
3%	-11.0583
流体	-11.0585
いくつの	-11.0587
一般的です	-11.0587
模	-11.0588
エントロピー	-11.0589
信仰	-11.0589
のにも役立ちます	-11.0589
operator	-11.0589
虐待	-11.0589
着陸	-11.0589
夫と妻	-11.0589
仕上げ	-11.0589
空腹	-11.0589
writer	-11.0589
類似点	-11.059
ben	-11.0591
大きくて	-11.0591
ログイン	-11.0591
AB	-11.0593
抽象化	-11.0593
PR	-11.0596
を取得するために	-11.0596
ture	-11.0596
受信者	-11.06
方法を使用して	-11.0602
いくつかのヒントがあります	-11.0602
ように設計され	-11.0603
Cor	-11.0605
持続	-11.0607
を保存します	-11.0608
(\	-11.0615
行動を	-11.0616
をもっと	-11.0622
の損失	-11.0624
によって書かれた	-11.0628
よく混ぜ	-11.0629
テスラ	-11.0634
年の間に	-11.0638
ように見えます	-11.064
▁Go	-11.0641
あなたを助けることができますか	-11.0641
の写真	-11.0645
行われた	-11.0645
初	-11.0647
形成されます	-11.0648
area	-11.0648
糖	-11.0649
抗生物質	-11.0649
駅	-11.0649
ポケモン	-11.0649
د	-11.0649
防止	-11.0649
しきい値	-11.0649
同義語	-11.0649
割引	-11.0649
採掘	-11.065
を維持します	-11.065
に分割し	-11.065
モーティ	-11.0651
偽	-11.0653
三角形の	-11.0653
中立	-11.0655
を選択する必要があります	-11.0655
!"	-11.0657
に似ています	-11.0657
低下	-11.066
戻	-11.0661
を必要としない	-11.0661
モードで	-11.0661
gre	-11.0662
どこか	-11.0665
という用語	-11.0666
際の	-11.0667
書いています	-11.0669
pp	-11.0669
によって生成される	-11.067
スタイルと	-11.0674
第一に	-11.0676
奇妙	-11.0677
":"	-11.0679
та	-11.068
の要件	-11.068
▁午後	-11.068
を克服し	-11.068
近	-11.0685
req	-11.0687
離	-11.0692
自宅	-11.0694
1960	-11.0694
より詳細な	-11.0694
トピックに関する	-11.0694
に勝つ	-11.0696
コードの例	-11.0697
の操作	-11.0697
マックス	-11.0697
REST	-11.07
オファー	-11.07
均一	-11.0703
読	-11.0705
経	-11.0706
urs	-11.0706
ある時点で	-11.0708
このゲームは	-11.0708
メソッドは	-11.071
イニシアチブ	-11.071
ポートフォリオ	-11.071
結局のところ	-11.071
ソビエト	-11.071
access	-11.071
instance	-11.071
Client	-11.071
シナモン	-11.071
iPad	-11.071
最悪の	-11.071
注入	-11.0711
OpenAssistant	-11.0711
ことを考えると	-11.0711
先生	-11.0714
ルイス	-11.0717
見せ	-11.0719
時間を過ごし	-11.0721
あなたは何	-11.0724
スペイン語の	-11.0729
全国	-11.0729
最も簡単な	-11.0735
ular	-11.0737
発見された	-11.0738
優れている	-11.0738
の提供	-11.0739
に達し	-11.074
お金を	-11.074
Star	-11.074
▁If	-11.0741
地上	-11.0744
見つけた	-11.0746
2013	-11.0747
依然として	-11.0749
作成されました	-11.0749
その場合	-11.075
side	-11.0754
異なる場合があります	-11.0755
さまざまな要因	-11.0757
より少ない	-11.0758
の安定性	-11.0759
緩和	-11.0759
space	-11.0762
ズの	-11.0763
登場	-11.0763
罰	-11.0765
以降	-11.0766
king	-11.0768
気温	-11.0768
働いてい	-11.0769
“	-11.0771
の目標は	-11.0771
アレルギー	-11.0772
ベーキング	-11.0772
コネクタ	-11.0772
クジラ	-11.0772
水分補給	-11.0772
gitlab	-11.0772
昼食	-11.0772
キャビン	-11.0772
今回は	-11.0775
本能	-11.0776
render	-11.078
小惑星	-11.078
▁von	-11.0782
アリス	-11.0783
数回	-11.0784
は比較的	-11.0789
形成される	-11.0789
意識的な	-11.0793
rat	-11.0797
temp	-11.0798
続けました	-11.0798
感情や	-11.0802
vis	-11.0803
つの方法は	-11.0805
それぞれに	-11.0806
このトピック	-11.0806
▁directory	-11.0808
ていないため	-11.081
の食事	-11.081
新しいテクノロジー	-11.0811
与えた	-11.0813
ping	-11.0813
方法を学ぶ	-11.0814
をしました	-11.0816
ram	-11.0817
ままです	-11.0818
ジョー	-11.0818
分裂	-11.0818
52	-11.0822
場合はどうなりますか	-11.0823
伝達	-11.0823
言葉で	-11.0824
がすでに	-11.0824
ダイナミック	-11.0825
割	-11.0826
tz	-11.0827
の販売	-11.0828
体に	-11.0831
と水	-11.0831
Tri	-11.0832
鍋に	-11.0832
ast	-11.0832
塊	-11.0833
デザート	-11.0833
ジェスチャー	-11.0833
アカデミー	-11.0833
ジオメトリ	-11.0833
支出	-11.0834
Github	-11.0834
に置き換えます	-11.0834
を考慮してください	-11.0835
^2)	-11.0836
ティック	-11.0837
える	-11.0838
▁\\	-11.0839
の最高の	-11.0839
を送り	-11.084
代表者	-11.084
Tu	-11.0842
ある種の	-11.0842
を改善します	-11.0842
賢く	-11.0843
耐久性	-11.0844
熟	-11.0844
の好み	-11.0847
と思われる	-11.0848
の低い	-11.0848
win	-11.0848
の分布	-11.0849
price	-11.0853
ないようにする	-11.0855
あなたの好み	-11.0857
pu	-11.0857
見られる	-11.0862
リアル	-11.0863
365	-11.0863
発生し	-11.0866
仮想アシスタント	-11.0866
見られます	-11.0867
を支持し	-11.0868
私はその	-11.0875
型の	-11.0876
受け入れられ	-11.0878
私があなた	-11.088
ст	-11.088
wer	-11.0882
減少し	-11.0884
ラテンアメリカ	-11.0885
理由で	-11.0885
を置き	-11.0887
時間をかけて	-11.0887
ビザ	-11.0888
のバージョン	-11.0892
バージョンの	-11.0892
帰	-11.0893
ウィリアム	-11.0893
治	-11.0894
援助	-11.0895
諸国	-11.0895
美徳	-11.0895
塔	-11.0895
絆	-11.0895
バレンシア	-11.0896
控除	-11.0896
減算	-11.0896
ベストプラクティス	-11.0896
white	-11.0896
ポケット	-11.0896
Sch	-11.0896
inpaint	-11.0896
寒さ	-11.0896
コミック	-11.0896
ことがわかりました	-11.0897
筋肉の	-11.0898
今すぐ	-11.0898
ことに注意する必要があります	-11.0898
==	-11.0899
が誰であるか	-11.0899
絵文字	-11.0899
リターン	-11.0901
降	-11.0901
何をしますか	-11.0902
サイトに	-11.0902
以前は	-11.0902
以下を含む	-11.0902
グループ化	-11.0903
状態で	-11.0903
症例	-11.0906
破	-11.0906
ホラー映画	-11.0907
マッチ	-11.091
相手	-11.0913
されるように	-11.0913
開発者の	-11.0915
Juan	-11.0916
構造化された	-11.0916
万人	-11.0917
成人	-11.092
それは私の	-11.0921
NI	-11.0921
大学で	-11.0925
特定の状況	-11.0925
で知られ	-11.0927
次の手順に従う	-11.0927
Vi	-11.0931
文字の	-11.0933
users	-11.0933
iii	-11.0934
変わり	-11.0934
OpenAI	-11.0936
を備え	-11.0936
モノ	-11.0938
ことは不可能です	-11.0941
を調理する	-11.0941
2009	-11.0942
影響力のある	-11.0943
を反映する	-11.0943
彼の友人	-11.0944
を提示し	-11.0947
によって異なる場合がある	-11.0949
コストは	-11.0949
避け	-11.0951
ケー	-11.0953
から始まり	-11.0954
に分割され	-11.0956
返	-11.0956
アシスタントです	-11.0957
パブリック	-11.0957
ココナッツ	-11.0957
茎	-11.0958
姓	-11.0958
オスカー	-11.0958
オブザーバー	-11.0958
マインドフルネス	-11.0958
matplotlib	-11.0958
公共交通機関	-11.0958
宿題	-11.0958
輸入	-11.0958
機械学習モデル	-11.0958
ジェーン	-11.0958
元気ですか	-11.0959
純粋に	-11.0959
を使用するには	-11.0959
手続き	-11.0959
人格	-11.0959
ラジオ	-11.096
正式に	-11.096
史上最高の	-11.096
Mod	-11.0961
適	-11.0961
毎年	-11.0961
スイカ	-11.0962
と対話する	-11.0962
オリジナルの	-11.0962
ON	-11.0963
とは異なります	-11.0967
oo	-11.0967
で知られる	-11.0967
Word	-11.0968
に設定され	-11.0969
への参加	-11.0969
ц	-11.0972
より広い	-11.0974
1994	-11.0975
で使用できます	-11.0975
を計画し	-11.0976
掛け	-11.098
ミン	-11.0982
の底	-11.0987
ランダムに	-11.0988
始めた	-11.099
仕事をする	-11.0991
侵入	-11.0991
サイトから	-11.0991
から学び	-11.0992
ext	-11.0993
事実上	-11.0996
について何	-11.0999
緑色の	-11.1
ban	-11.1001
オーブンを	-11.1002
product	-11.1004
1930	-11.1005
を確保し	-11.1006
同盟	-11.1006
element	-11.1007
EL	-11.1007
軽く	-11.1007
を言う	-11.1012
ここ	-11.1014
階級	-11.1018
材	-11.1019
祖母	-11.102
糖尿病	-11.102
造	-11.102
北朝鮮	-11.1021
丘	-11.1021
早期	-11.1021
アイスクリーム	-11.1021
イチゴ	-11.1021
憎しみ	-11.1021
換気	-11.1021
Pandas	-11.1021
align	-11.1021
として行動してほしい	-11.1022
に従事する	-11.1023
非同期	-11.1023
でどのように	-11.1023
こともあります	-11.1024
NO	-11.1025
SE	-11.1026
ж	-11.1026
▁5)	-11.1029
を観察し	-11.1032
されて	-11.1034
▁table	-11.1034
もので	-11.1035
▁had	-11.1035
気持ち	-11.1036
技術は	-11.1037
が欲しいです	-11.1038
変更された	-11.1039
を投げ	-11.1039
関連の	-11.1042
哲学的な	-11.1048
家で	-11.1049
の計画	-11.1049
を見てください	-11.105
などの特定の	-11.1051
の葉	-11.1052
を防ぎ	-11.1054
コンソールに	-11.1055
修復	-11.1056
(1,	-11.1057
を学習する	-11.1058
が必要な場合	-11.1058
否定	-11.1059
のようです	-11.1062
他の人は	-11.1064
効果的	-11.1064
誰かに	-11.1068
私は今	-11.1068
ラブ	-11.1072
をお	-11.1072
を持っ	-11.1073
▁password	-11.1073
生まれました	-11.1074
宣伝	-11.1074
ense	-11.1077
業者	-11.108
mer	-11.108
ても	-11.1081
進化する	-11.1083
menu	-11.1083
に影響します	-11.1083
フェニックス	-11.1084
を除く	-11.1084
インスリン	-11.1084
衰退	-11.1084
表情	-11.1084
狩猟	-11.1084
メガネ	-11.1085
Covid	-11.1085
ld	-11.1085
を減らすことができます	-11.1086
ユーモラスな	-11.1087
cost	-11.1087
急いで	-11.1087
バルブ	-11.1087
ボウルに	-11.1088
aj	-11.1089
を演奏する	-11.1089
出生	-11.1089
▁Par	-11.1092
秒間	-11.1092
少数の	-11.1093
を許可する	-11.1098
見ることができます	-11.1099
わけではない	-11.1101
時期に	-11.1102
画面に	-11.1104
person	-11.1105
スタイルで	-11.1105
を導き	-11.1105
に取り組む	-11.1106
▁心から	-11.111
▁4,	-11.1111
教育と	-11.1112
混ぜ	-11.1115
ユニーク	-11.1118
を選択できます	-11.1118
難しく	-11.1119
具	-11.112
の世界で	-11.1122
スロー	-11.1125
男は	-11.1125
世代の	-11.113
に参加して	-11.113
立ち	-11.1131
Yu	-11.1134
攻撃者	-11.1135
を支配し	-11.1137
顧客に	-11.114
視覚的	-11.1141
の影響は	-11.1142
トレーニングと	-11.1143
Hz	-11.1144
スタッフ	-11.1144
▁3:	-11.1146
シリコン	-11.1147
アリストテレス	-11.1148
を特徴とする	-11.1148
政府が	-11.1148
タイミング	-11.1148
取られ	-11.1151
fig	-11.1151
▁Ta	-11.1151
端子	-11.1152
ポール	-11.1152
プレイヤーの	-11.1152
ネジ	-11.1152
倫理的な	-11.1153
遊ぶ	-11.1155
しませんでした	-11.1156
が続く	-11.1156
フレ	-11.1156
れた	-11.1157
が使用されます	-11.1157
自己認識	-11.1159
2%	-11.1159
das	-11.116
始めることができます	-11.116
ることは	-11.116
▁over	-11.116
から別の	-11.1161
を発見しました	-11.1163
建築家	-11.1163
ワークフロー	-11.1164
木星	-11.1172
特定のニーズと	-11.1173
110	-11.1175
来る	-11.1177
を必要とし	-11.1178
をチェックし	-11.1179
増加します	-11.118
プログラムが	-11.118
宇宙で	-11.1183
ler	-11.1183
に変換し	-11.1184
を知らない	-11.1185
のままです	-11.1188
言って	-11.1194
上昇	-11.1195
人もい	-11.1196
愚か	-11.1196
ていない場合	-11.1197
pop	-11.1198
を起こし	-11.1198
の最大の	-11.1199
false	-11.1203
属	-11.1205
後者	-11.1205
0.9	-11.1206
されていますが	-11.1207
現れる	-11.1207
クター	-11.1207
ポッター	-11.1208
分野です	-11.1209
有名	-11.121
があることを確認してください	-11.1211
姿勢	-11.1212
祝福	-11.1212
答えてください	-11.1212
監査	-11.1212
むかし	-11.1212
Angular	-11.1212
assistant	-11.1212
臓器	-11.1212
酵素	-11.1212
外交	-11.1212
▁sobre	-11.1212
南極	-11.1213
熱帯	-11.1213
を形作る	-11.1213
ロボット工学	-11.1214
尋ねました	-11.1214
引き続き	-11.1216
DJ	-11.1217
を取得できます	-11.1217
作品は	-11.1217
place	-11.1218
エンドポイント	-11.1218
を区別する	-11.1219
使用した	-11.1222
顧客の	-11.1223
ning	-11.1223
オープンな	-11.1224
抑制	-11.1225
公平性	-11.1226
与えられ	-11.1226
の主題	-11.1226
が必要になる	-11.1227
伝え	-11.1228
ユーザーと	-11.1228
via	-11.1229
less	-11.1231
del	-11.1233
ref	-11.1235
大きく異なる	-11.1236
などがあります	-11.1236
を調査する	-11.1237
に触発された	-11.1241
と言って	-11.1241
を少し	-11.1242
を使用する方法	-11.1243
cam	-11.1244
の後ろ	-11.1244
学習と	-11.1247
▁Los	-11.1248
会社は	-11.125
犯罪者	-11.125
numbers	-11.1254
個人的に	-11.1259
幸運	-11.1259
分間調理します	-11.126
ゲームに	-11.1261
の一部として	-11.1263
の日付	-11.1264
第三	-11.1264
私はオープンアシスタント	-11.1265
固	-11.1266
と信じ	-11.1268
忘れ	-11.1269
プレーヤーが	-11.127
スムーズ	-11.1271
を建設し	-11.1274
▁Lo	-11.1275
温度は	-11.1275
▁les	-11.1276
聴覚	-11.1276
独占	-11.1276
スターウォーズ	-11.1276
を尊重する	-11.1277
ようなものです	-11.1277
を構築するための	-11.1277
弓	-11.1277
Value	-11.1277
cell	-11.1277
型糖尿病	-11.1277
広範囲	-11.1277
▁He	-11.1278
の製造	-11.1278
コードの進行	-11.1278
ре	-11.128
▁このコード	-11.1281
するために使用されます	-11.1282
これらの手順	-11.1284
を反映しています	-11.1285
Chat	-11.1285
開かれ	-11.1286
不可能です	-11.1286
統合された	-11.1288
機能を	-11.129
docs	-11.1294
状の	-11.1294
ola	-11.1295
で働く	-11.1297
尺度	-11.1297
を調整します	-11.1299
非常に重要です	-11.13
重要なポイント	-11.1302
pan	-11.1302
をプレイし	-11.1303
分野の	-11.1306
over	-11.1306
ってください	-11.1306
を知りません	-11.1306
を書いています	-11.1307
はわかりません	-11.1309
課題と	-11.1309
ль	-11.1309
▁args	-11.131
違いがあります	-11.1311
より高度な	-11.1312
速度は	-11.1315
▁obj	-11.1317
▁Core	-11.1318
dd	-11.1319
die	-11.132
ло	-11.132
を運ぶ	-11.132
より小さな	-11.1321
に置き換えられ	-11.1321
実施	-11.1321
off	-11.1322
必要なすべての	-11.1323
しやすく	-11.1323
を残し	-11.1326
が実際に	-11.1326
平和と	-11.1326
処理する	-11.1328
ことさえ	-11.1329
を楽しむことができます	-11.133
権威	-11.1331
を繰り返します	-11.1331
失業	-11.1334
を付け	-11.1334
を通り抜け	-11.1334
--------------	-11.1336
圧倒され	-11.1337
究極の	-11.1339
復	-11.1339
暗闇	-11.134
▁son	-11.134
綿	-11.1341
aba	-11.1341
Model	-11.1341
ミツバチ	-11.1341
TYPE	-11.1341
Flask	-11.1341
気を散らす	-11.1341
サイクリスト	-11.1341
Adobe	-11.1341
チャンピオン	-11.1341
美学	-11.1341
WebSocket	-11.1341
棚	-11.1341
フランチャイズ	-11.1341
fetch	-11.1341
天候	-11.1341
加工	-11.1342
download	-11.1342
メッシ	-11.1342
埋め込み	-11.1342
数ヶ月	-11.1343
CEO	-11.1344
に貢献し	-11.1344
▁url	-11.1344
正常に	-11.1344
毒性	-11.1344
を提供して	-11.1347
不要な	-11.1347
を整理し	-11.1347
措置を講じる	-11.1348
91	-11.1348
買い物	-11.1348
を支援するために	-11.1351
トマトソース	-11.1351
不適切	-11.1352
も使用できます	-11.1353
の詳細な	-11.1353
▁Pre	-11.1354
航空機の	-11.1355
不必要な	-11.1357
End	-11.1357
ла	-11.1357
を減らすために	-11.1358
▁game	-11.1361
▁sie	-11.1364
を確認できます	-11.1368
5°	-11.137
にはどのような	-11.1374
web	-11.1375
関係する	-11.1378
pin	-11.1379
シティ	-11.1381
に置く	-11.1384
▁test	-11.1385
費	-11.1386
2012	-11.1388
ことを確認する必要があります	-11.1393
▁今日は	-11.1393
再帰	-11.1396
を考える	-11.1396
人々の生活	-11.1397
不正な	-11.1398
を詳細に	-11.1399
のキャリア	-11.1399
ませんが	-11.14
伝える	-11.1401
シュー	-11.1402
束	-11.1403
const	-11.1405
社	-11.1405
variable	-11.1405
ナチス	-11.1406
姿	-11.1407
望遠鏡	-11.1407
UWU	-11.1407
予期しない	-11.1407
relative	-11.1407
サイコロ	-11.1407
溶液	-11.1407
退職	-11.1407
変形	-11.1407
条約	-11.1407
スタートアップ	-11.1407
違う	-11.1407
save	-11.1408
を学ぶこと	-11.1408
keras	-11.1408
ウェイ	-11.1409
早く	-11.141
口頭	-11.141
7/	-11.1411
ナル	-11.1412
1998	-11.1413
インク	-11.1413
の考え	-11.1414
優先	-11.1414
home	-11.1415
の促進	-11.1418
リオン	-11.1419
even	-11.1422
の形状	-11.1423
を必要とせずに	-11.1424
€	-11.1424
の対象	-11.1426
目に	-11.1427
使用されます	-11.1433
war	-11.1433
files	-11.1433
一般的に使用される	-11.1434
キシ	-11.1436
8%	-11.1436
中世の	-11.1441
に関与し	-11.1444
ことを学びます	-11.1445
ことを目的とした	-11.1446
脱水	-11.1446
発見されました	-11.1447
並列	-11.1448
phor	-11.1448
つの部分	-11.1448
dict	-11.1452
ウル	-11.1453
金曜日	-11.1454
末	-11.1455
への愛	-11.1459
生成する	-11.146
患者の	-11.1461
体積	-11.1461
を提案する	-11.1461
追加情報	-11.1462
リフ	-11.1463
紫	-11.1465
の値は	-11.1466
されるため	-11.1466
ов	-11.1466
することが含まれます	-11.1467
野生の	-11.1468
}")	-11.147
項	-11.147
アルファベット	-11.1472
粉砕	-11.1473
評議会	-11.1473
投影	-11.1473
彫刻	-11.1473
応用	-11.1473
child	-11.1473
反省	-11.1473
得点	-11.1473
ラーニング	-11.1474
スーパーヒーロー	-11.1474
▁two	-11.1474
かわいい	-11.1474
を実践する	-11.1474
書店	-11.1474
呪い	-11.1475
オブジェクトに	-11.1477
ドルで	-11.1477
Run	-11.1478
State	-11.1478
の配列	-11.1478
mode	-11.1478
詳細に	-11.148
▁move	-11.1481
を安全に	-11.1481
に入れます	-11.1483
理論と	-11.1485
単純	-11.1485
バスク	-11.1485
digit	-11.1487
展示	-11.1489
希望する	-11.149
ding	-11.149
役割を果たし	-11.1491
なければ	-11.1492
ric	-11.1492
大きくなり	-11.1492
ではありませんか	-11.1494
を妨げ	-11.1499
招待	-11.15
とても良い	-11.15
活性	-11.15
を準備します	-11.1501
に対処するために	-11.1502
▁dir	-11.1502
専門的	-11.1504
何年も	-11.1504
悪いこと	-11.1505
に注意を払う	-11.1507
▁sudo	-11.1508
を自由に	-11.1508
それは本当に	-11.1508
呼吸器	-11.1509
鍋で	-11.1509
初期化	-11.151
を使用したり	-11.151
座って	-11.151
don	-11.151
が多い	-11.1511
は決して	-11.1511
CS	-11.1514
2]	-11.1515
促進	-11.1515
の質量	-11.1516
いくつかの提案	-11.1517
空中	-11.1517
tree	-11.1518
$$	-11.1519
ack	-11.1519
豊かで	-11.152
あなたは正しいです	-11.152
ゲイ	-11.1523
必要があるため	-11.1523
降り	-11.1525
ボル	-11.1526
楽しんで	-11.1526
匹の	-11.1528
除	-11.1531
の自由	-11.1532
を集め	-11.1532
書いて	-11.1534
プレ	-11.1534
幻想	-11.1535
私はすでに	-11.1535
灰	-11.1536
1024	-11.1536
BB	-11.1536
View	-11.1538
を受けた	-11.1539
何度も	-11.1539
時刻	-11.1539
ファイアウォール	-11.1539
訴訟	-11.1539
賃金	-11.1539
キノア	-11.1539
基本的な概念	-11.154
供給源	-11.154
時間を過ごす	-11.1542
排水	-11.1543
医者	-11.1543
スポット	-11.1543
GET	-11.1545
を計画する	-11.1548
言ったこと	-11.1548
を知りたいです	-11.1548
年以来	-11.1549
に取り組んでいます	-11.1551
他に何	-11.1555
それはすべて	-11.1556
▁{"	-11.1557
空に	-11.1557
で有名です	-11.156
Pi	-11.1562
書いてください	-11.1563
を見ると	-11.1564
を計算するには	-11.1564
▁3.「	-11.1565
Mus	-11.1565
ゴールド	-11.1565
cio	-11.1567
し続ける	-11.1567
▁android	-11.1568
イベントの	-11.1571
1.1	-11.1572
マージン	-11.1574
以内に	-11.1574
を追求する	-11.1574
であることを意味します	-11.1578
倒	-11.1578
大きさ	-11.1579
Base	-11.158
や感情	-11.1581
質問がある場合はお知らせください	-11.1583
▁Inc	-11.1584
陽気	-11.1589
作った	-11.159
現金	-11.159
非線形	-11.159
攻撃的	-11.1591
その中に	-11.1591
3.0	-11.1592
されていない場合	-11.1595
いくつかの要因	-11.1596
テクノロジーを使用して	-11.16
▁Da	-11.16
取	-11.16
ない場合があります	-11.1603
▁San	-11.1604
にさらされ	-11.1604
介	-11.1604
四	-11.1605
ソフト	-11.1605
ひどい	-11.1605
素敵な	-11.1605
蓋	-11.1606
アテネ	-11.1606
オートバイ	-11.1606
▁eine	-11.1606
video	-11.1606
自然界	-11.1607
を開いて	-11.1608
加え	-11.1609
左側	-11.1613
ヴァン	-11.1614
相談する	-11.1614
なんて	-11.1615
揺れ	-11.1615
version	-11.1616
反転	-11.1617
になるために	-11.1618
職	-11.1618
クリップ	-11.1618
を理解するのに役立ちます	-11.1621
ov	-11.1621
を交換し	-11.1621
▁Ga	-11.1622
command	-11.1628
立って	-11.1629
グル	-11.1631
lat	-11.1632
2_	-11.1636
尋ねてください	-11.1636
かどうかはわかりません	-11.1638
cer	-11.1639
出す	-11.164
を組み込む	-11.1641
We	-11.1641
が発生した場合	-11.1642
観点から	-11.1642
専門家は	-11.1645
ENT	-11.1646
can	-11.1649
dor	-11.165
▁plot	-11.165
列の	-11.165
可用性	-11.1652
ようになりました	-11.1653
たちは	-11.1653
met	-11.1654
カント	-11.1654
できますが	-11.1655
ino	-11.1655
▁display	-11.1655
のコピー	-11.1656
に言及し	-11.1656
ルーター	-11.1656
問題について	-11.1657
にした	-11.1658
を獲得しました	-11.166
最新	-11.166
影響を与える	-11.1663
料	-11.1664
申し訳ありません	-11.1665
▁pres	-11.1665
歴史の	-11.1665
を統合する	-11.1665
2007	-11.1668
埋め	-11.1669
信用	-11.1669
麻	-11.167
意欲	-11.1672
先延ばし	-11.1672
お客様	-11.1673
シカゴ	-11.1673
空港	-11.1673
在庫	-11.1673
▁This	-11.1673
ギフト	-11.1673
128	-11.1673
因果関係	-11.1673
回帰	-11.1673
localhost	-11.1674
を教えていただけますか	-11.1674
上位	-11.1674
master	-11.1675
ティング	-11.1676
まず第一に	-11.1677
▁boton	-11.1677
片側	-11.1677
▁あなたは誰	-11.1677
で構成されており	-11.1677
ev	-11.1678
実数	-11.1679
ジャズ	-11.1679
を思い出し	-11.168
▁web	-11.168
燃え	-11.168
sol	-11.168
質問があります	-11.1682
▁Cha	-11.1683
理想	-11.1686
+1)	-11.1687
実行され	-11.1689
できるようになります	-11.169
parse	-11.1691
Start	-11.1693
これ以上	-11.1694
すぎて	-11.1694
への道	-11.1695
すべての人が	-11.1696
提供します	-11.1696
柔らかくなるまで	-11.1697
FF	-11.1698
ature	-11.1699
255	-11.1701
利用可能	-11.1701
の質	-11.1703
再現	-11.1707
を非常に	-11.1709
の決定	-11.1711
部屋に	-11.1711
盲目	-11.1714
に接続し	-11.1718
ッジ	-11.1719
共有する	-11.1721
例を挙げ	-11.1721
してから	-11.1722
忍耐強く	-11.1725
Auto	-11.1725
を失った	-11.1727
いつか	-11.1727
字	-11.1728
▁CSV	-11.1729
なる可能性があります	-11.173
Be	-11.173
2.5	-11.1731
0.3	-11.1731
暗号	-11.1732
明らか	-11.1734
を示すことができます	-11.1736
他のすべての	-11.1737
ウィン	-11.1738
5〜10	-11.1739
ための最良の方法	-11.1739
血圧	-11.1739
ことを可能にする	-11.174
アナサジ	-11.174
大聖堂	-11.174
民主党	-11.174
新しいもの	-11.1741
ハッカー	-11.1742
arg	-11.1742
Stack	-11.1742
を変更します	-11.1743
みてください	-11.1744
方法についての	-11.1745
を防ぐのに役立ちます	-11.1745
地球外	-11.1748
不可欠です	-11.1748
に伴う	-11.1749
が使用する	-11.1751
どれ	-11.1751
されますか	-11.1752
rit	-11.1754
触れ	-11.1754
ことを余儀なくされ	-11.1755
93	-11.1755
大文字	-11.1756
最も使用されている	-11.1758
三	-11.1758
なくても	-11.1759
と共有し	-11.176
prime	-11.176
にいます	-11.176
データ収集	-11.1764
Che	-11.1765
スケールで	-11.1768
詳細な説明	-11.1769
と考えられ	-11.177
ることができ	-11.177
そのうちの	-11.1771
描かれ	-11.1772
IM	-11.1772
団結	-11.1773
cion	-11.1774
を押し	-11.1774
必要とする	-11.1774
を使用することで	-11.1775
ブランドの	-11.1775
他のプレイヤー	-11.1775
維持する	-11.1776
されているか	-11.1777
chi	-11.1778
usr	-11.1782
知られ	-11.1783
を計算できます	-11.1783
置き換え	-11.1783
に従います	-11.1785
制御された	-11.1786
理	-11.1787
rea	-11.1788
bus	-11.1788
ドー	-11.1788
量子力学の	-11.1789
になると	-11.1789
なった	-11.1791
と統合	-11.1791
cat	-11.1792
似	-11.1794
と言えます	-11.1794
キス	-11.1795
自由と	-11.1796
壊れた	-11.1796
ための最良の方法は何ですか	-11.1798
所有権	-11.1799
をダウンロードする	-11.1801
成功し	-11.1803
に戻ります	-11.1803
鋼	-11.1804
じ	-11.1805
モデルに	-11.1805
に等しくなります	-11.1807
必要がない	-11.1807
避難	-11.1808
ひどく	-11.1808
NASA	-11.1808
テレビ番組	-11.1808
CBDC	-11.1808
サブスクリプション	-11.1808
アクセシビリティ	-11.1808
θ	-11.1808
明るさ	-11.1808
コントラスト	-11.1809
project	-11.1809
サークル	-11.1809
CE	-11.1809
経験と	-11.181
人気があり	-11.181
なっている	-11.181
ici	-11.1811
という点で	-11.1814
が本当に	-11.1817
ワイヤー	-11.1818
働いている	-11.1819
ニャ	-11.1819
▁socket	-11.1819
適合	-11.1821
させて	-11.1822
entes	-11.1822
action	-11.1824
に注意する	-11.1825
学位	-11.1825
はなく	-11.1827
より深い	-11.1828
ことをお勧めしますか	-11.1828
▁some	-11.1829
func	-11.1829
る場合	-11.183
日常の	-11.1831
database	-11.1833
を創造し	-11.1833
てうれしいです	-11.1835
男性は	-11.1836
▁None	-11.1838
のそれぞれ	-11.1838
神学	-11.184
答えを	-11.184
pon	-11.1841
格	-11.1847
の上昇	-11.1848
...」	-11.185
規模	-11.185
攻撃的な	-11.185
▁top	-11.1851
非常に高い	-11.1851
とスキル	-11.1851
人間に	-11.1852
container	-11.1853
リアルタイムで	-11.1854
東部	-11.1856
なっています	-11.1858
どれだけの	-11.186
ドレス	-11.1863
面白く	-11.1866
endl	-11.1867
交	-11.1869
Box	-11.1869
▁address	-11.187
無効	-11.187
座っている	-11.1873
ばかりの	-11.1874
を入れ	-11.1874
推進	-11.1875
信じ	-11.1875
発売	-11.1876
ブロッコリー	-11.1877
への貢献	-11.1877
ベネズエラ	-11.1877
ubuntu	-11.1877
エクアドル	-11.1877
DataFrame	-11.1877
マルウェア	-11.1877
タブレット	-11.1877
卵黄	-11.1877
directory	-11.1878
0.8	-11.1879
を実行できる	-11.1879
▁ein	-11.1879
赤道	-11.1882
を作成することです	-11.1884
役に立たない	-11.1884
ランナー	-11.1885
TCP	-11.1887
ニューラルネットワークは	-11.1887
が正しい	-11.1889
例があります	-11.1889
ein	-11.189
の削減	-11.189
Vue	-11.1891
struct	-11.1892
▁[$	-11.1892
壁の	-11.1895
を動かす	-11.1896
グレー	-11.1896
ホセ	-11.1897
鉄の	-11.19
冷まし	-11.1901
地球上で	-11.1902
拡大し	-11.1906
chat	-11.1909
したいですか	-11.1909
で利用可能な	-11.191
オリ	-11.1911
ミニ	-11.1912
タイル	-11.1914
宗教は	-11.1915
消	-11.1919
電磁	-11.1919
vector	-11.192
させました	-11.1921
各行	-11.1921
知っています	-11.1921
発生	-11.1925
が増加し	-11.1927
手動	-11.1927
ずっと	-11.1929
光学	-11.1929
生じる	-11.1929
百万	-11.193
999	-11.1932
地面に	-11.1934
私は最近	-11.1934
ウム	-11.1934
不安定	-11.1935
ライブラリを使って	-11.1936
ままに	-11.1936
であることを確認してください	-11.1936
沸騰	-11.1937
大規模なデータセット	-11.1937
%%	-11.194
長期的に	-11.194
オル	-11.1941
のニーズと	-11.1942
スウェーデン	-11.1945
スケッチ	-11.1945
Blender	-11.1946
家畜	-11.1946
肥料	-11.1946
タイピング	-11.1946
句	-11.1946
Content	-11.1946
干ばつ	-11.1946
チューニング	-11.1946
合併症	-11.1946
を取り入れ	-11.1946
precio	-11.1947
バイオ	-11.1948
と仮定すると	-11.195
る前に	-11.195
水銀	-11.1951
の創造	-11.1953
を継続的に	-11.1954
0-	-11.1954
用量	-11.1954
ビデオゲームの	-11.1956
クラッシュ	-11.1957
3.5	-11.1959
Bot	-11.1961
10%	-11.1964
ザン	-11.1966
権力の	-11.1969
▁5-	-11.1969
失敗した	-11.197
entry	-11.1971
になることができます	-11.1972
$(	-11.1973
生活の質	-11.1973
に焦点を当てます	-11.1976
inger	-11.1977
を完了し	-11.1979
distance	-11.198
を接続する	-11.1981
私は現在	-11.1981
大人の	-11.1982
には独自の	-11.1984
を訓練する	-11.1985
ł	-11.1986
傾向がある	-11.1987
どうすればよいですか	-11.1987
を利用する	-11.1988
(100	-11.1991
ユダヤ人	-11.1991
天体	-11.1992
スクリプトを	-11.1993
決	-11.1995
を受け取ります	-11.1996
携帯電話の	-11.1997
モデルをトレーニングする	-11.1998
を許可し	-11.1998
を緩和する	-11.1999
単一	-11.2
ストラ	-11.2
スパ	-11.2003
に組み込む	-11.2003
べきではない	-11.2003
卵と	-11.2006
ポジティブ	-11.2008
提供される	-11.201
地球から	-11.2011
を伝え	-11.2011
ナン	-11.2011
支持者	-11.2011
の問題は	-11.2013
過ぎ	-11.2014
変異	-11.2014
装備	-11.2014
食料	-11.2014
MRI	-11.2015
セラピスト	-11.2015
重大な	-11.2015
▁problem	-11.2015
吐	-11.2015
負担	-11.2015
漁業	-11.2015
ハイブリッド	-11.2015
Pytorch	-11.2015
ユーザー入力	-11.2015
アナログ	-11.2016
▁final	-11.2016
プライム	-11.2016
マーティン	-11.2017
トレイル	-11.2017
オフライン	-11.2018
▁Art	-11.2018
learn	-11.2019
interest	-11.202
より簡単に	-11.2021
ラボ	-11.2022
vol	-11.2024
私の最初の	-11.2025
移動します	-11.2026
インターネット上の	-11.2027
Est	-11.2028
の導入	-11.2028
rect	-11.2028
sky	-11.2029
されません	-11.203
原理	-11.203
頼	-11.2036
土	-11.2037
が限られている	-11.2038
静かに	-11.204
サービスを提供する	-11.2043
xml	-11.2047
ーズ	-11.2047
ようになる	-11.2048
last	-11.2049
までに	-11.205
仮想環境	-11.205
世界が	-11.2051
以外に	-11.2052
をリストし	-11.2053
を演奏し	-11.2053
を開始できます	-11.2054
アンド	-11.2054
カス	-11.2056
の種類と	-11.2057
▁date	-11.2059
少なく	-11.2059
▁request	-11.2061
ort	-11.2063
身体の	-11.2063
焼き	-11.2065
を飲む	-11.2065
技術を使用して	-11.2068
に尋ねる	-11.2068
ねえ	-11.2071
あなたを助けることができる	-11.2072
を繰り返す	-11.2073
インテリジェント	-11.2078
これがあなたの	-11.2079
ポンドの	-11.2079
構造化	-11.208
zu	-11.2082
腹	-11.2082
ぐ	-11.2083
欺	-11.2083
ナポレオン	-11.2085
アーモンド	-11.2085
触覚	-11.2085
ユークリッド	-11.2085
balance	-11.2085
▁Church	-11.2085
ブエノスアイレス	-11.2085
ステップバイステップ	-11.2085
ユニコーン	-11.2085
ウォーキング	-11.2085
身長	-11.2087
▁1:	-11.2088
てくれませんか	-11.2088
アルゴリズムと	-11.2089
すれば	-11.2089
滑らかな	-11.209
選択する	-11.209
tiene	-11.2091
▁Du	-11.2091
となっています	-11.2091
のリストを作成します	-11.2093
が発生する可能性があります	-11.2095
リティ	-11.2096
言い	-11.2097
上昇する	-11.2098
を削減する	-11.2099
の層	-11.2101
ど	-11.2101
をセットアップする	-11.2101
▁vida	-11.2102
生態学的	-11.2105
間違っています	-11.2106
cus	-11.2107
で使用されています	-11.211
アレックス	-11.211
マイ	-11.2112
MD	-11.2112
を書くことはできますか	-11.2114
を飲み	-11.2115
ミング	-11.2115
段階的に	-11.2116
work	-11.2117
温度が	-11.2117
を持た	-11.2118
▁2.「	-11.2119
Libre	-11.2119
スカ	-11.2121
の不足	-11.2122
脚本	-11.2123
エイ	-11.2123
-----	-11.2125
Sub	-11.2125
を理解するための	-11.2127
音楽は	-11.2128
の後ろに	-11.2129
qua	-11.2136
説明していただけますか	-11.2138
option	-11.214
お勧めします	-11.2141
過剰な	-11.215
グレ	-11.215
継続的に	-11.215
かき混ぜます	-11.2153
厳	-11.2154
最先端の	-11.2155
Nvidia	-11.2155
キュウリ	-11.2155
観客	-11.2155
ファミリー	-11.2155
組成	-11.2155
フィルム	-11.2155
を作り出す	-11.2156
申し出	-11.2156
乗客	-11.2156
コンサート	-11.2156
▁これが役立つことを願っています	-11.2156
接着剤	-11.2156
根拠	-11.2156
堅実な	-11.2157
ランキング	-11.2157
の学生	-11.2158
音声認識	-11.2159
縮小	-11.216
を送信し	-11.2161
他者	-11.2163
を使用することにより	-11.2163
動的な	-11.2164
必要です	-11.2166
ではないこと	-11.2166
男の子	-11.2166
の鍵	-11.2168
仮想現実	-11.2169
bor	-11.2171
を守り	-11.2173
オブジェクト指向プログラミング	-11.2173
瞬間に	-11.2174
である必要があります	-11.2177
単純化	-11.2178
運	-11.2179
の支払い	-11.2181
を促進するために	-11.2181
を割り当てる	-11.2182
創造的	-11.2183
aw	-11.2185
検索結果	-11.2186
与え	-11.2195
の量は	-11.2197
ダイナミクス	-11.2197
見ている	-11.2199
ics	-11.22
で構成されている	-11.22
をサポートしています	-11.2201
の崩壊	-11.2201
不可欠な	-11.2201
していて	-11.2201
放出される	-11.2202
を軽減し	-11.2206
機能的な	-11.2207
を識別する	-11.221
の人気	-11.2211
ラリー	-11.2212
各ステップ	-11.2214
ぎ	-11.2214
あなたが私	-11.2215
向けに	-11.2215
マリー	-11.2218
で終わる	-11.2219
あなたはあなたが	-11.222
滴	-11.2221
Room	-11.2221
アクセスできる	-11.2222
モデルを使用して	-11.2222
役	-11.2223
普通	-11.2223
台	-11.2225
パニック	-11.2225
見事な	-11.2226
鶏の胸肉	-11.2226
満足のいく	-11.2226
記号	-11.2226
蝶	-11.2226
沈黙	-11.2226
電話番号	-11.2226
Baidu	-11.2226
不滅	-11.2226
TypeScript	-11.2227
corner	-11.2227
を終え	-11.2227
電子レンジ	-11.2227
Sha	-11.2228
▁ctx	-11.2228
不変	-11.2228
頻繁な	-11.2229
使用された	-11.223
の予測	-11.2231
作曲家	-11.2231
BC	-11.2233
NF	-11.2235
1%	-11.2235
に続く	-11.2235
dlp	-11.2236
)))	-11.2237
ラック	-11.224
正当化	-11.224
を検索し	-11.2241
正しいです	-11.2242
を放出する	-11.2244
他に質問がある場合は	-11.2245
バード	-11.2248
を過ごし	-11.2248
put	-11.2249
死の	-11.2249
特徴的な	-11.225
にしてください	-11.2253
ле	-11.2254
▁2022	-11.2254
ディレクトリに	-11.2257
▁Ver	-11.226
個性	-11.226
を作成したり	-11.2261
のサンプル	-11.2262
の練習	-11.2262
強力なツール	-11.2262
elle	-11.2265
リセット	-11.2265
電車	-11.227
手順は次のとおりです	-11.227
任命	-11.227
nie	-11.2271
2004	-11.2271
込んで	-11.2272
設立されました	-11.2273
ものではなく	-11.2274
request	-11.2274
▁Man	-11.2275
round	-11.2275
かき混ぜ	-11.2277
を使い	-11.2279
160	-11.228
有効性	-11.228
デフォルトで	-11.2281
▁OK	-11.2282
化し	-11.2282
に満足し	-11.2282
▁0.5	-11.2283
ことができず	-11.2285
の確率	-11.2288
hin	-11.2294
いくら	-11.2294
ワールド	-11.2296
組み立て	-11.2296
挙げ	-11.2297
農民	-11.2298
バランスのとれた	-11.2298
偶然	-11.2298
七面鳥	-11.2298
谷	-11.2298
エンドウ豆	-11.2298
心拍数	-11.2298
マッシュルーム	-11.2298
金持ち	-11.2298
ファイルシステム	-11.2298
ゴー	-11.2298
鉱山	-11.2298
火の	-11.2298
健全な	-11.2299
ef	-11.23
出血	-11.23
メル	-11.2302
微分	-11.2303
非難	-11.2303
生物の	-11.2304
賢明な	-11.2304
物事を	-11.2306
浸透	-11.2307
どれくらいの	-11.231
数字は	-11.2311
Id	-11.2312
支持	-11.2312
を作って	-11.2312
ているかどうか	-11.2315
大幅に	-11.2316
どのくらい	-11.2316
を公開し	-11.2317
出て	-11.2319
を更新します	-11.232
二次	-11.2322
▁ax	-11.2324
言語モデルは	-11.2325
を念頭に置いて	-11.2327
茶色の	-11.2327
番目に	-11.2328
との相互作用	-11.2328
を加える	-11.2328
exit	-11.2329
▁Bu	-11.2331
この関数	-11.2333
コードです	-11.2333
nu	-11.2334
を意味し	-11.2334
その場所	-11.2337
ata	-11.2337
を確認して	-11.2339
開く	-11.2339
教えてくれ	-11.234
エリ	-11.2341
ことを検討する	-11.2342
説明した	-11.2346
を表示し	-11.2349
under	-11.2353
リサ	-11.2355
の例は次のとおりです	-11.2355
2001	-11.2356
を提供	-11.2357
ライダー	-11.2361
像	-11.2364
を求めています	-11.2364
を買う	-11.2365
Bu	-11.2366
を監視する	-11.2367
言葉を	-11.2368
##	-11.2368
▁background	-11.2368
全員	-11.2369
▁Español	-11.237
インフルエンザ	-11.237
ك	-11.237
へようこそ	-11.237
Tensorflow	-11.237
ディスカッション	-11.237
プロフェッショナル	-11.237
ワイルド	-11.237
はそれほど	-11.237
について詳しく教えてください	-11.237
天然資源	-11.237
のバランスをとる	-11.237
億ドル	-11.2371
を出し	-11.2372
に押し	-11.2373
ためのヒント	-11.2373
also	-11.2374
ブラウザー	-11.2377
以前の回答	-11.2377
目に見える	-11.2377
私はあなたのために	-11.2378
キロ	-11.2379
のヒント	-11.238
しながら	-11.238
を発明し	-11.2381
▁who	-11.2381
良	-11.2382
複雑な問題	-11.2382
最も近い	-11.2383
task	-11.2386
する機会	-11.2388
それを使用して	-11.2389
が欲しい	-11.2394
▁case	-11.2394
空気の	-11.2395
青色光	-11.2395
▁¿	-11.2396
選択された	-11.2398
化学的	-11.2399
気にし	-11.24
83	-11.24
の所有者	-11.2403
を吸収し	-11.2403
あなたとあなたの	-11.2404
データセットで	-11.2404
さまざまな分野で	-11.2409
amos	-11.2411
▁>>	-11.2414
▁fue	-11.2416
つの重要な	-11.2419
不適切な	-11.2421
EIN	-11.2423
コードベース	-11.2423
生成される	-11.2425
を失い	-11.2426
できるだけ多くの	-11.2426
どの言語	-11.2427
を更新し	-11.2428
原	-11.2432
を見つけた	-11.2433
導き	-11.2433
ニン	-11.2434
空間の	-11.2437
微分方程式	-11.2438
起業家	-11.2441
忠誠心	-11.2442
新たな	-11.2442
高齢者	-11.2442
ことは注目に値します	-11.2442
どんな御用でしょうか	-11.2442
‍	-11.2442
柱	-11.2442
教科書	-11.2442
Child	-11.2442
近所	-11.2442
移民	-11.2442
近接	-11.2442
アクセサリー	-11.2442
完全性	-11.2442
アルバート	-11.2443
利害関係者	-11.2443
批評家	-11.2443
fall	-11.2443
カルロス	-11.2443
コーチ	-11.2444
に特化した	-11.2444
神々	-11.2445
冗談を言ってください	-11.2445
ボーカル	-11.2445
saac	-11.2447
団体	-11.2447
のリストがあります	-11.2448
phone	-11.2448
中央の	-11.245
感覚的	-11.2451
1);	-11.2451
を修正し	-11.2452
含まれ	-11.2452
わずかな	-11.2453
拡張現実	-11.2454
速度と	-11.2455
ことを目指しています	-11.2455
現実的	-11.2456
Qu	-11.2458
▁them	-11.2459
正方形の	-11.246
学校で	-11.246
を測定し	-11.246
的な観点から	-11.2461
、2022	-11.2462
ていない場合は	-11.2463
ことができるか	-11.2464
他の誰か	-11.2467
を測定します	-11.2467
で非常に	-11.2468
ato	-11.2469
を尋ね	-11.247
個人情報	-11.2473
ダル	-11.2473
これらの要因	-11.2474
する可能性のある	-11.2475
を提供しました	-11.2475
Auth	-11.2475
に従うこと	-11.2475
をより良く	-11.2475
の限界	-11.2479
▁—	-11.2481
導入され	-11.2481
の道	-11.2484
できず	-11.2485
ことから	-11.2487
行動と	-11.2488
炒め	-11.2488
日あたり	-11.249
国連	-11.249
読みやすく	-11.2492
最適化された	-11.2494
ソング	-11.2499
ブラジルの	-11.2499
npm	-11.2499
のサイズと	-11.25
信	-11.25
されるまで	-11.2501
内部の	-11.2501
に追加され	-11.2502
到着し	-11.2502
歳のとき	-11.2503
タプル	-11.2504
PIP	-11.2504
アニ	-11.2508
cra	-11.2508
の創設者	-11.2508
...)	-11.2509
ミント	-11.251
cher	-11.2511
filter	-11.2513
を作成することができます	-11.2514
災害	-11.2514
郡	-11.2514
言い換え	-11.2515
が率いる	-11.2515
ホスティング	-11.2515
sleep	-11.2515
フォーミュラ	-11.2515
猿	-11.2515
Exception	-11.2515
太	-11.2515
生殖	-11.2515
祖先	-11.2515
子孫	-11.2515
スティーブン	-11.2515
儀式	-11.2516
ボイラー	-11.2516
ペドロ	-11.2516
現実世界の	-11.2516
でない場合	-11.2517
▁1.0	-11.2518
狩り	-11.2518
バランスの取れた食事	-11.2519
資格のある	-11.2519
ría	-11.2519
この分野で	-11.2521
土曜日	-11.2522
停止し	-11.2523
っていました	-11.2523
海外	-11.2523
の木	-11.2524
を入力します	-11.2524
チョ	-11.2524
Bar	-11.2525
同じこと	-11.2527
多くの人々	-11.2527
訓練され	-11.2529
▁Ni	-11.2529
uda	-11.2531
を整理する	-11.2532
マグロ	-11.2534
ks	-11.2534
ステップで	-11.2535
健康的な食事	-11.2537
説得	-11.2538
▁entre	-11.2539
_0	-11.2542
歌手	-11.2542
から学ぶ	-11.2546
を拡大する	-11.2546
の治療	-11.2547
NFT	-11.2547
fast	-11.2547
fl	-11.2547
カプセル	-11.2547
ego	-11.2548
nos	-11.2548
森の	-11.255
はかなり	-11.2552
が十分に	-11.2555
中世	-11.2555
を改善できます	-11.2557
高級	-11.2557
異常な	-11.2558
1〜2	-11.2562
2002	-11.2562
07	-11.2565
作られた	-11.2567
犬に	-11.2568
利点と欠点	-11.2568
を望んでいる	-11.2569
であなた	-11.257
プレイする	-11.2571
構成ファイル	-11.2571
キログラムの	-11.2572
lle	-11.2572
負の	-11.2572
折	-11.2576
ことである	-11.2577
を向上させ	-11.258
賢明	-11.2582
と組み合わせて	-11.2582
RL	-11.2582
▁cout	-11.2583
パーソナライズ	-11.2583
を表現し	-11.2583
を中心に	-11.2585
を学びます	-11.2586
の背景	-11.2587
ショッピング	-11.2587
ことに加えて	-11.2588
ти	-11.2588
感受性	-11.2589
メリット	-11.2589
衣装	-11.2589
を取り巻く	-11.2589
につながった	-11.2589
ナトリウム	-11.2589
パンデミック	-11.2589
政党	-11.2589
ジェネレーター	-11.2589
座席	-11.2589
Speed	-11.2589
劇場	-11.2589
ソーラー	-11.259
徹底的な	-11.259
可能性があること	-11.259
時速	-11.259
習得	-11.2592
個人データ	-11.2593
prob	-11.2593
自然言語の	-11.2593
global	-11.2594
に乗って	-11.2594
から来ています	-11.2594
hor	-11.2595
チャート	-11.2596
このフレーズ	-11.2596
とコミュニケーションをとる	-11.2597
ルーツ	-11.2597
境界線	-11.2598
何ですか	-11.2598
遺伝学	-11.26
ドット	-11.2601
gender	-11.2602
asyncio	-11.2602
光線	-11.2602
理由について	-11.2602
の発見	-11.2603
▁transform	-11.2604
▁program	-11.2604
そうでない場合は	-11.2607
----------	-11.2607
▁Mox	-11.2607
起こ	-11.2608
導関数	-11.2611
params	-11.2613
▁sit	-11.2614
見つけることができる	-11.2616
飛行機の	-11.2616
を持っているため	-11.2617
の外側	-11.2618
間の距離	-11.2621
を書きました	-11.2622
その日	-11.2622
仲間の	-11.2624
の強度	-11.2625
(10	-11.2625
西部	-11.2626
を実装します	-11.263
エビ	-11.2632
セント	-11.2636
▁>=	-11.2639
パフォーマンスと	-11.2639
より効率的な	-11.264
意図的に	-11.2641
に慣れる	-11.2641
LS	-11.2642
に加え	-11.2642
ために重要です	-11.2642
loop	-11.2645
に入れて	-11.2645
広く使用され	-11.2645
劇	-11.2647
の隣に	-11.2648
ることを願っています	-11.2649
を反映し	-11.2655
専用の	-11.2656
▁pandas	-11.2656
ていたので	-11.2659
package	-11.266
提案された	-11.2662
メーター	-11.2662
網	-11.2662
▁昔々	-11.2663
辱	-11.2663
VPN	-11.2663
どういうわけか	-11.2663
÷	-11.2663
落ち着き	-11.2663
清	-11.2663
時から午後	-11.2663
まさに	-11.2663
弾丸	-11.2663
出典	-11.2663
スタジオ	-11.2663
電極	-11.2663
誇り	-11.2664
ダンベル	-11.2664
Min	-11.2665
あなたの子供	-11.2666
することによって	-11.2667
ブー	-11.2667
route	-11.2667
ニーズに応じて	-11.2668
データを使用して	-11.2668
のように見える	-11.2668
隣接する	-11.2669
良い方法	-11.267
領域に	-11.2671
がわかりません	-11.2672
確実に	-11.2673
したとき	-11.2675
ウェブページ	-11.2678
を高めることができます	-11.2678
Cal	-11.2678
延長	-11.2679
抽象的な	-11.2681
炎症	-11.2681
iu	-11.2682
をよく	-11.2682
で使用できる	-11.2682
特定のニーズ	-11.2685
既に	-11.2687
を送信します	-11.2687
一般の人々	-11.2687
ために最善を尽くします	-11.2688
金の	-11.269
より正確に	-11.2691
手法です	-11.2692
客観的	-11.2693
として使用されます	-11.2694
扱う	-11.2694
男性が	-11.2695
要素が	-11.2695
最も高い	-11.2697
の街	-11.2697
りました	-11.27
のに役立ちました	-11.2701
für	-11.2701
集中力	-11.2702
▁java	-11.2704
~	-11.2705
あまりにも多くの	-11.2705
私があなたを助けることができる	-11.2707
許	-11.2707
Main	-11.2707
前処理	-11.2708
ある程度の	-11.2708
ute	-11.2709
スタン	-11.271
問題であり	-11.2712
でいっぱいの	-11.2713
の拡大	-11.2713
を作成することは	-11.2714
ポル	-11.2715
▁sent	-11.2716
どのくらいの	-11.2717
▁False	-11.2719
やすく	-11.2719
lines	-11.272
与える	-11.272
ロボットの	-11.2725
05	-11.2726
抗	-11.2729
を尋ねる	-11.2729
入れ	-11.2731
主要	-11.2732
外部の	-11.2733
前述の	-11.2734
がないこと	-11.2734
ela	-11.2734
に起因する	-11.2734
作曲	-11.2734
ire	-11.2735
ポット	-11.2736
失望	-11.2736
に最も近い	-11.2736
ピッチ	-11.2737
乗組員	-11.2737
ロサンゼルス	-11.2737
はじめに	-11.2737
▁おはよう	-11.2737
塩とコショウ	-11.2737
サイクリング	-11.2737
物議を醸す	-11.2737
最速の	-11.2737
ツバメ	-11.2737
に相当します	-11.2738
迷路	-11.2738
音響	-11.2738
の一部である	-11.2739
が表示され	-11.2739
オレンジ色の	-11.274
を傷つけ	-11.2742
歩行者	-11.2743
ゴミ	-11.2744
黄金	-11.2746
lam	-11.2748
1%8	-11.2748
聞こえ	-11.2749
右側	-11.275
効率的で	-11.2752
多くの人々は	-11.2753
示す	-11.2758
User	-11.276
全体を	-11.2761
FM	-11.2762
を押して	-11.2763
dot	-11.2764
と戦い	-11.2771
レター	-11.2778
しやすい	-11.278
で満たされ	-11.2781
空は	-11.2781
を呼び出す	-11.2782
だと思う	-11.2783
という名前	-11.2783
私と一緒に	-11.2783
フラ	-11.2784
可能である	-11.2784
より強力な	-11.2785
ることです	-11.2786
使	-11.2787
Au	-11.2788
rd	-11.2789
ものはありますか	-11.279
を育てる	-11.2791
を抽出し	-11.2792
▁Di	-11.2797
En	-11.2798
bon	-11.2798
自律	-11.2798
人や	-11.2799
ニューロンの	-11.2801
一方で	-11.2801
来て	-11.2801
木曜日	-11.2802
にどのような	-11.2803
痛	-11.2807
持ち	-11.2808
この種の	-11.2808
旅行者	-11.2808
退	-11.2809
で見つけることができます	-11.2809
車両の	-11.281
することは困難です	-11.2811
副	-11.2812
ع	-11.2812
ι	-11.2812
霊	-11.2812
キャンバス	-11.2813
タイムスタンプ	-11.2813
Compose	-11.2813
ane	-11.2813
読みやすい	-11.2813
不在	-11.2814
セックス	-11.2814
微妙な	-11.2815
立方体	-11.2816
パッド	-11.2816
ラグ	-11.2818
ニーズに合わせて	-11.2818
取り付け	-11.2819
素晴らしい方法です	-11.2821
ソロ	-11.2822
▁sqrt	-11.2824
の壁	-11.2824
未満の	-11.2826
ように思えます	-11.2828
star	-11.283
▁but	-11.283
のほとんどは	-11.283
あなたのニーズ	-11.283
ful	-11.2831
始まります	-11.2832
モバイルデバイス	-11.2835
▁cur	-11.2835
子供に	-11.2842
の冒険	-11.2843
VM	-11.2843
戦う	-11.2848
ALL	-11.2848
この質問	-11.2853
手の	-11.2856
ということ	-11.286
転	-11.2862
を削除します	-11.2862
解析	-11.2867
に触れ	-11.2867
All	-11.2869
キャッチ	-11.2869
を楽しんで	-11.287
バージョンです	-11.2872
デフォルトの	-11.2872
能	-11.2873
効果的である	-11.2873
ari	-11.2874
遊	-11.2874
パンダ	-11.2877
を取り出し	-11.288
指導	-11.2881
済み	-11.2884
全体として	-11.2887
なさい	-11.2887
邪魔	-11.2887
τ	-11.2888
目に見えない	-11.2888
有望な	-11.2888
寛容	-11.2888
私に知らせてください	-11.2888
収縮	-11.2888
狭い	-11.2889
断食	-11.2889
免疫系	-11.2889
ペッパー	-11.2889
メンティー	-11.2889
老化	-11.2891
世界観	-11.2891
rar	-11.2892
に依存している	-11.2892
location	-11.2892
を持つことは	-11.2893
が少なく	-11.2893
を特徴としています	-11.2895
これについて	-11.2898
良くなる	-11.2898
1985	-11.2899
のリストを作成し	-11.29
アルゴリズムです	-11.2902
あなたの目標	-11.2903
大量	-11.2904
simple	-11.2906
との戦い	-11.2907
Do	-11.2907
ユーザー名	-11.2909
が好きではありません	-11.291
の著者	-11.2911
数日	-11.2914
のと同じ	-11.2914
外側の	-11.2914
▁printf	-11.2916
時間で	-11.2918
によって異なる	-11.2918
アプリは	-11.2918
形成され	-11.2919
を訪問し	-11.292
unt	-11.2923
短編小説	-11.2926
の名前は何ですか	-11.2929
をゼロから	-11.2929
の面積	-11.293
灰色	-11.2935
をクリックする	-11.2936
たいなら	-11.2937
が起こる	-11.2939
あなたの興味	-11.294
が持っている	-11.2941
さらに多くの	-11.2941
特定の種類の	-11.2946
必要がある場合は	-11.2947
解決できます	-11.2948
抜	-11.2948
に関連し	-11.2949
を本当に	-11.2952
に完全に	-11.2954
▁make	-11.2954
するために使用される	-11.2955
不快	-11.2956
rom	-11.2956
uk	-11.2959
sheet	-11.2959
スターリン	-11.2964
統治	-11.2964
亡くなった	-11.2965
ぼやけ	-11.2965
Cloud	-11.2965
舞台	-11.2965
高調波	-11.2965
▁mundo	-11.2965
そもそも	-11.2965
group	-11.2965
地中海	-11.2965
締め切り	-11.2965
類推	-11.2965
呼び出され	-11.2965
水泳	-11.2965
バイデン	-11.2965
デバイスに	-11.2965
湿った	-11.2965
旅程	-11.2965
順番に	-11.2965
Blue	-11.2966
ミゲル	-11.2966
トポロジー	-11.2966
submit	-11.2967
誠実さ	-11.2968
が困難	-11.2968
という意味	-11.2969
それがどのように	-11.2972
を説明してもらえますか	-11.2973
adas	-11.2974
フレンドリーな	-11.2974
obj	-11.2975
当社の	-11.2979
があるので	-11.298
AU	-11.298
ワイ	-11.2981
活性化	-11.2981
を待つ	-11.2981
私たちはあなた	-11.2982
tm	-11.2982
を放出します	-11.2982
に対応し	-11.2983
を与えました	-11.2984
を提供したり	-11.2986
ical	-11.2986
読んで	-11.2987
ンの	-11.2989
を販売し	-11.2989
メーカーの	-11.2989
あなたは私を	-11.2989
np	-11.299
のを手伝ってくれませんか	-11.299
てくれた	-11.2991
健康で	-11.2993
▁room	-11.2995
つのポイント	-11.2995
を深く	-11.2998
違法な	-11.2999
を検討し	-11.3002
芸術家	-11.3003
を妨げる	-11.3004
ことを目的として	-11.3004
が多すぎ	-11.3004
世界最大の	-11.3005
自然数	-11.301
去る	-11.301
のを助けることができます	-11.3012
上司	-11.3012
減少する	-11.3012
行きます	-11.3015
派生	-11.3016
が好きですか	-11.3018
あなたも	-11.302
工	-11.3023
を混ぜます	-11.3023
落ちる	-11.3023
nodes	-11.3023
document	-11.3024
矢印	-11.3024
が含まれる	-11.3025
amente	-11.3025
についての物語	-11.3026
full	-11.3027
の象徴	-11.3028
民間人	-11.3036
飲む	-11.3037
да	-11.3038
リム	-11.3038
クリス	-11.3039
を勉強し	-11.304
ビジュアル	-11.3041
^{	-11.3041
雑誌	-11.3041
温かい	-11.3042
サンプリング	-11.3042
とも呼ばれます	-11.3042
難易度	-11.3042
カリブ海	-11.3042
捕食者	-11.3042
ホーマー	-11.3042
基地	-11.3042
名詞	-11.3042
バジル	-11.3042
環境と	-11.3042
datos	-11.3043
地図	-11.3043
内戦	-11.3043
の購入	-11.3046
質問に対する答え	-11.3048
ボー	-11.305
起こり	-11.3051
cause	-11.3051
ible	-11.3052
のに最適な場所	-11.3054
Sh	-11.3058
相対性理論	-11.3058
応答します	-11.3059
レル	-11.3062
コロンビアの	-11.3063
切り替え	-11.3063
▁どうもありがとうございました	-11.3063
ロボットが	-11.3065
を伝えます	-11.3065
魅力的	-11.3066
pipe	-11.3067
SSL	-11.3068
ハート	-11.3068
かせ	-11.3069
ley	-11.307
Dis	-11.3071
人間のような	-11.3072
非常に人気のある	-11.3072
と仮定し	-11.3074
FC	-11.3075
理解できます	-11.3077
とのコミュニケーション	-11.3077
インチの	-11.3079
注意を払う	-11.308
を徐々に	-11.3082
プロセスを通じて	-11.3082
に慣れ	-11.3083
コンピュータープログラム	-11.3084
助けが必要です	-11.3087
を取得するには	-11.3089
の深さ	-11.309
芸術的	-11.3091
の使用方法	-11.3091
近い	-11.3091
を所有し	-11.3091
コンピューターサイエンスの	-11.3095
敏感な	-11.3095
antes	-11.3095
を推定する	-11.3097
を使用できますか	-11.3097
を築く	-11.3098
","	-11.3098
に行きました	-11.3099
▁such	-11.3099
設定された	-11.3099
の値を	-11.3101
の大規模な	-11.3104
ナイ	-11.3105
次のステップ	-11.3106
利	-11.311
要約すると	-11.311
散	-11.311
ula	-11.3111
アルゴリズムが	-11.3113
貼り付け	-11.3113
sync	-11.3113
その機能	-11.3114
ペレ	-11.3115
の名前と	-11.3116
customer	-11.3117
緩	-11.3118
ió	-11.3119
虫	-11.3119
μ	-11.3119
Handle	-11.3119
凝縮	-11.3119
ふりをし	-11.3119
ダイアログ	-11.3119
Twitch	-11.3119
ドラッグ	-11.3119
ペルシャ	-11.3119
今のところ	-11.3119
腹部	-11.312
field	-11.312
和解	-11.312
厚さ	-11.3121
を導入し	-11.3121
ディープ	-11.3121
に参加	-11.3122
month	-11.3122
Gr	-11.3123
時間内に	-11.3124
中東	-11.3125
を見せてください	-11.3126
方法は次のとおりです	-11.3127
の近くに	-11.3127
ことを目指し	-11.3127
アバター	-11.3128
Life	-11.3129
に属する	-11.3129
ゴン	-11.313
ガル	-11.3132
steps	-11.3133
▁"$	-11.3134
オペレーティングシステムの	-11.3135
人生の意味は	-11.3135
chan	-11.3137
を交換する	-11.3138
cade	-11.3139
を着て	-11.3139
あなたは私	-11.314
で使用され	-11.3141
の損傷	-11.3142
を与えてください	-11.3142
ín	-11.3142
の可用性	-11.3143
を試すことができます	-11.3143
の記録	-11.3146
ここにいくつかの	-11.3146
の時点で	-11.3147
が存在します	-11.3147
Ph	-11.3147
のさまざまな部分	-11.3147
クールな	-11.315
)|	-11.3151
の歴史の中で	-11.3152
gui	-11.3153
するのではなく	-11.3156
を防ぎます	-11.3156
移動し	-11.3157
支配者	-11.3157
dataset	-11.3157
巻き	-11.3158
水生	-11.316
を使用できる	-11.316
トピックについて	-11.316
あなたの家	-11.3162
どこにでも	-11.3163
ラフ	-11.3165
外国	-11.3165
▁And	-11.3166
ーン	-11.3167
表示される	-11.3168
大丈夫です	-11.3168
グラフ理論	-11.3169
ことを期待し	-11.317
文明の	-11.317
他の言語	-11.317
ことを知っている	-11.3172
イル	-11.3173
の息子	-11.3174
を除去する	-11.3176
を制限し	-11.3176
1.6	-11.3176
について考え	-11.3177
define	-11.3178
寝	-11.3178
アイテムを	-11.3179
ていただけませんか	-11.318
各要素	-11.318
hel	-11.3181
に飛び	-11.3182
に行って	-11.3185
System	-11.3187
増	-11.3188
洗練	-11.3188
を覆う	-11.3189
浮	-11.3192
なん	-11.3196
演算	-11.3197
フー	-11.3197
隅	-11.3197
グラフィカル	-11.3197
書き換え	-11.3197
即時	-11.3197
を奪う	-11.3197
kWh	-11.3197
を雇う	-11.3197
Bluetooth	-11.3197
が付いた	-11.3197
階段	-11.3197
臨床	-11.3197
高温	-11.3197
可変	-11.3198
FTP	-11.3198
マーカス	-11.3198
活気のある	-11.3198
粒子は	-11.3198
出身	-11.3199
タオル	-11.3199
フィット	-11.3201
Free	-11.3202
可能性が高くなります	-11.3202
量子重力	-11.3202
Sp	-11.3202
パスポート	-11.3202
を試してください	-11.3203
色素	-11.3206
の下の	-11.3206
密接に	-11.3208
と信じていました	-11.3209
をやめ	-11.3209
クロック	-11.3211
に提供する	-11.3211
独特の	-11.3211
注意してください	-11.3213
社会に	-11.3215
ことは何ですか	-11.3215
DR	-11.3215
を選択すること	-11.3216
{}	-11.3216
を続けます	-11.3217
rin	-11.3218
のファン	-11.3219
を引き	-11.322
ことを知って	-11.3221
に制限	-11.3223
]);	-11.3224
dom	-11.3224
の長さは	-11.3226
出席	-11.3229
可能で	-11.3229
ми	-11.323
クール	-11.3232
星は	-11.3232
これらのモデル	-11.3233
詩を書いてください	-11.3234
トリー	-11.3234
利益のために	-11.3234
である可能性がある	-11.3235
の一部であり	-11.3236
遅れ	-11.3237
ている人	-11.3239
sión	-11.324
アウトライン	-11.3241
ヤン	-11.3242
ey	-11.3243
オーストラリアの	-11.3244
植物は	-11.3244
を提供することにより	-11.3245
用語です	-11.3247
求められ	-11.3248
ю	-11.3251
原則として	-11.3252
ward	-11.3254
▁reader	-11.3257
を提供していただけますか	-11.3259
を守るために	-11.3262
お互いに	-11.3264
▁update	-11.3264
デラ	-11.3265
を特定して	-11.3267
作用	-11.3268
超伝導	-11.3269
人生に	-11.327
に重点を置いて	-11.3271
dal	-11.3273
ポルトガル語	-11.3273
難	-11.3273
CI	-11.3274
史	-11.3275
共鳴	-11.3276
暗黒物質	-11.3276
import	-11.3276
algorithm	-11.3276
チャールズ	-11.3276
サンティアゴ	-11.3276
オープニング	-11.3276
傘	-11.3276
清潔で	-11.3276
に比べて	-11.3276
ことを学び	-11.3277
salary	-11.3277
線形代数	-11.3277
北米	-11.3277
タワー	-11.3278
APL	-11.328
クリア	-11.328
シールド	-11.328
▁!=	-11.328
劣化	-11.3281
住んで	-11.3282
西洋	-11.3282
を引き起こした	-11.3283
▁One	-11.3284
に接続します	-11.3284
障害物	-11.3285
た後に	-11.3285
フォン	-11.3288
プラットフォームは	-11.3289
として機能し	-11.329
audio	-11.329
06	-11.3291
ull	-11.3295
ジャンルの	-11.3296
勉強する	-11.3297
の頭	-11.33
RNA	-11.3302
について何か	-11.3303
リバー	-11.3303
Doc	-11.3303
Gra	-11.3305
公共の	-11.3305
FO	-11.3305
の前で	-11.3307
村人	-11.3308
するにつれて	-11.3308
を生成できる	-11.3309
不正	-11.331
始まった	-11.3317
を渡し	-11.332
を訓練し	-11.3324
整	-11.3324
称賛	-11.3325
ney	-11.3327
に使用され	-11.3327
YouTuber	-11.3328
消費量	-11.333
他の人々	-11.333
重要な要素	-11.3332
堅牢な	-11.3332
segment	-11.3332
を奨励する	-11.3335
cons	-11.3336
慣れ	-11.3337
を知ることは	-11.3337
ことを望んでいます	-11.3338
をしたり	-11.3341
発生する可能性があります	-11.3341
をサポートするために	-11.3343
あなたが望む	-11.3343
移	-11.3345
ジェンダー	-11.335
し続け	-11.335
を学ぶために	-11.3351
最善の	-11.3352
装	-11.3354
を超えた	-11.3354
反乱	-11.3354
兵	-11.3355
に設定します	-11.3355
aleatorias	-11.3355
天気予報	-11.3355
妥協	-11.3355
資金調達	-11.3355
バケツ	-11.3355
に相当する	-11.3356
膨大な量の	-11.3356
ルーティング	-11.3356
を拒否し	-11.3356
hidl	-11.3356
を投げる	-11.3356
感度	-11.3361
欲しい	-11.3362
を生成するために	-11.3364
をオンにし	-11.3365
を持っていて	-11.3371
受け	-11.3371
されていることを確認してください	-11.3371
ないようにします	-11.3373
が開発した	-11.3374
span	-11.3374
を渡す	-11.3375
私のような	-11.3377
テクノロジーが	-11.3377
彼らは彼らの	-11.3379
重要な要因	-11.3379
の数が	-11.3381
を見つける必要があります	-11.3382
車は	-11.3382
手頃な価格の	-11.3384
その使用	-11.3384
の一種	-11.3388
を損なう	-11.3389
を書くこと	-11.3389
CP	-11.339
に配置され	-11.3391
他	-11.3391
人の子供	-11.3392
'])	-11.3397
▁check	-11.3397
女性は	-11.3401
に依存するため	-11.3401
発表	-11.3401
使いやすく	-11.3402
割り当てられた	-11.3402
を試してみてください	-11.3403
日間の	-11.3403
まとめ	-11.3405
んだり	-11.3406
進む	-11.3408
ポイントで	-11.3408
にするために	-11.3409
を呼び出し	-11.3412
高度な機能	-11.3412
外国人	-11.3413
健康な	-11.3415
の最終	-11.3416
体内の	-11.3417
ビッグ	-11.3418
edge	-11.3418
火曜日	-11.342
が低く	-11.3421
を感じました	-11.3422
絶対に	-11.3422
伸ばし	-11.3423
DM	-11.3423
不満	-11.3423
レゴ	-11.3423
ポン	-11.3423
居住	-11.3423
を信じる	-11.3424
ための優れた	-11.3426
開発環境	-11.3427
包括的	-11.3429
emo	-11.343
演	-11.343
慢	-11.3431
と考えられている	-11.3432
react	-11.3432
air	-11.3432
していただけますか	-11.3433
の顔	-11.3433
平等な	-11.3433
測	-11.3433
▁件名	-11.3433
SD	-11.3435
誘惑	-11.3435
John	-11.3435
組み合わされ	-11.3435
文献	-11.3435
不眠症	-11.3435
を組み合わせる	-11.3435
DevOps	-11.3435
オリンピック	-11.3435
Object	-11.3435
ブレンダー	-11.3435
大理石	-11.3435
獲物	-11.3435
永久	-11.3435
親友	-11.3435
キャンディー	-11.3436
確実性	-11.3436
を探る	-11.3436
を聞いた	-11.3436
を理解しています	-11.3436
interface	-11.3436
fixed	-11.3437
の残りの部分	-11.3437
病状	-11.3438
トッピング	-11.3438
気象条件	-11.3438
厳密な	-11.3439
低レベルの	-11.3439
を向上させます	-11.3441
アジェンダ	-11.3441
を通る	-11.3442
にはさまざまな	-11.3443
の根	-11.3443
más	-11.3444
考えて	-11.3444
HTTPS	-11.3445
Ender	-11.3451
ís	-11.3451
▁está	-11.3455
補完	-11.3455
ボブは	-11.3455
▁*「	-11.3456
つの数値	-11.3458
指示に従って	-11.3459
の重要性と	-11.346
other	-11.3461
よりも速く	-11.3461
の開始	-11.3464
Bas	-11.3464
の配置	-11.3467
発行	-11.347
簡単な例	-11.3472
メートルの	-11.3472
注意を払って	-11.3472
場合があり	-11.3475
多様化	-11.3475
シェー	-11.3476
が存在し	-11.3477
play	-11.3477
ニーズを満たす	-11.3479
の検証	-11.3479
テント	-11.348
を構成します	-11.3482
時系列	-11.3483
▁13.	-11.3488
cin	-11.3489
ale	-11.3492
かどうかは	-11.3492
ノードの	-11.3492
UX	-11.3493
に追加し	-11.3493
言語サーバー	-11.3494
わなければなりません	-11.3495
ゲームや	-11.3495
主人公の	-11.3497
アメリカ人	-11.3497
学ぶことができます	-11.3498
会社に	-11.3499
リストされている	-11.3499
ものでした	-11.3503
大衆	-11.3505
マイナス	-11.3505
識	-11.3506
param	-11.3506
Line	-11.3506
教える	-11.3508
その意味	-11.351
帯	-11.3511
特徴です	-11.3514
こすり	-11.3516
簡潔で	-11.3516
パーティション	-11.3516
福祉	-11.3516
見知らぬ人	-11.3516
ツイート	-11.3516
Project	-11.3516
PCIE	-11.3516
レスポンス	-11.3516
大いに	-11.3516
滝	-11.3516
Netflix	-11.3516
貯蓄	-11.3516
fmt	-11.3516
雷	-11.3516
鉱物	-11.3516
住宅ローン	-11.3517
一時的に	-11.3517
▁años	-11.3517
勢い	-11.3517
パディング	-11.3518
ではない場合	-11.3518
デート	-11.3519
リットル	-11.3519
項目	-11.3519
慢性	-11.3519
10〜12	-11.3521
に影響を与えます	-11.3522
デイ	-11.3523
インテリジェントな	-11.3524
9)	-11.3524
までの距離	-11.3525
比率	-11.3526
を理解して	-11.3527
か教えてください	-11.3528
私はこれ	-11.3529
長年の	-11.353
update	-11.353
の推奨事項	-11.353
耳を傾け	-11.3531
シャン	-11.3531
シンプル	-11.3532
mol	-11.3532
cv	-11.3532
健康問題	-11.3533
追加する	-11.3533
と協力する	-11.3533
1984	-11.3534
目標を達成し	-11.3536
やりたい	-11.3536
氷の	-11.3537
に値する	-11.3537
非常に低い	-11.3537
水中	-11.3538
を効率的に	-11.3539
の名前は	-11.3539
が再び	-11.354
幾何学的	-11.3541
読者が	-11.3541
▁distance	-11.3543
ドロ	-11.3546
ジオ	-11.3549
チュー	-11.3551
調節	-11.3557
データから	-11.3558
を教えてくれます	-11.3558
ware	-11.3559
国が	-11.3559
にカット	-11.3562
ために不可欠です	-11.3562
大都市	-11.3563
私は人工知能	-11.3567
領域で	-11.357
を取り除き	-11.3571
込まれ	-11.3571
%20	-11.3572
概念を	-11.3572
日まで	-11.3573
求め	-11.3574
なくなった	-11.3574
の方程式	-11.3576
を理解する必要があります	-11.3576
理論です	-11.3581
ベルリン	-11.3581
学生に	-11.3586
▁/(	-11.3586
());	-11.3586
によって生成された	-11.3586
未来の	-11.3588
に会い	-11.3588
計算できます	-11.3589
記	-11.3589
勝ち	-11.359
さと	-11.3591
改善し	-11.3592
が行われ	-11.3592
の変動	-11.3592
野菜と	-11.3593
のトーン	-11.3595
されること	-11.3596
楕円曲線	-11.3597
様々な	-11.3597
掘り下げ	-11.3597
緊急事態	-11.3597
ドロップ	-11.3597
支払われ	-11.3597
トーナメント	-11.3597
正当な	-11.3597
ちなみに	-11.3597
カクテル	-11.3597
ティーンエイジャー	-11.3597
ペイント	-11.3597
登山	-11.3597
せる	-11.3598
食料品	-11.3598
ハイエンド	-11.3599
同一	-11.3599
乱用	-11.36
著者は	-11.36
睡眠不足	-11.36
中央銀行	-11.3601
両	-11.3601
均等に	-11.3602
smiles	-11.3603
いくつかの異なる	-11.3603
FET	-11.3606
がはるかに	-11.3606
▁very	-11.3608
enta	-11.3608
match	-11.361
るとき	-11.361
RGB	-11.3611
din	-11.3611
Cu	-11.3614
!=	-11.3614
от	-11.3619
などの分野で	-11.3619
を認め	-11.3624
それはまだ	-11.3626
蒸し	-11.3627
手法を使用して	-11.3628
ことを示唆する	-11.363
理想的	-11.3631
フック	-11.3634
環境変数	-11.3634
がある可能性があります	-11.3634
の名前を	-11.3635
virtual	-11.3636
で実行される	-11.3636
を参照し	-11.3637
プログラマーは	-11.3638
▁people	-11.3639
専門の	-11.364
そのように	-11.3642
を見ること	-11.3643
ves	-11.3643
は何だと思いますか	-11.3644
の形式	-11.3645
人類の歴史	-11.3648
の精神	-11.365
で生まれた	-11.3652
ているようです	-11.3656
を入手する	-11.3656
ていても	-11.3661
resize	-11.3662
なのか	-11.3662
が表示される	-11.3663
理解している	-11.3668
を提供する必要があります	-11.3668
戦いで	-11.3669
ユーザーから	-11.3669
試合	-11.367
不思議	-11.3671
トラップ	-11.3671
に適用される	-11.3673
インタラクティブ	-11.3674
ミュー	-11.3676
DC	-11.3677
探している	-11.3678
階	-11.3678
▁長所	-11.3678
やりがいのある	-11.3679
みんな	-11.3679
カリキュラム	-11.3679
雨が降る	-11.3679
getElementById	-11.3679
おはようございます	-11.3679
ヘリコプター	-11.3679
▁número	-11.3679
出てくる	-11.3679
分岐	-11.3679
カバレッジ	-11.3679
template	-11.3679
捕獲	-11.3679
ベルギー	-11.3679
絶望	-11.368
天使	-11.368
記入	-11.368
行目	-11.368
ボリビア	-11.368
商標	-11.368
アトラクション	-11.368
DOT	-11.368
を使用せずに	-11.368
大麻	-11.368
▁when	-11.3681
集合	-11.3682
関連付け	-11.3682
質問に対する	-11.3684
trade	-11.3685
均一な	-11.3688
高度な技術	-11.3688
ве	-11.3688
の試合	-11.3689
messages	-11.3689
ftp	-11.3689
伸び	-11.369
を見ます	-11.3691
にある場合	-11.3691
向き	-11.3691
フリ	-11.3692
エド	-11.3692
8000	-11.3692
不十分な	-11.3693
をナビゲートする	-11.3693
言いました	-11.3694
ゲームをプレイする	-11.3694
section	-11.3694
従う	-11.3696
泣き	-11.3697
ストロー	-11.3698
abc	-11.3698
話します	-11.3699
良いこと	-11.37
се	-11.3703
最良の方法は何ですか	-11.3705
の正方形	-11.3708
マグ	-11.3708
return	-11.3711
よりも少ない	-11.3711
近くに	-11.3714
灰色の	-11.3715
持って	-11.3716
容易	-11.3719
ムー	-11.3719
を持たない	-11.3723
合い	-11.3729
リフト	-11.373
視覚的に	-11.3731
を刺激する	-11.3731
親切	-11.3732
の確認	-11.3732
50%	-11.3736
廃止	-11.3737
ことを確認することが重要です	-11.3738
も含まれています	-11.3743
に焦点を合わせる	-11.3744
のスライス	-11.3744
答えはありません	-11.3744
より多くの情報	-11.3746
をマークし	-11.3747
を減らすこと	-11.3747
一致する	-11.3747
を知っ	-11.3749
に反対し	-11.3752
今夜	-11.3753
が悪い	-11.3754
批判的	-11.3755
を話し	-11.3755
誇張	-11.3756
たかった	-11.3757
大胆	-11.3757
ji	-11.3758
技術者	-11.3759
の程度	-11.3759
関数です	-11.376
のどれが	-11.376
を決定するために	-11.3762
フットボール	-11.3762
存在します	-11.3762
ぼ	-11.3762
ウサギ	-11.3762
恵み	-11.3762
搾取	-11.3762
商品やサービス	-11.3762
س	-11.3762
の設立	-11.3762
ブリッジ	-11.3762
を用いて	-11.3762
スコット	-11.3762
扱われ	-11.3762
女神	-11.3763
についてもっと教えてください	-11.3763
を掛ける	-11.3764
パトリック	-11.3765
休み	-11.3765
イヤー	-11.3767
競合	-11.3768
ath	-11.3768
の結果は	-11.3769
を助けるために	-11.377
についてもっと知りたいですか	-11.377
かどうかにかかわらず	-11.3771
時間を費やし	-11.3771
のリーダー	-11.3772
コロ	-11.3773
前進	-11.3773
);//	-11.3774
track	-11.3775
足を	-11.3776
ことはできない	-11.3778
人気があります	-11.3779
なければなりませんでした	-11.3779
矢印関数	-11.3781
顧客が	-11.3783
の多様性	-11.3783
▁Ko	-11.3784
サンタ	-11.3785
と分析	-11.3785
植え	-11.3787
プロセス中に	-11.3787
異なり	-11.3787
ки	-11.3788
を追求し	-11.379
は複雑	-11.3791
形態の	-11.3792
ミア	-11.3792
ento	-11.3792
組み合わせる	-11.3793
81	-11.3794
モデルのパフォーマンス	-11.3794
cover	-11.3795
def	-11.3795
親愛なる	-11.3796
^(	-11.3798
に不可欠です	-11.3799
に反映され	-11.38
(12	-11.3803
を作成および	-11.3807
トス	-11.3808
},	-11.3809
の検出	-11.3809
がある場合があります	-11.3811
従うべき	-11.3815
について議論し	-11.3817
は単なる	-11.3818
聞いた	-11.3819
質の高い	-11.382
SRE	-11.3821
UR	-11.3822
bind	-11.3823
force	-11.3825
すぐ	-11.3828
無限に	-11.3831
状況では	-11.3831
見え	-11.3831
▁Pe	-11.3832
)):	-11.3833
に話しかけ	-11.3833
OL	-11.3835
私はオープンアシスタントです	-11.3836
を組み合わせた	-11.3842
優	-11.3842
袋	-11.3844
菌	-11.3844
ロイド	-11.3845
受容体	-11.3845
静けさ	-11.3845
優先事項	-11.3845
将軍	-11.3845
マヨネーズ	-11.3845
アスリート	-11.3845
ワイヤレス	-11.3845
ガロンの水差し	-11.3845
インターンシップ	-11.3845
オーケストラ	-11.3845
クッキー	-11.3845
LinkedIn	-11.3845
歯科医	-11.3845
接着	-11.3845
集落	-11.3845
彼が彼の	-11.3846
引っ	-11.3846
high	-11.3846
が増え	-11.3846
の土地	-11.3848
を待っています	-11.3848
IBase	-11.3848
Watch	-11.3849
▁like	-11.3849
すことができます	-11.385
フリーソフトウェア	-11.3852
トースト	-11.3852
染色体	-11.3852
ことが知られています	-11.3854
歌う	-11.3854
規定	-11.3854
等しく	-11.3855
サイバー	-11.3855
歴史上	-11.3856
焼きます	-11.3856
▁戻る	-11.3857
oot	-11.3858
eng	-11.3858
引	-11.386
の境界	-11.3861
悲劇	-11.3865
に直面して	-11.3866
私の目標は	-11.3866
聞く	-11.3867
この時点で	-11.3867
meta	-11.3868
vers	-11.3871
セイ	-11.3871
データに基づいて	-11.3872
家庭	-11.3872
71	-11.3873
によって引き起こされます	-11.3876
è	-11.3877
乗り	-11.3878
コンテンツの作成	-11.388
キリスト教の	-11.388
を向上させることができます	-11.3881
–	-11.3884
—	-11.3885
リップ	-11.3885
を構成し	-11.3885
わけ	-11.3886
私は何をすべきか	-11.3887
問題や	-11.3887
聞こえる	-11.3887
長期的には	-11.3887
▁Check	-11.3889
にとって重要な	-11.3891
に従い	-11.3891
マルクス	-11.3891
止	-11.3892
が適切に	-11.3892
番目は	-11.39
:\	-11.3903
科学的研究	-11.3904
として使用し	-11.3905
の両方に	-11.3908
冬に	-11.3908
よりも高い	-11.3909
カタ	-11.391
オート	-11.391
の比較	-11.3911
ることなく	-11.3913
tl	-11.3915
に関するいくつかの	-11.3915
関心のある	-11.3915
セキュリティ対策	-11.3916
飲	-11.3916
多くのこと	-11.3919
を行っ	-11.3919
あなたの個人的な	-11.392
その他の要因	-11.3922
ラテンアメリカの	-11.3925
勧め	-11.3926
sur	-11.3926
助けることができる	-11.3928
を実行するには	-11.3928
解剖学	-11.3929
ジャーナル	-11.3929
主人公が	-11.3929
Nginx	-11.3929
Swift	-11.3929
に専念し	-11.3929
抱きしめ	-11.3929
Example	-11.3929
pattern	-11.3929
▁should	-11.3929
WriteLine	-11.3929
これまでのところ	-11.3929
サプリメント	-11.3929
もともと	-11.3929
に出	-11.3929
スプレッドシート	-11.3929
交響曲	-11.3929
何が起こるか	-11.393
プロキシ	-11.393
ステーキ	-11.393
engine	-11.393
ndarray	-11.393
オンラインリソース	-11.393
を教えて	-11.393
複数	-11.3931
低コスト	-11.3931
浄化	-11.3933
LLC	-11.3934
ш	-11.3934
他の方法	-11.3935
振	-11.3935
進化した	-11.3936
fic	-11.3936
を離れ	-11.3937
脱出	-11.3937
ific	-11.3937
翌日	-11.3938
▁----	-11.3938
をプレイする	-11.3939
理論によれば	-11.394
▁padding	-11.3941
▁"<	-11.3942
豊富	-11.3943
新しいデータ	-11.3944
をダウンロードし	-11.3949
{{	-11.3949
歴史と	-11.3952
塗り	-11.3953
表す	-11.3953
cro	-11.3954
ネガティブ	-11.3955
を引き起こしました	-11.3957
が生じます	-11.3957
labels	-11.3957
地元	-11.3957
として使用できます	-11.3959
スカイ	-11.3959
を考慮に入れる	-11.3959
彼の仕事	-11.396
現実の世界	-11.3961
よりも優れている	-11.3962
▁14.	-11.3962
4%	-11.3962
都市で	-11.3963
ゲームをプレイし	-11.3966
not	-11.3967
ques	-11.3967
静かで	-11.3974
のかわかりません	-11.3974
)#	-11.3975
fs	-11.3979
の費用	-11.3983
方法はありません	-11.3983
調整された	-11.3984
しない場合	-11.3986
隊	-11.3987
を目指し	-11.399
アクセスしやすく	-11.3992
▁generate	-11.3993
たかったのです	-11.3994
に触発され	-11.3994
▁Car	-11.3995
このコマンド	-11.3996
же	-11.3997
を壊し	-11.3997
を予測し	-11.3998
▁ジェリー	-11.3999
証拠はありません	-11.3999
HR	-11.4
マジック	-11.4
が発生します	-11.4001
他人	-11.4001
エレ	-11.4002
文化や	-11.4003
世界では	-11.4003
遺伝	-11.4005
ネン	-11.4005
ome	-11.4006
xy	-11.4006
コミュニケーションをとる	-11.4008
ラット	-11.4009
確立され	-11.401
水曜日	-11.4011
因	-11.4013
検閲	-11.4013
辞任	-11.4014
とは思わない	-11.4014
Azure	-11.4014
を介した	-11.4014
標準偏差	-11.4014
のに苦労しています	-11.4014
対戦相手	-11.4014
一晩	-11.4014
地獄	-11.4014
Add	-11.4014
ろ過	-11.4014
ワークアウト	-11.4015
ネイティブスピーカー	-11.4015
シェーダー	-11.4015
簡単に言えば	-11.4015
方言	-11.4015
スパム	-11.4015
回転する	-11.4015
ニッチ	-11.4016
夕日	-11.4016
市長	-11.4017
広がる	-11.4018
悪化し	-11.4019
と信じている	-11.4019
面積	-11.4019
の頻度	-11.4021
でなければならない	-11.4021
選	-11.4022
mail	-11.4024
下部	-11.4024
コンピュータービジョン	-11.4024
vin	-11.4026
収益性	-11.4027
Copy	-11.4027
は主観的	-11.4028
画像を生成する	-11.4029
が重要です	-11.403
すべてのもの	-11.4031
プログラマーが	-11.4031
はどうなりますか	-11.4031
マルタ	-11.4031
▁between	-11.4032
ナノ	-11.4033
全体が	-11.4033
編集者	-11.4035
power	-11.4038
視力	-11.4039
▁weight	-11.404
を受け取った	-11.404
ama	-11.404
の例には	-11.4043
を調べます	-11.4044
ニーチェ	-11.4045
ミリ	-11.4045
の作成と	-11.4046
説明責任	-11.4046
つで	-11.4047
▁.--	-11.4047
個人的な経験	-11.4048
実行可能な	-11.4051
イベントや	-11.4053
[1])	-11.4055
に位置する	-11.4056
450	-11.4056
を設計し	-11.4056
!")	-11.4059
INT	-11.4059
町の	-11.406
関連しています	-11.4062
を明らかにし	-11.4063
の適用	-11.4064
コンピューターシステム	-11.4066
人々のグループ	-11.4067
不完全	-11.4069
mid	-11.4069
ドミ	-11.4071
インターネットで	-11.4072
▁15.	-11.4074
sql	-11.4074
改良	-11.4074
vid	-11.4075
モバイルアプリケーション	-11.4076
に属します	-11.4076
uri	-11.4076
ではないため	-11.4078
orm	-11.4082
あなたが言及した	-11.4083
インタビューの	-11.4084
成熟	-11.4085
に関する知識	-11.4086
を覚え	-11.4086
深刻	-11.4086
NA	-11.4088
ken	-11.4091
唐辛子	-11.4093
の信頼性	-11.4094
リアン	-11.4094
学んだこと	-11.4095
マニ	-11.4096
条	-11.4097
値関数	-11.4098
▁marked	-11.4098
王女	-11.4099
暴露	-11.4099
クイーン	-11.4099
家に帰る	-11.4099
MongoDB	-11.4099
問い合わせ	-11.4099
バリアント	-11.41
ストリート	-11.41
を専門とする	-11.41
アップデート	-11.41
重要な側面	-11.41
に注意を払い	-11.4101
しかありません	-11.4102
時間を費やす	-11.4102
出会った	-11.4102
の存在は	-11.4103
スキーマ	-11.4103
どの程度	-11.4103
抗力	-11.4103
パーツ	-11.4103
トレース	-11.4104
ガロン	-11.4104
▁border	-11.4104
チームメンバー	-11.4104
行うことができる	-11.4106
cept	-11.4106
単純化された	-11.4107
Real	-11.4107
音節	-11.4107
サブセット	-11.4112
の支援	-11.4113
より具体的な	-11.4113
IPv	-11.4114
あなたを助けるために	-11.4114
ないようにしてください	-11.4116
人間のフィードバック	-11.4117
されていること	-11.4118
RX	-11.4121
ほ	-11.4121
目的のために	-11.4124
人工知能が	-11.4124
pm	-11.4125
"></	-11.4128
反対側の	-11.4131
確率は	-11.4131
の内側	-11.4132
Mag	-11.4133
Wall	-11.4134
ization	-11.4134
を建設する	-11.4139
Ri	-11.414
を分析します	-11.4142
IF	-11.4146
ウン	-11.4146
作ることができる	-11.415
Cl	-11.415
▁Server	-11.4151
他の何か	-11.4153
人々にとって	-11.4154
▁Ne	-11.4154
として知られ	-11.4154
1999	-11.4158
したときに	-11.4159
貢献者	-11.4159
で生まれ	-11.416
を可能にし	-11.416
で働い	-11.4161
square	-11.4162
ショ	-11.4162
iva	-11.4163
傾向があり	-11.4163
の需要	-11.4164
出かけ	-11.4164
かを知る	-11.4169
game	-11.4169
かを判断する	-11.4171
何日	-11.4171
押	-11.4171
を夢見	-11.4174
+3	-11.4176
を作ること	-11.4178
の性質と	-11.4178
団	-11.4179
などが含まれます	-11.4179
防	-11.4181
モダン	-11.4183
励	-11.4185
の住民	-11.4185
ベア	-11.4185
咳	-11.4186
腰	-11.4186
喉	-11.4186
糸	-11.4186
人間工学に基づいたオフィス用品	-11.4186
クラスメート	-11.4186
バニラ	-11.4186
NextCloud	-11.4186
講義	-11.4186
神聖な	-11.4186
アクセント	-11.4186
活気に満ちた	-11.4186
バイオーム	-11.4186
ゴールデン	-11.4186
新しく	-11.4186
視聴覚	-11.4186
device	-11.4186
罰金	-11.4187
南部	-11.4187
機能的	-11.4188
識別子	-11.4189
多くの人々が	-11.4189
されたときに	-11.4189
が利用可能	-11.4189
あなたの意見	-11.419
硬化	-11.419
リストから	-11.4191
の分野での	-11.4192
学習プロセス	-11.4193
10,000	-11.4193
殺人者	-11.4197
女性が	-11.4198
多くのリソース	-11.4201
公的	-11.4203
のジャンル	-11.4204
時点で	-11.4206
を作るには	-11.4206
以下のコード	-11.4208
同社は	-11.4208
これがあなたが	-11.4208
永遠	-11.4208
を優先する	-11.421
3〜4	-11.4212
と感じ	-11.4213
エラーメッセージ	-11.4214
登る	-11.4215
に連絡して	-11.4217
一番	-11.4217
それらの間の	-11.4218
ものよりも	-11.4219
幸福と	-11.422
を示している	-11.422
が少なくなります	-11.4221
に興味があり	-11.4221
プログラムです	-11.4223
▁Que	-11.4223
yu	-11.4223
部分的に	-11.4224
為替レート	-11.4224
死に	-11.4225
大統領は	-11.4225
と呼ぶ	-11.4225
の間の距離	-11.4226
cols	-11.4226
そしてそれが	-11.4227
ieren	-11.4229
積	-11.4229
ona	-11.4233
を受けました	-11.4233
薄く	-11.4235
定理は	-11.4237
▁Zu	-11.4237
を作りました	-11.4237
Un	-11.4237
ore	-11.424
学的	-11.4242
類	-11.4242
がないので	-11.4242
を回避し	-11.4242
モデルのトレーニング	-11.4243
▁4:	-11.4243
詳しく説明し	-11.4244
忠実	-11.4245
どの国	-11.4246
時間がかかります	-11.4247
アプリケーションの開発	-11.4248
私はあなたを助け	-11.4248
uro	-11.4248
フォロー	-11.4249
limit	-11.4253
system	-11.4254
いくつかのステップ	-11.4254
を要求し	-11.4255
ヴェ	-11.4258
を分析して	-11.4259
に影響を与えました	-11.4259
に落ち	-11.4261
tag	-11.4261
時間と労力	-11.4262
に貢献した	-11.4262
が与えられ	-11.4262
古代ギリシャの	-11.4263
▁Sie	-11.4265
必要がある場合	-11.4266
リエ	-11.4266
算	-11.4268
▁much	-11.4269
▁poder	-11.427
の例を示します	-11.4271
徒	-11.4271
打ち	-11.4272
ゆ	-11.4272
太陽光発電	-11.4272
捕	-11.4272
いたずら	-11.4273
許容	-11.4273
予期せぬ	-11.4273
嘘をつく	-11.4273
大幅な	-11.4273
circle	-11.4273
hidden	-11.4273
汗	-11.4273
PyTorch	-11.4273
何が起こったのか	-11.4273
と思いました	-11.4273
IBM	-11.4273
の一形態	-11.4273
新興	-11.4273
doc	-11.4274
を容易にする	-11.4274
ディー	-11.4275
格納	-11.4276
国々	-11.4276
を有効にする	-11.4277
オオカミは	-11.4277
この小説は	-11.4278
を引き起こす可能性のある	-11.4278
名声	-11.4282
ification	-11.4282
に取り組んでいる	-11.4284
の所有権	-11.4285
割り当てられ	-11.4285
限られています	-11.4288
linear	-11.4288
の秘密	-11.4289
に触れる	-11.429
ことが可能です	-11.4293
歴史上最も	-11.4293
▁Crea	-11.4294
mark	-11.4294
▁love	-11.4297
は異なります	-11.4298
rus	-11.4299
歩	-11.4299
隣	-11.43
Fire	-11.4305
デバイスで	-11.4305
弱	-11.4305
を持つことができる	-11.4306
ベスト	-11.4307
と共有する	-11.4309
試してみる	-11.4311
車で	-11.4313
回復力	-11.4314
以前	-11.4314
渡す	-11.4318
順	-11.4318
数分間	-11.4319
であるということです	-11.4319
ジュニア	-11.4319
ht	-11.4321
覚え	-11.4328
満たす	-11.4329
社会で	-11.433
の近く	-11.433
Dall	-11.4331
地球の大気	-11.4332
効果的な方法	-11.4332
ケン	-11.4334
に行った	-11.4335
Express	-11.4336
と見なす	-11.4338
平方	-11.4338
xx	-11.434
日です	-11.4341
▁それでは	-11.4342
▁War	-11.4342
を含むさまざまな	-11.4343
mus	-11.4343
Live	-11.4344
を捕まえ	-11.4344
を見つけるための	-11.4346
On	-11.4347
ism	-11.4347
sqrt	-11.4347
move	-11.435
と言っています	-11.435
どうして	-11.435
つき	-11.435
制	-11.4352
質問がある場合は	-11.4353
前向き	-11.4355
クエスト	-11.4358
件	-11.4359
数百万	-11.4359
ディレクター	-11.436
貪欲	-11.436
聖書の	-11.436
磨	-11.436
ベイジアン	-11.436
優位性	-11.436
バレンタインデー	-11.436
どうもありがとう	-11.436
責任を負う	-11.436
マウンテン	-11.436
伝記	-11.4361
scroll	-11.4361
ジャングル	-11.4361
慰め	-11.4361
フォーマル	-11.4361
ブーツ	-11.4361
ストーブ	-11.4361
重度の	-11.4362
持っていた	-11.4362
Godot	-11.4362
initial	-11.4362
環境に優しい	-11.4362
星座	-11.4362
について説明します	-11.4363
小規模な	-11.4365
基本的な例	-11.4365
と推定されています	-11.4365
:</	-11.4367
▁card	-11.4368
Str	-11.4368
費やし	-11.4368
メタル	-11.4369
cache	-11.4371
道徳的な	-11.4371
理解しやすく	-11.4371
について言及し	-11.4372
方が良いです	-11.4372
tail	-11.4372
をきれいにする	-11.4373
123	-11.4374
optim	-11.4382
やすくなります	-11.4383
隠され	-11.4384
を強調します	-11.4384
保存する	-11.4386
ようとすることができます	-11.4386
された場合	-11.4386
に応答する	-11.4388
週間の	-11.4389
ペース	-11.4389
ソートされた	-11.4389
を導入する	-11.439
Point	-11.4392
スピン	-11.4393
をカバーし	-11.4396
離れ	-11.4398
>`	-11.44
▁[1,	-11.4401
オーブンで	-11.4405
できる場合	-11.4405
に直面しています	-11.4408
ops	-11.441
テレ	-11.441
市民は	-11.4415
▁直交行列と	-11.4417
だけではありません	-11.4421
をリアルタイムで	-11.4422
ことができなかった	-11.4422
行列	-11.4422
完成	-11.4423
ストーン	-11.4423
公開され	-11.4425
で最も有名な	-11.4425
発生する可能性のある	-11.4428
mpl	-11.4429
を制御します	-11.4431
Bash	-11.4431
これは単なる	-11.4431
によって特徴付けられ	-11.4433
を実証し	-11.4435
植民地化	-11.4437
保つ	-11.444
関係者	-11.4441
正の	-11.4441
友好的	-11.4442
バニー	-11.4443
非倫理的	-11.4446
万人の	-11.4447
Sheet	-11.4447
北極	-11.4448
港	-11.4448
バスケット	-11.4448
トラブルシューティング	-11.4449
おとぎ話	-11.4449
Apache	-11.4449
遷移	-11.4449
microsoft	-11.4449
梱包	-11.4449
security	-11.4449
Haskell	-11.4449
協定	-11.4449
窒素	-11.4449
冊の本	-11.4449
西暦	-11.4449
モーダルウィンドウ	-11.4449
公理	-11.4449
赤外線	-11.4449
休む	-11.4449
ソケット	-11.4449
10〜15	-11.4449
立ち上げ	-11.4449
毎回	-11.4449
広場	-11.4449
をリストできますか	-11.445
北部	-11.445
先端	-11.4451
ワーム	-11.4451
マルチスレッド	-11.4451
吸収され	-11.4451
シェルター	-11.4451
暑い	-11.4451
のリスクを減らす	-11.4452
ユーザーフレンドリーな	-11.4453
の調整	-11.4454
NBA	-11.4454
忠実な	-11.4454
を実行するために	-11.4455
インターネット上で	-11.4455
んでいる	-11.4456
小文字	-11.4457
eet	-11.4457
Map	-11.4458
生化学	-11.4458
IQ	-11.4458
の世話をする	-11.4459
シーザー	-11.4459
知られていない	-11.446
を求めている	-11.4462
のに苦労している	-11.4463
を向上させるために	-11.4464
特	-11.4466
の体積	-11.4466
ビデオカード	-11.4468
gram	-11.4468
に移動して	-11.4468
熱く	-11.4469
pul	-11.4471
をトレーニングする	-11.4472
カタロニアの	-11.4474
が好きな	-11.4475
言及した	-11.4475
批判的思考	-11.4476
ファイ	-11.4476
アンダー	-11.448
オープンで	-11.4481
ツールの使用	-11.4481
作り	-11.4483
実行可能	-11.4485
アンナ	-11.4488
たりするなど	-11.4488
を残す	-11.4489
ためにここにいます	-11.449
エラーが発生し	-11.4493
ことに興味がある	-11.4495
large	-11.4514
偽の	-11.4514
込みます	-11.4514
ためにどのような	-11.4515
▁margin	-11.4516
数学と	-11.4516
raw	-11.4517
提供した	-11.4517
を攻撃し	-11.4518
に十分な	-11.4518
若い男	-11.4522
を取り除きます	-11.4522
に保存する	-11.4523
Log	-11.4525
に興味がある場合は	-11.4525
自家製の	-11.4527
すぎると	-11.4527
に置き換え	-11.4527
と通信	-11.4528
rem	-11.4528
[0],	-11.4529
を高めます	-11.4532
Sol	-11.4533
推定値	-11.4535
屋内	-11.4536
行動する	-11.4536
する必要はありません	-11.4536
スポンジ	-11.4537
瓶	-11.4537
ドナルド	-11.4538
細かい	-11.4538
プラクティス	-11.4538
華	-11.4538
キャプテン	-11.4538
算術	-11.4538
KEY	-11.4538
を務め	-11.4538
メカニカルキーボード	-11.4538
スクワット	-11.4538
上院議員	-11.4538
化石燃料	-11.4539
ことを恐れないでください	-11.4539
壊滅的な	-11.4539
悪役	-11.4539
キャップ	-11.4539
convert	-11.4539
サイバー攻撃	-11.454
致命的な	-11.454
誤り	-11.4541
ジョンソン	-11.4542
腕を	-11.4542
に頼る	-11.4543
ネオン	-11.4544
例では	-11.4544
勝者	-11.4545
operation	-11.455
ように感じます	-11.455
調	-11.4551
ように感じ	-11.4551
ストローク	-11.4551
の天気	-11.4552
可能性もあります	-11.4555
axis	-11.4555
であるという事実	-11.4556
例であり	-11.4557
が不足している	-11.4558
願い	-11.4559
人間の生活	-11.4561
に違反する	-11.4563
入手できます	-11.4564
部分です	-11.4566
をサポートします	-11.4566
に大きな影響を与えました	-11.4566
prop	-11.457
を経験している	-11.4572
ことのない	-11.4575
理論的には	-11.4576
マルクス主義	-11.4579
重要な役割を果たし	-11.458
の歌詞	-11.458
私はあなたと	-11.4583
ه	-11.4585
delta	-11.4589
よく知られている	-11.4589
安価	-11.4589
結果を得る	-11.4592
令	-11.4593
起き	-11.4593
を作り出します	-11.4594
フランク	-11.4594
ライブラリです	-11.4594
厚く	-11.4596
に適合する	-11.4596
真ん中	-11.4597
スミス	-11.4598
に利益をもたらす	-11.4598
そして今	-11.4599
同時	-11.4599
を手伝っ	-11.4599
よく使用されます	-11.4599
ring	-11.4599
こう	-11.4599
自分の人生	-11.46
TH	-11.4601
に違反し	-11.4602
マラ	-11.4604
目覚め	-11.4604
▁You	-11.4605
に苦労し	-11.4606
-1]	-11.4608
を食べること	-11.4609
に住む	-11.461
ゲーム開発	-11.4611
ごとの	-11.4614
を要約する	-11.4614
マルコ	-11.4616
を増加させる	-11.4617
は必ずしも	-11.4617
民主的な	-11.4619
誰かの	-11.462
計	-11.4622
に反し	-11.4623
定義されている	-11.4625
補	-11.4626
様	-11.4627
亜	-11.4627
つのオプション	-11.4628
WhatsApp	-11.4628
とりわけ	-11.4628
ジョセフ	-11.4628
お気軽に	-11.4628
Number	-11.4628
Ctrl	-11.4628
ミネラル	-11.4628
北京	-11.4628
Markdown	-11.4628
斜め	-11.4628
還元	-11.4629
ランク付け	-11.4629
航海	-11.4629
バットマン	-11.4629
レンズ豆	-11.4629
カーボン	-11.4629
シチュー	-11.463
早い	-11.463
火傷	-11.4631
heart	-11.4632
この用語は	-11.4633
ション	-11.4633
良い選択肢	-11.4633
さん	-11.4633
Electron	-11.4633
ディナー	-11.4633
ウェイト	-11.4633
一見	-11.4634
にとどまる	-11.4635
第三者	-11.4636
モダンな	-11.4636
LUA	-11.4636
あなたの質問に答える	-11.4638
無意味	-11.4638
統一された	-11.464
に注ぎ	-11.4642
を倒し	-11.4644
▁2:	-11.4646
虚偽	-11.465
あることに注意することが重要です	-11.4652
停止する	-11.4653
事業	-11.4654
訪れる	-11.4655
注目を集め	-11.4656
されていた	-11.4657
ет	-11.4658
ヌー	-11.4661
ness	-11.4662
最良の選択肢	-11.4662
を使用するか	-11.4663
CLI	-11.4665
今年の	-11.4666
られました	-11.4667
QR	-11.4669
ニール	-11.467
の基本概念	-11.4671
iendo	-11.4671
ことを考え	-11.4674
制限があります	-11.4675
詳細については	-11.4676
クー	-11.4677
を私に説明してください	-11.4677
回目の	-11.4677
シード	-11.4678
その中で	-11.468
layer	-11.4682
そしてあなたは	-11.4683
を優先し	-11.4685
ッグ	-11.4685
▁10^	-11.4685
aya	-11.4686
比例	-11.4688
非常に興味深い	-11.4688
に夢中	-11.4689
方法であり	-11.4689
駆動の	-11.4689
のを防ぐために	-11.4692
私の能力	-11.4692
で広く使用されています	-11.4695
bat	-11.4697
一歩	-11.47
わない	-11.4701
試してみ	-11.4701
ジング	-11.4701
bert	-11.4704
能力はありません	-11.4709
acc	-11.4711
呼ばれ	-11.4712
が何を意味するのか	-11.4713
不確実	-11.4714
コンパクト	-11.4714
Qui	-11.4714
バランスの取れた	-11.4715
園	-11.4716
好	-11.4716
hold	-11.4717
ベータ	-11.4717
制作	-11.4717
効果的です	-11.4718
▁exist	-11.4718
補助	-11.4718
チュニジア	-11.4719
に適合し	-11.4719
拘束	-11.4719
イチジク	-11.4719
Transformer	-11.4719
Dumbbell	-11.4719
POST	-11.4719
Oracle	-11.4719
に専念する	-11.4719
有酸素運動	-11.4719
怠	-11.4719
任天堂	-11.4719
微積分	-11.4719
科学的証拠	-11.472
リスニング	-11.472
クリスタル	-11.472
呼びかけ	-11.472
かなりの量の	-11.4721
ビショップ	-11.4721
マイクロ波	-11.4721
▁cdot	-11.4722
パン粉	-11.4723
想像上の	-11.4723
ホー	-11.4724
はどのようにして	-11.4726
悲	-11.4728
rc	-11.4728
このジャンル	-11.4729
気に入っ	-11.4731
Back	-11.4736
暗くて	-11.4736
質問をし	-11.4736
ではないので	-11.474
が高くなります	-11.4742
太陽系の	-11.4742
確認する	-11.4743
人間の言語	-11.4744
wait	-11.4746
の採用	-11.4747
その他	-11.4751
著名な	-11.4752
де	-11.4752
特性を持つ	-11.4754
への参照	-11.4754
ソル	-11.4757
を活用する	-11.4759
を読み取り	-11.4759
この地域	-11.476
のは誰ですか	-11.4763
小人	-11.4766
括弧	-11.4768
も必要です	-11.477
So	-11.4772
方が良いでしょう	-11.4773
に置いて	-11.4774
スティ	-11.4774
かかり	-11.4776
dic	-11.4776
を旅し	-11.4777
TV	-11.4779
))))	-11.478
の本質	-11.4783
ーム	-11.4786
エピ	-11.4787
DOC	-11.4788
冷や	-11.4792
layers	-11.4792
NS	-11.4793
ることはできません	-11.4794
そうしないと	-11.4796
有利	-11.4796
緊張と	-11.4798
予定です	-11.4801
city	-11.4801
を学習し	-11.4802
opt	-11.4802
に参加したり	-11.4802
に遭遇し	-11.4803
▁dem	-11.4804
眼	-11.481
スクレイピング	-11.4811
GNU	-11.4811
ニュアンス	-11.4811
Infinity	-11.4811
¬	-11.4811
ボーイフレンド	-11.4811
調味料	-11.4811
╣	-11.4811
カタツムリ	-11.4811
に巻き込まれ	-11.4811
シグナル伝達	-11.4811
奇跡	-11.4811
妖精	-11.4811
狂気	-11.4811
逸話	-11.4811
過剰適合	-11.4811
▁hacer	-11.4811
CV	-11.4811
安心	-11.4812
▁GHz	-11.4812
青少年	-11.4812
で書かれた	-11.4813
初心者向けの	-11.4813
article	-11.4814
余	-11.4814
出会う	-11.4815
したいです	-11.4815
賞を受賞	-11.4816
裕福な	-11.4816
経済的な	-11.4817
キック	-11.4817
replace	-11.4818
変化します	-11.4819
のを手伝ってもらえますか	-11.4819
ゼル	-11.482
のに役立ついくつかの	-11.4821
に含める	-11.4821
▁about	-11.4823
戻り	-11.4823
ギターの	-11.4823
LO	-11.4824
なければなら	-11.4825
この状況	-11.4826
折り	-11.4826
ことを約束します	-11.4827
ことが多い	-11.4828
生存者	-11.4829
ollo	-11.4832
私はただ	-11.4834
City	-11.4834
ラウ	-11.4835
競争力	-11.4838
ママ	-11.4839
について学び	-11.4839
Sal	-11.484
ダース	-11.484
▁за	-11.484
チェン	-11.484
に大きな影響を与える	-11.484
できることを意味します	-11.4841
を宣言し	-11.4841
仮想世界	-11.4843
ものとして	-11.4843
とのつながり	-11.4844
位置に	-11.4844
に直面している	-11.4845
もらえますか	-11.4847
mdr	-11.4848
logo	-11.4848
失われ	-11.4848
を集める	-11.485
のイメージ	-11.485
はどれくらい	-11.4851
を与えること	-11.4852
1955	-11.4855
調査結果	-11.4857
reader	-11.4859
楽しんでいる	-11.4859
るのに役立ちます	-11.486
市の	-11.486
press	-11.486
毎週	-11.4863
最もよく	-11.4866
たち	-11.4867
問題に対する	-11.4868
枚	-11.4869
ダメージ	-11.487
ーノ	-11.487
を調節する	-11.4872
に与える	-11.4872
ious	-11.4872
戦車	-11.4873
MX	-11.4873
を印刷する	-11.4874
学習する	-11.4875
解決できる	-11.4877
物理的に	-11.4879
刻	-11.4881
cli	-11.4882
さまざまな方法	-11.4883
ペースで	-11.4886
でトレーニングされ	-11.4887
に分解し	-11.4887
島の	-11.4889
会社名	-11.4891
他のもの	-11.4896
数時間	-11.4898
ていませんが	-11.4899
をクリックし	-11.4899
tain	-11.4901
として行動し	-11.4902
のトップ	-11.4902
aciones	-11.4903
故郷	-11.4903
とは限りません	-11.4903
なぞなぞ	-11.4903
コンプレッサー	-11.4903
不均衡	-11.4903
Galaxy	-11.4903
細かく	-11.4903
摩擦	-11.4904
逸脱	-11.4904
多元宇宙	-11.4904
隔離	-11.4904
ヒートポンプ	-11.4904
世紀後半	-11.4904
執行	-11.4904
ジャケット	-11.4904
避難所	-11.4904
ペンギン	-11.4904
ヒープ	-11.4904
略語	-11.4904
▁fuego	-11.4904
オーバーヘッド	-11.4905
亜原子粒子	-11.4905
が役立つことを願っています	-11.4905
乱数	-11.4906
iostream	-11.4907
blue	-11.4907
Asya	-11.4908
ブール	-11.4908
after	-11.4908
を節約する	-11.4909
マーリー	-11.4909
1800	-11.4911
ium	-11.4912
tant	-11.4913
SIM	-11.4913
でいっぱい	-11.4914
で終わります	-11.4914
仮説的な	-11.4914
アラン	-11.4915
んでいます	-11.4915
nes	-11.4915
tur	-11.4918
レンジ	-11.4918
ダム	-11.4919
を減らすのに役立ちます	-11.4919
良い選択肢です	-11.492
互い	-11.4921
もあり	-11.4921
いくつかの可能な	-11.4921
力学	-11.4921
ME	-11.4923
自分を	-11.4923
に似ている	-11.4924
いっぱい	-11.4924
obs	-11.4925
設定で	-11.4926
リーチ	-11.4927
の利点は何ですか	-11.4928
Chi	-11.4929
со	-11.4931
140	-11.4931
が欲しいですか	-11.4933
証	-11.4933
私は自分自身	-11.4933
もたらす	-11.4935
が向上します	-11.4935
を理解することが重要です	-11.4935
1986	-11.4936
知りたいです	-11.4936
を置いて	-11.4938
ray	-11.494
を起動し	-11.4943
^^	-11.4944
アラーム	-11.4945
策定	-11.4945
積分は	-11.4947
1/3	-11.4948
のさまざまな側面	-11.4948
Print	-11.4949
グロ	-11.4951
cia	-11.4953
(5)	-11.4953
柔軟	-11.4954
同じように	-11.4958
二次方程式	-11.4959
やり取り	-11.4962
の代替品	-11.4962
いるので	-11.4962
bil	-11.4965
に変え	-11.4965
人類が	-11.4966
_____	-11.4968
勝	-11.4968
好みに依存します	-11.4969
1989	-11.497
オーク	-11.4971
進みます	-11.4971
私たちはそれを	-11.4971
を必ず	-11.4973
を書いた	-11.4975
中程度	-11.4977
アフリカの	-11.4978
Bo	-11.4979
短	-11.498
トーマス	-11.4981
主人公は	-11.4982
重要なのは	-11.4987
真剣に	-11.4989
ことを恐れ	-11.4989
も使用されます	-11.4989
断熱材	-11.4991
暴	-11.4991
ラベル付け	-11.4992
畳み込み	-11.4993
たりできます	-11.4994
沿岸	-11.4994
ているのか	-11.4995
なもの	-11.4995
で頑張ってください	-11.4995
の世話をし	-11.4995
を表明し	-11.4996
つの単語	-11.4996
ة	-11.4997
涙	-11.4997
クロアチア	-11.4997
ロマンス	-11.4997
σ	-11.4997
ダニエル	-11.4997
債券	-11.4997
復号化	-11.4997
channel	-11.4997
を担当する	-11.4997
Pixel	-11.4997
年代初頭	-11.4997
輝いてい	-11.4997
<<	-11.4997
持久力	-11.4997
魅惑的な	-11.4997
Output	-11.4997
を脅かす	-11.4997
メルケル	-11.4997
培地	-11.4997
観測	-11.4997
上級	-11.4998
殺害	-11.4998
ポーション	-11.4998
核分裂	-11.4998
にすぎない	-11.4998
偶数	-11.4998
熱意	-11.5
さえも	-11.5001
Connect	-11.5001
無数の	-11.5001
始まりました	-11.5001
発熱	-11.5003
情報に基づいた決定を下す	-11.5004
ことになります	-11.5005
正しいこと	-11.5005
ри	-11.5005
現	-11.5005
科目	-11.5007
を開発するために	-11.5007
スプレー	-11.5009
kt	-11.501
dad	-11.5011
のは難しい	-11.5011
得られ	-11.5013
Ad	-11.5015
を推奨する	-11.5015
7%	-11.5017
ould	-11.5018
宗教的な	-11.5019
探検	-11.5021
rust	-11.5024
edit	-11.5025
1982	-11.5025
を明らかにする	-11.5027
それぞれに独自の	-11.5035
▁В	-11.5037
ドリンク	-11.5038
なぜそれが	-11.5041
ors	-11.5041
ative	-11.5043
この地域の	-11.5046
平行	-11.5048
っていた	-11.5049
話してください	-11.505
しても	-11.5052
に戻し	-11.5052
の値が	-11.5053
は次のようになります	-11.5055
の主人公	-11.5056
になっ	-11.5056
データを収集し	-11.5057
cht	-11.5057
得る	-11.5057
の最も有名な	-11.5057
に適用する	-11.5059
が向上し	-11.5059
ima	-11.506
ベルト	-11.5063
能力です	-11.5064
受け入れられる	-11.5064
BS	-11.5064
その情報	-11.5064
であることを願っています	-11.5067
が生じ	-11.5067
を収集する	-11.5068
を理解することは	-11.5068
現象です	-11.5069
▁most	-11.5072
レーター	-11.5074
Item	-11.5075
理由は何ですか	-11.5076
を行うこと	-11.5077
を楽しんでください	-11.508
▁---------	-11.5082
が続きます	-11.5082
汎用	-11.5084
レーション	-11.5084
ことを計画し	-11.5085
をとって	-11.5086
そしてあなたの	-11.5086
リットルの	-11.5086
を出力する	-11.5087
関与する	-11.5088
日々	-11.509
フラッシュ	-11.5091
芽	-11.5091
BERT	-11.5091
control	-11.5091
記憶に残る	-11.5091
BeautifulSoup	-11.5091
ф	-11.5091
移植	-11.5091
ガバナンス	-11.5091
盗難	-11.5091
処方	-11.5091
突然変異	-11.5091
宮殿	-11.5091
に至るまで	-11.5091
救助	-11.5091
factorial	-11.5092
寝室	-11.5092
ブラウン	-11.5092
マラソン	-11.5092
azure	-11.5092
ブレンド	-11.5092
焼く	-11.5092
優しく	-11.5092
最愛の	-11.5092
を返し	-11.5092
に参加すること	-11.5092
主権	-11.5093
輸出	-11.5093
劇的な	-11.5093
野生生物	-11.5093
グラフィックスカード	-11.5093
図面	-11.5094
タイマー	-11.5094
君主	-11.5094
signal	-11.5095
軽量で	-11.5095
減量	-11.5095
内なる	-11.5095
プレーン	-11.5096
そしてなぜ	-11.5096
シミュレート	-11.5097
つ目は	-11.5097
健康状態	-11.5098
\\	-11.5099
これらの課題	-11.5099
ago	-11.5099
BMI	-11.5099
明らかな	-11.5099
▁curve	-11.5101
ハハ	-11.5102
を示してください	-11.5103
ランク	-11.5103
暴力的な	-11.5106
oz	-11.5106
熱心	-11.5107
を削減し	-11.5107
信念と	-11.5108
を見た	-11.511
OLED	-11.5111
トマス	-11.5111
フラン	-11.5112
生活を送る	-11.5112
0.4	-11.5114
忘れられない	-11.5114
楽しくて	-11.5115
思い出させ	-11.5115
特定のユースケース	-11.5115
CON	-11.5119
ビス	-11.5119
▁この情報が	-11.5121
の勝利	-11.5121
ドライ	-11.5122
pas	-11.5123
音声モデル	-11.5123
構築され	-11.5125
小さくて	-11.5126
に見えます	-11.5127
問題を解決するための	-11.5127
によって決定されます	-11.5127
注目	-11.5129
データ処理	-11.513
ないかもしれません	-11.5132
に相談して	-11.5132
希望の	-11.5133
復元	-11.5133
он	-11.5139
提供され	-11.5141
Max	-11.5142
のセットアップ	-11.5142
英語に翻訳	-11.5142
を下げ	-11.5144
することができました	-11.5144
トレイ	-11.5144
pen	-11.5145
▁Is	-11.5145
を見たり	-11.5148
を改善するのに役立つ	-11.5148
Part	-11.5149
願	-11.5149
受け取る	-11.5149
として知られている	-11.5151
に非常	-11.5152
をインポートする	-11.5152
ゼロから	-11.5154
あなたの考え	-11.5157
の傾向	-11.5158
Up	-11.5158
に参加します	-11.516
あなたを助け	-11.5161
を書くことができます	-11.5161
を高めるために	-11.5162
に反対する	-11.5163
ма	-11.5169
ことを保証するために	-11.5171
誠実	-11.5171
発射	-11.5173
安い	-11.5178
変更する	-11.5179
実用的	-11.5179
comm	-11.5179
を傷つける	-11.518
freq	-11.5182
GDP	-11.5184
すべての可能な	-11.5184
壁に	-11.5185
2,000	-11.5185
欠	-11.5185
越し	-11.5185
買収	-11.5186
減数分裂	-11.5186
シグナル	-11.5186
ルネッサンス	-11.5186
搭載	-11.5187
Samsung	-11.5187
当初	-11.5187
読みやすさ	-11.5187
ドラフト	-11.5187
MIDI	-11.5187
スーツ	-11.5187
幻覚	-11.5187
フェスティバル	-11.5187
シドニー	-11.5187
Vector	-11.5187
sample	-11.5187
ウッドチャック	-11.5187
合格	-11.5187
健康上の問題	-11.5187
歳の少年	-11.5188
敵対的な	-11.5188
血流	-11.5189
vor	-11.5189
エレガントな	-11.5189
エンダー	-11.5189
豚肉	-11.5189
から始めましょう	-11.519
複雑です	-11.519
わなければならない	-11.519
何が起こっているのか	-11.519
▁may	-11.5191
日本で	-11.5191
が好きなら	-11.5191
Loop	-11.5192
奇数	-11.5193
と話をし	-11.5193
スキルと知識	-11.5194
友好的な	-11.5194
知識とスキル	-11.5199
金星	-11.52
Link	-11.52
光子	-11.5203
カエル	-11.5203
connection	-11.5204
tory	-11.5204
プレイリスト	-11.5208
誤	-11.5211
テキストベースの	-11.5214
銀河の	-11.5217
より広範な	-11.5219
チャン	-11.5219
を離れる	-11.5219
フレームワークです	-11.522
情報に基づいて	-11.5221
一緒	-11.5221
Exp	-11.5223
静	-11.5223
含まれています	-11.5226
人間の活動	-11.5228
共	-11.523
days	-11.523
オール	-11.5231
numero	-11.5231
シェークスピア	-11.5231
万ドル	-11.5232
だったので	-11.5232
"}	-11.5233
amount	-11.5236
空気が	-11.5237
カラフルな	-11.5238
が豊富な	-11.5244
相互に	-11.5244
短期	-11.5245
スキルレベル	-11.5245
触	-11.5246
と対話し	-11.5248
ているのですか	-11.5255
何人	-11.5255
大気中の	-11.5257
助けを求め	-11.5259
と思った	-11.5263
タコ	-11.5266
アドベンチャー	-11.5266
gy	-11.5266
してくれてありがとう	-11.5271
選択肢です	-11.5272
学部	-11.5273
さまざまなタイプの	-11.5273
не	-11.5273
定期的な運動	-11.5273
始める前に	-11.5274
Write	-11.5275
Art	-11.5278
創造的で	-11.5278
復活	-11.528
をプログラムする	-11.5281
砲	-11.5282
知っておくべき	-11.5283
ハリケーン	-11.5283
景観	-11.5283
金色になるまで	-11.5283
カモメ	-11.5283
アルミニウム	-11.5283
オーガニック	-11.5283
ジャーナリスト	-11.5283
ることをためらわないでください	-11.5283
スケート	-11.5283
ことをいとわない	-11.5283
ホグワーツ	-11.5283
DIY	-11.5283
病原体	-11.5283
ウォームアップ	-11.5283
ピストン	-11.5283
応募	-11.5283
1_0/	-11.5283
スプリング	-11.5283
に大きな影響を与える可能性があり	-11.5283
トリミング	-11.5283
は何歳ですか	-11.5283
どころ	-11.5283
理解できない	-11.5284
買い手	-11.5284
ワークロード	-11.5284
自由意志	-11.5284
温水	-11.5285
努力を	-11.5286
決定を下す前に	-11.5286
プロトン	-11.5286
▁many	-11.5287
PE	-11.5289
説明しています	-11.529
を飲んで	-11.529
カラム	-11.5291
の品質と	-11.5292
コナー	-11.5292
に対して脆弱	-11.5294
catch	-11.5295
▁forma	-11.5295
に到達するために	-11.5296
rolls	-11.5297
アレ	-11.5298
▁cada	-11.5298
を記録し	-11.5298
モデル化	-11.5299
に囲まれた	-11.53
今日でも	-11.53
かどうかを確認してください	-11.53
provided	-11.5302
をカバーしています	-11.5303
ем	-11.5304
を引用し	-11.5305
皮肉な	-11.5306
1997	-11.5308
pol	-11.5311
ローマ人	-11.5312
ブート	-11.5313
を適用します	-11.5314
軍事的	-11.5316
例を教えてください	-11.5317
出した	-11.5318
パラダイム	-11.5319
が実行され	-11.532
について説明してください	-11.5323
している間	-11.5324
に興味があります	-11.5325
に挑戦する	-11.5328
にとって重要です	-11.5328
たことを願っています	-11.5328
バリ	-11.5329
それは良い	-11.5331
の蓄積	-11.5332
外側	-11.5332
を保証するために	-11.5333
レンガ	-11.5337
exe	-11.5337
自体は	-11.5338
何よりも	-11.5341
Cha	-11.5341
ことを示します	-11.5342
どう思いますか	-11.5343
幸せで	-11.5344
その名前	-11.5344
形成された	-11.5346
聞いたこと	-11.5347
答えを与える	-11.5348
年前	-11.535
▁1]	-11.5351
トール	-11.5352
を動かし	-11.5353
私たちの脳	-11.5354
ったりする	-11.5354
を宣伝する	-11.5354
▁うーん	-11.5354
信じられないほど	-11.5356
tres	-11.5356
ていないので	-11.5356
を振りかけ	-11.5357
別	-11.5357
bol	-11.5359
とつながる	-11.5361
を学ぶことができます	-11.5366
周辺	-11.5366
私はあなたの質問	-11.5368
歩いて	-11.5368
これらの各	-11.5369
させること	-11.537
古く	-11.537
黒人	-11.5371
絶	-11.5372
merge	-11.5372
戦闘機	-11.5372
iel	-11.5373
沈	-11.5375
かどうかについて	-11.5376
果	-11.5377
特別	-11.5378
コンデンサ	-11.5378
粒	-11.5379
簡潔に	-11.538
Message	-11.538
イスラム教	-11.538
Pygame	-11.538
ことを強調することが重要です	-11.538
black	-11.538
屈折	-11.538
ご存知のように	-11.538
ウォーカー	-11.5381
化学反応	-11.5381
David	-11.5381
不便	-11.5382
▁Hong	-11.5383
協力する	-11.5383
ッキング	-11.5383
ме	-11.5384
重要なことは	-11.5384
などのいくつかの	-11.5385
nombre	-11.5385
Set	-11.5386
民間	-11.5386
ウェア	-11.5386
している場合は	-11.5388
を解放し	-11.5389
を見つけるには	-11.539
紫色の	-11.539
商業的	-11.5391
と信頼性	-11.5391
突然の	-11.5392
大衆文化	-11.5393
それ自体が	-11.5394
nom	-11.5394
foreach	-11.5397
を悩ませ	-11.5397
似ています	-11.5398
理性	-11.5398
奉仕	-11.5399
知り	-11.54
あなたの友人	-11.5402
その日の	-11.5403
芸術作品	-11.5404
テキストの説明	-11.5405
目撃	-11.5406
iert	-11.5407
を使います	-11.5408
順に	-11.5409
seed	-11.5409
柔軟で	-11.541
の重症度	-11.5411
を処理します	-11.5412
組み込みの	-11.5412
を見つけることです	-11.5413
▁"\	-11.5415
を知りたい	-11.5417
beat	-11.5421
dt	-11.5423
にアクセスできない	-11.5423
答えました	-11.5424
本質	-11.5424
wall	-11.5424
のように聞こえます	-11.5425
ポッターと	-11.5425
ポッターの	-11.5427
をキャプチャする	-11.543
▁este	-11.543
iso	-11.543
計算されます	-11.5431
サメ	-11.5431
が使用される	-11.5432
知って	-11.5432
かを決定する	-11.5432
その人が	-11.5432
していない場合	-11.5432
oke	-11.5434
mag	-11.5434
結果をもたらす	-11.5436
修正された	-11.5438
性能	-11.5438
ér	-11.5443
GA	-11.5447
これらの材料	-11.5453
チームワーク	-11.5455
1200	-11.5456
レイン	-11.5457
を証明する	-11.5458
協力し	-11.5459
課	-11.5463
がありましたが	-11.5465
いや	-11.5467
温室効果ガス	-11.5468
ていることを確認する	-11.5469
をインストールして	-11.5469
至	-11.547
を閉じる	-11.5471
仲	-11.5472
果たす	-11.5473
dig	-11.5475
と革新	-11.5475
(4)	-11.5476
インテリア	-11.5476
ファイルを作成し	-11.5477
雌	-11.5477
収量	-11.5477
0〜1	-11.5477
ハイパー	-11.5477
神経伝達物質	-11.5477
嫌がらせ	-11.5478
世紀初頭	-11.5478
Stream	-11.5478
鉛	-11.5478
Fortnite	-11.5478
ことを嬉しく思います	-11.5478
合理化	-11.5478
キリスト	-11.5478
ビクトリア	-11.5478
Quantum	-11.5478
置換	-11.5478
buffer	-11.5478
スパゲッティ	-11.5478
連結	-11.5478
パプリカ	-11.5478
PNG	-11.5478
グア	-11.5478
君主制	-11.5478
変革	-11.5478
虹	-11.5478
飲酒	-11.5478
いいね	-11.5479
お湯	-11.5479
ハムスター	-11.5479
MacOS	-11.5479
危険にさらされ	-11.548
直感的な	-11.548
良い考え	-11.5481
btn	-11.5481
娘細胞	-11.5481
シル	-11.5481
相対的な	-11.5483
拡張子	-11.5484
円形	-11.5484
コンパス	-11.5484
服用	-11.5484
スキルを向上させ	-11.5485
互換性のある	-11.5485
を理解するのに役立つ	-11.5486
ゴム	-11.5486
dec	-11.5486
ポーランドの	-11.5487
any	-11.549
観光地	-11.5492
コンマ	-11.5493
vent	-11.5493
What	-11.5495
何もない	-11.5495
頭に	-11.5496
サス	-11.5496
が得られ	-11.5499
GL	-11.5499
の寿命	-11.5499
従うことができる	-11.5502
イカ	-11.5502
を除去し	-11.5503
クラウドコンピューティング	-11.5503
が満たされ	-11.5504
中心部	-11.5505
カラス	-11.5505
デバイスです	-11.5506
例を示します	-11.5507
明日の	-11.5507
Count	-11.5507
を手動で	-11.5508
古代ギリシャ	-11.5509
恋人	-11.551
を追加すること	-11.551
安価で	-11.5513
タスクを実行できる	-11.5514
奇妙で	-11.5516
芸術的な	-11.5516
政治的および	-11.5517
切	-11.5519
適応性	-11.5519
その日から	-11.5519
が容易	-11.5519
▁Per	-11.5524
最初のステップは	-11.5525
を使用することができます	-11.5525
説明できます	-11.5525
ことでした	-11.5526
馬の	-11.5528
に連絡してください	-11.553
数分	-11.5533
デモ	-11.554
1.4	-11.5542
らし	-11.5545
年前に	-11.5549
私は常に	-11.5552
inf	-11.5553
理解していません	-11.5553
に到達します	-11.5554
話されている	-11.5554
ポルトガルの	-11.5556
に入った	-11.5558
影響を受け	-11.5558
を持っているので	-11.556
ためのツール	-11.5561
方が簡単	-11.5561
conv	-11.5561
の欠点	-11.5562
創造性と	-11.5563
満たし	-11.5563
を要約し	-11.5563
hard	-11.5565
効果的で	-11.5565
に属し	-11.5566
維持され	-11.5567
生命保険	-11.5567
ハブ	-11.5567
words	-11.5567
人間にとって	-11.5567
促	-11.5568
燃	-11.5569
経験する	-11.5571
追放	-11.5571
ガイ	-11.5571
千	-11.5573
をかける	-11.5575
を含む多くの	-11.5575
を記録する	-11.5576
焦点を合わせ	-11.5576
近づく	-11.5576
合併	-11.5576
たわごと	-11.5576
地殻	-11.5577
±	-11.5577
に由来する	-11.5577
純	-11.5577
肝臓	-11.5577
velocity	-11.5577
linux	-11.5577
PostgreSQL	-11.5577
Manager	-11.5577
お祝い	-11.5577
エレクトロニクス	-11.5577
移転	-11.5577
両当事者	-11.5577
スコットランド	-11.5577
画質	-11.5577
Step	-11.5577
心血管	-11.5577
脱毛	-11.5577
動脈	-11.5577
FastAPI	-11.5578
を閉じます	-11.5578
たりすることができます	-11.5579
コーパス	-11.5579
高血圧	-11.5579
するかもしれません	-11.5579
チェリー	-11.5579
価値観	-11.5579
▁modelo	-11.558
社会的規範	-11.558
後退	-11.558
nav	-11.558
ッパー	-11.5581
短縮	-11.5581
親指	-11.5581
を発表しました	-11.5581
reverse	-11.5581
独裁者	-11.5582
満足度	-11.5582
dump	-11.5584
を含めてください	-11.5585
伝統的に	-11.5586
近い将来	-11.5586
めったに	-11.5587
ミラー	-11.5589
周辺の	-11.559
▁only	-11.5591
得た	-11.5591
ストーリーライン	-11.5592
マット	-11.5594
kin	-11.5594
どれくらい	-11.5594
とは対照的に	-11.5596
現時点で	-11.5596
私に尋ねる	-11.5596
書かれている	-11.5597
問題に対処する	-11.5598
感謝します	-11.5599
ボールが	-11.5601
3.1	-11.5602
学習し	-11.5602
影響を与える可能性があります	-11.5604
に切ります	-11.5607
やる気	-11.5608
鶏肉を	-11.5609
ないでしょう	-11.561
の中心的な	-11.561
███	-11.5611
機密情報	-11.5612
ているとき	-11.5613
cks	-11.5614
汚染物質	-11.5615
の外で	-11.5615
られない	-11.5615
:$	-11.5616
下げ	-11.5617
late	-11.5618
ことで機能します	-11.5618
多様で	-11.5621
開発されました	-11.5621
駆動	-11.5625
を作るための	-11.5625
▁haci	-11.5625
水を飲む	-11.5626
フェン	-11.5627
プリン	-11.5629
完了する	-11.5629
心理的な	-11.5629
置く	-11.563
カビ	-11.5633
[0	-11.5634
関数を使って	-11.5634
すべての人に	-11.5634
他のいくつかの	-11.5635
を実行するための	-11.5636
毎月	-11.5637
イザー	-11.564
本を読む	-11.5642
プレイヤーに	-11.5644
ベー	-11.5645
望んでいた	-11.5648
研究開発	-11.5649
作用する	-11.5649
プログラムを作成する	-11.5649
grad	-11.565
わからない場合は	-11.565
が生成されます	-11.5652
に代わるもの	-11.5655
言ったように	-11.5656
eq	-11.5656
自分に	-11.5658
Lu	-11.5659
Window	-11.5659
発電	-11.5663
pot	-11.5664
▁------	-11.5664
耐え	-11.5664
font	-11.5665
をあなたに	-11.5665
コス	-11.5666
ロッ	-11.5666
選出された	-11.5669
動画	-11.567
張	-11.567
オフィスの	-11.5672
私のお気に入りの	-11.5675
を維持するのに役立ちます	-11.5675
Script	-11.5675
武装	-11.5676
叫び	-11.5676
円形の	-11.5676
群衆	-11.5677
丸	-11.5677
田舎	-11.5677
優しさ	-11.5677
スマートコントラクト	-11.5677
調理済みの	-11.5677
ハイテク	-11.5677
気晴らし	-11.5677
invoice	-11.5677
お母さん	-11.5677
プロデューサー	-11.5677
conflict	-11.5677
何百万人もの	-11.5677
リビングルーム	-11.5677
天の川	-11.5677
ポータブル	-11.5677
ささやき	-11.5677
トウモロコシ	-11.5677
家族や友人	-11.5677
ヘリウム	-11.5677
▀	-11.5677
トールキン	-11.5677
シルバー	-11.5678
バスルーム	-11.5678
最長	-11.568
閉じ込め	-11.5681
で作られ	-11.5682
無線	-11.5683
delete	-11.5683
をターゲットにし	-11.5684
ь	-11.5685
を与えられ	-11.5686
ここにいる	-11.5686
などの重要な	-11.5687
XSS	-11.5687
できなかった	-11.5687
理解しています	-11.5687
ヒト	-11.5688
コロン	-11.5689
sim	-11.5689
てほしいですか	-11.569
を入力して	-11.569
滑らか	-11.569
作成したい	-11.5691
1995	-11.5691
締め	-11.5691
乳製品	-11.5692
機能を提供します	-11.5694
trap	-11.5695
に耳を傾け	-11.5695
破壊的な	-11.5696
stop	-11.5696
のみを使用して	-11.5697
"{	-11.5697
フィンランド	-11.5698
観察された	-11.5698
てくれる	-11.5698
ret	-11.5699
されていないため	-11.5701
提供できる	-11.5703
(2,	-11.5704
執筆スタイル	-11.5705
支払	-11.5707
このプログラム	-11.5707
1983	-11.5707
media	-11.5707
の強化	-11.5707
にとって非常に	-11.5709
Ru	-11.5709
ハーバー	-11.5709
説明できる	-11.571
より速い	-11.5712
Sun	-11.5712
を書き留め	-11.5714
尋ねることができます	-11.5714
新年	-11.5715
1920	-11.5716
ソファ	-11.5717
公開されている	-11.5718
のダイナミクス	-11.5718
最も興味深い	-11.5719
Med	-11.5719
を撮影し	-11.572
1.2	-11.572
大きくなる	-11.5723
人以上の	-11.5725
太陽エネルギー	-11.5725
▁Ja	-11.5727
理解していない	-11.5728
見えます	-11.5728
のペア	-11.5728
に戻った	-11.5731
上で重要な役割を果たし	-11.5732
ことをする	-11.5733
が適切	-11.5733
をテストし	-11.5733
}"	-11.5735
経済システム	-11.5737
美術館	-11.5737
行われました	-11.574
と比較し	-11.574
Port	-11.574
要因の組み合わせ	-11.5742
Die	-11.5744
ニーズと好み	-11.5746
そしてあなたが	-11.5747
さなければなりません	-11.5747
▁come	-11.5747
となります	-11.5748
を持っている必要があります	-11.5754
非常に多くの	-11.5756
bel	-11.5757
株	-11.5758
減少します	-11.576
tool	-11.576
待つ	-11.5764
トレーニング計画	-11.5764
最も強力な	-11.5764
電子デバイス	-11.5765
繰り返される	-11.5766
てほしいです	-11.5767
十	-11.5769
人として	-11.5769
によって異なる可能性がある	-11.5769
ものについて	-11.5769
ッピング	-11.5773
終了する	-11.5773
dice	-11.5773
パンを	-11.5775
撃	-11.5775
▁bruj	-11.5775
であることに注意してください	-11.5777
イスラエル	-11.5777
原子炉	-11.5778
の調節	-11.5778
タイムトラベル	-11.5778
腺	-11.5778
ファームウェア	-11.5778
ように頼む	-11.5778
Array	-11.5778
ニコチン	-11.5778
depth	-11.5778
switch	-11.5778
tokenizer	-11.5778
時が来ました	-11.5778
別々の	-11.5778
▁塩とコショウの味	-11.5778
膨張	-11.5778
繊細な	-11.5778
泊	-11.5778
▁cuando	-11.5778
先祖	-11.5778
Class	-11.5778
の設置	-11.5778
アンジェラ	-11.5778
ナショナリズム	-11.5778
組合	-11.5778
特権	-11.5778
free	-11.5778
終わった	-11.5778
できませんでした	-11.5778
description	-11.5778
堆積物	-11.5779
励まし	-11.5779
続行	-11.5779
おやつ	-11.5779
正解	-11.578
先住民	-11.578
Query	-11.5781
ソーダ	-11.5781
サンゴ	-11.5782
を失いました	-11.5783
厳密に	-11.5784
ままである	-11.5784
への曝露	-11.5785
を想像する	-11.5786
[...]
