<pad>	0
<unk>	0
<s>	0
</s>	0
<USER>	0
<ASSISTANT>	0
<SYSTEM>	0
<bof>	0
<eof>	0
、	-2.32782
▁	-3.11797
。	-3.24629
・	-3.74593
の	-3.76381
は	-3.7929
が	-4.57586
を	-4.75591
と	-4.80208
で	-4.89033
に	-4.92594
)	-4.97884
(	-5.08191
年	-5.27496
?	-5.4026
や	-5.5622
である	-5.57839
:	-5.78406
2	-5.82937
1	-5.93381
▁-	-5.93829
」	-5.97769
「	-6.01339
から	-6.0324
月	-6.03924
3	-6.11993
し	-6.23123
た	-6.29305
には	-6.32545
する	-6.3455
した	-6.3726
この	-6.40431
4	-6.4382
も	-6.50571
か	-6.51367
る	-6.52314
5	-6.53113
,	-6.53897
』	-6.54849
日	-6.56688
では	-6.59012
年に	-6.61515
その	-6.6319
として	-6.64265
ス	-6.69657
『	-6.70388
など	-6.7245
とは	-6.78306
.	-6.84063
-	-6.86842
であり	-6.87533
ている	-6.87841
▁"	-6.88119
によって	-6.89284
6	-6.9196
10	-6.92274
された	-6.99793
人	-7.07861
8	-7.08052
または	-7.1175
り	-7.11772
だ	-7.12256
s	-7.12493
7	-7.12825
な	-7.13162
という	-7.15016
がある	-7.15255
また	-7.15645
ズ	-7.17146
つの	-7.17213
している	-7.19966
年の	-7.21748
ラ	-7.22211
9	-7.22261
ア	-7.23168
こと	-7.23303
ト	-7.24151
/	-7.2915
ため	-7.33479
て	-7.35684
ド	-7.41086
多くの	-7.41747
12	-7.43576
にある	-7.448
です	-7.46382
ク	-7.47033
される	-7.47699
い	-7.47932
され	-7.5016
年から	-7.51071
20	-7.51169
C	-7.52072
リ	-7.57696
ル	-7.58292
第	-7.58416
A	-7.58741
他の	-7.60044
ます	-7.60341
ナ	-7.60714
まで	-7.60886
11	-7.61318
しかし	-7.6327
だった	-7.63864
カ	-7.64425
より	-7.65468
のか	-7.65737
彼は	-7.65936
』、『	-7.66466
的な	-7.6832
ロ	-7.68472
ザ	-7.6867
による	-7.69023
水	-7.69316
回	-7.69619
タ	-7.69801
ために	-7.71193
デ	-7.7144
マ	-7.71914
への	-7.72997
などの	-7.73088
となった	-7.73597
ン	-7.76672
データ	-7.76996
く	-7.77214
的	-7.78194
ゲーム	-7.78336
後	-7.78357
性	-7.78917
して	-7.79256
アメリカ	-7.79288
映画	-7.7989
K	-7.80025
時間	-7.80673
大	-7.81234
マン	-7.81354
これらの	-7.81459
S	-7.8292
について	-7.8328
そして	-7.83287
ある	-7.83516
されている	-7.84185
もの	-7.84269
における	-7.84576
コ	-7.85323
F	-7.85474
バ	-7.8608
システム	-7.86603
ダ	-7.86982
ム	-7.87064
国	-7.87369
州	-7.89088
B	-7.89776
これは	-7.90711
チーム	-7.90799
と呼ばれる	-7.91148
者	-7.92007
m	-7.92239
のような	-7.92732
ことができる	-7.93008
イ	-7.9309
15	-7.9337
にも	-7.93496
リー	-7.93519
日に	-7.9377
本	-7.94017
最初の	-7.94348
できる	-7.95203
人の	-7.95232
法	-7.95539
ら	-7.95565
オ	-7.95611
数	-7.95869
新しい	-7.9599
った	-7.96181
インド	-7.96583
オブ	-7.96643
"	-7.9674
力	-7.97247
その後	-7.978
であった	-7.98227
D	-7.98362
同	-7.99624
を持つ	-7.99685
特に	-7.99844
フ	-7.99962
すべての	-8.00745
ディ	-8.0137
つ	-8.02396
を含む	-8.03599
でも	-8.03851
度	-8.03866
彼の	-8.03954
約	-8.04215
18	-8.04589
レ	-8.0468
サ	-8.05196
さまざまな	-8.05428
エ	-8.0571
T	-8.05824
E	-8.06566
があり	-8.08048
R	-8.08443
シ	-8.08745
中	-8.08835
最も	-8.09168
ティ	-8.09304
17	-8.09405
き	-8.09568
世界	-8.09635
となる	-8.09962
さらに	-8.10029
y	-8.10317
ブ	-8.1034
n	-8.10356
▁1.	-8.11022
▁2.	-8.11604
になる	-8.1181
30	-8.11869
都市	-8.12621
ていた	-8.12656
M	-8.1304
よりも	-8.13687
16	-8.13958
～	-8.14109
スポーツ	-8.14358
年には	-8.14551
!	-8.14774
イン	-8.14897
モデル	-8.15144
P	-8.15197
▁3.	-8.15939
により	-8.16011
ない	-8.17089
プ	-8.17527
手	-8.18057
ジ	-8.18582
例えば	-8.19106
I	-8.19475
大学	-8.19783
年まで	-8.19915
ですか	-8.20319
に関する	-8.20327
=	-8.20454
す	-8.20483
に対する	-8.205
地域	-8.20632
場合	-8.21538
ミ	-8.21626
ニ	-8.21652
ことで	-8.21982
13	-8.22093
前	-8.22818
ジョン	-8.23562
とは何か	-8.23813
および	-8.24212
島	-8.245
アルバム	-8.25401
ており	-8.25451
ビ	-8.25707
アメリカの	-8.25873
ガ	-8.26194
e	-8.26595
t	-8.26727
語	-8.26895
分	-8.27016
14	-8.27123
場所	-8.279
サービス	-8.28115
家	-8.28247
100	-8.28614
用	-8.28708
技術	-8.29127
グ	-8.29291
のために	-8.30611
一	-8.30746
ネ	-8.31304
バー	-8.31766
いくつかの	-8.33495
音楽	-8.33658
シーズン	-8.3387
マイル	-8.33928
あるいは	-8.3399
自分の	-8.34001
目	-8.34309
点	-8.34322
ロー	-8.34342
グループ	-8.34874
ように	-8.35559
キ	-8.35679
ウ	-8.35754
言語	-8.35849
&	-8.35979
かもしれない	-8.36563
パ	-8.36887
トン	-8.37145
km	-8.37165
フランス	-8.37364
19	-8.37613
クラブ	-8.37689
ノ	-8.38017
だろう	-8.38108
L	-8.38577
パン	-8.38748
位	-8.38951
生	-8.39075
r	-8.39201
▁*	-8.39772
セ	-8.39812
G	-8.40255
大きな	-8.40276
していた	-8.40583
米国	-8.40961
の中で	-8.40962
▁4.	-8.40962
問題	-8.40978
それ	-8.41193
」、「	-8.41235
年間	-8.41724
車	-8.41731
川	-8.42066
後に	-8.42402
アン	-8.42427
経済	-8.42625
海	-8.42713
ラン	-8.43361
ハ	-8.43473
各	-8.43615
体	-8.43659
ボ	-8.4392
i	-8.43929
モ	-8.44455
N	-8.44558
'	-8.44598
料理	-8.44683
において	-8.44692
万	-8.44986
ための	-8.45293
チ	-8.45323
O	-8.45346
シリーズ	-8.45477
いた	-8.45703
スター	-8.46343
機能	-8.46387
テ	-8.46433
動物	-8.46681
化	-8.47438
物	-8.4791
って	-8.47996
高	-8.4802
ラー	-8.48164
活動	-8.48377
名	-8.48426
外	-8.48498
研究	-8.48558
リーグ	-8.48618
メ	-8.48658
通常	-8.48793
選手	-8.48841
X	-8.48848
賞	-8.49375
イギリス	-8.49491
d	-8.49849
犬	-8.49886
ボール	-8.50048
ことを	-8.50696
さ	-8.50956
地	-8.5109
私は	-8.51127
上	-8.51223
小さな	-8.51484
o	-8.51501
方法	-8.51957
め	-8.52068
情報	-8.523
特定の	-8.5239
プロ	-8.5268
長	-8.53011
とともに	-8.53398
月に	-8.53883
ドイツ	-8.54198
▁この	-8.54565
ほとんどの	-8.54659
非常に	-8.54998
う	-8.55005
行	-8.55009
アル	-8.5526
を使って	-8.55297
a	-8.55515
製品	-8.55754
シー	-8.56574
l	-8.56644
企業	-8.5672
エネルギー	-8.57232
運動	-8.57578
中国	-8.57681
となり	-8.57972
サン	-8.58083
カー	-8.58141
ビル	-8.58257
レース	-8.58746
一般的に	-8.58978
プロセス	-8.59042
彼女は	-8.59116
H	-8.59259
シュ	-8.59328
文化	-8.59446
ケ	-8.59518
発	-8.59607
み	-8.59752
元	-8.60149
ッ	-8.60435
すること	-8.60539
40	-8.60799
戦争	-8.61047
させる	-8.61076
ヨーロッパ	-8.61309
山	-8.61374
No	-8.61568
社会	-8.616
は通常	-8.61674
出	-8.62047
お	-8.62122
W	-8.62313
リスト	-8.62559
不	-8.62774
er	-8.62799
ネットワーク	-8.62935
様々な	-8.63256
リン	-8.63515
ではない	-8.63564
例	-8.6407
電気	-8.64083
女性	-8.64332
50	-8.64403
ロック	-8.64542
k	-8.6455
っている	-8.64636
ドル	-8.64955
時	-8.65
億	-8.65109
組織	-8.65156
環境	-8.65185
▁5.	-8.65342
マー	-8.65689
ニー	-8.65858
ヤ	-8.66118
会社	-8.66161
ソフトウェア	-8.66246
25	-8.66403
フィート	-8.6654
ビジネス	-8.66727
ベ	-8.66748
▁of	-8.66788
▁なぜ	-8.66966
色	-8.67018
ヒ	-8.67092
en	-8.6729
無	-8.67748
ではなく	-8.67814
オーストラリア	-8.67904
試合	-8.67957
このような	-8.68166
でもある	-8.6841
NBA	-8.68633
p	-8.68701
w	-8.68709
することができる	-8.6877
曲	-8.68783
[	-8.68794
ツ	-8.68901
プログラム	-8.69061
下	-8.69106
ニューヨーク	-8.69191
現在	-8.69517
The	-8.69541
線	-8.69726
J	-8.69965
的に	-8.70053
重要な	-8.70108
何	-8.70114
ことは	-8.70411
前に	-8.70601
ゴ	-8.70834
u	-8.70937
24	-8.71045
ター	-8.71086
現在の	-8.71155
に対して	-8.71202
学	-8.71316
湖	-8.71317
するために	-8.71455
ー	-8.71575
彼らは	-8.71766
どの	-8.71998
だが	-8.72234
同じ	-8.72256
などがある	-8.7251
音	-8.72727
子	-8.73027
ジャ	-8.73061
ワ	-8.73265
リング	-8.73471
スキー	-8.73518
ヴィ	-8.73617
コーヒー	-8.73668
非	-8.73686
c	-8.73803
全	-8.73806
計画	-8.73836
2022	-8.74102
ギター	-8.74122
気	-8.74181
V	-8.74221
なら	-8.74376
22	-8.74381
とき	-8.74826
日本	-8.75104
キー	-8.75182
主に	-8.75244
開発	-8.75362
素晴らしい	-8.75814
ピ	-8.76155
よう	-8.76453
家族	-8.76481
によると	-8.76528
国際	-8.76713
al	-8.76794
レイ	-8.77232
間	-8.77332
エル	-8.77413
作品	-8.77446
g	-8.77456
たり	-8.77505
心	-8.77609
21	-8.77884
面	-8.77895
キング	-8.7792
プロジェクト	-8.77956
AI	-8.78149
フットボール	-8.78229
複数の	-8.78251
光	-8.78351
異なる	-8.78443
新	-8.78499
60	-8.78551
します	-8.79264
人間	-8.79302
良い	-8.79306
人は	-8.79704
船	-8.79877
シャ	-8.8032
戦	-8.80492
28	-8.8054
内	-8.80602
もある	-8.80724
銀行	-8.80925
』(	-8.80928
スト	-8.81211
社	-8.81298
からの	-8.81308
対	-8.81317
メートル	-8.81383
ジェ	-8.81476
0	-8.81501
方	-8.81776
教育	-8.81828
木	-8.81849
部門	-8.81873
ほど	-8.82004
金	-8.82246
を教えてください	-8.82346
管理	-8.82608
コード	-8.82784
最大の	-8.83208
コン	-8.83212
種	-8.83313
勝	-8.83695
ジェームズ	-8.83853
関係	-8.83925
優勝	-8.84031
行動	-8.84075
にとって	-8.8415
植物	-8.84261
U	-8.84396
仕事	-8.84402
風	-8.84466
最高の	-8.84575
個人	-8.84616
ペ	-8.85119
型	-8.85176
ポイント	-8.85198
れば	-8.85381
セット	-8.85437
x	-8.85608
流	-8.85678
クリケット	-8.85692
b	-8.85697
カナダ	-8.86021
ビーチ	-8.86024
初の	-8.86047
といった	-8.86348
チーズ	-8.86445
てきた	-8.86504
ながら	-8.86643
アー	-8.86907
その他の	-8.8697
作	-8.87045
学校	-8.87176
一般的な	-8.87237
カル	-8.87349
王	-8.87575
f	-8.8773
ソン	-8.87765
中に	-8.87778
歳	-8.87825
設計	-8.87854
なのか	-8.88058
道	-8.88111
バンド	-8.88523
国家	-8.88724
科学	-8.88827
のための	-8.89064
足	-8.89125
人口	-8.89184
系	-8.89191
トップ	-8.8953
トレーニング	-8.89908
定	-8.89981
ナー	-8.90227
大統領	-8.90601
となっている	-8.90673
ま	-8.90681
ギ	-8.90859
市場	-8.90951
以上の	-8.91138
最後の	-8.91622
のうち	-8.91632
ロンドン	-8.92053
ベル	-8.92079
カップ	-8.92105
ブランド	-8.92311
人が	-8.92318
空	-8.92443
自然	-8.92556
こともある	-8.92591
なさい	-8.92611
イタリア	-8.92661
少なくとも	-8.92931
能力	-8.93062
サッカー	-8.93194
日生まれ	-8.93429
政府	-8.93451
わ	-8.93819
は何	-8.93886
の一部	-8.9392
;	-8.94204
に位置する	-8.94213
を提供する	-8.94215
られる	-8.94362
ライン	-8.94543
火	-8.94681
なければならない	-8.94849
太陽	-8.94992
役	-8.95179
んだ	-8.95421
ダー	-8.95644
顧客	-8.95671
軍	-8.95747
だけでなく	-8.96041
パリ	-8.96047
ジョージ	-8.96257
別の	-8.96281
ソ	-8.96323
場合は	-8.9646
ガン	-8.96534
ています	-8.96644
なかった	-8.96718
を通じて	-8.96792
26	-8.96838
白	-8.96907
最大	-8.96969
量	-8.96992
ロン	-8.97024
を務めた	-8.97282
のある	-8.97299
ファン	-8.97327
世	-8.97721
平均	-8.97722
サー	-8.9777
時代	-8.97845
ing	-8.98124
パー	-8.98151
地球	-8.98189
いる	-8.98507
どのような	-8.98509
熱	-8.98589
結果	-8.98628
南	-8.98716
イギリスの	-8.98739
ファ	-8.98806
子供	-8.98819
代	-8.98856
リア	-8.99675
ナショナル	-8.99965
プレー	-8.99973
自転車	-9.00285
をする	-9.0032
シングル	-9.0054
させ	-9.00546
2012	-9.0064
で最も	-9.00681
大会	-9.00754
有名な	-9.0088
しか	-9.01006
まず	-9.01038
ときに	-9.01057
ポ	-9.01086
形	-9.01248
_	-9.01388
ˈ	-9.0165
あなたの	-9.01752
分析	-9.0183
猫	-9.02145
を使う	-9.02194
生産	-9.02223
神	-9.02389
コンピューター	-9.02493
作家	-9.0261
記録	-9.02929
ものである	-9.03059
状態	-9.03078
ヴァ	-9.03176
米	-9.03189
ことである	-9.03517
以上	-9.03517
29	-9.03519
]	-9.03614
▁S	-9.03623
ホ	-9.03684
コンピュータ	-9.03757
人間の	-9.03924
}	-9.04029
ローマ	-9.04035
フィールド	-9.0406
27	-9.04191
したり	-9.04205
れ	-9.04236
ガー	-9.04269
小	-9.04303
市	-9.04415
紀元前	-9.04438
ような	-9.04539
バス	-9.0463
自由	-9.04782
投資	-9.04799
郡	-9.04801
ました	-9.04883
iPhone	-9.04924
500	-9.04941
ことが多い	-9.05003
z	-9.05163
連邦	-9.05459
はすべて	-9.05533
世紀	-9.05554
のひとつ	-9.0576
赤	-9.05837
h	-9.06064
は弦楽器	-9.06075
へ	-9.06079
エンジン	-9.06245
センター	-9.06316
に基づいて	-9.06338
村	-9.06341
スペイン	-9.06358
テレビ	-9.06363
可能性がある	-9.06388
政治	-9.06505
増	-9.06554
理由	-9.06638
肉	-9.07067
カン	-9.07088
テスト	-9.07124
を識別する	-9.07404
アプローチ	-9.07423
よく	-9.07426
になった	-9.07613
ロード	-9.07667
人物	-9.07763
られた	-9.07864
のひとつである	-9.07935
バン	-9.08042
必要がある	-9.08074
があります	-9.08095
トラ	-9.08171
書	-9.08174
惑星	-9.08292
話	-9.08347
として知られる	-9.08442
もので	-9.08574
アーティスト	-9.08604
最後に	-9.08616
られ	-9.08705
アンド	-9.08725
スイス	-9.08751
ホール	-9.08872
ワールド	-9.08932
公園	-9.09097
ロシア	-9.09227
カリフォルニア州	-9.09274
高い	-9.09278
層	-9.0985
西	-9.09867
LLM	-9.09912
つまり	-9.09922
け	-9.09931
それは	-9.09968
ライト	-9.10268
入	-9.10366
ことが	-9.10409
▁[	-9.1071
細胞	-9.10938
食	-9.1101
とその	-9.11049
む	-9.11095
かどうか	-9.11154
があった	-9.11184
万人	-9.11246
リード	-9.11365
ゲ	-9.1137
23	-9.11458
版	-9.11462
のように	-9.11754
号	-9.11904
in	-9.11906
しばしば	-9.11906
ブルー	-9.12078
私の	-9.12084
パーク	-9.12115
頭	-9.12118
旅行	-9.12269
価格	-9.12286
アフリカ	-9.12307
攻撃	-9.12318
電子	-9.12343
レン	-9.12435
実	-9.12443
イベント	-9.12497
an	-9.1251
主	-9.12549
のことである	-9.12678
上で	-9.12769
ラム	-9.1294
おり	-9.12983
を持ち	-9.12984
トゥ	-9.13094
シティ	-9.13105
っ	-9.13197
一方	-9.13298
着	-9.13392
経験	-9.13522
ツアー	-9.13618
▁the	-9.1362
部	-9.13698
タイ	-9.13747
上の	-9.14604
の両方	-9.14626
部分	-9.14679
卵	-9.14701
ビー	-9.1476
たい	-9.14775
え	-9.14999
目的	-9.15024
ブル	-9.15026
北	-9.15166
ライ	-9.15253
アメリカン	-9.1545
それぞれ	-9.15614
にもかかわらず	-9.15713
伝統的な	-9.15761
ツール	-9.15896
塩	-9.16058
唯一の	-9.16111
200	-9.16213
Y	-9.16256
マイケル	-9.16403
)、『	-9.165
可能な	-9.16662
エン	-9.1708
を作る	-9.17205
31	-9.17277
コー	-9.17331
us	-9.17396
秒	-9.17434
ワシントン	-9.17485
ワイン	-9.17517
東	-9.17598
監督	-9.17662
年にかけて	-9.17755
を持っている	-9.17941
ゴール	-9.17949
再	-9.17962
ルール	-9.17987
長い	-9.18056
ゴルフ	-9.18239
世界の	-9.18575
ベース	-9.18633
▁どの楽器が弦楽器か打楽器か	-9.18744
メディア	-9.18757
80	-9.18845
スペース	-9.18911
イングランド	-9.1892
適切な	-9.19203
アプリケーション	-9.19217
スタイル	-9.19286
ことだ	-9.19311
個	-9.19316
チャ	-9.19386
チームは	-9.19544
内の	-9.19571
状況	-9.19599
広く	-9.19665
バル	-9.19667
理論	-9.19758
ていない	-9.19842
タイム	-9.19919
ガス	-9.19972
▁A	-9.19974
制	-9.2
セント	-9.20031
▁C	-9.20092
1960	-9.20139
名前	-9.20151
は打楽器	-9.20169
英国	-9.20308
期	-9.20333
愛	-9.20342
ビデオ	-9.20395
主な	-9.20423
だけ	-9.207
議会	-9.20718
インドの	-9.20796
要素	-9.20799
ウィリアム	-9.20931
1990	-9.21178
▁B	-9.21242
要	-9.21246
ミュージック	-9.21404
構造	-9.21437
ar	-9.21583
自動車	-9.21604
フィ	-9.21717
キャリア	-9.2202
アジア	-9.22116
レッド	-9.22179
re	-9.22464
オン	-9.22465
しない	-9.22479
レス	-9.22551
材料	-9.22551
生活	-9.22595
保護	-9.22655
友人	-9.22733
タンパク質	-9.22736
すぐに	-9.22872
そのため	-9.23035
委員会	-9.23085
その結果	-9.23094
機	-9.23127
地元の	-9.23238
フォード	-9.23248
てください	-9.23547
当時	-9.23693
インチ	-9.2376
アイ	-9.23878
パス	-9.23957
▁P	-9.24004
ハウス	-9.24019
ジュ	-9.24034
しており	-9.24113
学習	-9.24206
オープン	-9.24271
のですか	-9.24388
場	-9.24483
退	-9.24704
on	-9.25
ると	-9.2503
ハイ	-9.2507
局	-9.25113
、"	-9.25128
すると	-9.25133
ソース	-9.25204
カード	-9.25229
以下の	-9.25312
通り	-9.25395
バスケットボール	-9.25416
立	-9.25486
を指す	-9.25503
としては	-9.25525
コミュニティ	-9.25546
処理	-9.25573
アウト	-9.25608
製造	-9.25717
からなる	-9.25725
ること	-9.25756
を行う	-9.25802
産業	-9.25824
食事	-9.25865
ルー	-9.25994
からだ	-9.26023
カレッジ	-9.26024
全米	-9.26029
死	-9.26159
ベスト	-9.26162
言葉	-9.26212
ることができる	-9.26277
用の	-9.26364
デジタル	-9.26498
建物	-9.26509
レベル	-9.26694
英語	-9.26845
インターネット	-9.26852
石	-9.27009
is	-9.27059
健康	-9.27238
彼女の	-9.27343
ボート	-9.27404
再び	-9.27479
星	-9.27805
める	-9.27832
ウェイ	-9.27912
大陸	-9.27921
ショー	-9.27939
反応	-9.28313
ボストン	-9.28325
することで	-9.2837
ネット	-9.28391
正	-9.28567
クラス	-9.28586
35	-9.28617
70	-9.28647
式	-9.28825
協会	-9.28888
マーク	-9.28926
2023	-9.28938
ビッグ	-9.28995
競技	-9.29049
ポンド	-9.29055
ギリシャ	-9.29148
ワン	-9.29195
使用	-9.29349
間の	-9.29396
タン	-9.29399
|	-9.29402
生まれ	-9.29425
プラットフォーム	-9.29626
選挙	-9.29732
代表	-9.29765
次の	-9.29846
花	-9.29861
オリンピック	-9.29892
魚	-9.30042
の間	-9.30094
90	-9.3021
バック	-9.30227
グリーン	-9.30373
族	-9.30391
ブラック	-9.30421
独立	-9.3047
合	-9.30646
ランド	-9.30698
北米	-9.30704
ハリー	-9.30976
-19	-9.3102
芸術	-9.31108
を受け	-9.3115
機械	-9.31251
▁6.	-9.31255
見	-9.31288
ユーザー	-9.31535
私	-9.31661
年代	-9.31759
のみ	-9.31777
シン	-9.31831
コース	-9.3193
戦略	-9.32002
の主な	-9.32039
オー	-9.32054
彼らの	-9.32173
オール	-9.32183
ダン	-9.3223
先	-9.32247
公	-9.32337
なぜ	-9.32413
物質	-9.32445
デル	-9.32471
ず	-9.32509
ことができます	-9.32634
2020	-9.32848
側	-9.32864
野菜	-9.32868
ック	-9.32878
リスク	-9.32943
ra	-9.32961
低	-9.32965
キャラクター	-9.32982
チェス	-9.33034
可能性	-9.33156
年代に	-9.33161
自分	-9.33206
効果	-9.33282
ur	-9.33349
によれば	-9.33391
俳優	-9.33392
たちは	-9.33487
シカゴ	-9.33548
母	-9.33623
動	-9.33635
▁F	-9.33674
▁これらの	-9.33677
会	-9.33706
評価	-9.33792
転	-9.33818
げ	-9.33833
値	-9.34024
歴史	-9.34083
キロ	-9.34102
事業	-9.34246
のだ	-9.34289
サイズ	-9.34347
価値	-9.34397
すべて	-9.34422
カ国	-9.34553
計算	-9.34574
分野	-9.34653
できない	-9.34654
生物	-9.34707
教会	-9.34711
タスク	-9.3473
私たちは	-9.34739
定義	-9.34751
人気	-9.34775
遺伝子	-9.3491
鳥	-9.35301
初	-9.35441
小説	-9.3546
」(	-9.35461
させた	-9.35474
ポール	-9.35487
夜	-9.356
SF	-9.358
はまた	-9.35831
中の	-9.35912
航空	-9.35963
主義	-9.35964
の間に	-9.35984
それが	-9.35993
マシン	-9.36011
地方	-9.36041
学生	-9.36121
近く	-9.3622
得点	-9.36432
2003	-9.36513
レコード	-9.36615
テーブル	-9.36704
ジー	-9.36878
万ドル	-9.36932
要因	-9.36961
ニュージーランド	-9.37014
ed	-9.37017
後の	-9.37095
特徴	-9.37117
知	-9.37146
障害	-9.37542
食べ物	-9.37562
1998	-9.37579
知識	-9.37621
サイド	-9.37652
これ	-9.37677
成功	-9.37711
訓練	-9.37792
今	-9.3801
県	-9.38021
の名前	-9.38059
アイルランド	-9.3806
国立公園	-9.38081
とても	-9.3812
紙	-9.38128
いて	-9.38282
ヌ	-9.38506
期間	-9.38513
2004	-9.38575
はない	-9.38699
契約	-9.38861
テニス	-9.38872
アップ	-9.39106
著	-9.39132
トーナメント	-9.39138
▁and	-9.39142
おそらく	-9.39152
+	-9.39317
美しい	-9.39578
テスラ	-9.39598
ro	-9.39614
空気	-9.39627
パワー	-9.39705
安全	-9.39722
la	-9.39773
le	-9.39773
ピザ	-9.3978
ファイル	-9.40144
ジョー	-9.40153
セキュリティ	-9.40173
雪	-9.40232
社会的	-9.4025
ジャック	-9.40256
リンゴ	-9.40271
ましょう	-9.40357
リス	-9.40455
移動	-9.40656
シアトル	-9.40701
本の	-9.40752
条件	-9.40775
と考えられている	-9.40891
ウェスト	-9.40961
男子	-9.40963
テキスト	-9.41004
考え	-9.4106
ことがある	-9.41103
at	-9.4118
多	-9.41245
単語	-9.41256
ロサンゼルス	-9.413
フレーム	-9.41329
NFL	-9.41332
300	-9.41449
感情	-9.41475
ニュー	-9.4148
重	-9.41488
チームが	-9.41497
権	-9.41616
取引	-9.41879
種類の	-9.42182
が含まれる	-9.42204
気候	-9.42253
初期の	-9.42278
アクティビティ	-9.42429
のリスト	-9.42566
空間	-9.42667
毎年	-9.42727
あらゆる	-9.42856
常に	-9.42885
地区	-9.42911
やその他の	-9.4292
or	-9.43156
黒	-9.4318
歌	-9.43189
ホーム	-9.43195
あなたが	-9.43371
差	-9.43391
感	-9.43425
がない	-9.43485
ホワイト	-9.43545
ストーリー	-9.43561
アルゴリズム	-9.43568
っていた	-9.43635
マル	-9.43729
とも呼ばれる	-9.4384
がいる	-9.43884
の種類	-9.43888
フェ	-9.43944
店	-9.44006
2021	-9.4401
こともできる	-9.44029
ゴールデン	-9.44127
サンフランシスコ	-9.44311
指	-9.44415
親	-9.44629
は何ですか	-9.44648
雨	-9.44663
半	-9.44703
飛行機	-9.44716
ティー	-9.44764
ドゥ	-9.45081
台	-9.45112
法律	-9.45243
調査	-9.45251
文字	-9.45367
大規模な	-9.45404
土地	-9.4563
人々が	-9.45651
目標	-9.45765
青	-9.45797
年現在	-9.45867
オンライン	-9.45957
利用	-9.45966
と一緒に	-9.45985
ゼ	-9.45994
トラック	-9.46047
果物	-9.46194
史上	-9.46206
率	-9.46268
トム	-9.46308
株式	-9.46346
2019	-9.46368
チェ	-9.46371
ウッド	-9.46396
強	-9.46572
ドライバー	-9.46576
バイ	-9.46577
ん	-9.46578
バイク	-9.46627
2007	-9.46714
ベイ	-9.46736
ブラジル	-9.46805
じ	-9.46904
Q	-9.46922
番組	-9.46989
商品	-9.46991
ジョ	-9.47059
%	-9.47075
かった	-9.47154
度の	-9.47184
か教えてください	-9.47467
文	-9.47491
ハイキング	-9.47596
分類	-9.4761
強い	-9.47709
it	-9.47729
マス	-9.47746
ri	-9.47906
質	-9.47949
距離	-9.47987
平	-9.48022
最終的に	-9.48286
の使用	-9.48294
進	-9.48383
宗教	-9.48566
レストラン	-9.48702
テーマ	-9.48709
男性	-9.48801
を示す	-9.48816
制度	-9.48831
政治的	-9.48918
両	-9.4892
表現	-9.48972
どんな	-9.49006
作業	-9.49111
こ	-9.49162
んで	-9.49175
▁2022	-9.49274
次に	-9.49302
の最初の	-9.49322
フリー	-9.49325
飛行	-9.49336
ディズニー	-9.49352
グーグル	-9.49362
機関	-9.49386
の間で	-9.49406
リチャード	-9.49413
ことになる	-9.4942
アップル	-9.49483
馬	-9.49492
コート	-9.49525
は一般的に	-9.49543
初めて	-9.49549
国民	-9.49633
ノー	-9.4969
街	-9.49787
総	-9.49802
世界で最も	-9.49923
ポップ	-9.49934
NATO	-9.49953
1991	-9.49981
に行く	-9.49991
のだろうか	-9.50032
トリ	-9.5004
データベース	-9.50117
デイ	-9.50346
ハー	-9.50378
物体	-9.50452
を見	-9.50482
敗	-9.505
分の	-9.505
枚	-9.50623
されていない	-9.50626
野球	-9.5065
鉄道	-9.50684
ば	-9.50704
65	-9.5075
ウィ	-9.50755
45	-9.50802
とする	-9.50803
ドン	-9.50981
すれば	-9.51077
ペット	-9.51149
ロバート	-9.51569
セル	-9.51594
et	-9.51614
変更	-9.51688
」「	-9.51702
ダンス	-9.51703
悪	-9.51711
写真	-9.51727
2014	-9.5183
声	-9.52113
世界で	-9.52181
2009	-9.52201
変化	-9.52242
緑	-9.52367
ブロック	-9.52462
ヴァン	-9.52508
帝国	-9.52654
1950	-9.52683
メン	-9.52757
たち	-9.52762
ボー	-9.52966
ジュニア	-9.53013
員	-9.53021
毎日	-9.53033
シャー	-9.53063
食品	-9.5344
1983	-9.53471
サポート	-9.53523
業界	-9.53524
を意味する	-9.53564
資産	-9.53613
に関連する	-9.53641
メキシコ	-9.53677
利益	-9.53702
関連	-9.53744
氷	-9.53752
デザイン	-9.53989
過去	-9.54003
者の	-9.54071
位置	-9.54093
チャンピオン	-9.54097
1993	-9.54111
もっと	-9.54181
▁M	-9.54204
複雑な	-9.54232
医療	-9.54247
弁護士	-9.54254
フランスの	-9.54267
主要な	-9.54294
決定	-9.54447
そう	-9.54744
議論	-9.54859
プロンプト	-9.54871
デバイス	-9.54879
に基づく	-9.54888
1999	-9.54908
統合	-9.54996
行われる	-9.54997
資金	-9.54998
男	-9.55054
口	-9.55167
直	-9.55179
最高	-9.55252
フル	-9.55272
されていた	-9.55345
説明	-9.55381
明	-9.55393
メイン	-9.55467
脳	-9.55498
太平洋	-9.55504
カントリー	-9.55505
集団	-9.55521
ベン	-9.55535
するための	-9.55573
属	-9.55577
部屋	-9.55629
彼	-9.5575
トル	-9.55777
は以下の通り	-9.55781
王国	-9.55853
ブラン	-9.55976
のため	-9.56017
になり	-9.56114
以外の	-9.5613
資源	-9.56141
Java	-9.56157
を行った	-9.56157
シンガポール	-9.56178
ようになった	-9.56222
マイ	-9.56231
ところ	-9.56304
月から	-9.56373
スタ	-9.56485
週	-9.56553
土	-9.56701
2018	-9.56718
解	-9.56793
へと	-9.56887
ルート	-9.57051
べき	-9.57154
自	-9.57321
国内	-9.5738
オーストリア	-9.57436
を使用する	-9.57707
の一人	-9.57717
身	-9.57786
OS	-9.57873
予測	-9.57889
1996	-9.58056
牛	-9.58064
リゾート	-9.58068
女子	-9.58095
短い	-9.58106
科	-9.58211
認識	-9.58399
カール	-9.58443
el	-9.58502
勝利	-9.58594
れる	-9.58594
タイトル	-9.58615
高校	-9.58662
人々	-9.58662
優れた	-9.58662
薬	-9.58704
空港	-9.58739
オプション	-9.58747
ボン	-9.58828
デビュー	-9.58876
必要	-9.58939
者は	-9.59058
ご	-9.59135
を選ぶ	-9.59162
▁以下の	-9.59204
それぞれの	-9.59409
es	-9.59626
デン	-9.5977
投票	-9.59797
言	-9.59836
スーパー	-9.59885
味	-9.59943
相	-9.59971
の数	-9.60012
軍事	-9.60016
コミュニケーション	-9.60054
農業	-9.60063
なる	-9.60065
道路	-9.60068
団体	-9.60079
ッツ	-9.60113
ビール	-9.60201
所	-9.60299
クリス	-9.60344
ものだ	-9.60404
ヒル	-9.60435
2017	-9.60531
南部	-9.60626
付け	-9.60665
合計	-9.60682
バッテリー	-9.60721
橋	-9.60723
ヘンリー	-9.60744
ことに	-9.60778
葉	-9.60834
携帯電話	-9.60846
植民地	-9.6087
公開	-9.60878
コロンビア	-9.60943
プレイ	-9.61044
方法は	-9.61044
億ドル	-9.61063
座	-9.61106
全体	-9.61122
別	-9.61164
簡単に	-9.61173
住宅	-9.6137
政策	-9.6138
マーティン	-9.6143
▁2023	-9.61443
メンバー	-9.61485
コーチ	-9.61519
週間	-9.61653
1984	-9.61736
以来	-9.61752
v	-9.61771
日間	-9.61773
人生	-9.6178
成長	-9.61843
影響	-9.6186
水素	-9.6186
一般に	-9.61874
で開催された	-9.62
建築	-9.62004
ザー	-9.62031
クラ	-9.62073
ストリート	-9.62089
重力	-9.62129
ビデオゲーム	-9.62212
年以降	-9.62352
36	-9.62353
アメリカ人	-9.62465
学者	-9.62536
チリ	-9.62597
何か	-9.6262
楽しい	-9.62688
残	-9.62748
プール	-9.62753
ホテル	-9.62767
発音	-9.62802
反	-9.6284
来	-9.6287
もう	-9.6288
壁	-9.62913
近	-9.62955
通常は	-9.6299
朝	-9.62997
エジプト	-9.63109
5,	-9.63154
出来事	-9.63166
j	-9.63192
家庭	-9.63249
旧	-9.63298
調	-9.6341
フォン	-9.63424
追加	-9.63442
を通して	-9.63469
してください	-9.63469
最も一般的な	-9.63511
ワールドカップ	-9.63563
金融	-9.63569
電話	-9.63618
ほとんど	-9.63645
物語	-9.63683
所得	-9.63813
ヴェ	-9.63842
体験	-9.63856
▁7.	-9.63903
ーズ	-9.63906
2015	-9.64005
条	-9.64091
ヘッド	-9.64096
ファイナル	-9.64121
必要な	-9.64181
制限	-9.64202
ジャクソン	-9.64265
1995	-9.64332
次	-9.64462
ミー	-9.64598
32	-9.64692
実行	-9.64739
グラ	-9.64748
油	-9.64795
ユ	-9.64817
行為	-9.64823
現代	-9.64882
額	-9.64953
ドラム	-9.65064
消費	-9.65075
よ	-9.6509
に由来する	-9.65131
冬	-9.65133
ロス	-9.65182
一部の	-9.65223
ことができ	-9.65278
と呼ばれ	-9.653
Z	-9.65316
文学	-9.65318
(「	-9.65329
ペン	-9.65354
ジン	-9.65403
ップ	-9.65445
ジャンル	-9.65463
電力	-9.65513
それを	-9.65521
スタジオ	-9.65522
歳で	-9.65575
南アフリカ	-9.65585
ガラス	-9.65596
2002	-9.65676
好きな	-9.65828
ッチ	-9.65886
コル	-9.65937
400	-9.6595
モン	-9.66018
時に	-9.66086
派	-9.66126
彼が	-9.66136
プラ	-9.66177
波	-9.66188
鉄	-9.66201
コンテンツ	-9.66223
プレミアリーグ	-9.6633
源	-9.66359
日から	-9.66532
質問	-9.66558
あなた	-9.66559
スミス	-9.66583
接続	-9.66599
li	-9.66678
完全に	-9.66768
コスト	-9.66839
スペイン語	-9.66865
端	-9.66916
スピード	-9.66928
楽器	-9.66928
首都	-9.66938
ブリ	-9.66972
グル	-9.66998
せ	-9.67067
▁T	-9.67081
1965	-9.67192
▁E	-9.67244
▁また	-9.67514
ハワイ	-9.67554
ブドウ	-9.67645
領域	-9.67649
フランチャイズ	-9.67649
超	-9.6765
マイクロソフト	-9.6765
アマゾン	-9.67651
キャンプ	-9.67669
1985	-9.67675
クラウド	-9.67744
大きく	-9.67752
ことから	-9.67757
町	-9.67778
ジム	-9.6782
家の	-9.68063
収入	-9.68066
倍	-9.68108
角	-9.68261
-1	-9.68326
前の	-9.68332
害	-9.68347
ね	-9.68353
ソーシャルメディア	-9.68357
草	-9.68361
博物館	-9.68363
根	-9.68366
世代	-9.68386
2016	-9.68473
していない	-9.68572
ません	-9.68574
オランダ	-9.68576
私たちの	-9.68608
1994	-9.68827
オレンジ	-9.6887
番	-9.68953
マウンテン	-9.69087
論	-9.69146
トマト	-9.69155
入力	-9.69162
アート	-9.69213
バラ	-9.69279
1988	-9.69333
練習	-9.69334
々	-9.69382
2000	-9.69394
多くの場合	-9.69436
トロフィー	-9.69494
食べる	-9.69512
協力	-9.69645
選択	-9.69704
ゴー	-9.69705
ジョンソン	-9.69707
ほぼ	-9.69791
観光	-9.69807
標高	-9.69814
は約	-9.69929
ファー	-9.69978
なり	-9.70008
政権	-9.70016
年までに	-9.70026
は非常に	-9.70067
が高い	-9.70155
出身の	-9.70171
操作	-9.70214
一緒に	-9.7024
ブラウン	-9.7049
ドイツの	-9.70522
ポーランド	-9.70561
CEO	-9.70562
費用	-9.70575
のリストを教えてください	-9.70601
クロ	-9.70615
FA	-9.7071
を与える	-9.7074
内で	-9.70826
データを	-9.70892
数学	-9.70895
ち	-9.70901
の上に	-9.7099
分子	-9.71068
ホッケー	-9.7109
もし	-9.71101
to	-9.71169
始めた	-9.71181
ぶ	-9.71188
にする	-9.71199
拡張	-9.71214
回の	-9.71225
COVID	-9.71256
核	-9.71273
一連の	-9.71276
スクール	-9.7128
の歴史	-9.7129
省	-9.71292
平方マイル	-9.71301
少し	-9.71308
年と	-9.71345
ゲノム	-9.71381
ナイト	-9.71438
コントロール	-9.71505
そ	-9.71517
通	-9.71537
中国の	-9.71652
サイ	-9.71842
ドア	-9.71856
エア	-9.71861
建設	-9.7193
聖	-9.72016
ったり	-9.72022
歯	-9.7204
サム	-9.72046
施設	-9.72048
液体	-9.72049
事件	-9.72053
小さい	-9.72057
サウス	-9.72061
2011	-9.7215
トー	-9.72177
人々は	-9.72198
実験	-9.72201
ジャン	-9.72206
政治家	-9.72272
基本的な	-9.72278
se	-9.72283
これが	-9.72318
を使った	-9.72336
カリフォルニア	-9.72391
の主要な	-9.72404
のない	-9.72484
支援	-9.72568
スキル	-9.72611
いい	-9.72631
II	-9.72638
▁ジョン	-9.72698
保険	-9.727
お金	-9.72708
電流	-9.7271
強力な	-9.72748
私が	-9.72753
ことです	-9.72758
レビュー	-9.72768
エンジニア	-9.72781
皮	-9.72789
画像	-9.72793
関数	-9.72799
哺乳類	-9.728
カテゴリー	-9.72804
フェデラーは	-9.72821
ピンク	-9.72857
▁第	-9.72917
ット	-9.72944
セン	-9.72962
の後	-9.73019
を行い	-9.7304
ール	-9.73171
ヘ	-9.73182
ドライブ	-9.73197
メーカー	-9.73201
ランニング	-9.7323
した後	-9.73238
ピーク	-9.73242
乗	-9.73279
であること	-9.73295
取り	-9.73316
本当に	-9.73404
DC	-9.73416
際	-9.73439
夏	-9.73444
デー	-9.73444
観光客	-9.73543
駅	-9.73549
を表す	-9.73549
YouTube	-9.73559
装置	-9.7356
パフォーマンス	-9.73587
産	-9.7359
答え	-9.73592
ダウン	-9.73595
49	-9.736
以下	-9.73601
トーマス	-9.73641
サブ	-9.73693
販売	-9.73833
機会	-9.73881
グラス	-9.73884
とも呼ばれ	-9.73949
ボールを	-9.73979
co	-9.73989
]。	-9.74049
通信	-9.74049
:「	-9.741
ビン	-9.74153
クス	-9.74254
時期	-9.74262
満	-9.7428
▁インド	-9.74293
カンファレンス	-9.74316
より多くの	-9.74324
ジョーダン	-9.74336
にあり	-9.74381
EU	-9.74425
ピン	-9.74452
タウン	-9.74452
圧力	-9.74741
▁K	-9.74794
マルチ	-9.7489
▁2021	-9.74939
三	-9.74981
購入	-9.74996
を受けた	-9.75014
ドー	-9.75044
ようになる	-9.75049
ファンタジー	-9.75076
MVP	-9.75093
大西洋	-9.75094
の中には	-9.7514
ドラマ	-9.75142
異	-9.75167
設定	-9.7534
▁W	-9.7538
グリ	-9.75504
de	-9.75511
現代の	-9.75567
ける	-9.75586
に加え	-9.75742
と同じ	-9.75767
状	-9.75788
を見る	-9.75835
山脈	-9.75862
ミッション	-9.75865
病	-9.75874
フランス語	-9.75911
1975	-9.75988
として知られている	-9.76061
たが	-9.76139
ソ連	-9.76221
されており	-9.76259
交換	-9.76323
犬種	-9.76335
の名前は	-9.76342
概念	-9.76419
2008	-9.76453
列	-9.76509
1986	-9.76537
図	-9.76609
com	-9.76627
共和国	-9.7664
基準	-9.76643
FIFA	-9.76646
ハードウェア	-9.76647
金属	-9.76657
ができる	-9.76688
温度	-9.76718
ダイ	-9.76736
ステージ	-9.76797
ドッグ	-9.76799
ゴールド	-9.76808
メイ	-9.76826
自分が	-9.76886
レコーディング	-9.76926
だけで	-9.77135
したがって	-9.77143
エイ	-9.77175
ウォーター	-9.7718
データセット	-9.77183
の結果	-9.77187
減	-9.77348
幅	-9.77374
弦	-9.77409
180	-9.77426
ホット	-9.7746
マンチェスター	-9.777
出し	-9.77745
を訪れる	-9.77779
ください	-9.77861
品	-9.77918
詩	-9.77923
ポルトガル	-9.77948
進化	-9.78016
スタジアム	-9.78022
海軍	-9.7816
乳	-9.7819
骨	-9.78218
窓	-9.78226
バター	-9.78263
エピソード	-9.78285
に近い	-9.78376
ガル	-9.78439
グレイ	-9.78475
止	-9.78481
まだ	-9.78508
一般	-9.78747
とも	-9.78824
99	-9.78911
st	-9.78916
と呼ばれている	-9.78932
2010	-9.78965
歳の	-9.78993
やすい	-9.79009
習慣	-9.79028
パートナー	-9.7903
ピーター	-9.79045
▁しかし	-9.79052
運転	-9.79193
存在	-9.79254
決勝	-9.79257
意味	-9.79259
進歩	-9.7926
ers	-9.79279
以前は	-9.79311
th	-9.79365
に分類する	-9.79399
そのような	-9.79433
できます	-9.7944
に入る	-9.79665
選択肢	-9.79689
配	-9.79715
アラスカ	-9.7975
父	-9.79766
新たな	-9.79833
季節	-9.79835
筋肉	-9.79836
レー	-9.79837
しなければならない	-9.79975
ウェブ	-9.79982
選	-9.80047
従来の	-9.80075
レット	-9.80147
日の	-9.80148
夢	-9.80156
方法で	-9.80173
アルゼンチン	-9.80354
リンク	-9.80419
時には	-9.80432
°	-9.80504
経済的	-9.80507
ますか	-9.80522
年代の	-9.80523
二	-9.80546
プラスチック	-9.80553
どのように	-9.8059
毛	-9.80605
責任	-9.8064
美術館	-9.80642
酸素	-9.80643
ギタリスト	-9.80645
通称	-9.80649
に基づき	-9.80652
ポッター	-9.80657
金利	-9.80658
演奏	-9.80775
しい	-9.80782
▁次の	-9.8081
ノース	-9.80815
パターン	-9.80885
はどこ	-9.80908
1981	-9.80916
レベルの	-9.80937
に登場する	-9.8094
バージョン	-9.8108
はなぜ	-9.81093
48	-9.81096
世紀の	-9.81185
世界中の	-9.81207
タイプ	-9.81207
te	-9.81226
出す	-9.81268
当初は	-9.81425
城	-9.8147
パイロット	-9.81472
出場	-9.8149
の高い	-9.81542
道具	-9.81544
直接	-9.81596
人に	-9.81663
に必要な	-9.81672
大学で	-9.81697
メール	-9.81705
番目の	-9.81759
方向	-9.81887
の方が	-9.819
であれば	-9.81904
ステップ	-9.81952
マスターズ	-9.82014
パイ	-9.82018
古い	-9.82079
保存	-9.82083
最初に	-9.82093
ia	-9.82146
ユー	-9.82215
プレーヤー	-9.82241
党	-9.82244
▁=	-9.82246
原因	-9.8226
当時の	-9.82273
スウェーデン	-9.82274
を受ける	-9.82283
マーケティング	-9.82286
38	-9.82288
機械学習	-9.8231
il	-9.82313
についての	-9.82328
オーバー	-9.82357
、2022	-9.82395
ソー	-9.82422
トルコ	-9.8255
化学	-9.82614
マーベル	-9.82618
発表	-9.82619
文化的	-9.82681
相手	-9.82699
34	-9.82716
はいつ	-9.82797
チャールズ	-9.82812
最多	-9.82823
2013	-9.82929
会議	-9.82946
すでに	-9.82965
▁2020	-9.83032
登録	-9.83034
収	-9.8305
スーパーボウル	-9.83088
興味	-9.83092
▁G	-9.83095
港	-9.831
広告	-9.83125
jpg	-9.83127
意識	-9.83128
予算	-9.83128
UEFA	-9.83142
を見つける	-9.83167
旅	-9.83272
マスク	-9.83385
の第	-9.83413
メント	-9.83417
ブラ	-9.8345
共有	-9.83464
を発表した	-9.83489
支配	-9.83607
ヴ	-9.83654
AC	-9.83693
犯罪	-9.83693
ol	-9.83742
これらは	-9.83766
do	-9.83775
アリ	-9.83796
-2	-9.83813
タル	-9.83921
出典	-9.83969
については	-9.83972
ジョセフ	-9.83973
クー	-9.83989
ボックス	-9.84003
▁アメリカ	-9.84053
開	-9.84149
らない	-9.84178
リーダー	-9.84284
正式に	-9.84296
今日	-9.84302
」)	-9.84344
従業員	-9.84463
リソース	-9.84494
シェ	-9.84515
としても	-9.84535
危険	-9.84584
同時に	-9.84676
マラソン	-9.84719
▁by	-9.84732
イラン	-9.84747
逆	-9.84751
フォー	-9.84759
用途	-9.84808
オフィス	-9.84815
結合	-9.84815
独自の	-9.84858
33	-9.84884
のトップ	-9.84963
番目に	-9.84976
キャ	-9.84989
団	-9.85088
第二次世界大戦	-9.85103
プレイヤーは	-9.85107
org	-9.85179
風味	-9.85198
2001	-9.85221
維持	-9.85234
チームの	-9.85273
1973	-9.85364
を与え	-9.85386
1987	-9.85429
までの	-9.85457
ch	-9.85472
時代の	-9.85482
のはいつ	-9.85572
文明	-9.85576
集	-9.85607
アカデミー	-9.8561
教授	-9.85644
バナナ	-9.85682
テレビ番組	-9.85687
に含まれる	-9.8581
春	-9.85895
1974	-9.85915
エリア	-9.85924
最	-9.85954
入り	-9.8601
あ	-9.86014
的で	-9.86026
1989	-9.86052
ことも	-9.86058
イー	-9.86165
高さ	-9.86215
構成	-9.86216
が多い	-9.86352
推定	-9.86431
代わりに	-9.86438
税	-9.86439
種類	-9.86473
バンク	-9.86509
砂	-9.86522
ho	-9.86535
://	-9.86535
統治	-9.86537
の開発	-9.86565
始め	-9.86567
64	-9.86574
これにより	-9.86579
品種	-9.86583
未	-9.86613
表	-9.86645
精神	-9.86687
共同	-9.86785
キリスト教	-9.8683
とは異なり	-9.86947
原	-9.87047
であるため	-9.87055
病気	-9.8708
圏	-9.87088
広	-9.87088
1963	-9.87105
モー	-9.87134
動き	-9.87173
あまり	-9.87204
石油	-9.87272
引き	-9.87366
規制	-9.87378
エンジニアリング	-9.8738
メアリー	-9.87389
首相	-9.87393
輸送	-9.87398
固体	-9.87401
食料	-9.87401
http	-9.87402
以前の	-9.87409
フィラデルフィア	-9.87414
数字	-9.87426
で生まれた	-9.87429
に位置し	-9.87491
の違い	-9.87553
を加える	-9.87736
にいる	-9.87757
ノルウェー	-9.87844
感覚	-9.87871
える	-9.87909
ニーズ	-9.87919
150	-9.88032
症状	-9.88066
その他	-9.88068
経	-9.8808
▁R	-9.88155
特別な	-9.88174
ローン	-9.8819
ベトナム	-9.88229
何度も	-9.88267
条約	-9.88291
牛乳	-9.88292
深い	-9.88304
があれば	-9.88337
込む	-9.8845
そこで	-9.88472
▁H	-9.88599
示	-9.88612
を学ぶ	-9.88647
られている	-9.88655
現	-9.88656
段階	-9.88704
主張	-9.88708
フォーク	-9.88828
テル	-9.88848
砂糖	-9.88941
(1	-9.8897
食べ	-9.89048
市民	-9.8906
器	-9.89086
カラ	-9.89113
原子	-9.89134
岩	-9.89142
モロッコ	-9.89153
頻繁に	-9.89161
NCAA	-9.89161
Python	-9.89163
課題	-9.89164
ボード	-9.89165
回転	-9.89196
制作	-9.89197
こう	-9.89208
ルイス	-9.89226
労働	-9.89312
クル	-9.89329
フィンランド	-9.89367
ly	-9.8937
タイヤ	-9.89484
▁J	-9.89534
as	-9.89663
供給	-9.89687
競争	-9.89696
十分な	-9.89728
で構成されている	-9.89754
▁2019	-9.89759
クレ	-9.89766
カナダの	-9.89768
47	-9.89886
人もいる	-9.89947
使われ	-9.89955
アーキテクチャ	-9.89981
どこ	-9.89996
持ち	-9.89999
機器	-9.90053
マジック	-9.90055
クリ	-9.90129
ベースの	-9.90145
68	-9.9015
ion	-9.90161
の多くは	-9.90167
と呼ぶ	-9.90194
):	-9.90201
の影響	-9.90214
1945	-9.90313
理解	-9.90419
パーティー	-9.90421
切り	-9.90441
ダル	-9.90481
▁{	-9.90507
▁私は	-9.90628
難しい	-9.90686
ビリヤニ	-9.90709
いつ	-9.90718
生徒	-9.90724
ヨーロッパの	-9.90759
を求める	-9.90842
▁これは	-9.90842
の一種	-9.90846
び	-9.90883
ジョーンズ	-9.90888
。2021	-9.90889
黄	-9.90909
ショット	-9.9092
問	-9.9093
若い	-9.90945
ユナイテッド	-9.90948
パキスタン	-9.90948
レシピ	-9.90949
...	-9.90949
部品	-9.90954
人工知能	-9.90956
粒子	-9.90958
幅広い	-9.9096
マイアミ	-9.90962
水泳	-9.90963
注意	-9.90966
lo	-9.90977
内部	-9.9099
4,	-9.91035
だろうか	-9.91038
意見	-9.91054
定期的に	-9.91186
コール	-9.91207
イタリアの	-9.91218
アメリカ合衆国	-9.91244
プラン	-9.91246
民族	-9.91262
フランク	-9.9127
最終	-9.91415
で構成される	-9.91423
1968	-9.91445
記述	-9.91505
私たちが	-9.91541
続け	-9.91554
比較的	-9.91572
反対	-9.91586
1969	-9.91589
調理	-9.91613
ろ	-9.91616
速度	-9.91652
を使用して	-9.91697
管	-9.91836
諸島	-9.91846
チョコレート	-9.91868
時計	-9.91881
界	-9.91954
ランキング	-9.91991
ピー	-9.92021
受賞	-9.92038
連続	-9.92057
ケン	-9.92063
地球の	-9.92077
1982	-9.92085
発見	-9.92123
の中	-9.92142
1977	-9.92148
形式	-9.92156
ごとに	-9.9217
メル	-9.92198
放送	-9.92326
、2020	-9.92391
ポー	-9.92439
ad	-9.92442
の研究	-9.92442
造	-9.92445
走	-9.9254
ベネズエラ	-9.92644
北部	-9.92664
交	-9.927
血	-9.92753
脚本	-9.92762
鍵	-9.92775
候補	-9.92785
シドニー	-9.92788
四	-9.92788
で知られる	-9.92806
ラジオ	-9.92818
開始	-9.92845
ライブ	-9.92858
質量	-9.92911
、2018	-9.92984
1930	-9.93008
現在は	-9.93009
ものは	-9.93029
1972	-9.93051
するため	-9.9306
マリア	-9.9309
いている	-9.93097
観察	-9.93185
長く	-9.93235
ne	-9.93248
大学の	-9.93261
有	-9.93298
電気自動車	-9.93303
門	-9.93327
出演	-9.9336
1964	-9.93366
デス	-9.93472
。2020	-9.93523
600	-9.9355
する必要がある	-9.93585
群	-9.93622
始める	-9.93626
士	-9.93649
スローンズ	-9.9371
テン	-9.93753
は主に	-9.93759
送	-9.93794
ブー	-9.93815
アクセス	-9.93856
級	-9.93893
、2021	-9.939
用語	-9.93915
バーグ	-9.93932
TV	-9.93934
東部	-9.93997
スコア	-9.94035
期待	-9.94111
韓国	-9.94112
ード	-9.94116
を獲得した	-9.94151
の場合	-9.9425
戦い	-9.94255
ナン	-9.9426
からである	-9.94411
何が	-9.94417
教	-9.94427
準備	-9.94431
▁L	-9.94464
でき	-9.94468
に選ばれた	-9.94478
▁以下は	-9.94492
左	-9.94493
キン	-9.94564
化された	-9.94625
改革	-9.9463
収益	-9.94645
ロボット	-9.94651
を食べる	-9.94651
DNA	-9.94652
やがて	-9.94704
呼吸	-9.94739
なければ	-9.94788
同社は	-9.94904
傾向がある	-9.94917
ウォー	-9.94929
1955	-9.94963
あなたは	-9.94968
で初めて	-9.95023
治療	-9.95028
プレ	-9.95101
▁NSA	-9.95131
を使い	-9.95174
一般的には	-9.95224
妻	-9.95248
はアメリカの	-9.95294
なく	-9.95322
の違いは	-9.9534
ストレス	-9.95371
オーストラリアの	-9.95416
でしょう	-9.95442
教えてください	-9.95479
マイク	-9.95552
武器	-9.95593
ディフェンス	-9.95594
崩壊	-9.95595
を探し	-9.95609
ミルク	-9.95616
加盟国	-9.95665
サイト	-9.95668
ライオン	-9.95715
日まで	-9.95753
アーチ	-9.95839
イヤー	-9.95895
を購入する	-9.95932
を利用する	-9.95963
キャプテン	-9.96003
際に	-9.96007
テキサス州	-9.96085
の問題	-9.96095
古代	-9.96224
身体	-9.9631
▁I	-9.96342
ことなく	-9.96399
商業	-9.96414
民主党	-9.96434
とされている	-9.96441
選手権	-9.96448
ぐ	-9.9647
ゾ	-9.96473
ヴォ	-9.96498
組	-9.96506
首	-9.9651
側面	-9.96526
富	-9.96527
自己	-9.96537
寺院	-9.96538
者が	-9.96542
誰が	-9.96548
の人気	-9.96584
ウィン	-9.96634
ヴァー	-9.96728
出力	-9.96754
スコットランド	-9.96765
ヒト	-9.96778
列車	-9.96804
1980	-9.96808
のメンバー	-9.96812
イエス	-9.96822
によって異なる	-9.96837
するまで	-9.96855
37	-9.96963
改善	-9.9698
ウル	-9.97088
可能	-9.97093
世界的な	-9.97099
提案	-9.97113
なので	-9.97136
に使われる	-9.9715
権利	-9.9716
の変化	-9.97185
ゲン	-9.97191
テクノロジー	-9.97202
ホー	-9.97271
サル	-9.97308
簡単な	-9.97309
有名	-9.97345
ッド	-9.97431
湾	-9.97439
ボディ	-9.97452
手法	-9.97455
GDP	-9.9746
ング	-9.97462
区	-9.97462
役割	-9.97479
イスラエル	-9.97488
観測	-9.975
年以来	-9.97501
気候変動	-9.97506
会員	-9.97509
とみなされる	-9.97513
神話	-9.97527
ベルリン	-9.97556
権力	-9.97581
を持って	-9.97649
ウェブサイト	-9.97679
成	-9.9768
ものだった	-9.97698
絵画	-9.97733
領土	-9.97763
ローリング	-9.97846
撮影	-9.97848
分離	-9.97924
um	-9.97931
ダム	-9.98023
屋	-9.98029
スティック	-9.98032
完全な	-9.98058
ドイツ語	-9.98109
人気の	-9.98139
哲学	-9.98175
の下	-9.98256
シーズンは	-9.98287
巻	-9.98346
チャー	-9.98381
グローバル	-9.98392
既存の	-9.98413
症	-9.98427
ve	-9.98446
2006	-9.98447
杯	-9.98448
の原因	-9.98453
世界最大の	-9.98456
正確な	-9.98462
サウンド	-9.98465
かもしれません	-9.98466
予想	-9.98472
フィッシュ	-9.9848
第一	-9.98485
が最も	-9.98514
生地	-9.98524
ユニークな	-9.98578
屋外	-9.98642
氏	-9.98643
したが	-9.98683
ビット	-9.98723
地元	-9.9879
かつ	-9.98851
測定	-9.98911
渡	-9.98985
乾燥	-9.9902
1966	-9.99072
mm	-9.99076
米国の	-9.99114
ヤード	-9.99115
それら	-9.99175
隊	-9.99362
▁2018	-9.9938
革命	-9.99386
クラシック	-9.99405
私たち	-9.99421
アレクサンダー	-9.9945
記憶	-9.99451
顔	-9.99454
ピアノ	-9.9946
欧州	-9.9946
音声	-9.99466
人類	-9.99473
レイカーズ	-9.99481
1939	-9.99482
ヤング	-9.99488
1971	-9.9955
あり	-9.99564
構築	-9.99577
プログラミング言語	-9.99586
単	-9.99595
日本の	-9.99608
番号	-9.99623
1959	-9.99648
ウェル	-9.99651
カット	-9.99773
諸国	-9.99796
バード	-9.9981
たりする	-9.99831
チン	-9.99832
女優	-9.99882
アカデミー賞	-9.99947
の上	-10.0004
▁O	-10.0005
仲間	-10.0019
1970	-10.0025
向け	-10.0029
証拠	-10.0031
長さ	-10.0034
ハード	-10.0035
トロ	-10.0037
過	-10.0037
na	-10.0039
銅	-10.0041
冒険	-10.0044
床	-10.0044
生涯	-10.0044
睡眠	-10.0044
フロリダ	-10.0045
共和党	-10.0045
最低	-10.0045
kg	-10.005
などである	-10.0057
公式	-10.0061
リック	-10.0073
冷	-10.0073
時点で	-10.0079
オリジナル	-10.008
制御	-10.0084
テイラー	-10.0097
API	-10.0098
あった	-10.0102
評	-10.0115
製	-10.0115
業	-10.0119
兼	-10.0121
少ない	-10.0125
宣言	-10.0131
連合	-10.0133
固定	-10.0135
推	-10.0141
ストリーミング	-10.0142
オズボーン	-10.0143
脂肪	-10.0143
インフレ	-10.0143
思考	-10.0143
横	-10.0143
作成	-10.0144
すべき	-10.0146
多様な	-10.0147
ヨガ	-10.0147
火星	-10.0147
について教えてください	-10.0149
1947	-10.015
ックス	-10.0155
5%	-10.0157
2%	-10.0162
急	-10.0165
費	-10.0168
リオ	-10.0171
消費者	-10.0172
好	-10.0177
ページ	-10.0178
ハン	-10.0184
を楽しむ	-10.0188
▁de	-10.0189
を減らす	-10.0193
ry	-10.0194
ラリー	-10.0199
マッ	-10.0206
命	-10.0208
年頃	-10.0211
います	-10.0221
キャンペーン	-10.0222
42	-10.0222
体重	-10.0227
プレイヤー	-10.0228
報告	-10.0228
数は	-10.0232
あたり	-10.0233
不安	-10.024
ソフト	-10.0243
天候	-10.0245
平和	-10.0245
特性	-10.0246
トレイル	-10.0247
メッセージ	-10.0249
インディアン	-10.0249
工場	-10.0249
釣り	-10.0249
を記録した	-10.025
の中心	-10.0251
カメラ	-10.0252
rd	-10.0252
ゼロ	-10.0253
好み	-10.0254
実際	-10.0255
▁N	-10.0255
と同様	-10.0257
月現在	-10.0261
度目の	-10.0266
1940	-10.0275
記	-10.0276
走る	-10.0277
提供された文章から	-10.0282
を高める	-10.0282
事実	-10.0293
最も有名な	-10.0298
-0	-10.0308
カイ	-10.0315
画家	-10.0318
が存在する	-10.0323
55	-10.0324
地形	-10.0325
現象	-10.0326
ッカー	-10.0332
ドラゴン	-10.0335
スティーブン	-10.0341
生命	-10.0345
衛星	-10.0346
軌道	-10.0347
塔	-10.0347
エリザベス	-10.0347
ː	-10.0347
ヒューストン	-10.0347
デヴィッド	-10.0348
不足	-10.035
アプリ	-10.0353
イラク	-10.0354
グラフ	-10.0354
ul	-10.0358
マク	-10.0358
素	-10.0361
67	-10.0362
内に	-10.0362
板	-10.0363
66	-10.0368
▁8.	-10.037
低い	-10.037
出版	-10.0374
という言葉は	-10.0385
97	-10.0386
トレ	-10.0388
文章	-10.039
ニア	-10.0391
オーク	-10.0394
ポン	-10.0394
ジャズ	-10.0394
守	-10.0406
▁X	-10.0418
官	-10.0418
位の	-10.0421
歴代	-10.0422
年生まれ	-10.0425
をしている	-10.0428
表面	-10.043
ディア	-10.043
悪い	-10.0434
を書き	-10.0437
はどれか	-10.0438
などが	-10.0444
敵	-10.0446
エチオピア	-10.0449
を必要とする	-10.045
》	-10.045
ラッセル	-10.0452
ディー	-10.0454
兵	-10.0456
世紀に	-10.0456
マリ	-10.0457
比較	-10.0458
ボウル	-10.0458
77	-10.0461
1976	-10.0463
工学	-10.0465
ə	-10.0477
歴史的な	-10.048
中央	-10.048
頃	-10.0482
早く	-10.0492
どれが	-10.0493
▁D	-10.0496
ペルー	-10.0497
負	-10.05
シャン	-10.051
めた	-10.0518
di	-10.0522
科学的	-10.0527
▁The	-10.053
800	-10.0531
教師	-10.0533
アナ	-10.0534
作られた	-10.0548
ハンガリー	-10.055
電	-10.0553
免	-10.0553
フィリピン	-10.0553
配列	-10.0554
命令	-10.0554
ウクライナ	-10.0555
ケネディ	-10.0555
サンドイッチ	-10.0555
大人	-10.0559
ッタ	-10.0561
アイデア	-10.0568
実際に	-10.0569
1958	-10.057
個人的な	-10.0572
テリア	-10.0579
を決定する	-10.058
の大部分	-10.058
両親	-10.0582
につながる	-10.0586
使用する	-10.0586
されます	-10.0603
形態	-10.061
文書	-10.0615
標準	-10.0615
カラー	-10.0618
込み	-10.0619
確率	-10.0623
アラン	-10.0627
ir	-10.0629
最も重要な	-10.0633
楽	-10.0634
弾	-10.0635
史上最高の	-10.0635
右	-10.0638
ha	-10.064
偉大な	-10.0641
ハート	-10.0648
クマ	-10.0649
のではなく	-10.0649
数多くの	-10.0652
シンガー	-10.0656
ルーマニア	-10.0659
大量の	-10.0659
コア	-10.0659
▁魚の種類は	-10.066
キャンパス	-10.066
オイル	-10.0662
ベッド	-10.0666
と言われている	-10.0671
を提供し	-10.0672
失敗	-10.0672
の中に	-10.0677
科学者	-10.0679
アイス	-10.0685
たら	-10.0688
標準的な	-10.0697
の戦い	-10.07
の中で最も	-10.0702
の増加	-10.0708
を使用し	-10.071
車の	-10.071
に次いで	-10.072
主人公	-10.0722
まったく	-10.0722
をすべて	-10.0724
統計	-10.0728
は何か	-10.073
校	-10.0732
末	-10.0739
ロング	-10.0745
の一部である	-10.0746
IT	-10.0752
兄弟	-10.0755
相互作用	-10.0763
庭	-10.0763
通貨	-10.0765
ポジション	-10.0765
るために	-10.0766
試験	-10.0766
解析	-10.0766
耳	-10.0766
内容	-10.0767
ペルシャ	-10.0767
可能性が高い	-10.0768
運用	-10.0771
シル	-10.0772
を得る	-10.0775
種目	-10.0776
アス	-10.078
発売	-10.0783
イースト	-10.0786
1948	-10.0793
をもたらす	-10.0794
失	-10.0796
の多い	-10.0798
が必要だ	-10.0804
テキサス	-10.0808
会長	-10.0808
ディング	-10.0814
43	-10.0822
ce	-10.0823
許可	-10.0825
トランプ	-10.0826
の組み合わせ	-10.0832
するか	-10.0834
言う	-10.0841
気温	-10.0843
当	-10.0844
スコット	-10.0846
ポート	-10.0846
日目	-10.0852
の下で	-10.0852
生成	-10.0852
チェック	-10.0853
連	-10.0858
チャン	-10.0864
スティーブ	-10.0865
記事	-10.0868
オス	-10.0872
プロデューサー	-10.0874
Apache	-10.0874
ユニット	-10.0874
アルコール	-10.0875
トピック	-10.0877
回路	-10.0878
太陽系	-10.0878
の大	-10.0878
キューバ	-10.0884
ベルト	-10.0887
調整	-10.0887
対象	-10.0887
に基づいている	-10.0894
▁この文章から	-10.0902
行う	-10.0905
所有	-10.0906
は誰	-10.0908
人気のある	-10.0909
ート	-10.0909
必要があります	-10.0913
フー	-10.0918
パック	-10.092
1961	-10.0923
ウス	-10.0923
▁2015	-10.0928
75	-10.0929
思い	-10.0938
1949	-10.094
流れ	-10.0952
。2019	-10.0955
残りの	-10.096
最近	-10.0967
me	-10.0969
階	-10.098
戦闘	-10.0982
腕	-10.0982
政党	-10.0983
ビルボード	-10.0984
行政	-10.0984
タイガー	-10.0985
ムーア	-10.0988
am	-10.0988
を開始した	-10.099
サーバー	-10.099
ブリッジ	-10.0993
ワー	-10.0993
まれ	-10.0994
▁10.	-10.1
散	-10.1018
ラケット	-10.1022
の初期	-10.1025
ヴィル	-10.1029
ラウンド	-10.103
立ち	-10.1032
筋	-10.1033
年生	-10.1035
加盟	-10.1037
労働者	-10.1045
住	-10.105
2005	-10.1051
作戦	-10.1056
編集	-10.1058
1979	-10.1063
円	-10.1075
製作	-10.1078
付き	-10.108
ーノ	-10.1084
料	-10.1084
るまで	-10.1088
休暇	-10.109
電荷	-10.1091
ヴォーカル	-10.1091
インドネシア	-10.1091
便	-10.1091
ゾーン	-10.1091
を促進する	-10.1092
病院	-10.1093
支出	-10.1093
正しい	-10.1094
ようになり	-10.1094
▁to	-10.1094
車両	-10.1096
タワー	-10.1097
かなり	-10.1101
1962	-10.1104
はしばしば	-10.1104
自動	-10.1106
独立した	-10.111
データの	-10.1111
ようとする	-10.1114
ウェールズ	-10.1119
付	-10.1123
世界中で	-10.1128
▁Re	-10.1136
エンド	-10.1148
してきた	-10.1151
人たち	-10.1154
▁9.	-10.1156
専門家	-10.1164
id	-10.1164
39	-10.1165
ta	-10.117
ピノ	-10.1173
初期	-10.1174
観	-10.1185
資格	-10.1185
性質	-10.1185
路	-10.1186
ay	-10.1187
古	-10.1188
容	-10.1195
豆	-10.1196
辺	-10.1198
バングラデシュ	-10.1202
脅威	-10.1202
海洋	-10.1202
オースティン	-10.1203
燃料	-10.1203
危機	-10.1203
需要	-10.1203
分散	-10.1204
上院議員	-10.1204
要件	-10.1204
自分自身	-10.121
ロンドンの	-10.121
57	-10.1213
バレー	-10.1215
ログ	-10.1219
対応	-10.1224
参照	-10.1229
れた	-10.1231
多く	-10.1238
mo	-10.1238
を挙げてください	-10.1242
企業の	-10.1243
ティン	-10.1249
を好む	-10.1252
としての	-10.1259
た後	-10.1262
cm	-10.127
室	-10.1276
シーズンの	-10.128
しています	-10.1296
を書く	-10.1302
率いる	-10.1305
。"	-10.1307
接触	-10.1308
充電	-10.131
席	-10.1311
州の	-10.1311
ikipedia	-10.1311
脚	-10.1312
サラ	-10.1313
森	-10.1315
wiki	-10.1316
債券	-10.1316
デンマーク	-10.1316
料金	-10.1317
フランクリン	-10.1318
ie	-10.1322
プリ	-10.1324
スポット	-10.1327
で構成され	-10.1327
予定	-10.1327
破壊	-10.1329
ma	-10.1329
高く	-10.1333
規模	-10.1337
クイーン	-10.1337
フラン	-10.1351
1956	-10.1354
が初めて	-10.1358
CD	-10.136
バッ	-10.1364
6%	-10.1368
スク	-10.1374
意図	-10.1374
マサチューセッツ州	-10.1375
医師	-10.1378
わずか	-10.1381
獲得	-10.1384
運営	-10.1389
で行われた	-10.1396
投げ	-10.1401
の最後の	-10.1402
ここでは	-10.1403
メジャー	-10.1406
ネス	-10.1407
単位	-10.1407
イニング	-10.1411
ニック	-10.1414
ロジャー	-10.1421
応用	-10.1423
キングス	-10.1427
銃	-10.1428
ソングライター	-10.1429
滝	-10.1429
冊	-10.1429
スノーボード	-10.143
連邦政府	-10.1431
売上	-10.1432
可能性のある	-10.1433
ゲート	-10.1435
を経て	-10.1447
スペインの	-10.1448
信号	-10.1449
パラメータ	-10.145
までに	-10.1451
されてきた	-10.1454
どちらも	-10.146
の主要	-10.1476
間に	-10.1485
▁Pro	-10.1486
計	-10.1486
支持	-10.1495
ナス	-10.1496
ヨ	-10.1497
で敗れた	-10.1507
指導者	-10.1507
選手が	-10.1514
ba	-10.1522
したい	-10.1523
ダーク	-10.1523
レイク	-10.1528
ミュージシャン	-10.1535
ディビジョン	-10.1539
に応じて	-10.1543
箱	-10.1544
検査	-10.1544
指標	-10.1544
劇場	-10.1544
ジャガイモ	-10.1544
パラ	-10.1545
クッキー	-10.1545
皇帝	-10.1546
1.	-10.1547
グレート	-10.1551
最近の	-10.1554
に分類しなさい	-10.1554
-3	-10.1555
1957	-10.1557
開発者	-10.1564
国立	-10.1567
スープ	-10.1572
を獲得し	-10.1572
カンパニー	-10.1575
化した	-10.158
スタート	-10.158
有効	-10.1597
マスター	-10.1602
ソロ	-10.1605
程度	-10.1607
彼女	-10.162
一人	-10.162
リリース	-10.1635
PC	-10.1635
ライバル	-10.1643
44	-10.165
ロイ	-10.1651
書き	-10.1654
コメディ	-10.1655
試	-10.1657
交流	-10.1657
史	-10.1657
でしょうか	-10.1661
地震	-10.1661
キーボード	-10.1662
All	-10.1663
のキャリア	-10.1664
南米	-10.1665
いずれも	-10.1665
ナダル	-10.1667
ウォール	-10.1667
時の	-10.1667
ずつ	-10.1668
重い	-10.1673
取	-10.1674
国々	-10.1676
$	-10.1677
ポスト	-10.168
2)	-10.1683
規則	-10.1691
ジャー	-10.1692
プル	-10.1694
を超える	-10.17
AT	-10.1705
監視	-10.1705
結婚	-10.1711
アクション	-10.1722
アメリカでは	-10.1723
フラ	-10.1724
品質	-10.1725
ものもある	-10.1725
ニュース	-10.1726
はまだ	-10.1727
受	-10.1727
見る	-10.1736
積	-10.174
スタン	-10.1741
類	-10.1742
診断	-10.1745
保	-10.1757
フィン	-10.1757
天	-10.1758
サイクル	-10.1759
開催	-10.176
を務め	-10.176
を抜き出しなさい	-10.1761
に属する	-10.1761
チューニング	-10.1762
困難	-10.1763
ライダー	-10.1769
物理学	-10.177
住民	-10.1772
効率	-10.1776
ウォルト	-10.1776
ウイルス	-10.1777
スリランカ	-10.1777
発達	-10.1777
新聞	-10.1779
置	-10.1779
焼き	-10.1781
ラス	-10.1782
と同じように	-10.1785
nd	-10.1788
アニメ	-10.1796
国際的な	-10.1797
システムは	-10.1802
全体の	-10.1809
研究所	-10.1814
を訪れ	-10.1819
賞を受賞した	-10.1826
が必要です	-10.1829
年代から	-10.1837
どう	-10.1838
56	-10.1838
都市である	-10.1845
スウィフトは	-10.1846
民間	-10.185
ミニ	-10.1851
人と	-10.1857
がん	-10.1857
バリー	-10.1861
▁米国	-10.1868
の全	-10.1869
できること	-10.1875
帰	-10.1876
することができます	-10.1881
ca	-10.1884
ウェ	-10.1886
国である	-10.1887
得	-10.1889
チップ	-10.1889
像	-10.1891
1000	-10.1894
ファースト	-10.1894
フロリダ州	-10.1897
×	-10.1897
兄	-10.1897
ビタミン	-10.1897
素材	-10.1897
背景	-10.1897
明確な	-10.1897
テクニック	-10.1897
認証	-10.1897
興行収入	-10.1897
マクドナルド	-10.1898
メダル	-10.1898
チャンネル	-10.1898
エーカー	-10.1899
ハウンド	-10.19
歌手	-10.1903
マッチ	-10.1906
国は	-10.1908
be	-10.1909
段落	-10.1912
スクリーン	-10.1915
絶	-10.1925
離	-10.1925
変	-10.1928
強く	-10.1932
シード	-10.1933
密	-10.1935
舞台	-10.1937
ワールドシリーズ	-10.195
経済学	-10.1952
合成	-10.196
破	-10.1963
が多く	-10.1964
候補者	-10.1965
打	-10.198
そのうち	-10.1984
比	-10.1988
子ども	-10.1993
面積は	-10.1998
返	-10.2002
投	-10.2009
セイ	-10.2011
試合は	-10.2011
領	-10.2013
店舗	-10.2015
近代	-10.2015
マレーシア	-10.2017
ポケモン	-10.2017
サイクリング	-10.2017
抵抗	-10.2018
改良	-10.2018
観客	-10.2018
マネージャー	-10.2018
時速	-10.2018
瞬間	-10.2019
航海	-10.2019
木星	-10.2022
営業	-10.2022
ディスク	-10.2023
を説明する	-10.2031
62	-10.2033
テレビシリーズ	-10.2034
白い	-10.2036
部隊	-10.2036
歴史的	-10.2037
で優勝した	-10.2042
63	-10.2042
リトル	-10.2049
の世界	-10.2062
ic	-10.2063
入れ	-10.207
会社の	-10.2073
手段	-10.2073
するには	-10.2074
を作り	-10.2081
寄	-10.2084
0.	-10.2089
細	-10.2091
洗	-10.2093
最優秀	-10.2097
ノン	-10.2105
ギー	-10.2107
ワシントン州	-10.211
という言葉	-10.2115
タイプの	-10.2117
自身	-10.2125
事	-10.213
結	-10.2133
最古の	-10.2136
フェデラー	-10.2136
片	-10.2136
民	-10.2138
傷	-10.2139
膜	-10.2139
トヨタ	-10.2139
コンポーネント	-10.2139
スタッフ	-10.2139
煙	-10.214
プロトコル	-10.214
虫	-10.214
さらなる	-10.214
ゴルファー	-10.214
ターゲット	-10.214
ステーキ	-10.214
表示	-10.2141
リンカーン	-10.2142
に入れる	-10.2143
1941	-10.2143
国連	-10.2144
シュート	-10.2146
球	-10.2148
共	-10.2151
コーン	-10.2151
ハンド	-10.2154
将来の	-10.2159
ベルギー	-10.2179
un	-10.2189
250	-10.219
投資家	-10.2192
1920	-10.2203
フィー	-10.2213
絵	-10.2232
息子	-10.2235
に向かって	-10.2244
穴	-10.2245
古典	-10.2251
に住む	-10.2253
遺産	-10.2254
節	-10.2255
に比べて	-10.2256
沈	-10.2261
栄養	-10.2263
剤	-10.2263
運河	-10.2263
Linux	-10.2263
損失	-10.2263
95	-10.2264
未来	-10.2264
論文	-10.2265
不動産	-10.2265
シリーズで	-10.2266
天体	-10.2266
これら	-10.2273
を発表し	-10.2275
ボブ	-10.2281
が含まれている	-10.2285
この映画は	-10.2288
向	-10.2291
ヤン	-10.2291
アイスホッケー	-10.2292
作られ	-10.2297
脱	-10.2299
の約	-10.23
第二	-10.2302
87	-10.2303
バッグ	-10.2304
デリー	-10.2307
この地域	-10.2308
グラム	-10.2315
を用いて	-10.232
96	-10.2338
インフラ	-10.234
ブルース	-10.2342
ことができた	-10.2344
医学	-10.2346
羽	-10.2346
ネル	-10.2354
真	-10.2354
ビュー	-10.2369
ab	-10.2372
典型的な	-10.2373
帯	-10.2376
ケア	-10.2379
予選	-10.2386
塁	-10.2386
サンディエゴ	-10.2387
神経	-10.2387
代替	-10.2387
アイテム	-10.2388
SQL	-10.2388
ビートルズ	-10.2388
《	-10.2388
幼児	-10.2388
をいくつか挙げてください	-10.2388
必ず	-10.2389
それとも	-10.2392
リターン	-10.2392
ニューイングランド	-10.2393
航空機	-10.2393
半島	-10.2394
ter	-10.2395
建築家	-10.2396
ファンド	-10.2402
研究者	-10.2403
チキン	-10.2414
打者	-10.2417
決	-10.2423
完全	-10.2427
ていたが	-10.2433
一番	-10.2434
ステ	-10.2439
発生する	-10.2441
この段落を踏まえて	-10.2443
保証	-10.245
水準	-10.2456
以降	-10.2457
bo	-10.246
枚の	-10.2463
発電	-10.2468
を利用して	-10.2471
1,000	-10.2472
より大きな	-10.2481
76	-10.249
初代	-10.2499
▁Me	-10.2502
sh	-10.2502
作曲	-10.2503
面積	-10.2504
▁V	-10.2504
等	-10.2506
生物学的	-10.2506
アレン	-10.2508
るため	-10.2509
ドキュメンタリー	-10.2511
禁止	-10.2513
銀河	-10.2513
バーン	-10.2514
セントラル	-10.2514
▁ハリー	-10.2514
マドリード	-10.2515
ウォルター	-10.2515
サーフィン	-10.2516
実装	-10.2518
せる	-10.2519
同年	-10.2522
売	-10.2522
米国で	-10.2523
メモリ	-10.2531
ベア	-10.2532
が行われた	-10.2537
ミン	-10.2539
トゥー	-10.2543
ation	-10.2548
単一の	-10.2548
が特徴	-10.2551
利用できる	-10.2558
▁サッカー	-10.2562
緑色	-10.2562
受け	-10.2562
88	-10.2565
最終的には	-10.2568
判断	-10.2572
弱	-10.2573
くなる	-10.2574
追い	-10.2574
時間を	-10.2577
職	-10.2581
人口は	-10.2584
追	-10.2585
86	-10.2589
移動する	-10.2592
社の	-10.2596
スー	-10.2602
国境	-10.2602
の可能性	-10.2605
歩	-10.2607
使い	-10.2608
つけ	-10.2616
放	-10.262
特別	-10.2625
に最適な	-10.2627
わない	-10.2628
利	-10.2629
ミル	-10.263
に参加した	-10.2637
撃	-10.2638
は現在	-10.2639
北京	-10.264
理由は	-10.2641
谷	-10.2642
アムステルダム	-10.2643
オーブン	-10.2643
穀物	-10.2643
援助	-10.2643
火災	-10.2643
ダニエル	-10.2643
ムンバイ	-10.2643
おいしい	-10.2644
心臓	-10.2644
トイレ	-10.2645
地図	-10.2645
ソニー	-10.2647
スパイス	-10.2647
水を	-10.2648
わけではない	-10.2649
マックス	-10.2649
外部	-10.265
の人口は	-10.265
そこ	-10.2651
▁まず	-10.2654
ゲイ	-10.2657
場所に	-10.2661
続ける	-10.2662
それでも	-10.2665
1933	-10.2665
現在では	-10.2675
子犬	-10.2675
解釈	-10.268
同社の	-10.2682
修正	-10.2692
んでいる	-10.2693
レモン	-10.2696
のに対し	-10.2699
人々の	-10.2701
オフ	-10.2701
てしまう	-10.2702
チャート	-10.2703
ようにする	-10.2707
赤ちゃん	-10.2708
を作成する	-10.2721
ニール	-10.2734
西部	-10.2736
はアメリカ	-10.2738
ショップ	-10.274
向き	-10.2742
ka	-10.2744
8%	-10.2744
の量	-10.2748
検	-10.2753
エス	-10.2754
を引き起こす	-10.2759
ヒット	-10.2763
数々の	-10.2764
在	-10.2766
名称	-10.2766
大きさ	-10.2767
案	-10.2767
乱	-10.2769
輪	-10.2769
奴隷	-10.277
ケーキ	-10.2772
著名な	-10.2773
Amazon	-10.2773
é	-10.2773
コンサート	-10.2773
ファミリー	-10.2773
鶏肉	-10.2774
タミル	-10.2776
デッド	-10.2776
ストーン	-10.2776
主要	-10.2781
火山	-10.2782
ウィル	-10.2783
大気	-10.2784
ルーム	-10.2786
イタリア語	-10.2788
パスタ	-10.2791
世界選手権	-10.2793
年末	-10.2793
かれ	-10.2797
アリゾナ	-10.2798
は常に	-10.28
まま	-10.2806
ゼン	-10.2807
彼らが	-10.2807
適用	-10.2811
世界第	-10.2815
いつも	-10.2816
栽培	-10.282
参加者	-10.2824
を占める	-10.2829
指数	-10.2829
レーズン	-10.2832
マリー	-10.2836
ネー	-10.284
実際の	-10.2845
ライフ	-10.2847
布	-10.2849
へのアクセス	-10.2849
をより	-10.285
ヘイ	-10.285
注	-10.2854
なくなる	-10.2856
を設立した	-10.2858
FC	-10.2859
ヴィン	-10.2865
を見つけ	-10.2866
株	-10.2867
果実	-10.2868
ミス	-10.2872
ダブル	-10.2873
テッド	-10.2875
将来	-10.2883
具	-10.2885
アラ	-10.2891
最も多く	-10.2892
遠	-10.2893
ウィンブルドン	-10.2895
プレス	-10.2898
多くの人が	-10.29
フェスティバル	-10.2901
違う	-10.2901
移民	-10.2902
セルビア	-10.2903
博士	-10.2903
翼	-10.2904
エドワード	-10.2904
すなわち	-10.2904
巨大な	-10.2904
デビッド	-10.2904
フルーツ	-10.2905
MLB	-10.2907
ガーデン	-10.2907
で知られている	-10.2913
車で	-10.2914
で行われる	-10.2916
ハミルトン	-10.292
マット	-10.2921
速く	-10.2921
シア	-10.2921
カーン	-10.2927
朝食	-10.2927
人間が	-10.2935
ことはできない	-10.2938
オリ	-10.2941
クロス	-10.2951
工業	-10.2957
任	-10.296
大型	-10.2963
のひとつは	-10.2971
専門	-10.2974
生き	-10.2974
になっている	-10.2984
色の	-10.2988
することである	-10.2989
ライド	-10.2993
単に	-10.2993
だったが	-10.2995
水分	-10.2998
加	-10.3004
ラップ	-10.3004
ですが	-10.3006
ラマ	-10.3007
執筆	-10.301
でない	-10.3011
アリゾナ州	-10.3012
バランス	-10.3013
ヘル	-10.3017
割	-10.3021
アンダー	-10.3025
酸	-10.3026
ものを	-10.3027
オランダの	-10.3027
タミル語	-10.3029
アラビア語	-10.3031
交通	-10.3033
レッ	-10.3034
の元	-10.3034
罪	-10.3035
にわたって	-10.3036
試み	-10.3036
万人の	-10.3036
を探す	-10.3036
近くの	-10.3037
ワークアウト	-10.3037
ワクチン	-10.3038
紛争	-10.3038
ファッション	-10.3038
▁どの動物種が	-10.3038
に沿って	-10.3038
▁主な記事	-10.3038
役に立つ	-10.3038
遺跡	-10.3038
姿	-10.3038
▁2011	-10.3039
インターナショナル	-10.3039
のいずれか	-10.3039
GPT	-10.304
につれて	-10.3041
クルー	-10.3042
生存している	-10.3042
とは何ですか	-10.3047
のほとんどは	-10.305
二人	-10.3053
もあります	-10.3054
ギア	-10.3058
シリーズの	-10.3069
探	-10.3071
シャル	-10.3075
スコ	-10.3079
夫	-10.308
▁ジョージ	-10.3084
の例としては	-10.3086
アク	-10.3096
カリ	-10.31
利点	-10.3107
これを	-10.3109
通常の	-10.3109
互いに	-10.3111
を受賞した	-10.3113
メリット	-10.3126
特定	-10.3134
Spark	-10.3135
の違いは何	-10.3138
3%	-10.3139
▁$	-10.314
明らかに	-10.314
秋	-10.3143
誰	-10.3143
すぎる	-10.3144
ゲーム機	-10.3149
を決める	-10.3149
子供たち	-10.3149
ローズ	-10.3151
、2017	-10.3152
同様の	-10.3154
出した	-10.3155
パル	-10.3158
材	-10.3166
従	-10.3167
説	-10.3168
ても	-10.3169
ネパール	-10.3171
当初	-10.3171
ミュージカル	-10.3171
裁判所	-10.3172
棒	-10.3172
ライセンス	-10.3173
自閉症	-10.3173
防衛	-10.3173
ジャーナリスト	-10.3173
クォーターバック	-10.3173
アイランド	-10.3174
木材	-10.3175
アンドリュー	-10.3175
を代表する	-10.3175
プレーオフ	-10.3175
の存在	-10.3176
部族	-10.3176
ナイフ	-10.3176
。2008	-10.3179
ニン	-10.3182
1954	-10.3186
ために必要な	-10.3186
法的	-10.3187
したりする	-10.3192
島々	-10.3194
アド	-10.3196
いない	-10.3199
ガイ	-10.3202
モア	-10.3206
を提供している	-10.3207
▁a	-10.3212
と述べた	-10.3214
猫は	-10.3216
1967	-10.3216
関連する	-10.322
ard	-10.3222
参加	-10.3226
最も人気のある	-10.3227
00	-10.3227
ときは	-10.3228
ここ	-10.3229
しながら	-10.3232
取得	-10.3235
使用される	-10.3236
。2016	-10.3237
51	-10.3238
を達成した	-10.3247
変化する	-10.3249
▁Co	-10.3249
メタ	-10.3262
落	-10.3262
しやすい	-10.3266
モデルは	-10.3268
の他の	-10.327
再生	-10.327
なし	-10.3275
ようだ	-10.328
息	-10.3285
通算	-10.3292
運	-10.3294
▁ウィリアム	-10.3295
ヒュー	-10.3296
アダム	-10.33
だから	-10.3301
殺	-10.3303
ゴン	-10.3306
ケーブル	-10.3307
水の	-10.3308
嵐	-10.3309
事故	-10.3309
q	-10.3309
クリーム	-10.331
につながった	-10.331
暗号通貨	-10.331
絶滅しているかを特定する	-10.331
危険な	-10.3313
1937	-10.3315
スケートボード	-10.3315
たちが	-10.3315
重量	-10.3318
ウォーズ	-10.3321
このように	-10.3322
ことを意味する	-10.3325
ソング	-10.3327
国の	-10.3331
1934	-10.3333
ただし	-10.3335
リズム	-10.3339
個人の	-10.334
母親	-10.3343
実際には	-10.3344
倒	-10.3345
ケイ	-10.3346
覚	-10.3351
が必要な	-10.3351
変換	-10.3354
ボル	-10.336
送信	-10.3363
ことだった	-10.3366
SA	-10.3372
政府は	-10.3379
にあった	-10.3379
高速	-10.3382
の代わりに	-10.3388
81	-10.3388
には多くの	-10.339
重要	-10.3391
統一	-10.3396
過程	-10.34
理	-10.3404
現在も	-10.3407
かれる	-10.3409
東京	-10.3419
氏は	-10.3423
、2019	-10.3426
月まで	-10.3426
習	-10.3427
最新の	-10.3428
▁in	-10.3429
捕	-10.3431
信頼	-10.3431
1978	-10.3435
に生息する	-10.3436
キル	-10.3436
行き	-10.3436
断	-10.3439
と主張する	-10.3445
を備えた	-10.3448
土壌	-10.3448
卿	-10.3448
ウォリアーズ	-10.3449
Uber	-10.3449
↪	-10.3449
小麦粉	-10.3449
瞑想	-10.3449
アボカド	-10.3449
コンセプト	-10.3449
動画	-10.3449
(/ˈ	-10.345
たくさんの	-10.3451
アウトドア	-10.3451
▁シアトル	-10.3452
ものに	-10.3452
出版された	-10.3454
まり	-10.3457
分布	-10.3458
46	-10.346
アワード	-10.3461
の成長	-10.3463
に就任	-10.3463
全国	-10.3465
日付	-10.3467
物理的な	-10.3467
懸念	-10.3467
クラスタ	-10.3468
▁U	-10.347
なのだ	-10.347
のでしょうか	-10.3472
を可能にする	-10.3475
▁最初の	-10.3477
20%	-10.3483
フィル	-10.3484
レイヤー	-10.3489
、1980	-10.3491
ニス	-10.3498
ものであり	-10.3501
なっている	-10.3502
タタ	-10.3504
休	-10.351
せず	-10.3513
ストラトキャスター	-10.3514
全世界で	-10.3517
の町	-10.3523
58	-10.3533
更新	-10.3533
に始まり	-10.3536
指導	-10.3538
キャスト	-10.3538
グランドスラム	-10.3541
の息子	-10.3545
▁2010	-10.3546
リム	-10.3548
分割	-10.3548
700	-10.3552
ロール	-10.3554
接	-10.3557
夏の	-10.3565
半分	-10.3571
引	-10.3573
極	-10.3577
に大きな	-10.3581
の例	-10.3587
弟	-10.3587
アスリート	-10.3588
黄色	-10.3589
ɪ	-10.359
業績	-10.359
をいくつか紹介しよう	-10.359
おもちゃ	-10.359
イリノイ州	-10.359
警察	-10.359
クリーク	-10.359
NHL	-10.3591
徐々に	-10.3591
クリスマス	-10.3591
ジャケット	-10.3591
パトリック	-10.3591
正式な	-10.3592
爆発	-10.3593
どれだけ	-10.3593
場合によっては	-10.3593
ヤギ	-10.3597
4%	-10.3599
変数	-10.3599
フード	-10.3601
完成	-10.3604
効果的な	-10.3608
マラ	-10.3609
戦で	-10.3609
べきだ	-10.361
の間の	-10.361
カム	-10.3614
主演	-10.3619
がどのように	-10.3621
▁2016	-10.3622
、2009	-10.3627
人気がある	-10.363
バット	-10.3635
周辺	-10.3636
動作	-10.3638
CO	-10.3638
娘	-10.3644
が必要である	-10.3647
に使用される	-10.3654
の関係	-10.3656
78	-10.3657
回復	-10.366
糖	-10.3661
年の間に	-10.3666
圧	-10.3669
の役割	-10.3671
に貢献した	-10.3673
深	-10.3674
決勝で	-10.3679
美	-10.3685
ロウ	-10.3687
散歩	-10.3689
を始める	-10.3694
選手は	-10.3697
EV	-10.3697
シング	-10.3699
▁ニューヨーク	-10.3699
香港	-10.3709
飛び	-10.3711
望	-10.3714
死者	-10.3715
])	-10.3716
視	-10.3717
詳細	-10.372
AD	-10.3725
茶	-10.3726
続き	-10.3726
を守る	-10.3726
証明	-10.3728
可	-10.3729
修	-10.373
羊	-10.373
遊び	-10.3731
グローブ	-10.3731
幸福	-10.3732
雲	-10.3732
混乱	-10.3733
繁	-10.3733
髪	-10.3733
駒	-10.3733
個々の	-10.3733
血液	-10.3733
正しく	-10.3733
▁次のうち	-10.3733
オオカミ	-10.3733
起こる	-10.3734
センサー	-10.3735
アカウント	-10.3735
エリック	-10.3737
速い	-10.3738
9%	-10.3738
のに役立つ	-10.3738
会話	-10.3738
をいくつか	-10.3739
メタル	-10.3741
様式	-10.3743
企業が	-10.3748
の概念	-10.375
を入れる	-10.3753
意	-10.3755
カメ	-10.3756
都市は	-10.3759
AS	-10.3761
の場合は	-10.3761
実施	-10.3763
バージニア州	-10.3764
の一般的な	-10.3767
死亡	-10.3769
ss	-10.3774
年代には	-10.3777
優勝した	-10.3778
に入れ	-10.3778
残り	-10.3778
レオ	-10.3781
の定義	-10.3785
、2010	-10.3798
に影響を与える	-10.3803
形成	-10.3803
第一次世界大戦	-10.3805
▁3)	-10.3805
5,000	-10.3813
底	-10.3822
グループは	-10.3822
強化	-10.3827
自身の	-10.3827
2,000	-10.3828
する方法	-10.3829
密度	-10.383
地域の	-10.3833
高級	-10.3839
の物語	-10.3839
▁2017	-10.384
1%	-10.3841
分間	-10.3842
毒	-10.3842
リク	-10.3844
スイスの	-10.3849
▁1)	-10.385
居住	-10.3855
ハム	-10.3857
アンドラ	-10.386
ノード	-10.3861
に戻る	-10.3865
が高く	-10.3865
tor	-10.3866
を理解する	-10.3867
したのは	-10.3868
買収	-10.3869
スケジュール	-10.3869
起	-10.3872
件	-10.3872
に似た	-10.3872
袋	-10.3874
肺	-10.3876
アフガニスタン	-10.3877
ロイヤル	-10.3877
脆弱性	-10.3877
友達	-10.3877
Google	-10.3877
バルセロナ	-10.3877
延長	-10.3877
ɛ	-10.3877
ピーナッツ	-10.3877
ラスベガス	-10.3878
翻訳	-10.3878
適応	-10.3878
左右	-10.3878
森林	-10.3878
ミックス	-10.3878
将軍	-10.3878
おらず	-10.3879
ウィルソン	-10.388
ブレーキ	-10.388
▁2009	-10.3881
ドライ	-10.3881
トロント	-10.3882
より良い	-10.3883
グラウンド	-10.3889
プラス	-10.3896
フライト	-10.3896
が必要	-10.3899
上昇	-10.39
▁Ma	-10.3901
もう一つの	-10.3906
ハル	-10.3908
ワニ	-10.391
になると	-10.3911
ペア	-10.3913
続く	-10.3917
伝統	-10.3917
乗り	-10.3926
公共	-10.3931
"・	-10.3933
ロケット	-10.3941
は絶滅した	-10.3944
でもあった	-10.3946
誌	-10.3959
ロープ	-10.396
スポーツである	-10.3966
を抽出する	-10.3967
ジャム	-10.397
ためには	-10.3974
シェル	-10.3974
装	-10.3975
効	-10.3981
ドラ	-10.3983
チューブ	-10.3991
伝	-10.3992
ブレ	-10.3993
米国では	-10.3997
ill	-10.3997
システムの	-10.4
ション	-10.4001
1929	-10.4002
98	-10.4004
銀	-10.4006
に参加し	-10.4007
.1	-10.4008
を感じ	-10.4009
所属	-10.401
si	-10.4013
存	-10.4017
。2010	-10.4019
ぎ	-10.4021
フランシス	-10.4021
実現	-10.4022
トランザクション	-10.4023
とされる	-10.4023
林	-10.4024
見た	-10.4024
ベジタリアン	-10.4024
半導体	-10.4024
アマチュア	-10.4024
義務	-10.4024
に分類される	-10.4024
損傷	-10.4024
環	-10.4025
飲み物	-10.4025
ドライフルーツ	-10.4025
職業	-10.4025
ベイエリア	-10.4025
反射	-10.4026
カロリー	-10.4026
ント	-10.4026
軍隊	-10.4026
アメリカンフットボール	-10.4027
法案	-10.4027
作曲家	-10.4028
ようとした	-10.4029
酸化	-10.4029
コピー	-10.403
1936	-10.4031
したこと	-10.4033
次元	-10.4037
トランス	-10.4037
時間が	-10.4039
受賞者	-10.4044
ショート	-10.4049
。2013	-10.4051
かれた	-10.406
賞を受賞	-10.4061
AP	-10.4064
を生成する	-10.4069
ムー	-10.407
を再	-10.407
としている	-10.4071
なくなった	-10.4076
の作品	-10.4085
もあり	-10.4088
週末	-10.4089
提供	-10.4092
黒人	-10.4093
大会で	-10.4107
過ぎ	-10.411
単純	-10.4118
のであれば	-10.4123
を維持し	-10.4131
の東	-10.4135
域	-10.414
似	-10.4148
をいくつか挙げてみよう	-10.4149
上位	-10.4151
はほとんど	-10.4156
コミック	-10.4163
勝ち	-10.4167
小さく	-10.4167
告	-10.4171
沿岸	-10.4172
に戻り	-10.4173
周	-10.4173
口座	-10.4173
億米ドル	-10.4174
意思決定	-10.4174
農場	-10.4174
メカニズム	-10.4174
司法	-10.4174
▁for	-10.4174
アンダーソン	-10.4175
地帯	-10.4176
サンプル	-10.4176
上院	-10.4176
性格	-10.4176
それ以来	-10.4179
イオン	-10.4179
ニュートン	-10.418
ICC	-10.4181
善	-10.4184
ダラス	-10.4185
常	-10.4186
。2018	-10.4188
。1980	-10.419
ニング	-10.4196
ニューヨーク州	-10.4205
することもできる	-10.4206
安定	-10.4208
歴史上	-10.4214
が少ない	-10.4215
落ち	-10.4218
ジェリー	-10.4225
の大きさ	-10.4229
今後	-10.423
仕事を	-10.4234
を含め	-10.4238
プー	-10.4239
個の	-10.4241
裏	-10.4256
傾向	-10.4259
かつて	-10.4259
が異なる	-10.4262
ヨーロッパで	-10.4262
家族の	-10.4263
犬は	-10.4273
記念	-10.4279
打ち	-10.4285
希望	-10.4286
ります	-10.4289
を食べ	-10.4289
最適化	-10.4289
-4	-10.4289
合い	-10.4291
ベリー	-10.4301
征服	-10.4303
を描いた	-10.4307
もまた	-10.4308
リーフ	-10.4309
ig	-10.4313
結晶	-10.432
報	-10.432
洞窟	-10.4323
クライミング	-10.4323
淡水	-10.4323
クロアチア	-10.4324
装備	-10.4325
衝突	-10.4325
決断	-10.4325
メッシ	-10.4325
論争	-10.4326
仏教	-10.4326
グラミー賞	-10.4326
電池	-10.4326
フライパン	-10.4327
レーシング	-10.4327
フラット	-10.4328
を中心に	-10.4329
ISO	-10.433
フィルム	-10.433
としても知られる	-10.4332
ワイ	-10.4335
スライス	-10.4338
が低い	-10.434
ID	-10.4341
間で	-10.4343
テロ	-10.4345
PA	-10.4346
子どもたち	-10.4348
オペレーティング	-10.4351
▁テスラ	-10.4352
はどんな	-10.4353
▁2014	-10.4354
ウィリアムズ	-10.4355
3,000	-10.4357
ver	-10.4358
シス	-10.4361
合わせ	-10.4365
最適な	-10.4365
。2011	-10.4367
1952	-10.4372
の法則	-10.4374
ベンガル	-10.4377
ヴァル	-10.4379
のベスト	-10.4379
▁犬	-10.4382
歴史家	-10.4383
楽しめる	-10.4388
をしたり	-10.439
pe	-10.439
92	-10.4393
ティング	-10.4399
挙げてください	-10.4399
リバー	-10.4403
好き	-10.4407
ファイ	-10.441
レル	-10.4417
ことはない	-10.4419
深く	-10.442
に入り	-10.442
に参加する	-10.4424
RO	-10.4428
詩人	-10.4435
魔法	-10.4435
成績	-10.4437
man	-10.4438
はとても	-10.444
無料	-10.444
▁2)	-10.4445
もない	-10.4446
シート	-10.445
持	-10.4451
サンド	-10.4455
されない	-10.4455
優勝者	-10.4456
教え	-10.446
チームを	-10.446
収集	-10.4463
フィリップ	-10.4467
モーター	-10.4468
報酬	-10.447
に住んでいる	-10.447
ことができない	-10.4471
紫	-10.4472
べ	-10.4474
痛	-10.4475
スパイ	-10.4477
遊	-10.4478
菌	-10.4478
連盟	-10.4478
を扱う	-10.4479
証券	-10.4479
予約	-10.448
ウォーキング	-10.4481
の中心地	-10.4482
ハンター	-10.4483
メジャーリーグ	-10.4485
アーサー	-10.4485
うまく	-10.449
作り	-10.4492
▁アン	-10.4493
速	-10.4493
ギャ	-10.4494
上海	-10.4495
陸上	-10.4495
物理的	-10.4498
項目	-10.4499
年頃に	-10.45
シーン	-10.4503
の各	-10.4503
うち	-10.4508
英	-10.4522
に達した	-10.4524
場所で	-10.4526
として初めて	-10.4529
ap	-10.4529
急速に	-10.4529
ヴェル	-10.4531
たとき	-10.454
知的	-10.4543
ループ	-10.4545
選出	-10.4547
と述べている	-10.4549
を生み出す	-10.4549
クリケット選手	-10.4552
つながり	-10.4558
安全な	-10.4559
規定	-10.4559
南部の	-10.4565
の向上	-10.4566
ひ	-10.4571
かかる	-10.4575
地理	-10.4577
政府の	-10.4578
▁アメリカの	-10.4579
生産性	-10.4585
生息地	-10.4594
出身	-10.4595
インドで	-10.4605
ものです	-10.4611
はどのような	-10.4619
貢献	-10.4623
基	-10.4624
ビジョン	-10.4627
に生まれた	-10.463
ゲル	-10.4631
資本	-10.4633
探検	-10.4633
に適した	-10.4633
鳴	-10.4635
チェーン	-10.4635
がたくさんある	-10.4635
趣味	-10.4635
チュニジア	-10.4635
炭水化物	-10.4635
ホイール	-10.4635
トライアスロン	-10.4635
合意	-10.4636
コレクション	-10.4636
建造物	-10.4636
岩石	-10.4637
潜在的な	-10.4637
▁なぜ人々は	-10.4639
王朝	-10.464
種子	-10.4644
はどのように	-10.4646
デルタ	-10.4649
連合国	-10.465
と呼ばれることもある	-10.466
を示し	-10.466
に従って	-10.4662
終了	-10.4663
気分	-10.4664
らし	-10.4672
を実行する	-10.4676
なります	-10.4676
サイン	-10.4677
支払い	-10.4679
が最初に	-10.4683
アカ	-10.4688
ように見える	-10.4688
になること	-10.4691
できなかった	-10.4692
直後	-10.4695
スリー	-10.4695
する場合	-10.4698
つか	-10.4702
ディン	-10.4712
ツリー	-10.4713
哲学者	-10.4713
図書館	-10.4713
自然の	-10.4719
▁オーストラリア	-10.4728
正確に	-10.4732
を取る	-10.4742
答えは	-10.4744
歴	-10.4744
ワイルド	-10.4745
ランナー	-10.4747
中心	-10.4748
ph	-10.4749
過ごす	-10.475
一日	-10.4759
をした	-10.4764
オル	-10.4769
ライス	-10.477
砂漠	-10.4772
開発された	-10.4773
タウ	-10.4775
のリスク	-10.478
章	-10.4781
。2017	-10.4783
彫刻	-10.4785
を助ける	-10.4785
切	-10.4787
働き	-10.4787
の構造	-10.4788
のうちの	-10.4788
務	-10.4791
向けに	-10.4791
網	-10.4793
ストレージ	-10.4793
マウント	-10.4793
アソシエーション	-10.4793
クジラ	-10.4793
一貫性	-10.4794
デザート	-10.4794
停止	-10.4794
ソリューション	-10.4794
レクリエーション	-10.4794
ディレクター	-10.4794
チャンピオンシップ	-10.4795
糸	-10.4795
マーケット	-10.4795
レブロン	-10.4796
路線	-10.4796
をサポートする	-10.4796
ガルシア	-10.4796
ひとつ	-10.4797
Mo	-10.4798
ジュース	-10.4799
の特徴	-10.48
量の	-10.48
信	-10.4801
ドラマー	-10.4801
ストローク	-10.4802
を占めている	-10.4803
hi	-10.4806
年シーズン	-10.4814
サンタ	-10.4815
を理解し	-10.4816
赤い	-10.4817
を特定する	-10.4818
持つ	-10.482
創造	-10.4822
▁Be	-10.4823
1992	-10.4824
上に	-10.4825
ユダヤ人	-10.4828
便利	-10.4838
たため	-10.4838
オーナー	-10.484
生物学	-10.4844
vi	-10.4847
達成	-10.4849
考える	-10.485
▁2013	-10.4856
カス	-10.4856
・"	-10.4857
1900	-10.486
▁マイケル	-10.486
のに十分な	-10.4861
の成功	-10.4861
餌	-10.4862
ウェア	-10.4863
ヒンディー語	-10.4863
を使用している	-10.4864
登場人物	-10.4867
担当	-10.4869
ian	-10.4891
ものがある	-10.4893
経営	-10.4894
早	-10.4894
ネイ	-10.4894
判事	-10.4897
南東	-10.4899
陸軍	-10.4905
彼女が	-10.4908
会場	-10.491
ニューヨークの	-10.4912
▁この文章	-10.4915
De	-10.4919
地位	-10.4921
だったのか	-10.4921
任天堂	-10.4922
wa	-10.4929
郡の	-10.4931
にちなんで	-10.4932
を集め	-10.4933
にして	-10.4942
(17	-10.4942
二酸化炭素	-10.4946
人工	-10.4946
伝統的に	-10.4947
上げ	-10.4948
関心	-10.4949
に達する	-10.495
西洋	-10.495
の位置	-10.4952
財	-10.4953
GIS	-10.4954
境界	-10.4954
暦	-10.4954
を取り	-10.4954
惑	-10.4954
化合物	-10.4954
昆虫	-10.4955
迫	-10.4955
功績	-10.4955
#	-10.4955
農民	-10.4955
プロバイダー	-10.4955
フェラーリ	-10.4955
プエルトリコ	-10.4955
償	-10.4955
そこから	-10.4955
エッジ	-10.4956
業務	-10.4956
氷河	-10.4956
クラーク	-10.4956
介入	-10.4956
イメージ	-10.4956
繰り返し	-10.4957
ハンマー	-10.4958
元素	-10.4959
方言	-10.4959
ジャンプ	-10.4961
活用	-10.4962
モダン	-10.4963
と思われる	-10.4965
テー	-10.497
差別	-10.4971
事前に	-10.4973
角度	-10.4973
合う	-10.4977
活動家	-10.4983
少年	-10.4984
、2011	-10.4986
▁もし	-10.4989
Windows	-10.4994
よい	-10.4996
若者	-10.5004
アルファベット	-10.5009
▁野球	-10.5013
メス	-10.5018
sa	-10.5022
ジェフ	-10.5025
安	-10.5028
タンク	-10.5038
全員が	-10.5039
史上最も偉大な	-10.5039
動く	-10.5043
なった	-10.5051
全米オープン	-10.5053
ack	-10.5054
レンズ	-10.5059
最小	-10.5063
のだろう	-10.5068
地上	-10.5072
になるまで	-10.5075
にかけて	-10.5076
重要である	-10.5077
▁サンフランシスコ	-10.5078
相手の	-10.5078
合併	-10.5079
を参照	-10.5082
カリー	-10.5083
続けている	-10.5099
性能	-10.5099
区別	-10.51
を表現する	-10.5103
ゼル	-10.5104
誕生日	-10.5106
54	-10.5108
160	-10.511
小型	-10.5114
難	-10.5115
保持	-10.5117
原則	-10.5117
天然	-10.5118
炎	-10.5118
コンピューティング	-10.5118
激しい	-10.5119
妹	-10.5119
予備	-10.5119
デトロイト	-10.5119
ラファエル	-10.5119
検出	-10.5119
名詞	-10.5119
Kubernetes	-10.5119
エクササイズ	-10.5119
ハンバーガー	-10.5119
服	-10.5119
タマネギ	-10.512
信念	-10.512
印刷	-10.512
鼻	-10.512
小麦	-10.512
核分裂	-10.512
男女	-10.512
ハリウッド	-10.512
ヘリウム	-10.512
加熱	-10.512
世帯	-10.5121
心配	-10.5121
シアター	-10.5121
神々	-10.5121
ヒーロー	-10.5122
ポリ	-10.5122
シリア	-10.5122
オレゴン州	-10.5123
1946	-10.5123
イースター	-10.5123
民主主義	-10.5123
デンバー	-10.5126
85	-10.5127
場合に	-10.5128
形状	-10.5132
グランド	-10.5133
人口の	-10.5137
次のような	-10.5138
スタイルの	-10.5142
べきか	-10.5143
しよう	-10.5147
さん	-10.5148
軍の	-10.5149
月には	-10.5151
。2009	-10.5153
no	-10.5154
られない	-10.5155
影響力	-10.5156
助け	-10.5157
進出	-10.5159
たくさん	-10.5162
他	-10.5163
副大統領	-10.5168
カバー	-10.517
発展	-10.5173
がありますか	-10.5173
いいえ	-10.5177
例は	-10.5177
ッシュ	-10.5178
ラブ	-10.5182
の動き	-10.5184
化する	-10.5185
ければ	-10.5186
に適している	-10.5186
ti	-10.5199
や他の	-10.5201
を走る	-10.5202
流域	-10.5202
、1970	-10.5204
を入れ	-10.5211
)]	-10.5216
オールド	-10.5221
画	-10.5223
イチジク	-10.5224
義	-10.5228
何を	-10.5234
を見て	-10.5237
刺激	-10.5239
ヴィー	-10.5242
フォーマット	-10.5244
サッカー選手	-10.5246
しようとする	-10.5249
mi	-10.525
暴力	-10.5259
)」	-10.5262
しましょう	-10.5264
の発展	-10.5265
務めた	-10.5268
-5	-10.5271
▁20	-10.5271
ブラジルの	-10.5272
文脈	-10.5272
を破り	-10.5273
副	-10.5273
GC	-10.5275
課税	-10.5279
客	-10.5281
かなりの	-10.5281
の目的は	-10.5284
スポンサー	-10.5284
粒	-10.5285
ハイデラバード	-10.5285
オーロラ	-10.5285
退職	-10.5286
欲	-10.5286
マネジメント	-10.5286
プレイステーション	-10.5286
ダイヤモンド	-10.5286
ポートフォリオ	-10.5286
フェニックス	-10.5286
修理	-10.5286
クリントン	-10.5286
ラグビー	-10.5287
樹木	-10.5287
を得た	-10.5287
フィルター	-10.5287
広い	-10.5287
軽量	-10.5287
リーダーシップ	-10.5287
トッピング	-10.5287
夕食	-10.5288
マウンテンバイク	-10.5288
ソウル	-10.5288
木管楽器	-10.5288
72	-10.5289
車輪	-10.5289
ATP	-10.529
▁与えられた文章から	-10.5291
成功を収めた	-10.5293
ブライアント	-10.5293
量子	-10.5296
チェリー	-10.5296
イヌ	-10.53
im	-10.5301
チャンス	-10.5306
与えられた	-10.5308
ほとんどの場合	-10.531
理想的な	-10.531
航空会社	-10.5312
遅れ	-10.5312
フェア	-10.5313
メガ	-10.5313
リエ	-10.5319
分解	-10.5319
ウェイン	-10.5322
場合もある	-10.5323
劇	-10.5325
海外	-10.5327
指定	-10.5328
つの異なる	-10.5331
▁You	-10.5332
5000	-10.5334
ER	-10.5334
1953	-10.5334
178	-10.5336
精神的	-10.534
クエリ	-10.5345
いえ	-10.5346
ラスト	-10.5347
使用できる	-10.5351
の形	-10.5353
する前に	-10.5353
多い	-10.5354
中間	-10.536
ang	-10.5362
すべてが	-10.5363
メモ	-10.5363
ドレス	-10.5365
▁これらは	-10.5365
売上高	-10.5367
マハ	-10.537
』『	-10.5378
もいる	-10.5378
素数	-10.5381
を完全に	-10.5383
てくれる	-10.5384
人々に	-10.5386
の色	-10.5387
アメリカ大陸	-10.5387
と思う	-10.5388
範囲	-10.5388
になって	-10.5392
リブ	-10.5392
なしで	-10.5395
最も偉大な	-10.5399
と考えた	-10.5403
ことを確認する	-10.5405
ンズ	-10.5412
ni	-10.5415
現実	-10.5417
セガ	-10.5419
この曲は	-10.5419
ヒント	-10.5423
時代に	-10.5424
オペレーティングシステム	-10.5426
同様に	-10.5426
ナイ	-10.5427
建て	-10.5427
させること	-10.5432
の新	-10.5433
アメリカで	-10.5433
野	-10.5434
ラテンアメリカ	-10.5434
はより	-10.5436
留	-10.5437
違い	-10.5438
の設計	-10.5443
自分で	-10.5446
検証	-10.5447
エストニア	-10.5447
チェン	-10.545
液	-10.5452
数千	-10.5452
ウィケット	-10.5453
ナイジェリア	-10.5454
UCLA	-10.5454
下院議員	-10.5455
窒素	-10.5455
われ	-10.5455
セルティックス	-10.5455
渓谷	-10.5455
サワードウ	-10.5455
間違いなく	-10.5456
深刻な	-10.5456
ɑ	-10.5456
姿勢	-10.5456
桁	-10.5456
宮殿	-10.5456
照明	-10.5456
フレンチ	-10.5456
協定	-10.5456
アイスクリーム	-10.5456
緊張	-10.5456
名誉	-10.5456
基地	-10.5457
ハワード	-10.5457
鳥類	-10.5458
ビア	-10.5458
ピッチ	-10.546
によっては	-10.546
アパート	-10.5462
ターン	-10.5464
を形成する	-10.5465
手順	-10.5468
南西部	-10.5469
モード	-10.5472
に存在する	-10.5472
1.5	-10.5472
、2002	-10.5477
1951	-10.5479
1944	-10.5481
つき	-10.5488
ストン	-10.549
ティム	-10.5502
寿命	-10.5503
9.	-10.5505
ガム	-10.5514
サンズ	-10.5514
ウェイト	-10.5515
モル	-10.5516
どれ	-10.552
レイン	-10.5523
なくても	-10.5525
複数	-10.5528
使用され	-10.553
インド人	-10.5534
SE	-10.5537
を構築する	-10.5538
61	-10.5539
を向上させる	-10.5549
彼ら	-10.5551
結成	-10.5552
ようと	-10.5554
バリエーション	-10.5555
の総	-10.5557
の娘	-10.5561
オリジナルの	-10.5562
ドリー	-10.5564
ことが多く	-10.5573
行く	-10.5573
、19	-10.558
にし	-10.5583
検索	-10.5586
江	-10.559
▁Bo	-10.5591
長期	-10.5592
レゴ	-10.5593
io	-10.5595
はずだ	-10.5596
で最高の	-10.56
一方で	-10.56
を維持する	-10.5601
ニュージャージー州	-10.5602
審	-10.5604
と考える	-10.5609
字	-10.5615
欠	-10.5621
を踏まえて	-10.5622
模	-10.5625
架空の	-10.5626
定年	-10.5626
靴	-10.5626
マンハッタン	-10.5626
冷蔵庫	-10.5626
田	-10.5626
暖かい	-10.5627
ピラミッド	-10.5627
英雄	-10.5627
財務	-10.5627
実業家	-10.5627
エンターテインメント	-10.5628
カリブ海	-10.5628
ダック	-10.5628
を結ぶ	-10.5628
ハイブリッド	-10.5628
機構	-10.5628
みんな	-10.5628
に戻った	-10.5628
ネズミ	-10.5628
キャンベル	-10.5628
交渉	-10.5628
ポルシェ	-10.5628
美術	-10.5628
ウサギ	-10.5628
胸	-10.5628
当局	-10.5629
東南アジア	-10.5629
話す	-10.5629
ヴァイ	-10.563
ユタ州	-10.5631
ヘビ	-10.5632
ゾウ	-10.5632
ユーロ	-10.5633
冷たい	-10.5633
サラダ	-10.5634
フォース	-10.5635
後ろ	-10.5635
、2007	-10.5636
目的地	-10.5636
だと	-10.5638
Bo	-10.5639
モバイル	-10.5641
を加え	-10.5642
誰もが	-10.5642
猫の	-10.5643
ブロ	-10.5645
事実上	-10.5649
ルーク	-10.565
▁ドイツ	-10.5653
の高さ	-10.5655
スケール	-10.5658
ヌー	-10.5658
、2006	-10.5659
グラン	-10.5661
摂取	-10.5661
レーザー	-10.5664
引退	-10.5666
ゆっくりと	-10.5667
を出す	-10.5667
大きい	-10.567
と主張した	-10.567
チャンピオンズリーグ	-10.5672
を書いた	-10.5675
注文	-10.5676
10%	-10.568
レベルで	-10.5681
作物	-10.569
▁オランダ	-10.5691
消	-10.5697
イス	-10.5699
市内	-10.5701
自然な	-10.5707
ることもある	-10.5708
それらの	-10.5708
幸せ	-10.5712
スカイ	-10.5715
の木	-10.5723
固	-10.573
増加する	-10.5733
の利点	-10.5737
人で	-10.5738
ジェイ	-10.5746
法則	-10.5747
の平均	-10.5751
込んだ	-10.5752
、2016	-10.5761
を受賞	-10.5761
類似	-10.5762
の生産	-10.5762
ou	-10.5763
浮	-10.5765
金額	-10.5767
はたくさんある	-10.5772
史上最も	-10.5772
の北	-10.5773
ンダ	-10.5774
滑	-10.5774
、2013	-10.5778
公開された	-10.5779
をどのように	-10.5779
を始めた	-10.5779
ML	-10.5781
ケル	-10.5782
分野で	-10.5784
ティック	-10.5786
誌の	-10.5794
ブレイ	-10.5796
カフェ	-10.5796
集中	-10.5796
加工	-10.5797
復	-10.5797
傾	-10.5799
ために使用される	-10.5799
50%	-10.58
サウジアラビア	-10.5801
過去の	-10.5802
成果	-10.5802
カタログ	-10.5803
バイアス	-10.5803
突然	-10.5803
財産	-10.5803
勤務	-10.5803
有権者	-10.5803
肩	-10.5803
わからない	-10.5803
に関して	-10.5803
冠	-10.5804
財団	-10.5804
権限	-10.5804
クリーブランド	-10.5804
台湾	-10.5805
屋根	-10.5805
を構成する	-10.5805
加入	-10.5805
亡くなった	-10.5806
▁この段落	-10.5806
++	-10.5806
が好きなのか	-10.5807
ボトル	-10.5809
マルクス	-10.5809
1919	-10.5809
投手	-10.581
第三	-10.581
対戦	-10.581
サントス	-10.5814
議員	-10.5815
ケース	-10.5815
手紙	-10.5817
年前	-10.5817
フォート	-10.5818
ru	-10.5823
に乗る	-10.5824
されることもある	-10.5827
パール	-10.583
と言う	-10.5831
一部	-10.5833
ケー	-10.5833
北部の	-10.5835
月下旬	-10.5837
室内	-10.5842
英国の	-10.5842
ウォーク	-10.5842
で開催される	-10.5843
の前	-10.5844
放出	-10.5845
1800	-10.5847
単純な	-10.5851
多数の	-10.5853
mg	-10.5855
1997	-10.5856
Red	-10.5856
しなさい	-10.5857
マール	-10.5862
たちの	-10.5862
発売された	-10.5862
に属し	-10.5865
に役立つ	-10.5866
作品は	-10.5872
52	-10.5873
のリーダー	-10.5875
ストラ	-10.5875
ee	-10.5879
かを識別する	-10.5879
ヒート	-10.5881
成長する	-10.5882
ことによって	-10.5884
できるように	-10.5893
起こった	-10.5895
年後	-10.5895
夏は	-10.5898
数学的	-10.59
女	-10.5901
採用	-10.5902
つく	-10.5903
ペース	-10.5905
ることで	-10.5907
精	-10.5908
ジミー	-10.5909
アーセナル	-10.5909
。2005	-10.591
歴史的に	-10.591
報告書	-10.5913
キット	-10.5914
世紀から	-10.5915
かを	-10.5915
の試合	-10.5919
{	-10.5919
▁1980	-10.5923
せよ	-10.5923
に似ている	-10.593
を買う	-10.593
ペレ	-10.5931
III	-10.5933
▁猫	-10.5937
ずっと	-10.5938
ピア	-10.5938
リオン	-10.5939
流れる	-10.5942
の一環として	-10.5943
ことで知られている	-10.5945
▁現在	-10.5947
ゲームの	-10.595
課	-10.5953
フライ	-10.5955
地下鉄	-10.5958
イング	-10.5962
用に	-10.5962
を務める	-10.5972
推論	-10.5973
▁DC	-10.5974
技	-10.5976
に任命された	-10.5977
ショック	-10.5978
フェンダー	-10.598
初心者	-10.598
地中海	-10.5981
インデックス	-10.5982
パイナップル	-10.5982
キッチン	-10.5982
バンガロール	-10.5982
弁	-10.5982
カクテル	-10.5982
セッション	-10.5982
シェパード	-10.5982
リバプール	-10.5982
爬虫類	-10.5982
オーガスタ	-10.5982
興味深い	-10.5983
シフト	-10.5983
に入った	-10.5983
大臣	-10.5983
変異	-10.5983
軽い	-10.5983
キャット	-10.5983
税金	-10.5984
ブリー	-10.5985
豊富な	-10.5985
の意味	-10.5985
米ドル	-10.5986
薬物	-10.5987
視点	-10.5988
一度	-10.5988
香り	-10.5988
ガイド	-10.5989
行われた	-10.599
フェリー	-10.599
が発生する	-10.5991
ラクロス	-10.5992
指示	-10.5992
を高め	-10.5993
クルーズ	-10.5993
売り	-10.5994
120	-10.5994
形で	-10.5996
活躍	-10.5997
のタイトル	-10.5998
方法である	-10.5999
電流は	-10.6001
ある種の	-10.6002
ボードゲーム	-10.6004
とみなされている	-10.6006
マイクロ	-10.6015
の下に	-10.6016
中東	-10.6017
もうひとつの	-10.6018
温	-10.602
AR	-10.602
ジェファーソン	-10.6022
とは対照的に	-10.6025
ボーン	-10.6026
"、"	-10.6027
るのか	-10.6031
SC	-10.6032
の一部として	-10.6032
短期間	-10.6033
オンス	-10.6034
グレー	-10.6036
地理的	-10.6038
を占め	-10.604
。2014	-10.604
DA	-10.6041
他にも	-10.6043
衝撃	-10.6047
を作った	-10.6048
コーラ	-10.6048
を決め	-10.6051
たのは	-10.6056
ブライアン	-10.6057
コロラド州	-10.6058
このため	-10.6063
とは異なる	-10.6065
の伝統	-10.6065
るか	-10.6066
和	-10.6069
レポート	-10.607
最も古い	-10.6071
ーニ	-10.6071
(/	-10.6072
卒業	-10.6073
楽しむ	-10.6075
訪れる	-10.6075
感染	-10.6076
全員	-10.6078
焼く	-10.608
化し	-10.6083
その後の	-10.6083
情報を	-10.6083
外で	-10.6083
使われている	-10.6085
下の	-10.6085
州は	-10.6087
つである	-10.6098
祝	-10.6098
面で	-10.6103
収録	-10.6104
。2015	-10.6115
地域で	-10.6123
グループの	-10.6124
74	-10.6128
の仕事	-10.6129
:[	-10.613
挑戦	-10.613
IS	-10.6134
の一種である	-10.6135
録音	-10.6138
スウィフト	-10.614
とみなされ	-10.6146
予防	-10.6146
年間の	-10.6147
丘	-10.6152
振	-10.6154
シニア	-10.6156
子供が	-10.6156
算	-10.6158
明確に	-10.6159
伝説	-10.6159
策	-10.616
向けの	-10.616
プログラミング	-10.6161
から始まる	-10.6163
にもよる	-10.6163
ナポレオン	-10.6163
抗議	-10.6164
雰囲気	-10.6164
宇宙飛行士	-10.6164
を伴う	-10.6164
酒	-10.6164
寄付	-10.6164
負債	-10.6164
缶	-10.6164
スクーター	-10.6164
オーディオ	-10.6164
微調整	-10.6164
年代にかけて	-10.6165
二重	-10.6165
ツェ	-10.6165
組み立て	-10.6166
プライム	-10.6166
するのは	-10.6166
隣接する	-10.6167
使用された	-10.6167
ディープ	-10.6169
特殊な	-10.6169
シンプルな	-10.6169
シューズ	-10.6169
レギュラーシーズン	-10.617
として知られ	-10.617
フォーム	-10.6172
まる	-10.6172
シャツ	-10.6174
スターター	-10.6178
ムス	-10.6181
流体	-10.6183
グラフィック	-10.6185
バイト	-10.6189
最近では	-10.6191
▁過去	-10.6193
成功した	-10.6194
インディアナ	-10.6195
ただ	-10.6196
ビリー	-10.6196
の創設者	-10.6198
立て	-10.62
裁判	-10.6201
1904	-10.6202
食用	-10.6204
順	-10.6204
ってきた	-10.6209
ペレは	-10.6213
user	-10.6214
活動を	-10.6216
▁日本	-10.6216
he	-10.622
使う	-10.622
125	-10.6221
ローマ帝国	-10.6221
1935	-10.6222
そのもの	-10.6222
真の	-10.6227
のは難しい	-10.6227
スタンド	-10.6239
承認	-10.6239
健康的な	-10.6246
設置	-10.6252
成分	-10.6253
ac	-10.6254
を導入した	-10.6256
解決策	-10.6257
続けた	-10.6262
ここで	-10.6263
貯蔵	-10.6264
虹	-10.6268
拡大し	-10.6269
バリ	-10.6271
マック	-10.6277
豊かな	-10.6278
起源	-10.6288
入学	-10.629
ST	-10.6291
ストア	-10.6296
イル	-10.6296
オート	-10.6299
ほ	-10.6304
園	-10.6307
称	-10.6309
探索	-10.6313
を打ち	-10.6321
批評家	-10.6323
セー	-10.6324
した場合	-10.6327
型の	-10.6327
降	-10.6328
ゲー	-10.6333
建てられた	-10.6335
描写	-10.6337
ニコラ	-10.6338
少女	-10.6339
ワイヤー	-10.6345
(18	-10.6345
4,000	-10.6345
触	-10.6346
老	-10.6346
混	-10.6347
粉	-10.6347
ペナルティ	-10.6348
ボクシング	-10.6348
キャピタル	-10.6348
器具	-10.6349
注釈	-10.6349
コンパクト	-10.6349
南半球	-10.6349
モニター	-10.6349
限界	-10.6349
フィクション	-10.6349
メンテナンス	-10.6349
エレクトロニック	-10.6349
パスワード	-10.6349
パイプライン	-10.6349
ビットコイン	-10.6349
特許	-10.635
ないように	-10.635
フラッシュ	-10.635
書かれた	-10.635
広場	-10.635
ジェット	-10.635
ピーナッツバター	-10.6351
オフェンス	-10.6351
クリスチャン	-10.6352
することなく	-10.6353
の機能	-10.6353
ダンサー	-10.6354
そうすることで	-10.6354
方式	-10.636
作目	-10.6365
の多く	-10.6368
私に	-10.6372
発展した	-10.6372
共通の	-10.6373
誰かが	-10.6375
知られている	-10.6377
発行	-10.6378
中国語	-10.6379
リーグの	-10.638
提出	-10.6383
クロー	-10.6384
排出	-10.6386
ものの	-10.639
の重要な	-10.6393
としたら	-10.6395
業者	-10.6396
最長	-10.6396
Ch	-10.6396
ッカ	-10.6399
種の	-10.6403
北西	-10.6405
年に設立された	-10.6405
企業は	-10.6406
家畜	-10.6409
著作	-10.641
チュー	-10.6411
の権利	-10.6417
1923	-10.642
プレーした	-10.642
、2015	-10.642
基礎	-10.6424
ティス	-10.6429
1918	-10.6429
リアル	-10.6436
インディ	-10.6436
人間は	-10.644
されて	-10.6449
この攻撃	-10.6451
で使用される	-10.6454
試合で	-10.6459
SP	-10.6464
良	-10.6466
ことがあります	-10.6467
53	-10.6467
歩く	-10.6468
には何	-10.647
ベー	-10.6471
かけ	-10.6471
ゲームである	-10.6471
ハリ	-10.6472
の音楽	-10.6473
ではありません	-10.6475
1913	-10.6478
切れ	-10.6478
成功を収め	-10.6479
スノー	-10.648
家に	-10.6482
は当初	-10.6486
▁Do	-10.6488
行われ	-10.6493
の首都	-10.6494
でプレーする	-10.6497
格	-10.6508
登	-10.6515
することを	-10.6521
bi	-10.6524
インター	-10.6528
丸	-10.653
サイエンス	-10.6532
提供される	-10.6535
知事	-10.6535
クリストファー	-10.6535
申請	-10.6536
瓶	-10.6537
鉛筆	-10.6537
パナマ	-10.6537
資料	-10.6537
縁	-10.6537
アブドゥル	-10.6537
ブック	-10.6537
チェンナイ	-10.6538
BBC	-10.6538
才能	-10.6538
アレルギー	-10.6538
聴衆	-10.6538
儀式	-10.6538
正方形	-10.6538
薪	-10.6538
訴訟	-10.6538
に本社を置く	-10.6538
ミュンヘン	-10.6538
高速道路	-10.6538
ペンギン	-10.6538
イスラム	-10.6539
ドクター	-10.6539
有名人	-10.6539
着陸	-10.6539
ノワール	-10.654
ホンダ	-10.654
基本	-10.654
一人当たり	-10.6541
バイデン	-10.6541
評議会	-10.6542
ッティ	-10.6542
ジョニー	-10.6543
アフリカ系アメリカ人	-10.6544
弱い	-10.6546
ton	-10.6548
MB	-10.655
本部	-10.6554
1887	-10.6554
解決	-10.6556
▁4)	-10.6556
AM	-10.6558
るようになった	-10.6569
ワーク	-10.657
プレート	-10.6578
バンドは	-10.6589
の一つ	-10.6591
の最終	-10.6595
基本的に	-10.6599
▁ステップ	-10.6604
を教え	-10.6608
に変換する	-10.6612
本文	-10.6612
▁St	-10.6615
秘密	-10.6616
を変える	-10.6619
。2000	-10.6619
ったら	-10.6619
を管理し	-10.6624
ガラ	-10.6624
-9	-10.6627
の州	-10.6633
関係者	-10.6646
ホル	-10.6647
師団	-10.6653
読	-10.6653
▁氷と炎の歌	-10.6659
ナツメヤシ	-10.6665
の長さ	-10.6671
▁シカゴ	-10.6671
ガード	-10.6679
ラック	-10.6685
学部	-10.6686
チョ	-10.6692
携帯	-10.6696
リッチ	-10.6702
を考えると	-10.6706
はどの	-10.6706
贈	-10.6717
握	-10.6717
▁中国	-10.6719
sys	-10.6721
つは	-10.6723
これには	-10.6724
の距離	-10.6724
ていく	-10.6724
まとめ	-10.6725
の準備	-10.6726
反乱	-10.6726
補	-10.6726
参	-10.6726
福	-10.6727
メソポタミア	-10.6728
ぼ	-10.6728
オペラ	-10.6729
影	-10.6729
巻き	-10.6729
周波数	-10.6729
紅茶	-10.6729
ベンジャミン	-10.673
クレジットカード	-10.673
ソーヴィニヨン	-10.673
たびに	-10.673
トレッキング	-10.673
雇用主	-10.673
ブラッド	-10.673
ヘリコプター	-10.673
玉	-10.673
噴火	-10.673
人を	-10.673
匹	-10.673
ウェスタン	-10.6731
エッグ	-10.6731
変動	-10.6731
冷戦	-10.6731
RNA	-10.6731
芝生	-10.6731
下院	-10.6732
記号	-10.6732
えた	-10.6733
パネル	-10.6733
ブーツ	-10.6734
アンソニー	-10.6734
観光地	-10.6735
1908	-10.6735
世の	-10.6736
コンテスト	-10.6737
ルカ	-10.6738
ブレイク	-10.6741
システムを	-10.6741
飼い主	-10.6744
79	-10.6746
今でも	-10.6749
強度	-10.675
プレーする	-10.675
されています	-10.6754
提供された	-10.6755
パート	-10.6755
ものであった	-10.6755
モリ	-10.6759
ent	-10.6761
▁ザ	-10.6762
どちらが	-10.6762
プリンス	-10.6763
1909	-10.6763
デール	-10.6763
St	-10.6765
週に	-10.6769
ずに	-10.6771
は生きているが	-10.6776
使	-10.678
ハント	-10.6782
しなかった	-10.6783
適切に	-10.6788
を除く	-10.6789
離れた	-10.6793
内戦	-10.6796
を与えた	-10.6797
に見られる	-10.6797
EP	-10.6799
▁自転車	-10.6799
作用	-10.6801
トニー	-10.6802
の詳細	-10.6805
人目の	-10.6807
ジョージア州	-10.6808
ほか	-10.6814
人である	-10.6814
が始まった	-10.6819
の支配	-10.6822
するよう	-10.6823
英語の	-10.6824
と呼ばれた	-10.6824
アダムスは	-10.6824
のはなぜ	-10.6826
コス	-10.6828
イラ	-10.6828
のもと	-10.6829
大統領は	-10.683
、{	-10.6836
▁Ba	-10.6837
ピックルボール	-10.6837
ともに	-10.6843
教えてほしい	-10.6844
▁カリフォルニア州	-10.6846
要約	-10.6848
om	-10.6852
に使う	-10.6853
エド	-10.6856
てほしい	-10.6857
の記録	-10.6857
が大きく	-10.6857
工	-10.6859
知っている	-10.6861
時間は	-10.6862
tu	-10.6863
と同時に	-10.6864
しても	-10.6867
)、「	-10.6867
学び	-10.6869
▁2007	-10.687
感じ	-10.6872
▁p	-10.6874
始	-10.6876
獲得した	-10.6878
飲料	-10.6878
レアル	-10.6879
溶	-10.6884
達	-10.6887
栄誉	-10.689
かかった	-10.6892
ラージ	-10.6892
リュー	-10.6896
ということだ	-10.6901
で生まれ	-10.6906
企業である	-10.6907
MS	-10.691
太陽光	-10.6912
変わり	-10.6914
張	-10.6914
を始め	-10.6914
の要素	-10.6917
価	-10.6919
するようになった	-10.6919
館	-10.6921
考え方	-10.6921
改	-10.6922
必	-10.6924
載	-10.6925
紀元	-10.6925
余	-10.6925
パンデミック	-10.6925
HBO	-10.6926
圧縮	-10.6926
ユースケース	-10.6926
パーティション	-10.6926
庭園	-10.6926
工程	-10.6926
アベンジャーズ	-10.6926
外交官	-10.6927
ニンジン	-10.6927
暑い	-10.6927
を破った	-10.6927
ケニア	-10.6927
スペクトル	-10.6928
食材	-10.6928
甘い	-10.6928
オスマン帝国	-10.6928
気持ち	-10.6929
オープンした	-10.6929
家具	-10.6929
He	-10.6929
強制	-10.693
と推定されている	-10.6931
することは	-10.6931
博士号を取得	-10.6934
キック	-10.6934
上級	-10.6935
彫刻家	-10.6936
1888	-10.6939
ネロ	-10.6943
サーブ	-10.6943
(2021	-10.6946
デッキ	-10.6946
で育った	-10.6947
ヨー	-10.6948
80%	-10.6948
国王	-10.6949
名は	-10.695
推進	-10.695
約束	-10.6951
ケット	-10.6953
減少した	-10.6957
に焦点を当てた	-10.6958
降り	-10.6959
スピン	-10.6961
監督の	-10.6963
ヤー	-10.6964
テープ	-10.6965
から始まり	-10.6968
都市圏	-10.6968
ショ	-10.6973
したもの	-10.6976
体の	-10.6977
できた	-10.698
思	-10.6981
だけである	-10.6982
日常生活	-10.6983
進む	-10.6985
59	-10.6985
彼を	-10.6986
フェル	-10.6987
を学び	-10.6987
カーブ	-10.6991
量は	-10.6995
が行われる	-10.7
▁私の	-10.7003
を失った	-10.7005
So	-10.7007
万ドルの	-10.7007
訪問	-10.7012
を選び	-10.7013
はるかに	-10.7019
何も	-10.7019
ものと	-10.702
覆	-10.7023
を使用した	-10.7026
時間の	-10.7028
プロジェクトの	-10.7028
ではなかった	-10.7032
との関係	-10.7034
西側	-10.7034
-6	-10.7037
の一員	-10.7041
開催される	-10.7048
▁スペイン	-10.7052
の舞台	-10.7054
存在する	-10.7055
のことで	-10.7058
1914	-10.7062
海岸	-10.7062
の大部分は	-10.7064
ユーザーが	-10.7066
ジオ	-10.7071
水中	-10.7076
短	-10.7077
go	-10.7083
が行われ	-10.7083
近い	-10.7092
完	-10.7092
を持っていた	-10.7101
終わり	-10.7106
解放	-10.7106
子供の	-10.711
があるため	-10.7115
シングルス	-10.7116
オックスフォード	-10.7118
パンク	-10.712
北東部	-10.7121
読む	-10.7121
雷	-10.7122
貧困	-10.7124
亡	-10.7124
フィードバック	-10.7124
師	-10.7124
tion	-10.7124
クラフト	-10.7124
創発的能力	-10.7124
経路	-10.7124
取り組み	-10.7125
熟	-10.7125
ヒップホップ	-10.7125
サミュエル	-10.7125
月上旬	-10.7125
コーポレーション	-10.7125
太	-10.7125
大聖堂	-10.7126
恐竜	-10.7126
アシスタント	-10.7126
の拡大	-10.7126
に関係なく	-10.7126
メルボルン	-10.7126
なければなりません	-10.7126
メルセデス	-10.7126
自信	-10.7126
設備	-10.7126
ダイエット	-10.7126
膝	-10.7126
データウェアハウス	-10.7126
階段	-10.7126
容器	-10.7126
CPU	-10.7126
NASA	-10.7127
望遠鏡	-10.7127
妊娠	-10.7127
出会い	-10.7127
描かれている	-10.7127
情熱	-10.7127
ジャスティン	-10.7127
ブロックチェーン	-10.7127
兵士	-10.7128
を満たす	-10.7129
標的	-10.7129
スピーチ	-10.713
欠点	-10.7131
学的	-10.7131
アラビア	-10.7133
バンキング	-10.7133
容量	-10.7134
の良い	-10.7134
することができ	-10.7135
90%	-10.7135
よりもはるかに	-10.7136
を減らし	-10.7137
アイアン	-10.7138
。2006	-10.7139
体系	-10.7139
世紀には	-10.7141
PGA	-10.7142
ソート	-10.7145
ヘン	-10.7146
用品	-10.715
全長	-10.7151
の健康	-10.7152
できるだけ	-10.7153
ませ	-10.7153
ピース	-10.7154
軽く	-10.7154
物理学者	-10.7156
次のように	-10.7156
ge	-10.7157
映画は	-10.7158
ホスト	-10.7158
を見つけた	-10.7159
ub	-10.716
に合わせて	-10.716
河川	-10.7162
の表面	-10.7163
1～2	-10.7164
▁ボストン	-10.7167
ya	-10.7171
作る	-10.7172
アフリカの	-10.7176
と同様に	-10.7179
で最も人気のある	-10.7181
このスポーツ	-10.7185
のどちらか	-10.7187
BI	-10.7188
ng	-10.7189
ッター	-10.7192
軽	-10.7193
を購入し	-10.7194
過ごし	-10.7196
を行っている	-10.7197
億人	-10.7204
res	-10.7204
ウィー	-10.7204
73	-10.7206
LA	-10.7208
(15	-10.7209
見える	-10.721
ウッズ	-10.7211
ラント	-10.7213
ハラ	-10.7214
ウィック	-10.7219
引用	-10.722
っていない	-10.7229
人類の	-10.7235
はインドの	-10.7237
がいた	-10.7239
pa	-10.7239
▁Ho	-10.724
▁De	-10.7242
ノミネート	-10.7244
側の	-10.725
アビ	-10.7251
RV	-10.7252
しかない	-10.7254
スティ	-10.7257
▁例えば	-10.7261
相手チーム	-10.7262
ダール	-10.7265
に就任した	-10.7268
、2008	-10.7273
を抜き出し	-10.7275
寝	-10.7276
ビーバー	-10.7278
セミ	-10.7278
▁2008	-10.7279
依頼	-10.728
立った	-10.7281
展開	-10.729
の葉	-10.7291
復活	-10.7292
の時代	-10.7294
食生活	-10.7295
特	-10.7295
フットボールチーム	-10.7298
▁ブラック	-10.7298
これまで	-10.7302
楽しみ	-10.7305
Ll	-10.7306
高度	-10.7306
ルド	-10.731
大都市	-10.7311
ようとしている	-10.7317
適	-10.7321
野生の	-10.7321
広範な	-10.7323
すぎ	-10.7325
ランダム	-10.7326
包	-10.7327
レバノン	-10.7327
平方キロメートル	-10.7328
ギリシア	-10.7328
ライブラリ	-10.7328
ハーフ	-10.7329
居	-10.7329
新鮮な	-10.7329
イエロー	-10.7329
景色	-10.7329
フロント	-10.7329
さない	-10.7329
ell	-10.7329
ナードゥ州	-10.7329
喜び	-10.7329
トンプソン	-10.733
シナリオ	-10.733
イチゴ	-10.733
素敵な	-10.733
Unix	-10.733
AWS	-10.733
株価	-10.733
ニンニク	-10.733
近郊の	-10.733
違反	-10.7331
永久	-10.7331
ue	-10.7331
保管	-10.7331
キャッチ	-10.7331
サマータイム	-10.7331
断食	-10.7332
レア	-10.7332
狭い	-10.7332
グリッド	-10.7332
の流れ	-10.7332
効率的な	-10.7332
ナルド	-10.7333
で有名	-10.7333
ディーラー	-10.7334
硬い	-10.7334
ウィーン	-10.7334
怒り	-10.7335
暗い	-10.7335
ワール	-10.7337
死んだ	-10.7338
の特定	-10.7338
後半	-10.7338
輸出	-10.7339
をもたらし	-10.7339
、2005	-10.7339
西海岸	-10.7341
脚本家	-10.7345
電気魚	-10.7352
▁1990	-10.7353
▁Go	-10.7356
メリ	-10.736
and	-10.7361
フェイ	-10.7366
ine	-10.7369
アール	-10.737
レスリング	-10.7371
という点で	-10.7373
、1990	-10.7376
ーナ	-10.7377
家庭用	-10.7383
走り	-10.7383
▁はい	-10.7383
を支援する	-10.7384
シンガポールは	-10.7388
他に	-10.7393
に敗れた	-10.7398
エビ	-10.7399
バンドの	-10.7403
限り	-10.7406
41	-10.7413
向上	-10.7413
者に	-10.7413
ケリー	-10.7416
ランチ	-10.7417
どちらの	-10.7421
分け	-10.7423
創業	-10.7428
曲は	-10.7429
▁テイラー	-10.7429
よく使われる	-10.7432
一家	-10.7439
回戦で	-10.7452
周囲の	-10.7456
アダムス	-10.7459
であることを	-10.7469
隣	-10.7475
GP	-10.7476
を達成する	-10.7479
いくつか	-10.7486
効果的	-10.7488
単一	-10.7488
MA	-10.7489
ak	-10.7493
ate	-10.7498
を借り	-10.7501
能	-10.7503
べきである	-10.7507
数分	-10.7507
ンス	-10.7508
au	-10.7509
はありますか	-10.7511
去	-10.7522
ja	-10.7522
決済	-10.7526
ゲスト	-10.7527
ゴードン	-10.753
段	-10.753
キム	-10.7531
十分に	-10.7534
をお	-10.7535
ミュー	-10.7535
鶏	-10.7535
を開発した	-10.7535
エクアドル	-10.7536
伸び	-10.7538
イスラム教	-10.7538
むしろ	-10.7538
景観	-10.7538
Xbox	-10.7538
ウィキペディア	-10.7538
▁どの楽器が弦楽器か	-10.7538
プラデシュ州	-10.7538
思想	-10.7538
枠	-10.7539
バーチャル	-10.7539
フレームワーク	-10.7539
タッチダウン	-10.7539
マッピング	-10.754
ベーコン	-10.754
トークン	-10.754
ライフスタイル	-10.754
セントルイス	-10.7541
実用的な	-10.7541
UBS	-10.7541
演劇	-10.7542
楽曲	-10.7542
牛肉	-10.7542
ソルト	-10.7542
クラッシュ	-10.7544
ドナルド	-10.7545
安い	-10.7546
資本主義	-10.7546
メニュー	-10.7546
バース	-10.7547
王子	-10.7549
▁ロサンゼルス	-10.7551
up	-10.7552
ive	-10.7552
制約	-10.7553
岸	-10.7554
それほど	-10.7554
ムーン	-10.7555
バッド	-10.7558
ロックバンド	-10.7559
つ以上の	-10.756
ディナー	-10.7561
になります	-10.7564
ザン	-10.7566
遺伝	-10.7567
製の	-10.757
変わる	-10.757
ga	-10.7571
の有名な	-10.7573
者たち	-10.7576
マリン	-10.7576
死去	-10.7578
の起源	-10.7581
ウン	-10.7582
ピート	-10.7584
リリースされた	-10.7585
イズ	-10.7586
大規模	-10.7587
などがいる	-10.7587
を設立し	-10.7592
are	-10.7592
人類学	-10.7594
▁Spark	-10.7598
ドロ	-10.7599
一定の	-10.7604
によって開発された	-10.7608
の略	-10.7609
苦	-10.7609
を簡単に	-10.7609
を引き起こした	-10.7614
に分かれ	-10.7614
速度は	-10.7621
はさらに	-10.7622
統計学	-10.7626
暗号	-10.7627
いたり	-10.7628
熱帯	-10.7629
背	-10.763
総合	-10.7632
組み合わせ	-10.7633
所得税	-10.7634
怪我	-10.7635
規模の	-10.7646
長距離	-10.7646
RL	-10.7647
os	-10.7648
トイ	-10.7649
1921	-10.765
▁[ˈ	-10.7653
宣伝	-10.7653
ないこと	-10.7658
発電所	-10.7662
の起源は	-10.7664
プロット	-10.7665
、2004	-10.7666
回戦	-10.7666
one	-10.767
主義者	-10.7675
成人	-10.7678
ているため	-10.7678
を開発し	-10.7683
人種	-10.7684
の製造	-10.7686
南西	-10.7687
この問題	-10.7692
ッパー	-10.7697
ts	-10.77
発言	-10.77
待	-10.7701
年以上	-10.7702
アラブ	-10.7711
人形	-10.7712
3.5	-10.7714
は誰ですか	-10.7717
はその後	-10.772
に選ばれ	-10.7722
と考えている	-10.7723
に対し	-10.7724
リットル	-10.7731
▁今	-10.7732
▁大規模言語モデル	-10.7733
満足	-10.7733
戦った	-10.7735
元の	-10.7735
▁カナダ	-10.7736
タスマン	-10.7741
航	-10.7743
願	-10.7744
▁私たちは	-10.7744
市の	-10.7744
象	-10.7747
トランジスタ	-10.7749
乾	-10.7749
ばかり	-10.775
庁	-10.775
艦隊	-10.775
ベストセラー	-10.7751
アイデンティティ	-10.7751
クライアント	-10.7751
ローマ字表記	-10.7751
ティーンエイジャー	-10.7751
フェイスブック	-10.7751
ギャラリー	-10.7751
励	-10.7751
幻覚	-10.7751
ミトコンドリア	-10.7751
動詞	-10.7751
故郷	-10.7751
ルイ	-10.7751
アドベンチャー	-10.7751
独占	-10.7752
厳しい	-10.7752
中性子	-10.7752
爆弾	-10.7752
ユニオン	-10.7752
戦闘機	-10.7752
エネルギーを	-10.7754
手術	-10.7754
作り方	-10.7754
ネコ	-10.7754
聖書	-10.7754
手続き	-10.7755
出版社	-10.7756
スキーリゾート	-10.7756
小屋	-10.7757
順位	-10.7758
遠く	-10.7758
隠	-10.7758
イーグルス	-10.7759
近代的な	-10.776
タコス	-10.776
法は	-10.7761
自治体	-10.7761
7,000	-10.7762
ボビー	-10.7762
にもなる	-10.7763
を利用した	-10.7763
がよく	-10.7764
1903	-10.7764
フルート	-10.7764
82	-10.7765
レート	-10.7766
をさらに	-10.7767
設立された	-10.7768
高度な	-10.7769
空軍	-10.777
北アフリカ	-10.777
ケント	-10.7771
ディーン	-10.7771
ウィスコンシン州	-10.7771
350	-10.7771
冬の	-10.7773
を測定する	-10.7775
気体	-10.7776
Mac	-10.7776
を見た	-10.778
ウム	-10.7782
なぜなら	-10.7789
コースト	-10.779
マウス	-10.7791
的なもの	-10.7792
方法を	-10.7794
誰も	-10.7798
を演じた	-10.7799
ストック	-10.7801
原作	-10.7806
使用されている	-10.7807
モール	-10.7807
アルファ	-10.7809
によって設立された	-10.7812
代表として	-10.7813
US	-10.7813
も含まれる	-10.7818
キス	-10.782
▁ロバート	-10.7822
▁私が	-10.7822
に立ち	-10.7825
登場し	-10.7826
Te	-10.7827
するという	-10.7831
電源	-10.7832
と言った	-10.7833
コーヒーの	-10.7837
ことに気づいた	-10.784
Co	-10.7843
ホセ	-10.7844
回数	-10.7845
ビート	-10.7848
がなく	-10.7851
に最も	-10.7852
シーズンに	-10.7852
見え	-10.7854
発明	-10.7859
を考える	-10.7861
のいくつか	-10.7861
だけが	-10.7862
ろうと	-10.7864
マレー	-10.7865
南アジア	-10.7867
効率的に	-10.7869
運動は	-10.787
▁ブラジル	-10.7873
思い出	-10.7875
他人	-10.7876
コロラド	-10.7877
so	-10.7877
ファル	-10.7882
このゲーム	-10.789
イングランドの	-10.7892
89	-10.7894
に出演	-10.7895
カレー	-10.7898
同じく	-10.7905
グリル	-10.7909
外国	-10.7909
終結	-10.791
年代後半	-10.791
万人以上の	-10.7912
SR	-10.7913
極めて	-10.7916
のキャラクター	-10.7923
の際に	-10.793
彼はまた	-10.7934
してくれる	-10.7935
こともあります	-10.7936
▁2012	-10.7939
年間で	-10.7941
りますか	-10.7945
議会は	-10.7946
プス	-10.7948
ミラー	-10.7952
する際に	-10.7952
ルーズベルト	-10.7953
▁カリフォルニア	-10.7956
(16	-10.796
は素晴らしい	-10.7961
につれ	-10.7962
ブルガリア	-10.7962
栄養素	-10.7962
カート	-10.7963
治	-10.7964
と結婚	-10.7964
マーシャル	-10.7964
エスプレッソ	-10.7966
状の	-10.7966
プロセッサ	-10.7966
アントニオ	-10.7967
偏	-10.7967
ナチス	-10.7967
〜	-10.7968
ランボルギーニ	-10.7968
フォーブス	-10.7968
アトランタ	-10.7968
降格	-10.7968
装飾	-10.7968
ノートパソコン	-10.7968
被	-10.7968
パシフィック	-10.7968
フォックス	-10.7968
連鎖	-10.7968
全豪オープン	-10.7968
ɔ	-10.7969
Azure	-10.7969
プライベート	-10.7969
Microsoft	-10.7969
狩猟	-10.7969
а	-10.7969
自然言語処理	-10.7969
移植	-10.7969
希ガス	-10.7969
タンパベイ	-10.7969
独特の	-10.7969
連隊	-10.7969
砦	-10.7969
クレジット	-10.7969
スーパーヒーロー	-10.7969
読書	-10.797
分裂	-10.797
IPL	-10.797
先住民	-10.797
オルガン	-10.797
対策	-10.797
キャメロン	-10.797
自動化	-10.797
任期	-10.7971
ダブリン	-10.7971
定理	-10.7971
フリスビー	-10.7971
面白い	-10.7971
痛み	-10.7971
イーロン	-10.7971
リッジ	-10.7971
電子メール	-10.7972
つ挙げてください	-10.7972
電界	-10.7972
シングルセル	-10.7972
カフェイン	-10.7972
アルベルト	-10.7973
ブッシュ	-10.7973
対戦相手	-10.7975
ジョエル	-10.7975
元々	-10.7975
と主張している	-10.7975
中で	-10.7976
を記録し	-10.7977
シェフ	-10.7978
つ目の	-10.7978
1861	-10.7978
柔軟性	-10.7979
ドーム	-10.7979
170	-10.798
レイズ	-10.798
当て	-10.7981
株式市場	-10.7983
れない	-10.7986
露出	-10.7986
マーティ	-10.7988
ニャ	-10.7989
黒い	-10.7991
カーター	-10.7993
ドリ	-10.7994
セラ	-10.7997
ホース	-10.7998
の西	-10.7999
トライ	-10.7999
月にかけて	-10.8003
子供たちは	-10.8004
であれ	-10.8005
▁2000	-10.8006
エク	-10.8008
かけて	-10.801
上記の	-10.8013
身体的	-10.8014
魚の	-10.8014
1942	-10.8014
のスタイル	-10.8021
さまざまな方法	-10.8022
コイン	-10.8023
こうした	-10.8028
はもともと	-10.8029
].	-10.803
ity	-10.8041
を制した	-10.8041
祝日	-10.8046
の特徴は	-10.8049
てみよう	-10.8051
最終的な	-10.8053
選手権で	-10.8055
ns	-10.8056
戦術	-10.8056
ポル	-10.8057
エリー	-10.8057
心理学	-10.8058
自ら	-10.8058
liste	-10.8061
否定	-10.8061
ここに	-10.8066
,000,000	-10.8067
アンドレ	-10.8068
フレ	-10.8068
安全性	-10.8069
1/2	-10.8069
ラフ	-10.8072
公立学校	-10.8078
を訪れた	-10.8078
ペル	-10.8089
ロシアの	-10.81
のアイデア	-10.8103
AL	-10.8105
お勧め	-10.8111
メンバーは	-10.8117
順に	-10.8117
スワ	-10.8119
0000	-10.8119
モント	-10.8127
▁iPhone	-10.8127
両親は	-10.8131
ツィ	-10.8133
ブルズ	-10.8134
関与	-10.8137
2.5	-10.8138
チャートで	-10.8139
ke	-10.8143
住む	-10.8145
低く	-10.8147
薄	-10.815
の勝利	-10.8152
施	-10.8154
を大きく	-10.8161
(24	-10.8162
▁一般的な	-10.8163
るように	-10.8166
緊急	-10.8166
1928	-10.8168
道を	-10.8169
動物の	-10.817
再現	-10.8172
電車	-10.8173
殿堂入り	-10.8173
を出	-10.8183
編	-10.8183
ルース	-10.8184
掃除	-10.8185
持っている	-10.8185
オバマ	-10.8186
票	-10.8186
保守	-10.8187
ワル	-10.8187
孫	-10.8187
を得て	-10.8189
興奮	-10.8189
ソビエト連邦	-10.8189
激	-10.819
養	-10.819
をめぐる	-10.819
ソーシャル	-10.819
であろう	-10.819
原産	-10.819
納	-10.819
針	-10.819
レトリーバー	-10.819
シンシナティ	-10.819
包括的な	-10.819
鎖	-10.819
Lyft	-10.819
コンクリート	-10.8191
スピーカー	-10.8191
スイート	-10.8191
デイヴィス	-10.8191
ジョコビッチ	-10.8191
ɡ	-10.8191
三角形	-10.8191
ニワトリ	-10.8191
マトリックス	-10.8191
ジェーン	-10.8191
科の	-10.8191
演説	-10.8191
関節	-10.8191
アドバイス	-10.8191
自殺	-10.8191
魔法使い	-10.8191
広げ	-10.8191
剣	-10.8191
プライバシー	-10.8191
負担	-10.8192
を共同設立	-10.8192
ボリビア	-10.8192
存続	-10.8192
ライフサイクル	-10.8192
プードル	-10.8193
チベット	-10.8193
ウォーレン	-10.8194
真実	-10.8194
ナル	-10.8194
報道	-10.8195
ヴェーダ	-10.8195
da	-10.8195
の場所	-10.8196
現役	-10.8197
シーケンス	-10.8197
信頼性	-10.8197
重み	-10.8197
ビーガン	-10.8198
金星	-10.8198
を研究する	-10.8198
をかけ	-10.8199
po	-10.8199
テール	-10.82
パッチ	-10.82
でプレーし	-10.82
原子力	-10.82
枚のアルバム	-10.8201
コメント	-10.8201
具体的な	-10.8201
ソーダ	-10.8202
本土	-10.8204
全体的な	-10.8206
に由来し	-10.8207
リーガ	-10.8208
を持たない	-10.821
スライド	-10.8212
中部	-10.8212
準	-10.8214
によって引き起こされる	-10.8214
環境で	-10.8218
New	-10.822
▁バスケットボール	-10.8221
ゴム	-10.8223
を評価する	-10.8223
のですが	-10.8228
カエル	-10.8228
長官	-10.8228
人にとって	-10.8229
白人	-10.823
であっても	-10.8232
バウ	-10.8233
想像	-10.8235
車を	-10.8237
上部	-10.8238
ミール	-10.8239
地点	-10.8243
ロッド	-10.8244
が提供する	-10.8248
るには	-10.825
Re	-10.8255
という名前	-10.8256
始まった	-10.8257
▁最後に	-10.8259
を認め	-10.826
ボス	-10.8265
固有の	-10.8273
リビア	-10.8275
の共同	-10.8285
の数は	-10.8294
込	-10.8295
の人々	-10.8304
サッカーチーム	-10.8309
現れる	-10.831
視覚	-10.8311
▁そう	-10.8312
税率	-10.8317
続いて	-10.8318
世紀初頭	-10.8321
ā	-10.8322
レーション	-10.8324
から始まった	-10.8327
In	-10.8328
て以来	-10.8328
,000	-10.8329
われた	-10.8329
個人データ	-10.833
紹介	-10.8331
ーション	-10.8337
年金	-10.8338
他の多くの	-10.8338
湿	-10.8339
、2000	-10.8339
オープンソース	-10.8343
刻	-10.8343
はすでに	-10.8344
所有者	-10.8346
が大きい	-10.8352
トフル	-10.8355
を感じる	-10.8358
1500	-10.8359
東は	-10.8364
新たに	-10.8365
国勢調査	-10.8366
年後に	-10.8371
マクロ	-10.8372
)-	-10.8374
国土	-10.8379
侵攻	-10.8381
を開始し	-10.8381
DS	-10.8382
ものではない	-10.8382
イアン	-10.8384
ラボ	-10.8387
リリースされ	-10.8393
に移り	-10.8398
セカンド	-10.8403
水は	-10.8405
ケンブリッジ	-10.8407
営	-10.8409
アインシュタインは	-10.8409
盛り	-10.841
の死	-10.841
香	-10.841
かな	-10.841
割り当て	-10.8411
優	-10.8412
終	-10.8412
補助	-10.8412
そうな	-10.8412
およそ	-10.8413
生存	-10.8413
兆	-10.8413
刺	-10.8415
交代	-10.8415
ロビン	-10.8416
ウッデン	-10.8417
フォル	-10.8417
に次ぐ	-10.8418
オブジェクト	-10.8418
カルナータカ州	-10.8418
膨大な	-10.8418
アテネ	-10.8418
コマンド	-10.8418
モントリオール	-10.8418
仕様	-10.8418
ネイティブ	-10.8418
核兵器	-10.8418
ステート	-10.8418
汎用	-10.8418
推測	-10.8418
ブダペスト	-10.8418
時価総額	-10.8418
OpenAI	-10.8418
サンパウロ	-10.8418
デイヴィッド	-10.8418
染色体	-10.8418
愛情	-10.8418
小さじ	-10.8418
といえば	-10.8418
戸	-10.8419
風景	-10.8419
玉ねぎ	-10.8419
が始まる	-10.8419
負荷	-10.8419
運命	-10.8419
回答	-10.8419
服装	-10.8419
通勤	-10.8419
不平等	-10.8419
セクション	-10.842
インドア	-10.842
オークランド	-10.842
シロップ	-10.842
別名	-10.842
ファイター	-10.842
強化学習	-10.842
寒い	-10.8421
現金	-10.8422
PS	-10.8422
著者	-10.8423
ニューロン	-10.8423
データサイエンス	-10.8424
のひとつで	-10.8425
長い間	-10.8426
Kafka	-10.8427
世界的に	-10.8428
パッド	-10.8429
国際的に	-10.8432
魅力的な	-10.8432
説明してください	-10.8432
積極的に	-10.8433
タイトルを獲得した	-10.8437
GT	-10.8442
南は	-10.8445
クラブは	-10.8452
倫理	-10.8456
エディ	-10.846
の旅	-10.8462
エラ	-10.8462
ノースカロライナ州	-10.8463
のパフォーマンス	-10.8464
ヴェン	-10.8466
を学んだ	-10.8471
ant	-10.8472
ロット	-10.8475
株主	-10.8479
両者	-10.8485
アム	-10.8485
良く	-10.8485
づけ	-10.8491
細菌	-10.8493
ast	-10.8494
ミリ	-10.8495
スリ	-10.8496
できるようにする	-10.8496
当初の	-10.8499
自宅	-10.85
レク	-10.8501
チャド	-10.8504
アンナ	-10.8504
複雑	-10.8505
▁チャールズ	-10.8505
公用語	-10.8508
ラット	-10.8511
の移動	-10.8511
万年前	-10.8511
を箇条書きにしてください	-10.8513
シオ	-10.8513
することもある	-10.8517
演奏する	-10.8519
ミネソタ州	-10.8523
周辺の	-10.8524
西は	-10.8524
ゴミ	-10.8525
ナッツ	-10.8527
話し	-10.8533
ライム	-10.8533
ris	-10.8535
▁あなたの	-10.8536
ies	-10.8543
、1997	-10.8548
ますます	-10.8548
同社	-10.855
第二次世界大戦後	-10.8552
ていなかった	-10.8556
はそれぞれ	-10.8557
Me	-10.8559
にとっては	-10.8559
ない限り	-10.856
伴	-10.8562
という用語は	-10.8564
続編	-10.8566
を選んだ	-10.8566
est	-10.8567
の南	-10.8568
労働者の	-10.8568
はマーベル	-10.8571
招待	-10.8572
のもいい	-10.8579
公立	-10.8581
ランク	-10.8584
最も成功した	-10.8586
誰か	-10.8588
を続け	-10.8588
ライアン	-10.8591
同じように	-10.8591
生きている	-10.8593
に乗り	-10.8596
▁In	-10.8597
生まれの	-10.8601
短く	-10.8602
同じような	-10.8606
盤	-10.8606
成長し	-10.8607
エリ	-10.861
を設立	-10.8611
176	-10.8614
ci	-10.862
バートン	-10.862
ヘッドコーチ	-10.862
アップルは	-10.8622
起こ	-10.8626
印象	-10.8626
フリ	-10.8627
この場合	-10.8629
父親	-10.863
州である	-10.8634
歳から	-10.8635
地方の	-10.8635
ユーザーは	-10.8636
陰	-10.8636
安全に	-10.8637
--	-10.8637
を検討する	-10.8641
ニックネーム	-10.8643
頂点	-10.8643
嫌	-10.8644
の指導者	-10.8644
砲	-10.8645
ルス	-10.8645
持続	-10.8645
展示	-10.8647
手に	-10.8647
事務所	-10.8648
リトアニア	-10.8648
陽	-10.8648
然	-10.8649
築	-10.8649
貨幣	-10.865
ソーラーパネル	-10.865
鳴き声	-10.865
竜巻	-10.865
バンクーバー	-10.865
五	-10.865
を誇る	-10.8651
1893	-10.8651
デザイナー	-10.8651
暖かく	-10.8651
`	-10.8651
方程式	-10.8651
Hadoop	-10.8651
山頂	-10.8651
高価な	-10.8651
を描く	-10.8651
エイリアン	-10.8651
豆腐	-10.8651
オリーブオイル	-10.8651
感染症	-10.8651
オープニング	-10.8651
ダウ	-10.8651
オットー	-10.8651
メリーランド州	-10.8651
観葉植物	-10.8652
原子核	-10.8653
生き物	-10.8653
ストレート	-10.8653
物価	-10.8654
レンタル	-10.8654
ボッシュ	-10.8654
積極的な	-10.8654
立場	-10.8655
ボーイズ	-10.8655
受信	-10.8656
身長	-10.8657
占領	-10.8658
で破り	-10.8659
アインシュタイン	-10.8659
利用可能な	-10.8659
体制	-10.8663
無線	-10.8665
に特化した	-10.8665
再生可能エネルギー	-10.8665
フレッド	-10.8667
都市部	-10.8667
水平	-10.8669
区間	-10.8671
ショーン	-10.8672
から生まれた	-10.8672
マップ	-10.8673
限定	-10.8673
炭素	-10.8674
をもたらした	-10.8675
1865	-10.8676
中心部	-10.8678
学位	-10.8681
光の	-10.8685
保有	-10.8686
対戦する	-10.8692
グラント	-10.8696
西部の	-10.8696
準州	-10.8698
-7	-10.8702
ow	-10.8703
ヶ月間	-10.8706
長期的な	-10.8707
-15	-10.8712
ルク	-10.8712
重要です	-10.8716
IA	-10.8717
外国人	-10.8718
チー	-10.8718
見られる	-10.8718
家は	-10.872
ミシガン州	-10.872
指名	-10.8721
が一番	-10.8723
水が	-10.8725
を確保する	-10.8728
エール	-10.8728
の分野で	-10.8729
ベリ	-10.873
シンガポールの	-10.8731
鍋	-10.8732
の値	-10.8733
の作成	-10.8735
システムが	-10.8736
きた	-10.8736
最適	-10.8738
自分たちの	-10.8739
メラ	-10.8744
人類が	-10.8745
医	-10.875
役割を果たし	-10.8752
を検討し	-10.8754
訳	-10.8756
いや	-10.8758
の一人である	-10.8759
を持つこと	-10.8766
▁API	-10.8766
を避ける	-10.8767
ica	-10.8773
採用された	-10.8775
乾燥した	-10.8777
ーヌ	-10.8779
に関するこのパラグラフを踏まえ	-10.878
という名前は	-10.8785
Ma	-10.8786
を超えた	-10.879
ていて	-10.879
に出場し	-10.8791
を形成している	-10.8792
保護区	-10.8793
設立	-10.8799
を知る	-10.88
Pa	-10.88
ミア	-10.8804
ment	-10.8807
行政区	-10.8807
することになる	-10.8807
をもとに	-10.8808
であると同時に	-10.8812
も多い	-10.8813
影響を与えた	-10.8817
、2014	-10.8817
不可能	-10.8818
を作成し	-10.8819
ダニー	-10.8823
のオーナー	-10.8826
▁インドの	-10.8827
増加した	-10.883
の減少	-10.8837
NP	-10.884
犯	-10.8841
でもあり	-10.8849
発生	-10.885
を発見し	-10.8852
が登場する	-10.8852
統	-10.8854
削減	-10.886
自分たち	-10.8863
十分	-10.8865
走行	-10.8865
軍は	-10.887
バスケット	-10.8874
レーン	-10.8875
雑誌	-10.8875
▁14	-10.8875
配置	-10.8876
千	-10.8877
爆	-10.8879
救	-10.888
レックス	-10.8881
双	-10.8881
でプレー	-10.8883
抗	-10.8883
暴	-10.8883
ハーバード	-10.8883
パレスチナ	-10.8884
パブリック	-10.8885
明るい	-10.8885
応答	-10.8887
ふ	-10.8887
融資	-10.8887
宝	-10.8887
警告	-10.8888
酢	-10.8888
デプロイ	-10.8888
以外では	-10.8888
宇宙船	-10.8888
華	-10.8888
パーソナル	-10.8888
パートナーシップ	-10.8888
平等	-10.8888
スナック	-10.8889
ポテト	-10.8889
全仏オープン	-10.8889
に贈られる	-10.8889
Presto	-10.8889
マーガレット	-10.8889
基盤	-10.8889
に相当する	-10.8889
ブリティッシュ	-10.8889
化石燃料	-10.8889
縮小	-10.8889
スチュアート	-10.8889
こんにちは	-10.8889
望ましい	-10.8889
トールキン	-10.8889
兵器	-10.889
配信	-10.889
一定	-10.889
マディソン	-10.889
広大な	-10.889
アポロ	-10.889
ボウリング	-10.889
ポートランド	-10.8891
登場した	-10.8891
落下	-10.8891
の原則	-10.8892
見解	-10.8892
NLP	-10.8892
価値観	-10.8893
動機	-10.8893
外観	-10.8893
その中には	-10.8894
点は	-10.8894
現地	-10.8894
シルバー	-10.8895
国際空港	-10.8895
情報源	-10.8895
直線	-10.8895
眠	-10.8896
時間帯	-10.8896
スタイン	-10.8898
オリバー	-10.8898
を確認し	-10.8899
特定のタスク	-10.8899
プレーヤーが	-10.8899
父の	-10.8902
スモール	-10.8903
トール	-10.8905
中央銀行	-10.8905
学長	-10.8906
アッ	-10.891
るための	-10.8912
古典的な	-10.8913
各チーム	-10.8913
ビング	-10.8914
形成された	-10.8914
スカ	-10.8916
を引き	-10.8918
ナウ	-10.8918
アット	-10.8919
困難な	-10.8919
治療法	-10.8919
の多くが	-10.892
▁史上最高の	-10.8921
給	-10.8921
野生動物	-10.8922
億ドルの	-10.8924
DJ	-10.8925
採用されている	-10.8926
の種類は	-10.8926
シュー	-10.8928
健康な	-10.8929
▁イギリス	-10.8938
宗教的	-10.8941
全体として	-10.8941
などが含まれる	-10.8942
175	-10.8943
普通の	-10.8948
らせる	-10.8949
難しく	-10.895
900	-10.895
によるものである	-10.8955
栽培されている	-10.8959
ギル	-10.8959
んでいた	-10.8964
手を	-10.8964
を上げる	-10.8965
▁シンガポール	-10.8965
提唱	-10.8967
経済的な	-10.8968
長時間	-10.8969
バート	-10.897
同意	-10.897
1932	-10.8971
終了した	-10.8972
フロイド	-10.8974
率は	-10.8974
スワン	-10.8974
をつける	-10.8975
に登場した	-10.898
ag	-10.8982
飼育	-10.8983
カトリック	-10.899
状態で	-10.8992
今日の	-10.8999
が他の	-10.8999
ことにした	-10.9001
絶滅	-10.9002
自動車メーカー	-10.9005
陸	-10.9011
使われていた	-10.9016
いつでも	-10.9016
に影響を与え	-10.9021
プレーヤーは	-10.9024
pp	-10.9025
食物	-10.9025
で見られる	-10.903
数年間	-10.9031
ran	-10.9033
の発明	-10.9038
▁2006	-10.9039
決定的な	-10.9041
はどこで	-10.9042
など多くの	-10.9043
南東部	-10.9044
シム	-10.9044
他の地域	-10.9046
Ro	-10.9046
アレ	-10.9047
国旗	-10.9048
▁Le	-10.9054
all	-10.9059
リヤ	-10.9059
スコットランドの	-10.906
のクラス	-10.9065
が得られる	-10.9065
に出場した	-10.9067
』(198	-10.9067
どこに	-10.9069
商	-10.9078
回り	-10.9079
ボルト	-10.9082
発表された	-10.9084
ハウ	-10.9084
に影響を与えた	-10.9089
Wi	-10.9093
発表した	-10.9093
結果を	-10.9094
含	-10.91
参考文献	-10.9101
em	-10.9108
冬は	-10.9108
一般的	-10.9108
独	-10.9112
閉	-10.9117
信用	-10.9117
勢	-10.9118
ケイト	-10.9118
念	-10.9118
院	-10.9119
合衆国	-10.9124
の父	-10.9127
腹	-10.9128
を作るには	-10.9128
リアン	-10.913
純	-10.913
ウエスト	-10.913
替え	-10.9131
海岸線	-10.9131
武	-10.9131
尾	-10.9131
放射	-10.9131
をはじめ	-10.9131
フォール	-10.9131
教皇	-10.9131
囲	-10.9131
繊維	-10.9132
貯蓄	-10.9132
に依存する	-10.9132
生態系	-10.9132
凍結	-10.9132
整備	-10.9132
高齢者	-10.9132
刃	-10.9132
学問	-10.9132
役に立たない	-10.9132
スパゲッティ	-10.9132
松	-10.9132
形容詞	-10.9132
軸	-10.9132
に代わって	-10.9132
フェルスタッペン	-10.9132
昔	-10.9132
ウォッチ	-10.9132
給与	-10.9132
ブリスケット	-10.9133
結果をカンマ区切りで表示し	-10.9133
茎	-10.9133
を増やし	-10.9133
ブリスベン	-10.9133
スパイダーマン	-10.9133
潮	-10.9133
......	-10.9133
泳ぐ	-10.9133
家の創設者は	-10.9133
を保つ	-10.9133
スマートフォン	-10.9133
ゴールキーパー	-10.9133
食料品店	-10.9133
工事	-10.9133
フィッシャー	-10.9133
パウダー	-10.9133
マイナス	-10.9133
パナマ運河	-10.9133
シーホークス	-10.9133
チームメイト	-10.9133
フォワード	-10.9133
ソーセージ	-10.9134
期限	-10.9134
水滴	-10.9134
が与えられる	-10.9134
教室	-10.9134
ジェネシス	-10.9134
職場	-10.9134
借金	-10.9134
シンボル	-10.9134
地下	-10.9135
大学院	-10.9135
画面	-10.9135
祭り	-10.9136
世界中に	-10.9136
物事	-10.9137
プロの	-10.9137
遅い	-10.9137
に住んでいた	-10.9137
1891	-10.9138
敗北	-10.9138
グッド	-10.9139
ハリス	-10.9139
キロメートル	-10.9139
主流	-10.914
日の出	-10.9141
屋内	-10.9142
振り	-10.9142
ft	-10.9143
アレックス	-10.9143
ルーズベルトは	-10.9146
の中央	-10.9147
100%	-10.9147
はどう	-10.9147
アロイ	-10.9149
リサ	-10.9152
クラン	-10.9153
ダイバー	-10.9153
発見された	-10.9154
ブラフ	-10.9154
を表している	-10.9154
は以下の通りである	-10.9155
る必要がある	-10.9155
があるが	-10.9159
決して	-10.9159
▁ワシントン	-10.9161
が与えられた	-10.9163
誕生	-10.9164
":	-10.9165
対話	-10.9165
ガール	-10.9167
に加盟した	-10.9167
ミント	-10.9167
カ月	-10.9169
スキ	-10.9171
北東	-10.9173
走者	-10.9174
引退した	-10.9179
方が	-10.918
しておく	-10.9181
ダス	-10.9181
リャ	-10.9184
世界一	-10.9185
タス	-10.9185
▁1]	-10.9188
。1997	-10.9189
ワード	-10.9193
を得るために	-10.9195
他の人	-10.9197
の基礎	-10.9198
を実施し	-10.9201
を紹介しよう	-10.9203
フット	-10.9203
69	-10.9205
種類がある	-10.9205
を書いてください	-10.9208
をリリース	-10.921
負け	-10.921
たちに	-10.9212
かない	-10.9213
コンピュータの	-10.9215
したら	-10.9216
猫が	-10.9226
』(200	-10.9228
市長	-10.9231
現職	-10.9232
近隣の	-10.9235
反復	-10.9235
"(	-10.9236
DB	-10.9237
世紀初頭に	-10.9237
子会社	-10.9237
はなく	-10.9242
避け	-10.9246
パッ	-10.9247
目標は	-10.9248
マリオ	-10.9249
役の	-10.9253
お気に入りの	-10.9254
ウェン	-10.9255
らせ	-10.9256
大量に	-10.9258
そのうちの	-10.9258
女性は	-10.9259
▁イタリア	-10.9261
▁World	-10.9266
を考え	-10.9268
ミネソタ	-10.9269
滞在	-10.927
の始まり	-10.9271
リアルタイム	-10.9275
対立	-10.9275
ディオ	-10.9275
著書	-10.9277
術	-10.9277
専用	-10.9279
実は	-10.9281
述べている	-10.9285
An	-10.9286
サリー	-10.9286
ランプ	-10.9287
いなかった	-10.9288
人以上の	-10.929
RC	-10.9291
年代初頭に	-10.9294
に大きく	-10.9294
エレ	-10.9296
下げ	-10.9298
けば	-10.9298
各国	-10.9303
を受け入れ	-10.9305
が設立された	-10.9305
言い	-10.9311
の領土	-10.9314
を使用すること	-10.9315
影響を受けた	-10.9316
映画化	-10.9321
大統領の	-10.9324
されること	-10.9327
成長率	-10.9327
トリー	-10.9329
山の	-10.933
くれ	-10.933
を獲得	-10.9331
力が	-10.9332
ake	-10.9334
を防ぐ	-10.9334
(2)	-10.9336
タラ	-10.9337
現実の	-10.9342
社は	-10.9344
シカ	-10.9346
は誰か	-10.9352
たのか	-10.9352
訓練された	-10.9354
▁トーマス	-10.9357
が出	-10.9357
ディスプレイ	-10.9357
を増やす	-10.9362
被害	-10.9363
▁An	-10.9364
話を	-10.9364
リストに	-10.9369
わかる	-10.9369
使用した	-10.937
防	-10.9371
ist	-10.9371
政	-10.9372
フレーズ	-10.9375
払	-10.9376
der	-10.9376
優れている	-10.9376
革新	-10.9376
ボーイング	-10.9377
ハリケーン	-10.9378
大な	-10.9378
リフト	-10.9378
ゆ	-10.938
宿	-10.9381
タンザニア	-10.9381
偽	-10.9381
池	-10.9381
会社が	-10.9381
遅延	-10.9381
罰	-10.9382
エグゼクティブ	-10.9382
見ることができる	-10.9382
ボスニア	-10.9382
いわゆる	-10.9382
プロダクション	-10.9382
アンプ	-10.9382
索	-10.9382
エベレスト	-10.9382
腎臓	-10.9382
蓋	-10.9382
エンティティ	-10.9382
イスラム教徒	-10.9382
プレゼンテーション	-10.9382
プログラマー	-10.9382
将校	-10.9382
好奇心	-10.9382
はあまり	-10.9382
演技	-10.9382
パイオニア	-10.9382
おすすめ	-10.9382
グランドキャニオン	-10.9382
理事会	-10.9382
ピッツバーグ	-10.9382
臨床	-10.9382
サクラメント	-10.9383
ギルバート	-10.9383
褐色	-10.9383
尿	-10.9383
染	-10.9383
永遠	-10.9383
ベクトル	-10.9383
歯磨き粉	-10.9383
未満	-10.9383
with	-10.9383
多国籍	-10.9383
解除	-10.9383
北半球	-10.9383
アイザック	-10.9383
信仰	-10.9383
Time	-10.9383
オハイオ州	-10.9384
任務	-10.9384
経歴	-10.9384
戯曲	-10.9384
ジョブズ	-10.9385
ホットドッグ	-10.9386
逆転	-10.9386
極端な	-10.9386
土星	-10.9386
変え	-10.9386
pi	-10.9387
立つ	-10.9387
必要はない	-10.9387
カルロス	-10.9388
アイアンマン	-10.9388
電気通信	-10.9389
ナレンドラ	-10.9389
白ワイン	-10.939
丸い	-10.939
8,000	-10.9391
ベット	-10.9393
▁メキシコ	-10.9394
ほぼすべての	-10.9394
創作	-10.9394
連れ	-10.9395
1862	-10.9395
上がり	-10.9395
発する	-10.9396
漫画	-10.9399
の低下	-10.94
の一員として	-10.94
遺伝的	-10.9402
つもり	-10.9402
木の	-10.9404
沿い	-10.9405
部位	-10.9406
ポルトガル語	-10.9406
に関する参考文献があ	-10.9407
理想的	-10.9407
にかかる	-10.9409
の首都は	-10.941
ドール	-10.941
ローイング	-10.9411
を実現	-10.9411
注目	-10.9412
を楽しみ	-10.9413
この本	-10.9415
レディ	-10.9418
タンパク質の	-10.9419
サメ	-10.942
をチェックし	-10.942
探し	-10.942
やすく	-10.9422
継	-10.9423
と呼ばれていた	-10.9423
カラム	-10.9424
サンフランシスコの	-10.9424
体力	-10.9426
を選択する	-10.9429
を支払う	-10.9429
場合がある	-10.9431
中立	-10.9432
カリフォルニアの	-10.9434
テレ	-10.9437
責任者	-10.9438
メキシコの	-10.9439
を定義する	-10.9447
友人たち	-10.9448
スターク	-10.9451
が挙げられる	-10.9452
と戦う	-10.9454
回目の	-10.946
重要な要素	-10.9464
羽毛	-10.9468
アース	-10.9469
国籍	-10.947
旗	-10.947
ind	-10.9471
のに役立ちます	-10.9474
することによって	-10.9475
で行われ	-10.9475
これまでに	-10.9476
ワールドカップで	-10.9479
を提供すること	-10.948
マナ	-10.9486
会計	-10.9487
それ以上	-10.9487
職人	-10.9488
の専門家	-10.949
与える	-10.9495
主食	-10.9497
▁Ha	-10.9499
なしに	-10.95
1938	-10.9502
をとる	-10.9505
ブルック	-10.9508
めている	-10.951
を処理する	-10.9511
▁このリスト	-10.9512
大会の	-10.9514
導入された	-10.9516
750	-10.9518
していたが	-10.9522
まった	-10.9523
てくる	-10.9525
引き分け	-10.9527
艦	-10.9528
スロー	-10.953
には通常	-10.9531
生きた	-10.9532
が良い	-10.9534
すこと	-10.9536
の管理	-10.9536
したものである	-10.9536
に触れ	-10.9538
の公用語	-10.9541
の歴史は	-10.9543
年にかけての	-10.9545
考えられる	-10.9548
は毎年	-10.9549
の一種で	-10.9551
。2001	-10.9552
父親は	-10.9564
あります	-10.9565
▁f	-10.9566
mb	-10.9567
上昇する	-10.9572
指数は	-10.9574
エクス	-10.9576
1916	-10.9581
▁トム	-10.9581
数で	-10.9583
両方の	-10.9583
照	-10.9589
lu	-10.9592
聴	-10.9592
加える	-10.9592
の目	-10.9595
が生まれた	-10.9598
印	-10.9599
シックス	-10.9599
の知識	-10.9602
た場合	-10.9603
ジョージア	-10.9603
読者	-10.9608
継続	-10.961
であったが	-10.961
退場	-10.9612
土曜日	-10.9615
記載	-10.9616
仮定	-10.9618
220	-10.9618
Be	-10.962
建	-10.962
でもない	-10.9622
成熟	-10.9622
を生み出し	-10.9624
優勝回数	-10.9629
-8	-10.963
測	-10.963
スケート	-10.963
編成	-10.9631
レンガ	-10.9631
は同じ	-10.9633
本社	-10.9635
レッグ	-10.9635
情	-10.9635
ツァ	-10.9635
考慮すべき	-10.9636
ヨルダン	-10.9636
なければならなかった	-10.9637
ルクセンブルク	-10.9637
滅	-10.9637
ヨセミテ	-10.9637
ドラフト	-10.9638
インストラクション	-10.9638
ジュラシック	-10.9638
故	-10.9638
オリーブ	-10.9638
快	-10.9638
顧問	-10.9638
アイスランド	-10.9638
ことがわかった	-10.9639
エジソン	-10.9639
エージェント	-10.9639
襲	-10.9639
刑	-10.9639
堂	-10.9639
記念碑	-10.9639
霊	-10.9639
omics	-10.9639
洞察	-10.9639
サウルス	-10.9639
友人や家族	-10.9639
魂	-10.9639
熱帯雨林	-10.9639
ペーパー	-10.9639
サンスクリット語	-10.9639
守備	-10.9639
と呼んだ	-10.9639
埋葬	-10.9639
美味しい	-10.9639
欧州連合	-10.9639
に従う	-10.9639
パッケージ	-10.9639
を拠点とする	-10.9639
幼少期	-10.9639
タクシー	-10.964
華氏	-10.964
ペンシルベニア州	-10.964
大さじ	-10.964
遠征	-10.964
接合	-10.964
後者	-10.964
リオネル	-10.964
改造	-10.964
NBC	-10.964
結局	-10.964
欠失	-10.964
ニクソン	-10.964
階級	-10.964
住宅ローン	-10.9641
仕事の	-10.9641
ネットフリックス	-10.9641
UFC	-10.9642
を通過する	-10.9642
スウェーデンの	-10.9642
フェーズ	-10.9642
されました	-10.9642
前提	-10.9643
シヴァ神	-10.9643
グジャラート州	-10.9643
神の	-10.9643
どのくらい	-10.9643
ネルソン	-10.9643
つ目は	-10.9644
アリソン	-10.9644
トレード	-10.9644
センチ	-10.9644
ペイ	-10.9645
外側	-10.9645
のに最適な	-10.9646
ハーバート	-10.9647
ことがない	-10.9647
コンセント	-10.9648
マニ	-10.9648
BMW	-10.9649
時間がかかる	-10.9649
ジーン	-10.9654
犬の	-10.9654
統計的	-10.9654
アダムズ	-10.9654
▁現代の	-10.9654
ティア	-10.9654
ベッ	-10.9656
と名付けられた	-10.9657
ローカル	-10.9659
スイング	-10.966
の一形態である	-10.966
例外	-10.966
説明しなさい	-10.9661
下がる	-10.9666
登場する	-10.9667
こともあり	-10.9669
販売された	-10.967
拡大した	-10.9672
が好きだ	-10.9672
30%	-10.9672
レール	-10.9673
デート	-10.9674
てから	-10.9677
-10	-10.9681
Con	-10.9684
さえ	-10.9685
リーナ	-10.9685
説明する	-10.9687
なもの	-10.9689
を特定し	-10.969
ンダー	-10.969
子供たちに	-10.9691
万枚	-10.9691
->	-10.9694
ことを確認し	-10.9701
クリーン	-10.9701
ブレッド	-10.9704
、1992	-10.9706
毎週	-10.9706
4000	-10.9706
大会は	-10.9706
州都	-10.9708
EC	-10.9709
アンディ	-10.9714
読み	-10.9717
のルール	-10.9719
DE	-10.972
を形成し	-10.9721
にちなんで命名された	-10.9721
どちら	-10.9728
オープンソースの	-10.9729
を利用し	-10.973
創	-10.9732
コム	-10.9736
以下のような	-10.9737
個人的に	-10.9739
子孫	-10.9744
てもらう	-10.9745
飲	-10.9746
IP	-10.9747
大統領選挙	-10.9748
ハースト	-10.9754
英語で	-10.9755
ノルウェーの	-10.9757
ric	-10.9757
成功する	-10.9761
va	-10.9767
バスケットボールの	-10.9769
生まれた	-10.9771
一致する	-10.9774
冬に	-10.9775
もあれば	-10.9777
としても知られ	-10.9777
市場に	-10.9778
アジアの	-10.9779
ロンドンで	-10.9785
1917	-10.9785
王者	-10.9787
アント	-10.9788
理由を	-10.9789
受け入れられ	-10.9789
と発表した	-10.9789
のほとんど	-10.9792
両方	-10.9793
を果たし	-10.9795
スタートした	-10.9796
下流	-10.9796
ボールが	-10.9797
が楽しめる	-10.9799
生息し	-10.9803
でプレーした	-10.9804
横断	-10.9806
発売され	-10.9808
述べ	-10.981
▁+	-10.9813
を確認する	-10.9813
自由に	-10.9814
dy	-10.982
年までの	-10.982
▁Ra	-10.9822
▁いいえ	-10.9823
を開催し	-10.9824
北は	-10.9826
ull	-10.983
ンガ	-10.9831
エミー賞	-10.9831
行った	-10.9832
盗	-10.9834
第一に	-10.9835
ことのない	-10.984
ゴア	-10.984
バージニア	-10.9843
書く	-10.9846
最初	-10.9847
取る	-10.9851
に参加	-10.9855
ができ	-10.9856
であったため	-10.9861
もともとは	-10.9863
物理	-10.9863
ていること	-10.9865
▁次に	-10.9869
暗殺	-10.9871
をリリースした	-10.9872
マカ	-10.9872
クレイ	-10.9872
ジョイ	-10.9874
聞	-10.9878
を開発する	-10.9879
MC	-10.9884
派の	-10.9885
絶対	-10.9888
▁アメリカ合衆国	-10.9888
Fi	-10.989
プロフェッショナル	-10.9891
過剰	-10.9893
争い	-10.9896
プリン	-10.9896
広く知られている	-10.9897
モンゴル	-10.99
数十年	-10.99
を抽出し	-10.99
に導いた	-10.9901
担	-10.9901
汚染	-10.9901
混合	-10.9901
を介して	-10.9901
腰	-10.9902
フィットネス	-10.9902
豪	-10.9902
たいてい	-10.9902
登頂	-10.9902
ユニバーサル	-10.9902
請	-10.9902
採掘	-10.9902
キウイ	-10.9902
潜水艦	-10.9902
スピルバーグ	-10.9902
衛生	-10.9902
SUV	-10.9902
歌詞	-10.9902
Twitch	-10.9902
í	-10.9902
マッシュルーム	-10.9902
偶然	-10.9902
有酸素運動	-10.9902
コルカタ	-10.9902
一年中	-10.9902
に及ぶ	-10.9903
文献	-10.9903
要塞	-10.9903
事項	-10.9903
アームストロング	-10.9903
職務	-10.9903
正規	-10.9903
β	-10.9903
シェイクスピア	-10.9903
たとえば	-10.9903
買い物	-10.9903
インド洋	-10.9903
防止	-10.9903
北極圏	-10.9903
執行	-10.9903
キャッシュ	-10.9903
磁性	-10.9904
不明	-10.9904
バークレー	-10.9904
気象	-10.9904
祖先	-10.9904
SS	-10.9905
物件	-10.9905
を指し	-10.9905
レタス	-10.9906
運行	-10.9906
金融センター	-10.9906
プレゼント	-10.9907
サーファー	-10.9907
外交	-10.9908
ナンバー	-10.9909
赤ワイン	-10.9909
番目に大きな	-10.9909
インフレ率	-10.991
に所属し	-10.991
IEC	-10.991
茶色	-10.991
ピット	-10.9911
名声	-10.9912
ワイド	-10.9913
ガリ	-10.9913
号線	-10.9914
ファーム	-10.9916
最後	-10.9916
コモン	-10.9918
子どもの	-10.9918
ボウ	-10.9918
増加	-10.9918
で働く	-10.9919
グレン	-10.992
ではないが	-10.9921
コリ	-10.9922
かを教えてください	-10.9922
に置く	-10.9923
戦後	-10.9924
に続く	-10.9925
さらには	-10.9927
地域では	-10.9927
グロ	-10.9929
ピック	-10.9931
年に出版された	-10.9932
年に初めて	-10.9935
を採用した	-10.9937
全体で	-10.9938
コフ	-10.9939
砂漠の	-10.994
ルーカス	-10.9941
放送された	-10.9941
ai	-10.9941
バスケットボール選手	-10.9946
隻	-10.9946
があること	-10.9946
年代後半に	-10.9947
ゴル	-10.9947
1911	-10.995
▁Ja	-10.9952
を発見する	-10.9959
国名	-10.996
1943	-10.9961
ローレンス	-10.9961
を止め	-10.9963
チェコ	-10.9967
加え	-10.997
を提供した	-10.9971
▁テニス	-10.9972
されなかった	-10.9972
バイオ	-10.9973
持ってい	-10.9975
av	-10.9976
平均的な	-10.9976
ジル	-10.9978
安定した	-10.9978
出発	-10.9978
発表され	-10.9988
を管理する	-10.9991
技術的な	-10.9994
▁AI	-10.9994
は伝統的に	-10.9995
続	-10.9997
レオン	-10.9999
学会	-10.9999
ki	-11.0002
気圧	-11.0003
北アメリカ	-11.0004
に向かう	-11.0005
の最高	-11.0005
精度	-11.0008
土地の	-11.0009
が起こる	-11.0009
朝の	-11.001
存在し	-11.0012
ヒー	-11.0012
able	-11.0015
当たり	-11.0016
を獲得する	-11.0017
ネン	-11.002
ノイ	-11.0021
ピックルボールは	-11.0023
分類しなさい	-11.0026
重要なのは	-11.0027
下で	-11.0028
ダナ	-11.0031
自宅で	-11.0031
1926	-11.0036
の上昇	-11.0039
60%	-11.0039
の建設	-11.0042
ug	-11.0042
ている場合	-11.0049
を発見した	-11.0051
隠れ	-11.0051
として使う	-11.0053
街の	-11.0054
を上回る	-11.0056
ブート	-11.0057
ビーバーは	-11.0062
がないため	-11.0064
職員	-11.0067
ヘア	-11.0067
年連続で	-11.007
静	-11.0072
後方	-11.0077
打ち上げ	-11.0079
都	-11.0081
チョウ	-11.0082
をたくさん	-11.0083
評価され	-11.0086
息子の	-11.0087
されると	-11.0091
快適	-11.0092
のひとり	-11.0098
ことができなかった	-11.0098
機能する	-11.0099
った後	-11.01
ロブ	-11.0107
したのか	-11.0108
長年の	-11.0108
年初頭	-11.0111
を発明した	-11.0113
を押し	-11.0116
がなければ	-11.0117
1931	-11.012
直径	-11.0121
日本では	-11.0126
ヴォー	-11.0126
デュー	-11.0128
ベラ	-11.0128
そうだ	-11.0131
手数料	-11.0132
110	-11.0134
がまだ	-11.0135
大切	-11.0136
バッティング	-11.0137
ほとんどが	-11.0138
投票率	-11.0139
越	-11.0139
しました	-11.0139
削除	-11.0139
ドライバーは	-11.0142
いく	-11.0142
殺害	-11.0142
を挙げ	-11.0143
認められている	-11.0146
水星	-11.0147
のタイプ	-11.015
自体	-11.0154
の一部が	-11.0154
かせ	-11.0161
盛	-11.0164
厚	-11.0165
移籍	-11.0167
典	-11.0168
スロベニア	-11.0169
牧師	-11.017
このゲームは	-11.017
ジェームス	-11.0171
エッセイ	-11.0171
パティ	-11.0172
ワルシャワ	-11.0172
蓄積	-11.0172
絆	-11.0172
肌	-11.0172
何らかの	-11.0172
ボルチモア	-11.0172
を祝う	-11.0172
万米ドル	-11.0172
坂	-11.0172
邸宅	-11.0172
カベルネ	-11.0172
規格	-11.0172
シボレー	-11.0172
ブロッコリー	-11.0172
トランペット	-11.0172
ターガリエン	-11.0172
ティンバーレイク	-11.0172
任意の	-11.0172
ヨーグルト	-11.0172
公共交通機関	-11.0172
変換器	-11.0173
に関する参考文献が与えられた	-11.0173
ó	-11.0173
и	-11.0173
刑事	-11.0173
司令官	-11.0173
調味料	-11.0173
石炭	-11.0173
ラフォレット	-11.0173
伝達	-11.0173
放映	-11.0173
南極大陸	-11.0173
結論	-11.0173
ギャップ	-11.0173
スイッチ	-11.0173
乗客	-11.0173
▁5)	-11.0173
侵略	-11.0174
荷物	-11.0174
1884	-11.0174
カタール	-11.0174
キャップ	-11.0174
イングリッシュ	-11.0174
サーキット	-11.0174
にわたり	-11.0175
草原	-11.0175
アルバート	-11.0175
観戦	-11.0176
カーネル	-11.0176
が含まれます	-11.0178
女の子	-11.0178
ラテン語の	-11.018
早期	-11.018
農家	-11.018
定住	-11.018
市場の	-11.0181
形質	-11.0181
歌う	-11.0181
インテル	-11.0182
スキー場	-11.0182
はもっと	-11.0182
ea	-11.0182
反対側	-11.0182
1905	-11.0183
ライター	-11.0183
プロセスである	-11.0183
の歴代	-11.0184
水路	-11.0184
象徴的な	-11.0185
IC	-11.0186
イルカ	-11.0186
ハーバード大学	-11.0186
ならず	-11.0187
もしあなたが	-11.0188
を生み出した	-11.0189
パークス	-11.0189
ジェシー	-11.019
の状態	-11.019
フェンス	-11.0193
パンツ	-11.0196
かかり	-11.0196
を示している	-11.0197
シャワー	-11.0198
そのまま	-11.02
25%	-11.0202
シェア	-11.0202
オランダ語	-11.0202
(2008	-11.0205
日記	-11.0205
によって異なります	-11.0205
活性化	-11.0205
最初は	-11.0206
日曜日	-11.0208
滑り	-11.0211
植物の	-11.0212
動物である	-11.0212
代表的な	-11.0215
▁Sa	-11.0216
翌年	-11.0219
いていた	-11.0221
報告された	-11.0221
伝え	-11.0221
はかなり	-11.0223
が含まれ	-11.0226
のエピソード	-11.0234
がいい	-11.0235
に残る	-11.0238
したとき	-11.0238
BS	-11.0239
てしまった	-11.0242
を切り	-11.0246
Mon	-11.0246
を共有し	-11.0247
の側面	-11.0248
子供たちが	-11.025
を飲む	-11.0253
準優勝	-11.0256
を着	-11.0256
見られ	-11.0259
ダブルス	-11.0262
ときの	-11.0266
地質学	-11.0268
食事を	-11.0271
完成した	-11.0276
訪れ	-11.0281
をつけ	-11.0284
が何	-11.0284
▁今日	-11.0288
を置く	-11.0288
というものである	-11.0289
ごと	-11.0293
を定め	-11.0294
輸入	-11.0295
sp	-11.0301
マサチューセッツ	-11.0302
ッシング	-11.0307
可能である	-11.0309
IM	-11.0311
ルールは	-11.0315
筋力	-11.0316
らなかった	-11.0317
を挙げる	-11.0317
に使用する	-11.032
したもので	-11.032
▁Ro	-11.0321
楽しく	-11.0323
Com	-11.0323
死亡した	-11.0328
帝国の	-11.0328
容易に	-11.0329
ラテン語	-11.0336
シャム	-11.0337
ほしい	-11.0337
死後	-11.0337
全体が	-11.0337
の形で	-11.0338
を活用し	-11.0339
によく使われる	-11.0339
経済学者	-11.0342
かつての	-11.0343
ラッシュ	-11.0345
法人	-11.0349
に直接	-11.0352
何人か	-11.0354
るが	-11.0355
vo	-11.0356
は一般に	-11.0356
に選出された	-11.0361
Ti	-11.0362
組織の	-11.0363
ガーナ	-11.0364
イェ	-11.0369
段階は	-11.0371
モラ	-11.0373
の声	-11.0373
小学校	-11.0374
付近	-11.0375
ることができ	-11.0376
イギリス人	-11.0378
飲む	-11.0385
するのに	-11.0385
どの国	-11.0387
来る	-11.0391
rit	-11.0395
組織が	-11.0397
発生した	-11.04
理由から	-11.0403
IN	-11.0403
インディアナ州	-11.0404
。1970	-11.0406
▁誰が	-11.0407
を必要とし	-11.0408
に所属する	-11.0409
追跡	-11.0409
ana	-11.041
打撃	-11.041
ko	-11.0411
前後の	-11.0413
サント	-11.0415
のダウンタウン	-11.0416
テック	-11.0417
こそ	-11.042
ありません	-11.0424
価値がある	-11.0425
露	-11.0426
と共に	-11.0428
魅力的	-11.0433
が強く	-11.0436
劣	-11.0437
きっかけ	-11.0437
借	-11.044
Car	-11.044
なかったが	-11.044
はすぐに	-11.044
キシ	-11.0441
ブルドッグ	-11.0441
加速	-11.0441
ビクトリア	-11.0442
ホールは	-11.0442
笑	-11.0443
アニメーション	-11.0445
沿いの	-11.0446
コック	-11.0447
ペイパル	-11.0447
糖尿病	-11.0447
跡	-11.0448
否	-11.0448
徳	-11.0448
短編小説	-11.0448
コーディング	-11.0448
競	-11.0449
虎	-11.0449
NFT	-11.0449
序	-11.0449
ツイッター	-11.0449
君	-11.0449
を繰り返し	-11.0449
矢	-11.0449
ジャイアンツ	-11.0449
アルバニア	-11.045
皆	-11.045
腫瘍	-11.045
房	-11.045
愛好家	-11.045
ボイジャー	-11.045
表記	-11.045
アトラクション	-11.045
指輪	-11.045
培養	-11.045
債務	-11.045
最高経営責任者	-11.045
インターフェース	-11.045
ヴァイオリン	-11.045
柱	-11.045
の誤謬	-11.045
返済	-11.045
ا	-11.045
ウォッカ	-11.045
階建て	-11.045
腐敗	-11.045
数を	-11.045
ストリーム	-11.0451
マドンナ	-11.0451
カスタム	-11.0451
漁業	-11.0451
冷凍	-11.0451
揚げ	-11.0451
消防士	-11.0451
しばらく	-11.0451
いろいろな	-11.0451
損害	-11.0451
ワトソン	-11.0451
旧姓	-11.0451
ヴィシュヌ	-11.0451
吹き	-11.0451
逆に	-11.0451
配達	-11.0451
ノーザン	-11.0451
キャロル	-11.0451
親友	-11.0451
ブレンド	-11.0451
を作り出す	-11.0452
ハーネス	-11.0452
ビスマルク	-11.0452
新しく	-11.0452
兆ドル	-11.0452
スクエア	-11.0452
ハリソン	-11.0453
動物園	-11.0453
を避け	-11.0453
大麦	-11.0454
深さ	-11.0454
マーカス	-11.0454
ミシェル	-11.0455
ビショップ	-11.0456
シップ	-11.0456
炭酸	-11.0456
ケビン	-11.0457
間違い	-11.0457
を決めた	-11.0458
サイバー	-11.0458
バットマン	-11.0458
小惑星	-11.0458
ミッド	-11.0459
家庭で	-11.0459
金融機関	-11.0459
IV	-11.046
スプリント	-11.046
可能性があります	-11.046
下落	-11.0461
日没	-11.0462
線形	-11.0462
クリフ	-11.0463
1896	-11.0465
アーツ	-11.0466
セルフ	-11.0466
毎月	-11.0466
650	-11.0466
と国境を接している	-11.0466
ゴルフクラブ	-11.0467
ABC	-11.0468
ンド	-11.0468
寝る	-11.0468
自然言語	-11.0469
変化し	-11.0469
アメリカ海軍	-11.047
エレクトロニクスは	-11.0472
ミング	-11.0473
ニル	-11.0475
要約してください	-11.0475
によって作られた	-11.0478
パルス	-11.0479
tr	-11.0483
を改善する	-11.0484
ソ連の	-11.0484
覚え	-11.0487
フロー	-11.0487
1925	-11.0488
中学校	-11.0489
で下し	-11.049
タッチ	-11.0493
に等しい	-11.0493
リッシュ	-11.0497
の生活	-11.0497
殺人	-11.0497
発売した	-11.0499
MD	-11.0502
父親の	-11.0504
歩いて	-11.0504
させることができる	-11.0507
平らな	-11.0511
の性質	-11.0514
▁11.	-11.0518
と呼び	-11.0519
les	-11.0522
を起こす	-11.0523
個別	-11.0523
と評され	-11.0525
効率的	-11.0525
son	-11.0525
シーズンで	-11.0526
ことで知られる	-11.0526
提供され	-11.0527
がいくつかある	-11.0529
勢力	-11.0529
設計した	-11.053
のは誰か	-11.053
ライフル	-11.0531
生産量	-11.0533
隣人	-11.0535
ah	-11.0536
死去した	-11.0536
同名の	-11.0536
ておく	-11.0537
などがあります	-11.0538
シャープ	-11.0539
ジュー	-11.054
1,0	-11.0541
言語モデルは	-11.0542
就	-11.0543
われる	-11.0544
ナツメヤシは	-11.0544
湿度	-11.0544
続いた	-11.0548
コップ	-11.0549
卵を	-11.0551
の終わり	-11.0553
増加し	-11.0559
クール	-11.0559
で最も有名な	-11.0561
目的で	-11.0564
ウーバーは	-11.0565
するのか	-11.0567
の著書	-11.057
建設された	-11.0573
を描いている	-11.0574
女王	-11.0574
お互い	-11.0577
ナム	-11.0578
大企業	-11.058
夏休みは	-11.0582
重さ	-11.0582
ユーチューブ	-11.0583
大学は	-11.0585
日には	-11.0586
1927	-11.0586
の材料	-11.0588
▁Music	-11.059
日中	-11.0592
グリー	-11.0592
MH	-11.0595
で勝利した	-11.0597
開け	-11.0598
を分類する	-11.0601
に見える	-11.0603
lla	-11.0605
を務めている	-11.0605
最多得点	-11.0608
に関する情報	-11.0611
広がり	-11.0616
の対立	-11.062
回収	-11.0621
機の	-11.0623
(1940	-11.0626
ヨーロッパ人	-11.0627
ビス	-11.0631
母親は	-11.0634
ブラー	-11.0638
彼に	-11.0638
透明	-11.0639
▁マンチェスター	-11.0642
の近くに	-11.0642
式の	-11.0643
下部	-11.0643
空中	-11.0644
メロ	-11.0645
クモ	-11.0646
用意	-11.0647
てくれた	-11.0647
数百	-11.0647
0.5	-11.0648
役割を果たす	-11.065
アブ	-11.0651
家畜化された	-11.0651
中世	-11.0653
を助け	-11.0653
点で	-11.0655
の色は	-11.0655
グア	-11.0657
の大きさは	-11.0658
なくなり	-11.0659
完了	-11.0661
書いた	-11.0664
選手たち	-11.0665
を求め	-11.0672
は後に	-11.0672
ど	-11.0677
地球上の	-11.0677
販売する	-11.0677
CF	-11.0678
どこで	-11.0679
if	-11.068
聞き	-11.068
DR	-11.0682
てくれ	-11.0687
▁1992	-11.0691
対処	-11.0693
するとき	-11.0697
が書いた	-11.0697
はなかった	-11.0699
安価な	-11.07
監督は	-11.0702
膨張	-11.0703
たりすること	-11.0703
アルバ	-11.0704
短縮	-11.0704
効果的に	-11.0705
着用	-11.0705
時期に	-11.0707
成立	-11.0707
されるまで	-11.0713
を理解すること	-11.0716
を演じ	-11.0717
の壁	-11.0718
るかもしれない	-11.0719
サービスを提供する	-11.072
選挙区	-11.0722
帝	-11.0724
ベンチ	-11.0727
特殊	-11.0727
に比べ	-11.0728
麦	-11.0729
ョ	-11.0729
上場	-11.073
水上	-11.073
つの主要な	-11.0731
を求めて	-11.0731
証	-11.0731
スロバキア	-11.0732
は木管楽器	-11.0732
建造	-11.0734
講演	-11.0734
を目指す	-11.0735
柄	-11.0735
バクテリア	-11.0735
沖	-11.0735
ヘラクレス	-11.0735
月初旬	-11.0735
何百	-11.0735
灯	-11.0735
准	-11.0735
バトラー	-11.0735
インスリン	-11.0736
梨	-11.0736
暖房	-11.0736
粗	-11.0736
スプーン	-11.0736
フォーチュン	-11.0736
書籍	-11.0736
皿	-11.0736
ことを知っていた	-11.0736
PayPal	-11.0736
プラチナ	-11.0736
腸	-11.0736
聴覚	-11.0736
アプリコット	-11.0736
釘	-11.0736
á	-11.0736
ミネラル	-11.0736
Scala	-11.0736
ソクラテス	-11.0736
必ずしも	-11.0736
ポッドキャスト	-11.0736
م	-11.0736
工具	-11.0736
ミラノ	-11.0736
シミュレーション	-11.0737
飛ぶ	-11.0737
じゃない	-11.0737
を動かす	-11.0737
脇	-11.0737
定期的な	-11.0737
イースタン	-11.0737
集まり	-11.0737
有料	-11.0737
ound	-11.0737
IBM	-11.0737
インプラント	-11.0738
酸味	-11.0738
フレーバー	-11.0738
単なる	-11.0738
周期	-11.0738
観光スポット	-11.0738
オルタナティヴ	-11.0738
タイムズ紙	-11.0738
に反対する	-11.0738
クロスビー	-11.0738
▁有名な詩	-11.0739
チケット	-11.0739
交差点	-11.0739
光合成	-11.0739
卒業生	-11.0739
高温	-11.0739
連勝	-11.074
問題を解決する	-11.0741
セールス	-11.0741
ゴースト	-11.0742
濃い	-11.0742
建国	-11.0742
ダービー	-11.0744
カヌー	-11.0744
これほど	-11.0744
1889	-11.0744
この言葉は	-11.0745
);	-11.0746
ウルフ	-11.0746
コンゴ	-11.0747
付けられ	-11.0747
投資銀行	-11.0747
遠い	-11.0748
ポーン	-11.0749
ES	-11.0749
▁COVID	-11.075
書かれている	-11.0751
一族	-11.0751
一人で	-11.0751
クルマ	-11.0751
クション	-11.0751
270	-11.0753
暗	-11.0753
1881	-11.0753
または単に	-11.0755
SEC	-11.0755
1877	-11.0756
賞金	-11.0757
1789	-11.0758
の合計	-11.0758
その他多くの	-11.0759
以上が	-11.076
の選択肢	-11.076
年まで第	-11.0762
ドリーム	-11.0762
の価値	-11.0762
出産	-11.0763
地面	-11.0763
人から	-11.0763
▁La	-11.0764
月の第	-11.0765
否定的な	-11.0766
を開始する	-11.0766
uch	-11.0767
サバ	-11.0771
を続けた	-11.0773
保険会社	-11.0773
白色	-11.0774
割合	-11.0775
ベネズエラの	-11.0778
コツ	-11.0779
論理	-11.0779
前方	-11.078
モディ	-11.0783
ama	-11.0785
集合	-11.0789
のまま	-11.079
ッティング	-11.0791
ラテン	-11.0795
を搭載した	-11.0796
プレーし	-11.0796
トロン	-11.0799
近年	-11.0801
いれば	-11.0802
^2	-11.0802
ほとんどすべての	-11.0803
閉鎖	-11.0807
エラー	-11.0808
ポルトガルの	-11.081
ついに	-11.0812
の名前を挙げてください	-11.0813
サイズの	-11.0817
この分野	-11.0818
をコントロールする	-11.0818
を打つ	-11.0821
重要だ	-11.0822
認められ	-11.0823
発展し	-11.0827
生体	-11.0828
ェ	-11.0829
失敗した	-11.0832
夏に	-11.0835
けど	-11.0836
数値	-11.0837
アメリカの政治家	-11.0838
の監督	-11.0839
意図的に	-11.084
レーダー	-11.084
込んで	-11.0842
ディス	-11.0844
テント	-11.0844
キュー	-11.0845
する必要があります	-11.0846
ラベル	-11.0847
西に	-11.0848
新車	-11.0848
植物が	-11.0849
知らない	-11.085
直前	-11.0851
▁Al	-11.0851
だと思う	-11.0855
吸収	-11.0855
自然に	-11.0855
として活躍した	-11.0857
ホーン	-11.086
アーカンソー州	-11.0861
ame	-11.0863
入植者	-11.0864
東海岸	-11.0866
tte	-11.0867
91	-11.0868
安く	-11.0871
に対応する	-11.0871
のおかげで	-11.0876
を維持するために	-11.0876
何人	-11.0878
使われる	-11.0878
作った	-11.0882
NSA	-11.0882
の能力	-11.0884
ダラ	-11.0885
決め	-11.0885
旅行者	-11.0892
RT	-11.0893
ノック	-11.0894
わずかに	-11.09
くない	-11.0903
駐車場	-11.0903
された後	-11.0905
▁Love	-11.0908
140	-11.091
。1979	-11.0912
日後	-11.0917
rs	-11.0917
ノル	-11.0919
スティン	-11.092
先に	-11.0925
だけだ	-11.0927
を導入し	-11.0928
彼と	-11.0928
度から	-11.0931
カバ	-11.0935
Ha	-11.0936
カナ	-11.0936
簡単で	-11.0947
のパターン	-11.0948
このプロセス	-11.0953
切った	-11.0954
が誕生した	-11.0957
戦略的	-11.0957
ダウンロード	-11.0957
押し	-11.0964
の小説	-11.0966
戦う	-11.0966
ハラッパ	-11.0967
管理者	-11.0968
段階で	-11.0969
奪	-11.097
ことも多い	-11.0971
誌は	-11.0973
のレベル	-11.0974
準決勝	-11.0976
han	-11.0977
たものである	-11.0979
知ってい	-11.098
地球上	-11.0984
の支払い	-11.0985
優先	-11.0987
Un	-11.0987
ラッパー	-11.0988
の経験	-11.0993
適用される	-11.0993
パーカー	-11.0997
を受けている	-11.1004
短期	-11.1007
程	-11.1013
雑	-11.1013
はどうやって	-11.1014
を連れて	-11.1015
は良い	-11.1016
のもとで	-11.1019
豊富	-11.1021
処	-11.1024
遺	-11.1024
タスクの	-11.1024
魔	-11.1025
詳しく	-11.1026
多くの人々	-11.1027
突	-11.1028
殻	-11.1028
王妃	-11.1028
症候群	-11.1029
OPEC	-11.1029
概	-11.1029
興	-11.1029
詐欺	-11.1029
審査	-11.1029
インターフェイス	-11.1029
査	-11.1029
譲	-11.1029
を十分に	-11.103
アーリントン	-11.103
勲章	-11.103
現存する	-11.103
早い	-11.103
ミツバチ	-11.103
真空管	-11.103
ヘルメット	-11.103
虚	-11.103
擦	-11.103
を失う	-11.103
ī	-11.103
ドーナツ	-11.103
仮想	-11.103
武術	-11.103
PSYoungGen	-11.103
にはどのようなものがありますか	-11.103
ヘクタール	-11.103
@	-11.103
ユニバース	-11.103
勇気	-11.103
協調	-11.103
ヴァージニア	-11.103
チェルシー	-11.103
マッカーシー	-11.103
Twitter	-11.103
山火事	-11.103
枚目のスタジオ	-11.103
フレデリック	-11.103
修復	-11.103
生い立ち	-11.103
待ち	-11.103
リッヒ	-11.103
▁有名な言葉	-11.103
スクワット	-11.1031
マクラーレン	-11.1031
伝記	-11.1031
僕	-11.1031
大英帝国	-11.1031
熱力学	-11.1031
フィーチャー	-11.1031
を起こし	-11.1031
ボリーバル	-11.1031
グランプリ	-11.1031
豆類	-11.1031
北欧	-11.1031
可能な限り	-11.1031
オートバイ	-11.1031
DVD	-11.1031
のいずれかに分類する	-11.1031
にくい	-11.1031
グラハム	-11.1032
マーキュリー	-11.1032
長老	-11.1032
中古車	-11.1032
▁One	-11.1032
南極	-11.1032
▁Inc	-11.1032
バスルーム	-11.1032
研究では	-11.1032
ヴィーガン	-11.1032
各チームは	-11.1032
放射線	-11.1032
最高裁判所	-11.1032
という名の	-11.1033
サイモン	-11.1033
世紀にかけて	-11.1033
面接	-11.1033
シェルター	-11.1033
交通手段	-11.1033
ガンディー	-11.1034
軍団	-11.1034
略称	-11.1034
所有権	-11.1034
電気と磁気	-11.1034
ケープ	-11.1034
ヴァレー	-11.1035
オスカー	-11.1035
ビルディング	-11.1035
トンネル	-11.1036
ランドマーク	-11.1036
用具	-11.1036
ベロ	-11.1036
トースト	-11.1036
ソーラー	-11.1037
デーツ	-11.1037
薄い	-11.1037
価値のある	-11.1038
ことが大切	-11.1038
をリリースし	-11.1038
をサポートし	-11.1038
仕上げ	-11.1039
パイプ	-11.1039
FBI	-11.1039
総額	-11.104
マネー	-11.104
途中	-11.104
建設され	-11.1042
オックスフォード大学	-11.1042
FDA	-11.1042
低木	-11.1043
部分的に	-11.1043
構成要素	-11.1045
アドレス	-11.1047
の形式で	-11.1047
ことが重要である	-11.1047
曲線	-11.1049
▁My	-11.1049
ロシア語	-11.1049
が開発した	-11.105
から得られる	-11.1051
なのか教えてください	-11.1051
すぐ	-11.1051
日現在	-11.1052
次第	-11.1052
▁Di	-11.1054
に加えて	-11.1054
北西部	-11.1057
で最初に	-11.1058
高地	-11.1058
コラ	-11.1059
ナイル	-11.1059
アメリカ大統領	-11.106
ジョーク	-11.1061
ウー	-11.1062
評価されている	-11.1062
消化	-11.1062
地域社会	-11.1064
ビザ	-11.1066
の強さ	-11.1066
ツイン	-11.1068
批評家から	-11.1069
を取り除く	-11.1073
リース	-11.1073
という概念	-11.1074
ニュージャージー	-11.1075
熱い	-11.1077
ファイア	-11.1078
木製	-11.1078
の重要性	-11.1079
選ばれた	-11.1082
言った	-11.1083
が一般的	-11.1085
商人	-11.1087
と思った	-11.1089
特徴的な	-11.1089
▁どうすれば	-11.1091
年国勢調査	-11.1097
を比較する	-11.1098
ung	-11.1098
現れ	-11.1099
マザー	-11.1099
によく	-11.1099
ペイトリオッツ	-11.11
ない場合は	-11.1101
レジ	-11.1101
るのは	-11.1101
提案した	-11.1104
アウ	-11.1106
授与	-11.1106
年代初頭	-11.1106
企業や	-11.1109
を初めて	-11.111
させるために	-11.111
という考え	-11.1111
彼らを	-11.1112
の長さは	-11.1112
ck	-11.1116
を計画し	-11.1116
1830	-11.1118
ソファ	-11.1118
しているため	-11.1121
リット	-11.1122
と考えていた	-11.1123
に関連している	-11.1123
年前に	-11.1126
の一つである	-11.1127
遅く	-11.1129
スパ	-11.1132
数週間	-11.1136
が使われている	-11.1144
する能力	-11.1146
▁To	-11.1146
裕福な	-11.1147
ヒンドゥー教の	-11.115
カッ	-11.1151
▁Mar	-11.1153
が発生し	-11.1153
技術的	-11.1154
が同じ	-11.1156
スタンス	-11.1159
心を	-11.1161
定義された	-11.1161
頭の	-11.1162
が好きな人	-11.1163
支持者	-11.1168
体長	-11.1169
PD	-11.117
▁赤ちゃん	-11.1172
資金を	-11.1173
が所有	-11.1173
有効な	-11.1183
ハンス	-11.1187
公式に	-11.1189
▁1997	-11.119
避難	-11.1192
入れる	-11.1192
に焦点を当て	-11.1192
できるようになった	-11.1193
濃	-11.1194
前進	-11.1195
終了する	-11.1196
を離れ	-11.1198
が使われる	-11.1201
ore	-11.1205
Pro	-11.1206
の詩	-11.1212
参戦	-11.1213
主役	-11.1216
の州都	-11.1217
1924	-11.1218
上げる	-11.1219
形成される	-11.1222
公共の	-11.1223
Al	-11.1225
シェー	-11.1226
緑色の	-11.1228
WH	-11.1231
94	-11.1234
を引き起こし	-11.1235
反映	-11.1236
詳細な	-11.1238
指定された	-11.1238
負傷	-11.1241
を手に入れる	-11.1241
落ちた	-11.1242
人もい	-11.1243
(2022	-11.1245
払い	-11.1246
使用している	-11.1248
の購入	-11.125
使うことができる	-11.1251
有用	-11.1254
の公式	-11.1257
位で	-11.126
紙の	-11.1261
シド	-11.1262
アーネス	-11.1264
大型の	-11.1265
射	-11.1265
▁1999	-11.1266
限	-11.1266
話されている	-11.1271
1912	-11.1271
位を獲得した	-11.1272
クシ	-11.1273
無限	-11.1274
どこか	-11.1278
On	-11.1278
で優勝し	-11.1278
の少ない	-11.1279
学んだ	-11.128
ラング	-11.1282
ゾン	-11.1284
位である	-11.1285
の本拠地	-11.1286
の発見	-11.1291
現実的な	-11.1291
に行った	-11.1295
ディル	-11.1295
の前に	-11.1298
ach	-11.1299
で知られ	-11.1301
fer	-11.1303
野手	-11.1304
境	-11.1304
働く	-11.1306
cc	-11.1307
を強く	-11.1307
史上最も売れた	-11.1309
抑制	-11.131
制定	-11.1311
と主張し	-11.1312
燃	-11.1313
さまざま	-11.1314
の発生	-11.1314
ローラー	-11.1316
人々を	-11.1316
ッジ	-11.1321
除	-11.1324
2.2	-11.1324
除去	-11.1324
怒	-11.1324
hu	-11.1324
アクティブ	-11.1325
できるようになる	-11.1326
有利	-11.1326
応	-11.1327
の範囲	-11.1327
インストラクター	-11.1329
律	-11.1329
抱	-11.133
録	-11.133
仮	-11.1331
吸	-11.1331
暖	-11.1331
舞	-11.1332
総督	-11.1332
プラデーシュ州	-11.1332
練	-11.1332
志	-11.1332
以外は	-11.1332
コントローラ	-11.1332
ジョナサン	-11.1332
腐	-11.1332
柔道	-11.1332
不況	-11.1333
コンテナ	-11.1333
お菓子	-11.1333
キノコ	-11.1333
禁	-11.1333
診	-11.1333
丁目	-11.1333
珍重され	-11.1333
ウォルマート	-11.1333
スチール	-11.1333
FRB	-11.1333
コロンブス	-11.1333
壮大な	-11.1333
キュウリ	-11.1333
巣	-11.1333
サウナ	-11.1333
田舎	-11.1333
の創始者	-11.1333
キャサリン	-11.1333
カンガルー	-11.1333
ジブラルタル	-11.1333
構想	-11.1333
ブリュッセル	-11.1333
ジェネレーション	-11.1333
交互に	-11.1333
チューリッヒ	-11.1333
マンゴー	-11.1333
アンサンブル	-11.1333
コンマで区切ってください	-11.1333
エスパニョーラ	-11.1333
どちらでもない	-11.1333
原題	-11.1333
セオドア	-11.1333
ミステリー	-11.1333
直面する	-11.1333
チャレンジ	-11.1334
BJJ	-11.1334
起きた	-11.1334
焦点	-11.1334
貴族	-11.1334
宮廷	-11.1334
発祥	-11.1334
トレンド	-11.1334
que	-11.1334
ジニ係数	-11.1334
標本	-11.1334
仮説	-11.1334
天文学	-11.1334
毛沢東	-11.1334
話題	-11.1334
についての参考文献があ	-11.1334
顎	-11.1334
鏡	-11.1334
ペルシア語	-11.1334
ポケット	-11.1334
バケーション	-11.1335
公民権運動	-11.1335
ガイドライン	-11.1335
ジュビリー	-11.1335
1883	-11.1335
発掘	-11.1335
リッチー	-11.1335
集落	-11.1335
現場	-11.1336
を支える	-11.1336
魚類	-11.1336
アナリスト	-11.1336
▁Max	-11.1336
ボンベイ	-11.1338
ダボス	-11.1338
属性	-11.1338
食感	-11.1339
流通	-11.1339
体積	-11.1339
に囲まれている	-11.1339
ゲオル	-11.1339
ステイト	-11.1339
悪役	-11.1341
全体的に	-11.1341
マシーン	-11.1341
に関する参考文献	-11.1341
Che	-11.1342
波長	-11.1342
部作	-11.1343
世紀後半	-11.1343
ベトナム戦争	-11.1344
レノン	-11.1344
以外にも	-11.1345
▁これらが	-11.1345
はどのようにして	-11.1345
ているか	-11.1346
John	-11.1347
番目	-11.1347
ロゴ	-11.1348
ターナー	-11.1349
が好きなら	-11.1349
1875	-11.1352
家の言葉	-11.1353
低下	-11.1354
者として	-11.1355
復帰	-11.1357
ドット	-11.1358
に分けられる	-11.1358
を抑え	-11.1359
直接的な	-11.136
を作ることができる	-11.136
アラバマ	-11.136
人生の	-11.136
カウ	-11.1361
(2017	-11.1362
整数	-11.1362
調理法	-11.1362
もあった	-11.1362
アバター	-11.1362
～7	-11.1364
SM	-11.1364
トミー	-11.1365
コアラ	-11.1365
制作された	-11.1366
すことができる	-11.1366
RAM	-11.1366
する可能性がある	-11.1366
年代後半から	-11.1367
編集者	-11.1368
最もよく知られている	-11.1369
ヒット曲	-11.137
ブラックホール	-11.1373
land	-11.1373
▁オレンジ	-11.1377
目を	-11.1378
を購入した	-11.1378
▁c	-11.138
人権	-11.1382
ational	-11.1383
コーヒー豆	-11.1383
ラーム	-11.1384
オレンジ色	-11.1384
ホッ	-11.1386
を用意し	-11.139
レベルでは	-11.139
受け入れ	-11.1391
ナンシー	-11.1392
163	-11.1392
市場で	-11.1394
インタビュー	-11.1394
この地域は	-11.1395
を残し	-11.1397
サマー	-11.1398
を受け取る	-11.1399
Ge	-11.14
PR	-11.1402
硬	-11.1404
映画監督	-11.1404
を買い	-11.1406
多くの人は	-11.1408
生産された	-11.1409
ster	-11.1411
バグ	-11.1414
基礎となる	-11.1416
競合	-11.1417
ティル	-11.1418
を考慮し	-11.1418
ビリヤニは	-11.1418
エー	-11.1419
例として	-11.1424
地球上で	-11.1426
アシュ	-11.1426
～30	-11.1428
軍が	-11.143
を大幅に	-11.1431
▁Z	-11.1432
デッ	-11.1432
にのみ	-11.1435
ナート	-11.1439
磁気	-11.144
ヨン	-11.1441
ドロー	-11.1442
をかける	-11.1445
を素早く	-11.145
マルコ	-11.145
似ている	-11.145
人民	-11.1451
Web	-11.1455
見かけ	-11.1455
パイン	-11.1456
の出来事	-11.1457
一度に	-11.1458
に設立された	-11.1461
タマ	-11.1462
エジプトの	-11.1462
のバリエーション	-11.1462
の選択	-11.1466
すればいい	-11.1466
▁2004	-11.147
ハブ	-11.1471
もう一方	-11.1474
そこに	-11.1474
不可欠	-11.1475
1910	-11.1477
続いている	-11.1483
してしまう	-11.1483
CI	-11.1487
を変更する	-11.1487
はどれ	-11.1491
の練習	-11.1495
味付け	-11.1498
ハーバー	-11.1502
を見ることができる	-11.1504
の登場人物	-11.1505
る前に	-11.1505
リーグ優勝	-11.1507
ウッズは	-11.1514
際の	-11.1515
俳句	-11.1516
ことを示す	-11.1516
開催された	-11.1517
ブラウザ	-11.1518
どちらか	-11.1518
一つの	-11.1519
ッパ	-11.152
に乗って	-11.1524
車が	-11.1524
トレイ	-11.1526
マルタ	-11.1526
シギ	-11.1532
梁は	-11.1532
アリス	-11.1534
育て	-11.1537
出場した	-11.1538
ろう	-11.1542
周囲	-11.1544
らず	-11.1546
を超え	-11.1547
貸	-11.1551
0.8	-11.1552
が高まる	-11.1556
(2019	-11.1557
海上	-11.1559
提	-11.1561
などだ	-11.1564
PE	-11.1567
支	-11.1569
はわずか	-11.1569
の中でも	-11.1569
NA	-11.157
を伝える	-11.157
学校で	-11.157
万人で	-11.1572
であったり	-11.1573
を出版	-11.1573
ウラ	-11.1574
排	-11.1575
期間中	-11.1575
>	-11.1575
ことになった	-11.1585
地平線	-11.1589
オンラインで	-11.1589
産物	-11.1593
バレーボール	-11.1593
隻の	-11.1594
夜の	-11.1596
バナ	-11.1597
共通	-11.1599
登る	-11.1601
の仕組み	-11.1602
の中から	-11.1602
視聴	-11.1605
もともと	-11.1605
するように	-11.1611
流行	-11.1611
ィ	-11.1619
の質	-11.1619
果	-11.162
▁Data	-11.162
箇条書きにし	-11.162
研究者たちは	-11.1622
再選	-11.1623
を率いて	-11.1625
飼い	-11.1626
トラス	-11.1628
広がっている	-11.1628
することはできない	-11.1634
ハーブ	-11.1634
多くの人々が	-11.164
相当	-11.1641
ニカラグア	-11.1642
子供たちの	-11.1642
執	-11.1642
の構成	-11.1642
ニューラルネットワーク	-11.1642
ガイアナ	-11.1643
解像度	-11.1643
を含んでいる	-11.1643
カウンター	-11.1644
証券取引所	-11.1644
菜	-11.1645
ディープラーニング	-11.1645
アルミニウム	-11.1645
肥沃な三日月地帯	-11.1645
談	-11.1645
インド亜大陸	-11.1645
リモート	-11.1645
を導入する	-11.1645
陣	-11.1645
マキシマス	-11.1645
次世界大戦	-11.1645
欠陥	-11.1645
バーベキュー	-11.1645
新興企業	-11.1645
が出る	-11.1645
そんな	-11.1645
幹部	-11.1645
バイエルン	-11.1645
ガレージ	-11.1645
棚	-11.1645
ر	-11.1645
混雑	-11.1645
ロナウド	-11.1646
<	-11.1646
ミルウォーキー	-11.1646
順序	-11.1646
リミテッド	-11.1646
ことをお勧めする	-11.1646
インディアナポリス	-11.1646
両生類	-11.1646
工科大学	-11.1646
と並ぶ	-11.1646
言えば	-11.1646
ココナッツ	-11.1646
最年少	-11.1646
スキャンダル	-11.1646
宝石	-11.1646
ロッキー	-11.1646
サーフボード	-11.1646
シャーロット	-11.1646
河口	-11.1646
シエラ	-11.1646
激しく	-11.1646
マルチオミクス	-11.1646
賃金	-11.1646
蝶	-11.1646
ノンフィクション	-11.1646
ミサイル	-11.1646
アルティメット	-11.1646
メープル	-11.1646
3-30	-11.1646
向かい	-11.1646
最速	-11.1647
先住民族	-11.1647
ベンチマーク	-11.1647
党首	-11.1647
ピックアップ	-11.1647
ベンチャー	-11.1647
フッ素	-11.1647
ブータン	-11.1647
マーベルのキャラクター	-11.1647
階層	-11.1648
供給源	-11.1648
軒	-11.1648
スキーヤー	-11.1648
産業革命	-11.1648
アルフレッド	-11.1648
ペッパー	-11.1648
ミーティング	-11.1648
リアリズム	-11.1648
敵対	-11.1649
西暦	-11.1649
結びつい	-11.165
固有種	-11.165
連結	-11.165
ネバダ州	-11.165
奇妙な	-11.1651
東に	-11.1651
オウム	-11.1651
ミゲル	-11.1651
に指定されている	-11.1651
ではあるが	-11.1651
接種	-11.1651
何年も	-11.1652
高原	-11.1652
を支持する	-11.1653
進んだ	-11.1653
探検家	-11.1653
ポーター	-11.1653
fa	-11.1653
地区の	-11.1653
ポーカー	-11.1653
ワーム	-11.1654
英語版	-11.1654
を進め	-11.1654
後継者	-11.1654
どの程度	-11.1655
創造的な	-11.1655
iOS	-11.1656
ジーンズ	-11.1656
にはどんな	-11.1656
エリート	-11.1656
に巻き込まれ	-11.1658
ジェニー	-11.1658
ブログ	-11.1658
中毒	-11.1659
コンマで区切る	-11.1659
の中の	-11.1659
学士号を取得	-11.1659
表現型	-11.1659
マスコット	-11.166
に焦点を当てている	-11.166
▁It	-11.1661
リサーチ	-11.1662
1874	-11.1662
燃え	-11.1662
ブランチ	-11.1663
マリオン	-11.1663
として知られていた	-11.1663
マスタード	-11.1663
パンチ	-11.1664
当時は	-11.1664
にさかのぼる	-11.1665
Art	-11.1665
と呼ばれるようになった	-11.1665
タスマンは	-11.1667
ライズ	-11.1667
に出場	-11.1667
大規模な言語モデル	-11.1668
最高峰	-11.1669
ビーフ	-11.1671
バラク	-11.1672
を制限する	-11.1675
で開催され	-11.1675
バッハ	-11.1676
を追跡する	-11.1677
を用意する	-11.1677
ブール	-11.1678
年夏季オリンピック	-11.1678
』(2021	-11.1678
バブル	-11.1678
歩き	-11.1678
ミドル	-11.1679
上がる	-11.1681
行い	-11.1682
ヒルズ	-11.1683
1870	-11.1689
pt	-11.1689
ブランドン	-11.1689
もなく	-11.1689
時刻	-11.169
MTV	-11.169
穏やかな	-11.1694
小説家	-11.1698
Thi	-11.1701
しつけ	-11.1701
背中	-11.1701
設計された	-11.1701
著しく	-11.1702
ラビ	-11.1703
カレ	-11.1703
を維持している	-11.1704
日産	-11.1706
与えられ	-11.1706
てはいけない	-11.1713
レンジャー	-11.1713
生後	-11.1713
クリア	-11.1714
が常に	-11.1715
UK	-11.1715
との間に	-11.1715
を取り付け	-11.1716
ローラ	-11.1718
から始め	-11.1718
返す	-11.1718
この時期	-11.1719
タグ	-11.172
カルト	-11.1721
カーク	-11.1722
を共有する	-11.1723
▁マスターズ	-11.1728
使える	-11.1735
を送り	-11.1736
の変更	-11.1736
も知られている	-11.1741
サーモン	-11.1743
▁2001	-11.1743
見て	-11.1744
を選択し	-11.1745
米国における	-11.1745
を使うこと	-11.1747
オランダ人	-11.1748
利用可能	-11.1749
をそれぞれ	-11.1749
占	-11.175
この戦い	-11.1751
ストップ	-11.1756
▁1970	-11.1757
空の	-11.1762
マグネシウム	-11.1763
ラヴ	-11.1763
一致	-11.1764
ミラン	-11.1765
非難	-11.1765
ミック	-11.1767
対応する	-11.1768
AG	-11.1768
で作られた	-11.1769
辞任	-11.1769
りなさい	-11.1774
ってくる	-11.1778
のは何年	-11.1779
万人以上	-11.1779
ネック	-11.178
世は	-11.1782
!」	-11.1785
ドイツ軍	-11.1786
▁We	-11.1789
なかったため	-11.1795
食べられる	-11.1795
ドリアン	-11.1804
アメリカ合衆国の	-11.1806
ドゥー	-11.1806
かつては	-11.1807
世話	-11.1808
Su	-11.1811
で最も高い	-11.1811
を支援し	-11.1811
最優秀選手	-11.1811
全く	-11.1816
であることが	-11.1816
韓国の	-11.1816
ye	-11.1817
公開され	-11.1819
の低い	-11.182
che	-11.182
の高さは	-11.1821
太陽から	-11.1828
教区	-11.1833
に生まれ	-11.1838
サードパーティ	-11.1843
にはどのような	-11.1843
を変え	-11.1844
くて	-11.1844
を受けて	-11.1844
レンス	-11.1845
から始める	-11.1847
*	-11.1848
減少	-11.1849
他のすべての	-11.1849
蓄電池	-11.1849
のほか	-11.1853
開始され	-11.1853
の時代に	-11.1855
1922	-11.1856
GA	-11.1857
はどこにある	-11.1863
クア	-11.1865
選ばれ	-11.1865
デモ	-11.1869
バスケットボールチーム	-11.187
数多くある	-11.1871
っても	-11.1873
演じ	-11.1875
の人生	-11.1875
第二次世界大戦中	-11.1877
数時間	-11.1878
を記録	-11.1882
し始めた	-11.1882
含まれ	-11.189
フィンランドの	-11.189
▁Lo	-11.1891
エイジ	-11.1897
中国人	-11.1897
にはさまざまな	-11.19
に進出し	-11.1901
2、3	-11.1903
もうひとつ	-11.1904
近くにある	-11.1904
協	-11.1907
で敗れ	-11.1907
強さ	-11.1907
を直接	-11.1908
人間関係	-11.1911
ーター	-11.1912
金メダル	-11.1912
年の映画	-11.1916
にわたる	-11.1916
世が	-11.1924
静電気	-11.1925
ヴェイ	-11.1926
▁1989	-11.1926
ラール	-11.1926
nt	-11.1928
パド	-11.1929
不正	-11.193
分類する	-11.1933
に貢献し	-11.1933
テクノロジー企業	-11.1933
整	-11.1936
発展させ	-11.1937
LS	-11.1939
の一例	-11.1941
投入	-11.1942
収容	-11.1949
没	-11.1954
することができた	-11.1957
の一部を	-11.1959
ニューメキシコ州	-11.196
理解し	-11.1961
オレゴン	-11.1962
は以前	-11.1962
があるのか	-11.1963
辛	-11.1963
トリップ	-11.1964
長所と短所	-11.1964
晩	-11.1965
進行	-11.1965
億万長者	-11.1966
芽	-11.1966
を変えた	-11.1966
に過ぎない	-11.1966
泡	-11.1966
樹	-11.1966
屈	-11.1966
廃棄物	-11.1967
ヨウ素	-11.1967
農村	-11.1967
豚	-11.1968
ベーシスト	-11.1968
コレステロール	-11.1968
ウィーズリー	-11.1968
ガソリン	-11.1968
コンタクト	-11.1968
証言	-11.1968
飲み	-11.1968
潜	-11.1968
ランドスケープ	-11.1968
乗組員	-11.1968
水蒸気	-11.1968
を特徴とする	-11.1968
溝	-11.1968
の住民	-11.1968
コンセンサス	-11.1968
癌	-11.1968
ラブラドール	-11.1968
条項	-11.1968
バーモント州	-11.1968
弓	-11.1968
Netflix	-11.1968
ビジュアル	-11.1968
最悪の	-11.1968
から作られる	-11.1968
夕方	-11.1968
ダイビング	-11.1968
で始まる	-11.1968
セグメント	-11.1968
ポケットモンスター	-11.1968
に生息している	-11.1968
塊	-11.1968
ミズーリ州	-11.1968
セックス	-11.1968
干ばつ	-11.1968
アルパカ	-11.1968
チャベス	-11.1968
カスタマイズ	-11.1969
知的財産	-11.1969
助言	-11.1969
ODI	-11.1969
に向けて	-11.1969
時折	-11.1969
コンソール	-11.1969
ウォン	-11.1969
キツネ	-11.1969
意志	-11.1969
注目すべき	-11.1969
カトリック教会	-11.1969
モスクワ	-11.1969
クリシュナ	-11.1969
電球	-11.1969
崇拝	-11.1969
▁Lake	-11.1969
完璧な	-11.1969
タイミング	-11.197
意欲	-11.197
カウンティ	-11.197
本来の	-11.197
赤ちゃんが	-11.197
何百もの	-11.197
ファウル	-11.1971
天然ガス	-11.1971
ヴァージン	-11.1971
一晩	-11.1971
クリスタル	-11.1971
エイミー	-11.1971
ステファン	-11.1971
チューリング	-11.1972
ハンドラー	-11.1972
灰色	-11.1972
引き上げ	-11.1972
嫌い	-11.1972
再建	-11.1972
天気	-11.1973
主権	-11.1973
ワーナー	-11.1973
クレーター	-11.1973
クーパー	-11.1973
レーベル	-11.1974
コリンズ	-11.1975
ナッシュ	-11.1975
大使	-11.1975
乳製品	-11.1975
アトラス	-11.1976
演出	-11.1976
このアルバムは	-11.1977
ポッド	-11.1977
太陽光発電	-11.1977
切る	-11.1977
出身で	-11.1978
1906	-11.1979
群島	-11.1979
似たような	-11.198
サックス	-11.198
イブン	-11.198
方向に	-11.198
ホラー	-11.1981
ストラト	-11.1982
▁以下の文章から	-11.1982
何度か	-11.1982
化石	-11.1982
中央値	-11.1983
地表	-11.1984
クミン	-11.1984
万台	-11.1984
ジープ	-11.1986
▁Vers	-11.1986
群れ	-11.1987
スーパーマン	-11.1988
に分かれている	-11.1989
北に	-11.1991
メイク	-11.1992
』(2019	-11.1992
ロースト	-11.1993
という事実	-11.1994
一時的に	-11.1995
が人気	-11.1996
支え	-11.1996
を回避する	-11.1996
視聴者	-11.1996
1895	-11.1997
アイデアを	-11.1997
チャーリー	-11.1999
非常に高い	-11.1999
ティール	-11.1999
ウィング	-11.1999
買	-11.2001
青い	-11.2001
セロ	-11.2001
ひとつの	-11.2001
ライヴ	-11.2002
を上げ	-11.2003
コミックス	-11.2004
チャンピオンに輝いた	-11.2005
を余儀なくされた	-11.2006
ボルタ	-11.2006
タホ	-11.2007
,900	-11.2009
自体は	-11.2009
全土	-11.201
の決定	-11.2012
水道	-11.2013
ながらも	-11.2014
愛犬	-11.2015
ワット	-11.2017
戦争で	-11.2018
幾何学	-11.2022
議長	-11.2025
商業的に	-11.2028
ナシ	-11.2029
長方形の	-11.2031
ニューヨーク市	-11.2033
に達し	-11.2034
がほとんど	-11.2035
ニッ	-11.2036
子供向け	-11.2039
誰でも	-11.204
高度に	-11.2041
が増え	-11.2041
大手	-11.2042
少なく	-11.2042
解読	-11.2043
に行き	-11.2043
それまで	-11.2044
訴え	-11.2046
ていたため	-11.2048
ウォーカー	-11.2048
離れている	-11.2049
過去に	-11.205
を知り	-11.2052
現代的な	-11.2052
オールスター	-11.2053
の影響を受け	-11.2053
を防ぐために	-11.2058
投資家は	-11.2059
トーナメントは	-11.206
についても	-11.2063
の街	-11.2066
古代の	-11.2066
に勝利した	-11.2068
ハイン	-11.207
植え	-11.2071
log	-11.2073
▁Man	-11.2075
創設された	-11.2076
私立	-11.2076
オーストラリアン	-11.2079
放出される	-11.2079
を育て	-11.2086
ロイド	-11.2086
Par	-11.2087
タム	-11.2088
パット	-11.2091
海水	-11.2092
影響を与える	-11.2096
を取り入れた	-11.2098
ick	-11.2099
小児	-11.2102
ことを意味し	-11.2105
ないようにする	-11.2106
Lu	-11.2107
ash	-11.2109
と思います	-11.2112
上昇し	-11.2113
難民	-11.212
ことができず	-11.2123
▁12.	-11.2125
糖分	-11.2131
周回	-11.2131
のだから	-11.2132
ガロン	-11.2133
のひとつに	-11.2134
どうすればいい	-11.2135
del	-11.2137
定義されている	-11.2137
がなかった	-11.2139
コパ	-11.214
期に	-11.2141
OT	-11.2143
訪問者	-11.2143
ータ	-11.2143
ok	-11.2145
ランス	-11.2146
に変える	-11.2148
すぎて	-11.2149
:"	-11.215
荒	-11.2154
UI	-11.2155
誕生した	-11.2156
▁Po	-11.2156
後期	-11.2158
混ぜ	-11.2159
彼女を	-11.2161
ヒンドゥー教	-11.2165
ネオ	-11.2169
ベンガル語	-11.2172
空に	-11.2174
素早く	-11.2176
もちろん	-11.218
法学	-11.2181
女神	-11.2181
州立大学	-11.2184
クリスティ	-11.2184
を終えた	-11.2184
テオ	-11.2185
各州	-11.2186
の周りを	-11.2188
▁Li	-11.2189
サス	-11.2189
リーズ	-11.219
GS	-11.2192
メイン州	-11.2194
ベルギーの	-11.2197
るという	-11.2199
の再	-11.2199
に選出	-11.2201
以下のようなものがあ	-11.2203
春の	-11.2209
存在した	-11.2213
自動的に	-11.2214
直面している	-11.2218
に敗れ	-11.2221
コンロ	-11.2221
RF	-11.2222
ath	-11.2223
作者	-11.2235
が増える	-11.2237
の基本的な	-11.2238
最良の	-11.2238
ght	-11.2239
フランツ	-11.2241
議会議員	-11.2241
運ぶ	-11.2241
つある	-11.2243
世界的	-11.2243
の大半を	-11.2245
第二の	-11.2246
回大会	-11.2248
炭	-11.2258
だけの	-11.2259
タール	-11.2259
権威	-11.2263
ern	-11.2265
ユニーク	-11.2265
年前の	-11.2267
で終わる	-11.2273
攻撃者	-11.2274
輝	-11.2279
リーン	-11.2283
era	-11.2285
反論	-11.2285
フェン	-11.229
ウォル	-11.229
様々	-11.2291
ドック	-11.2291
自国	-11.2291
忠実	-11.2293
闘	-11.2293
フランス人	-11.2293
に伴い	-11.2293
チーフ	-11.2294
採	-11.2295
小規模	-11.2296
がそれぞれ	-11.2297
公民権	-11.2298
ストライク	-11.2298
革	-11.2299
陸地	-11.2299
影響力のある	-11.2299
ʃ	-11.2299
厳	-11.2299
狂	-11.23
大使館	-11.23
売却し	-11.23
損	-11.23
嗜好	-11.23
ANT	-11.23
カロライナ	-11.23
ゲノミクス	-11.23
ウズベキスタン	-11.2301
エディンバラ	-11.2301
POP	-11.2301
貯水池	-11.2301
熊	-11.2301
おやつ	-11.2301
р	-11.2301
堤防	-11.2301
に起因する	-11.2301
複製	-11.2301
サムスン	-11.2301
所在地	-11.2301
屈折	-11.2301
温かい	-11.2301
に代わる	-11.2301
ウルグアイ	-11.2301
カボチャ	-11.2301
ショッピング	-11.2301
マハラシュトラ州	-11.2301
を使えば	-11.2301
テキーラ	-11.2301
唐辛子	-11.2301
監査	-11.2301
Facebook	-11.2301
スパニエル	-11.2301
е	-11.2302
措置	-11.2302
ムハンマド	-11.2302
メトロポリタン	-11.2302
Power	-11.2302
エリオット	-11.2302
茂	-11.2302
セブン	-11.2302
可用性	-11.2302
掛け	-11.2302
ひどい	-11.2302
陶器	-11.2302
既知の	-11.2302
議席	-11.2302
と名付けた	-11.2302
と呼んでいる	-11.2302
ゴッドファーザー	-11.2302
に住み	-11.2302
ゴリラ	-11.2302
天然資源	-11.2302
に合った	-11.2302
ストーム	-11.2302
アコースティック	-11.2302
インパクト	-11.2302
挿入	-11.2302
苦しみ	-11.2302
夫婦	-11.2302
に対処する	-11.2302
補給	-11.2302
をめぐって	-11.2302
祖父	-11.2303
炎症	-11.2303
ハサウェイ	-11.2303
順番	-11.2303
創立	-11.2303
調和	-11.2303
Out	-11.2303
デイビス	-11.2303
セールスフォース	-11.2303
シヴァージ	-11.2303
親切	-11.2303
ロケーション	-11.2303
純粋な	-11.2303
世界最大級の	-11.2304
金融危機	-11.2304
知覚	-11.2304
毛皮	-11.2304
学術	-11.2304
スタッド	-11.2304
化学物質	-11.2304
電動	-11.2304
オンタリオ州	-11.2305
この曲	-11.2305
南北戦争	-11.2305
治世	-11.2305
抑圧	-11.2305
アウディ	-11.2305
ドゥーム	-11.2306
王室	-11.2306
態度	-11.2306
を深め	-11.2306
カルチャー	-11.2306
革新的な	-11.2307
辛い	-11.2307
亜種	-11.2307
ニウス	-11.2307
を紹介する	-11.2307
切り替え	-11.2308
出版物	-11.2308
ことが重要です	-11.2308
ディッシュ	-11.2309
晴れ	-11.2309
分配	-11.231
モット	-11.231
コービー	-11.231
ノット	-11.231
ホップ	-11.231
王立	-11.231
1907	-11.2311
作動	-11.2311
コーナー	-11.2311
記されている	-11.2311
▁次の各	-11.2312
バーバラ	-11.2312
ラジ	-11.2312
世界ランキング	-11.2313
デニス	-11.2313
AB	-11.2313
パーセント	-11.2313
キャンディ	-11.2315
ノイズ	-11.2315
張り	-11.2315
ファスト	-11.2315
ペースト	-11.2316
という意味	-11.2316
アリーナ	-11.2317
ボタン	-11.2317
ger	-11.2317
先生	-11.2317
ダグラス	-11.2319
こす	-11.232
1898	-11.2321
に集中する	-11.2322
を表し	-11.2322
これらはすべて	-11.2322
機関車	-11.2323
1890	-11.2323
LT	-11.2323
合法	-11.2324
実行できる	-11.2326
デューク	-11.2328
1775	-11.2328
として知られるようになった	-11.2329
ミッチ	-11.2329
コーリー	-11.2329
マグ	-11.233
PH	-11.233
▁2.2.	-11.233
▁テキサス	-11.2331
オーム	-11.2332
▁以下の各	-11.2332
で勝利し	-11.2333
メー	-11.2336
終了し	-11.2337
研究室	-11.2338
MW	-11.2338
自社	-11.2338
パドル	-11.2339
が発表された	-11.2339
キャリアをスタートさせ	-11.234
を否定し	-11.234
クレー	-11.2341
ウール	-11.2342
Bad	-11.2342
▁2005	-11.2343
コックス	-11.2346
1812	-11.2347
継続的な	-11.2348
を製造する	-11.2348
ウィリー	-11.2352
見えない	-11.2353
を備えている	-11.2354
芸術家	-11.2354
ユース	-11.2354
が施され	-11.2356
んだり	-11.2356
を読んで	-11.2358
ウェー	-11.2359
翌日	-11.2361
使われるようになった	-11.2365
最良の方法	-11.2366
ire	-11.2366
ローリー	-11.2367
ish	-11.2367
ヒマラヤ山脈	-11.2367
ラガー	-11.2369
の母	-11.2369
始まり	-11.2369
界で	-11.237
はアメリカ合衆国	-11.2373
ロフ	-11.2373
勝者	-11.2374
記録されている	-11.2375
2.4	-11.2376
この用語は	-11.2377
それぞれが	-11.2378
光学	-11.2379
比率	-11.2379
保護者	-11.2382
を楽しむことができる	-11.2389
リカ	-11.239
においても	-11.239
を見たり	-11.239
その間に	-11.2393
記者	-11.2394
の発売	-11.2394
を切る	-11.2394
。1989	-11.2394
09	-11.2394
に終わる	-11.2395
オフロード	-11.2401
の上位	-11.2403
この試合	-11.2403
act	-11.2403
が少なく	-11.2404
ママ	-11.2405
マウ	-11.2406
ヴィラ	-11.2406
生じる	-11.2407
Ad	-11.2408
の概要	-11.2409
週末に	-11.2409
2600	-11.2415
でさえ	-11.2416
1902	-11.2417
")	-11.2418
を買収した	-11.2419
違	-11.242
司教	-11.2422
フランコ	-11.2424
1,5	-11.2425
UP	-11.2426
を計算する	-11.2429
ASD	-11.2429
れている	-11.2429
で使われる	-11.2432
ダース	-11.2432
ソル	-11.2433
の設立	-11.2439
アーセナルは	-11.2439
ボット	-11.2439
因子	-11.2442
イット	-11.2443
焼	-11.2445
ギリシャの	-11.2448
同時	-11.2449
の観点から	-11.2452
▁Na	-11.2459
HP	-11.2459
その人の	-11.2462
財政	-11.2466
遅	-11.2467
の治療	-11.2468
ディック	-11.2472
残っている	-11.2473
がある場合	-11.2474
界の	-11.2476
を通って	-11.2476
徒歩	-11.2478
アダニ	-11.2479
コウ	-11.2481
プラットフォームで	-11.2483
15%	-11.2485
を調整する	-11.2485
を組み合わせ	-11.2488
いくら	-11.2494
重く	-11.2495
の墓	-11.2496
を果たした	-11.2499
かによって	-11.2504
0.6	-11.2505
南アメリカ	-11.2506
に分け	-11.2506
が低く	-11.2507
ポット	-11.2507
での生活	-11.2508
リーチ	-11.2508
を保護する	-11.251
技術者	-11.2521
ズム	-11.2522
con	-11.2525
の死後	-11.2526
EL	-11.2528
がすべて	-11.2534
夫人	-11.2535
に到着した	-11.2539
でできている	-11.254
より高い	-11.2542
380	-11.2546
You	-11.255
ダグ	-11.2552
が発見された	-11.2555
聞こえる	-11.2558
に限定	-11.256
ない場合	-11.2562
▁Windows	-11.2563
1.6	-11.2563
理想	-11.2563
ガンジー	-11.2566
だからだ	-11.2567
認められた	-11.2568
優勝を果たした	-11.2569
を下げる	-11.2569
にさらされ	-11.2578
壊れ	-11.2578
を意味し	-11.2581
友	-11.2581
age	-11.2582
のウェブサイト	-11.2583
も同様に	-11.2592
の標準	-11.2592
SO	-11.2594
使った	-11.2595
姉妹	-11.2595
を箇条書きで	-11.2595
レバー	-11.2598
Tw	-11.2608
の戦いで	-11.2608
のどちら	-11.2611
を採用し	-11.2611
働いた	-11.2613
(1998	-11.2615
を制したのは	-11.2615
かけた	-11.2619
130	-11.2623
エルク	-11.2624
緩和	-11.2625
ps	-11.2628
大きさの	-11.2629
備え	-11.263
共産主義	-11.2631
ラルフ	-11.2632
釣	-11.2632
キャンプ場	-11.2633
CB	-11.2633
掲載され	-11.2634
フォードは	-11.2634
滑らか	-11.2635
自転	-11.2636
豊	-11.2637
イーグル	-11.2637
地面に	-11.2637
に関するこの段落	-11.2637
二次	-11.2638
3.2	-11.2639
即	-11.264
を得ることができる	-11.264
ネバダ	-11.2641
登山	-11.2641
グルジア	-11.2642
児	-11.2643
延	-11.2643
慈善	-11.2643
悲しい	-11.2643
プリント	-11.2644
種である	-11.2644
覧	-11.2644
探査	-11.2645
やすさ	-11.2645
技師	-11.2645
に帯電した電子	-11.2645
蜂	-11.2645
ゲルマニウム	-11.2645
四半期	-11.2645
蔓延	-11.2645
凧	-11.2645
獣	-11.2646
緩	-11.2646
を中心とした	-11.2646
に向かった	-11.2646
に沿った	-11.2646
垂直	-11.2646
を本拠地とする	-11.2646
相まって	-11.2646
州間高速道路	-11.2646
ウイスキー	-11.2646
用いられる	-11.2646
カヤック	-11.2646
▁Plus	-11.2646
大恐慌	-11.2646
男爵	-11.2646
クラリネット	-11.2646
ことをお勧めします	-11.2646
Apple	-11.2646
Delta	-11.2646
とは何だったのか	-11.2646
たとえ	-11.2646
バケツ	-11.2646
恋愛	-11.2646
スカーレット	-11.2647
ファンタスティック	-11.2647
チンパンジー	-11.2647
寿司	-11.2647
パズル	-11.2647
知恵	-11.2647
にあたる	-11.2647
幸運	-11.2647
ギブソン	-11.2647
給付	-11.2647
を確保し	-11.2647
アンダマン	-11.2647
ジェニファー	-11.2647
フォレスト	-11.2647
分泌	-11.2647
立たない	-11.2647
亡命	-11.2647
次のものをそれぞれ	-11.2647
裁判官	-11.2647
反則	-11.2647
改修	-11.2647
防御	-11.2647
アップグレード	-11.2647
頭痛	-11.2647
アシスト	-11.2647
蓄え	-11.2647
サンダーソン	-11.2647
キャンティ	-11.2647
努力を	-11.2647
モジュール	-11.2647
アーモンド	-11.2647
熟成	-11.2647
同盟国	-11.2648
要請	-11.2648
多大な	-11.2648
色彩	-11.2648
配給	-11.2648
枢軸国	-11.2648
型糖尿病	-11.2648
改正	-11.2648
▁Day	-11.2648
小売	-11.2648
エントリー	-11.2649
▁人はなぜ	-11.2649
ステッチ	-11.2649
収容所	-11.2649
India	-11.2649
ジャングル	-11.2649
検知	-11.265
を制し	-11.265
ニクラウス	-11.265
境界線	-11.265
実在	-11.265
直感	-11.265
淡	-11.2651
ヨーガ	-11.2651
グレーター	-11.2651
体重は	-11.2651
死亡率	-11.2651
文字通り	-11.2652
1,500	-11.2653
lin	-11.2653
シェーン	-11.2653
チャック	-11.2654
What	-11.2654
中断	-11.2654
頭部	-11.2655
山々	-11.2655
定着	-11.2655
代表作	-11.2656
テス	-11.2658
1869	-11.2658
開き	-11.2659
ハイチ	-11.2659
つ教えてください	-11.2659
シャルル	-11.266
解体	-11.266
センチメント	-11.2661
エース	-11.2661
をベースにした	-11.2661
ツー	-11.2662
スティール	-11.2662
売れた	-11.2663
シリアル	-11.2663
を重視する	-11.2664
(1)	-11.2664
オファー	-11.2664
の名前を	-11.2665
東アジア	-11.2666
をチェックする	-11.2667
1897	-11.2667
に到達する	-11.2669
』(2018	-11.267
原理	-11.267
ゼリー	-11.2671
IIT	-11.2672
ティーン	-11.2673
ビーン	-11.2673
ハイム	-11.2674
を設置する	-11.2676
文脈で	-11.2676
ジャバー	-11.2677
信頼できる	-11.2679
同様	-11.2681
のみが	-11.2682
ボンド	-11.2682
家の中	-11.2683
使用されます	-11.2683
ロジャース	-11.2684
ジット	-11.2685
アヒル	-11.2685
のひとつとなった	-11.2685
発生し	-11.2685
の妻	-11.2685
3000	-11.2688
水域	-11.2688
アーム	-11.2688
プラム	-11.269
のデザイン	-11.269
ヘー	-11.2692
サッ	-11.2698
もいい	-11.2699
カニ	-11.2699
(2018	-11.2701
しっかりと	-11.2703
カーズ	-11.2704
系アメリカ人の	-11.2704
を破壊する	-11.2704
Ga	-11.2705
終わった	-11.2706
能力を	-11.2706
Cent	-11.2707
で構成された	-11.2707
聴く	-11.2707
に行って	-11.2709
生きる	-11.2715
7000	-11.2716
カビ	-11.2719
ロロ	-11.272
の略で	-11.2726
ass	-11.2726
歳のときに	-11.2726
植民地化	-11.2729
フス	-11.273
を話す	-11.273
台の	-11.273
妻の	-11.2731
作品である	-11.2731
(1917	-11.2731
を含む多くの	-11.2735
ラグ	-11.2737
単位で	-11.2741
カップ優勝	-11.2741
ジョンソンは	-11.2742
レッジ	-11.2743
イジング	-11.2743
を探検し	-11.2744
を向上させ	-11.2747
を担当し	-11.2747
快適な	-11.2747
とその周辺	-11.2751
など他の	-11.2753
が生じる	-11.2754
テネシー州	-11.2754
に合う	-11.2755
が訪れ	-11.2755
地球から	-11.2756
が始まり	-11.2757
ヘラ	-11.2759
ランズ	-11.2759
æ	-11.2761
下にある	-11.2761
よくある	-11.2763
(1918	-11.2765
署名	-11.2766
ノール	-11.2766
の世話	-11.2767
デスク	-11.2767
USA	-11.2769
に建設された	-11.277
ユニ	-11.2772
],	-11.2777
違いは	-11.2777
ウシ	-11.2779
Up	-11.2779
大幅に	-11.2783
最大の都市	-11.2784
準決勝で	-11.2784
予定だった	-11.2785
消え	-11.2787
と結婚し	-11.2788
渡る	-11.2788
うちに	-11.2793
をよく	-11.2793
共著	-11.2794
東部の	-11.2795
周年	-11.2797
くらい	-11.2798
できるのか	-11.2804
で過ごした	-11.2804
トリック	-11.2808
がかかる	-11.2808
エネルギー源	-11.2812
共感	-11.2812
せずに	-11.2814
化学的	-11.2816
を保持し	-11.2828
NL	-11.2831
得られる	-11.2833
不可欠な	-11.2836
02	-11.2836
を集める	-11.2837
ユーチューブは	-11.2838
経済成長	-11.284
We	-11.2841
スウィフトの	-11.2843
入植	-11.2844
人々にとって	-11.2848
2～3	-11.2848
人間と	-11.285
カタ	-11.285
座って	-11.2851
スポーツチーム	-11.2852
大気中	-11.2854
帝国は	-11.2858
少量の	-11.2862
のに最適な場所	-11.2866
以下は	-11.2866
電場は	-11.2872
用いて	-11.2872
の多くを	-11.2878
といい	-11.2878
ドバイ	-11.2878
マツ	-11.2883
ところで	-11.2886
づ	-11.289
わかり	-11.2891
が起こった	-11.2891
脱出	-11.2893
形式で	-11.2898
出演している	-11.2903
リリースした	-11.2905
には様々な	-11.2906
を支配し	-11.2906
ヴィア	-11.2907
クック	-11.2909
どれも	-11.2909
GB	-11.2911
をかけて	-11.2915
モナ	-11.2923
られていた	-11.2928
犬が	-11.2928
トップリーグ	-11.2931
落とし	-11.2932
ip	-11.2934
har	-11.2937
レギュラー	-11.294
美しさ	-11.2944
je	-11.2946
にとっても	-11.2948
人がいる	-11.2949
越し	-11.2954
ラテ	-11.2954
を守るために	-11.2954
ナポリ	-11.2955
モンテ	-11.2957
希少	-11.2959
複合	-11.296
jo	-11.2961
▁米国の	-11.2964
会社である	-11.2964
となって	-11.2964
昼	-11.2968
耐	-11.2968
を記念して	-11.2968
古代ギリシャ	-11.297
少数の	-11.2971
中央部	-11.2971
ロップ	-11.2973
要する	-11.2978
インストール	-11.2979
の原理	-11.2981
の温度	-11.2981
結び	-11.2981
bu	-11.2982
まない	-11.2984
誤	-11.2986
コンマで区切	-11.2986
に移住	-11.2987
ものとして	-11.2989
方法です	-11.2991
チームである	-11.2993
入手	-11.2993
キッド	-11.2993
孤独	-11.2995
したことで	-11.2996
ならない	-11.2997
に覆われ	-11.2997
映	-11.2998
王女	-11.2999
ジャマイカ	-11.2999
165	-11.3
大統領が	-11.3
落とす	-11.3001
ガスパチョ	-11.3001
ベラルーシ	-11.3002
スーダン	-11.3002
ウガンダ	-11.3002
ソビエト	-11.3002
公衆衛生	-11.3002
勤	-11.3002
このレース	-11.3002
ブレーク	-11.3002
パソコン	-11.3003
モデリング	-11.3003
仏	-11.3003
ボクサー	-11.3003
汁	-11.3003
アリストテレス	-11.3003
津波	-11.3003
を築いた	-11.3003
ヤンキース	-11.3003
スクランブル	-11.3003
往復	-11.3003
礼拝	-11.3003
トウモロコシ	-11.3003
姉	-11.3003
ロックンロール	-11.3003
冥王星	-11.3003
掘削	-11.3003
海兵隊	-11.3003
社会保障	-11.3003
耐久性	-11.3003
ストックホルム	-11.3003
かせる	-11.3003
コンディション	-11.3003
و	-11.3003
バッファロー	-11.3003
ラクダ	-11.3003
卓球	-11.3004
純資産	-11.3004
ホルモン	-11.3004
嘘	-11.3004
▁Foundation	-11.3004
微積分	-11.3004
国会議員	-11.3004
年に設立され	-11.3004
レオナルド	-11.3004
生理学	-11.3004
割譲	-11.3004
レジナルド	-11.3004
帽子	-11.3004
繁栄	-11.3004
金属製の	-11.3004
流動性	-11.3004
ニンテンドー	-11.3004
清潔	-11.3004
スプリングフィールド	-11.3004
離婚	-11.3004
漕	-11.3004
に終わった	-11.3004
献身	-11.3004
発祥の地	-11.3004
複合施設	-11.3004
ヒキガエル	-11.3004
を箇条書きで挙げてください	-11.3004
聖金曜日	-11.3004
▁3.3.	-11.3004
静かな	-11.3004
豚肉	-11.3005
オオメジロザメ	-11.3005
ハーヴェイ	-11.3005
▁この段落から	-11.3005
ミシシッピ川	-11.3005
担保	-11.3005
ヴィオラ	-11.3005
配布	-11.3005
食料品	-11.3005
記録を保持している	-11.3005
系統	-11.3005
アナログ	-11.3006
処分	-11.3006
IPO	-11.3006
誤って	-11.3006
偏見	-11.3006
旅客	-11.3007
電気分解	-11.3007
ヘンドリックス	-11.3007
組合	-11.3007
銀行口座	-11.3007
ロッククライミング	-11.3007
積み	-11.3008
のではないか	-11.3008
ナイキ	-11.3009
の近く	-11.3009
自立	-11.3009
ファイヤー	-11.3009
展示されている	-11.3009
本を読む	-11.3009
ゴールデングローブ賞	-11.301
きっかけとなった	-11.301
原色	-11.3011
想像力	-11.3011
カリーム	-11.3012
平面	-11.3012
ハイウェイ	-11.3012
に置き	-11.3012
強風	-11.3013
同等	-11.3013
スタンリー	-11.3015
コンパス	-11.3015
限られた	-11.3016
に通う	-11.3016
ラーメン	-11.3016
real	-11.3016
];	-11.3016
アーロン	-11.3018
外見	-11.3019
を舞台にした	-11.3019
物議を醸した	-11.302
ておき	-11.302
チェスター	-11.3021
数え	-11.3021
日常的な	-11.3022
販売されている	-11.3023
ミーム	-11.3023
に依存している	-11.3024
という名称	-11.3026
年に始まった	-11.3027
円形	-11.3027
LP	-11.3028
と考えられていた	-11.3028
と比較して	-11.303
6,000	-11.303
チェロ	-11.3031
外科	-11.3031
1878	-11.3033
という考え方	-11.3033
-22	-11.3036
強調	-11.3037
の指示	-11.3038
ドリュー	-11.3038
購入する	-11.3042
』(2008	-11.3042
70%	-11.3044
(1997	-11.3044
セク	-11.3045
実体	-11.3047
ホッケーチーム	-11.3048
段落から	-11.3054
(13	-11.3055
摂	-11.3055
されるようになった	-11.3057
州内	-11.3059
ぶり	-11.3059
チームスポーツ	-11.306
』(199	-11.306
リサイクル	-11.3061
年にわたる	-11.3061
を提供します	-11.3062
によって初めて	-11.3066
Star	-11.3067
させて	-11.3067
パドマ	-11.3069
政府が	-11.3073
数学者	-11.3076
全体に	-11.3078
テイ	-11.3084
月末	-11.3086
活躍した	-11.3093
何度	-11.3093
1819	-11.3094
ブレイディ	-11.3099
特別に	-11.31
ula	-11.3101
ort	-11.3101
を行うこと	-11.3102
終結した	-11.3104
母国	-11.3106
が高くなる	-11.3107
に到達した	-11.3108
を見つけること	-11.3111
子猫	-11.3112
説明した	-11.3113
ビリ	-11.3113
バーズ	-11.3113
0,	-11.3114
下り	-11.3116
知能	-11.3116
ケイン	-11.3119
の両方で	-11.312
リウム	-11.3124
Don	-11.3126
メディ	-11.3127
家畜化	-11.3128
CH	-11.3128
eep	-11.3128
ary	-11.3132
物体を	-11.3132
終了後	-11.3132
ショア	-11.3135
になれる	-11.3138
ロマン	-11.3139
ることである	-11.3144
演奏した	-11.3145
カウント	-11.3149
歩道	-11.3155
ネジ	-11.3158
夜間	-11.3159
小型の	-11.316
を起こした	-11.316
ブリン	-11.3163
指導者たち	-11.3164
を追加する	-11.3165
を作り出し	-11.3171
を調べ	-11.3172
必要なもの	-11.3175
在籍	-11.3176
Ne	-11.3178
280	-11.3181
てみる	-11.3182
テラ	-11.3184
の説明	-11.3187
走った	-11.3188
。1992	-11.319
で使用されている	-11.3191
コブ	-11.3195
セクター	-11.32
人生を	-11.3204
リラックス	-11.3207
大人の	-11.3211
としてのキャリア	-11.3211
べきです	-11.3216
暗号化	-11.3218
oot	-11.3221
ッシー	-11.3224
～6	-11.3229
(2001	-11.3229
バージョンは	-11.323
歳の時	-11.3237
サード	-11.3242
前者	-11.3243
を放	-11.3248
すぎると	-11.3248
結成された	-11.3254
それ以前	-11.3254
荷電粒子	-11.3255
取った	-11.3255
IL	-11.3255
させることで	-11.326
をつけた	-11.326
以上に	-11.326
の半分	-11.326
繰り返す	-11.3262
生育	-11.3264
のバランス	-11.3267
モノ	-11.3267
アサ	-11.3268
1,3	-11.3269
火曜日	-11.3269
ベルン	-11.327
データ処理	-11.3274
リリー	-11.3277
どうすれば	-11.3278
ik	-11.3281
の基本	-11.3283
マーチ	-11.3285
保存する	-11.3287
リストアップし	-11.3288
の前で	-11.3288
イオ	-11.3289
ジャクソンは	-11.329
除き	-11.329
公転	-11.3291
ナッシュビル	-11.3292
で過ごす	-11.3292
支払	-11.3292
ベイリー	-11.3294
が強い	-11.3295
夏の間	-11.3297
ヌス	-11.3298
入りの	-11.33
もあるが	-11.33
ピル	-11.3304
可決され	-11.3304
設置された	-11.3307
光が	-11.3307
(2,	-11.3307
プレイヤーが	-11.3308
社長	-11.3311
からです	-11.3315
タフ	-11.3316
生み出	-11.3319
項	-11.3321
によるもの	-11.3324
ましたか	-11.3328
間隔	-11.3329
を認識し	-11.333
ケール	-11.333
▁Gr	-11.333
デラウェア州	-11.333
利点がある	-11.3331
開催されている	-11.3331
の大半は	-11.3334
育	-11.3335
を満たし	-11.3342
を出した	-11.3342
gal	-11.3344
帰り	-11.3345
安全で	-11.3346
パラグラフ	-11.3348
は野生	-11.3349
操	-11.335
温暖	-11.3356
混ぜる	-11.3357
ハンク	-11.3357
▁Kafka	-11.336
ジア	-11.3362
を置き	-11.3363
折	-11.3363
不安定	-11.3364
巡	-11.3364
提示され	-11.3364
ペアの	-11.3364
360	-11.3365
大衆	-11.3365
▁Service	-11.3365
駆動	-11.3369
コスタリカ	-11.3369
題	-11.337
クラウ	-11.337
バウンド	-11.337
既存	-11.337
入手可能	-11.337
チェコ共和国	-11.337
安全保障	-11.3371
公務員	-11.3372
アゼルバイジャン	-11.3372
泥	-11.3373
十字	-11.3373
展望台	-11.3373
喪失	-11.3373
を抜き	-11.3373
最小限	-11.3373
大阪	-11.3373
キャバリアーズ	-11.3373
雄	-11.3373
レッスン	-11.3373
盾	-11.3373
独裁	-11.3373
蛇	-11.3373
イノベーション	-11.3373
ベンチャーキャピタル	-11.3373
メンフィス	-11.3373
キャベツ	-11.3373
ヘミングウェイ	-11.3373
柔術	-11.3373
即興	-11.3374
BERT	-11.3374
キャッシュフロー	-11.3374
バニラ	-11.3374
槍	-11.3374
過酷な	-11.3374
ギネス世界記録	-11.3374
と引き換えに	-11.3374
まさに	-11.3374
操縦	-11.3374
ムーブメント	-11.3374
鉢	-11.3374
ハドソン	-11.3374
刑務所	-11.3374
との関連	-11.3374
エコシステム	-11.3374
死ぬ	-11.3374
配偶者	-11.3374
Fearless	-11.3374
均等	-11.3374
武装	-11.3374
舵	-11.3374
寮	-11.3374
ウクレレ	-11.3374
救世軍	-11.3374
霧	-11.3374
▁27001	-11.3374
重複	-11.3374
▁こちらも	-11.3374
注ぎ	-11.3374
サイケデリック	-11.3374
ɾ	-11.3374
JavaScript	-11.3374
とは別に	-11.3374
醸造所	-11.3374
フレッシュ	-11.3374
MEN	-11.3374
お祝い	-11.3374
スタンダード	-11.3374
BookCorpus	-11.3374
使命	-11.3374
住居	-11.3374
記者会見	-11.3374
トカゲ	-11.3374
フラワー	-11.3374
済み	-11.3375
ナンバーワン	-11.3375
数十億以上の	-11.3375
君主	-11.3375
チューリップ	-11.3375
イデオロギー	-11.3375
交配	-11.3375
主権国家	-11.3375
予言	-11.3375
にかけ	-11.3375
バハマ	-11.3375
安心	-11.3375
ジェシカ	-11.3376
名前付き	-11.3376
起動	-11.3376
とはどういう意味	-11.3376
テンプル	-11.3376
が入っている	-11.3376
チャーチ	-11.3376
座席	-11.3377
UVA	-11.3377
ブルックリン	-11.3377
ケベック州	-11.3377
いう	-11.3377
ペドロ	-11.3377
サンアントニオ	-11.3377
モーリス	-11.3377
シャムロック	-11.3378
は不明である	-11.3378
標高は	-11.3378
ボールを打つ	-11.3378
プロサッカー選手	-11.3378
の例である	-11.3378
お茶	-11.3378
勢い	-11.3379
ランニングバック	-11.3379
行使	-11.338
おうと	-11.338
グレッグ	-11.338
必要があった	-11.338
スーツ	-11.338
スティーブンソン	-11.338
スリラー	-11.3381
集中力	-11.3381
果た	-11.3382
葉巻	-11.3382
ことが知られている	-11.3382
作れる	-11.3382
時々	-11.3383
ATM	-11.3383
ゴメス	-11.3383
1882	-11.3383
ジョンストン	-11.3383
クラッカー	-11.3384
サンダー	-11.3384
北アイルランド	-11.3384
ルーサー	-11.3384
世界最古の	-11.3385
にはいくつの	-11.3385
タオル	-11.3385
に触れる	-11.3385
ステイ	-11.3385
MIT	-11.3386
クルミ	-11.3386
ロマンス	-11.3386
賞を受賞し	-11.3386
エミリー	-11.3387
を楽しんでいる	-11.3388
先行	-11.3389
黄色い	-11.3389
ウォルトン	-11.3389
ランダムな	-11.3389
を与えてくれる	-11.339
一見	-11.3392
ラード	-11.3392
ユタ	-11.3393
埋め	-11.3393
ればいい	-11.3393
をどう	-11.3394
に挑戦する	-11.3394
どうやって	-11.3394
ワース	-11.3396
ストーンズ	-11.3396
RA	-11.3399
構造化	-11.3399
スキャン	-11.3399
1901	-11.3399
HDI	-11.3399
1872	-11.34
kW	-11.34
40%	-11.3402
を鍛え	-11.3403
カイル	-11.3404
を強化し	-11.3404
国際試合	-11.3404
場所である	-11.3405
アクア	-11.3406
人目	-11.3407
ビーム	-11.3407
West	-11.3407
し続ける	-11.3412
タージ	-11.3413
赤色	-11.3413
引き出し	-11.3413
トマ	-11.3413
Ca	-11.3413
テリー	-11.3413
地区にある	-11.3414
貴重な	-11.3414
ショウ	-11.3415
違いがある	-11.3415
の間にある	-11.3416
風力	-11.3416
を担当した	-11.3416
器官	-11.3419
呼ばれる	-11.3419
スティーブンス	-11.342
ルシア	-11.3421
この種の	-11.3422
付きの	-11.3423
設立した	-11.3423
息を	-11.3425
を指している	-11.3427
結婚する	-11.3427
に所属している	-11.3428
州政府	-11.3432
モモ	-11.3432
が必要になる	-11.3434
進んで	-11.3435
に投資する	-11.3435
劇的に	-11.3437
賞賛	-11.3438
たもの	-11.3439
アーク	-11.3442
無限の	-11.3443
日本語	-11.3444
定数	-11.3445
を遂げた	-11.3446
を開いた	-11.3446
借り	-11.3447
取締役	-11.345
も同じ	-11.345
社会主義	-11.3453
場合があります	-11.3453
に最も近い	-11.3454
ズベリー	-11.3455
システムである	-11.3455
あなたを	-11.3457
説得	-11.346
ルビー	-11.3461
に輝いた	-11.3462
せた	-11.3463
モリス	-11.3469
送金	-11.3469
に焦点を当てる	-11.347
有益	-11.3471
ウラン	-11.3473
であるのに対し	-11.3473
壊れた	-11.3473
シール	-11.3476
半球	-11.3477
完走	-11.3477
クン	-11.3482
SN	-11.3483
得る	-11.3485
プラグ	-11.3487
選ぶ	-11.3487
視覚的	-11.3488
スカリー	-11.3491
知らせ	-11.3492
LE	-11.3493
関係を築く	-11.3494
洗練された	-11.3496
ドロップ	-11.3496
がいくつか	-11.3497
多数	-11.3503
代表チーム	-11.3503
セガは	-11.3503
様	-11.3503
イチジクは	-11.3505
として機能し	-11.3506
▁もちろん	-11.3506
ーネ	-11.3507
と改名された	-11.3509
を立ち上げた	-11.3509
梁	-11.351
できるため	-11.351
人気を博した	-11.351
の女神	-11.3512
捨て	-11.3513
使用量	-11.3518
競争力	-11.352
トゥル	-11.352
すべての人	-11.3521
動的	-11.3522
を取得する	-11.3523
アリー	-11.3523
に接続され	-11.3526
が好きで	-11.3527
1791	-11.3529
ラックス	-11.3529
を取り入れ	-11.353
oc	-11.3534
を超えて	-11.3534
ビーズ	-11.3534
(1994	-11.3535
でありながら	-11.3538
対立する	-11.3541
微生物	-11.3543
モデルである	-11.3543
識別	-11.3544
オレ	-11.3545
国債	-11.3552
てもいい	-11.3552
していなかった	-11.3553
方法だ	-11.3553
寒	-11.3555
ンドラ	-11.3561
信者	-11.3567
見せる	-11.3568
を続ける	-11.3572
主要都市	-11.3574
夏休み	-11.3578
開発され	-11.3579
意味を持つ	-11.3581
を大量に	-11.3585
る方法	-11.3587
秘密の	-11.3588
暑く	-11.3589
学ぶ	-11.359
呼ばれ	-11.3592
受賞した	-11.3592
バルブ	-11.3594
と考えられ	-11.3594
で作られる	-11.3596
つのグループ	-11.3598
歳まで	-11.3599
文章から	-11.3605
テージ	-11.3607
遺伝学	-11.3611
ロッ	-11.3614
ギリシャ語	-11.3619
体内の	-11.3621
Go	-11.3621
プロデュース	-11.3633
ルーツ	-11.3635
就任	-11.3636
議	-11.3636
テネシー	-11.3639
1820	-11.3639
ペイン	-11.364
だという	-11.364
ual	-11.3642
911	-11.3643
を調査し	-11.3644
実験的	-11.3644
▁クリケットは	-11.3646
チル	-11.3647
out	-11.3649
便利な	-11.365
最多の	-11.3654
リノ	-11.3654
ロードバイク	-11.3655
に成功した	-11.366
low	-11.3662
月までに	-11.3663
我々は	-11.3666
与え	-11.3667
VI	-11.3672
発症	-11.3672
が可能	-11.3672
学者たちは	-11.3673
年後の	-11.3675
ッグ	-11.3677
の理解	-11.3677
速度で	-11.3678
ために設計された	-11.368
命名	-11.3682
で最も古い	-11.3682
Bar	-11.3682
ノースカロライナ	-11.3683
長方形	-11.3684
04	-11.3685
信号を	-11.3689
継続的に	-11.3693
トロール	-11.3693
tra	-11.3697
平ら	-11.3698
に広まった	-11.37
name	-11.3703
万ポンド	-11.3704
ルーカスは	-11.3704
選挙人	-11.3706
研究開発	-11.3708
西アフリカ	-11.3709
La	-11.371
ニャー	-11.371
の割合	-11.371
ノート	-11.3711
fi	-11.3711
考古学	-11.3712
より広い	-11.3714
米軍	-11.3716
人気を博し	-11.3719
コカ	-11.3719
を実現する	-11.3723
スポーツカー	-11.3728
エレクトロニクス	-11.3729
に初めて	-11.3729
社名	-11.3731
に依存し	-11.3731
まで続く	-11.3735
そうでない	-11.3736
書いてください	-11.3736
のほとんどを	-11.3739
共演	-11.3742
うつ病	-11.3742
孤立	-11.3742
異なり	-11.3742
仕	-11.3742
開幕	-11.3743
習得	-11.3745
それ以前の	-11.3745
チャイ	-11.3745
設	-11.3746
戦士	-11.3751
因	-11.3751
ラトビア	-11.3754
バール	-11.3755
駆	-11.3755
ネーション	-11.3756
多額の	-11.3756
このような能力は	-11.3756
に至るまで	-11.3756
ゴッホ	-11.3757
銘柄	-11.3757
オクラホマ	-11.3757
イエメン	-11.3757
マシュー	-11.3757
凝縮	-11.3757
核融合	-11.3757
₹	-11.3757
奴隷制	-11.3757
コスモス	-11.3757
カルシウム	-11.3757
肝	-11.3758
ブーメラン	-11.3758
冬季オリンピック	-11.3758
重大な	-11.3758
亀	-11.3758
奨学金	-11.3758
クロロフィル	-11.3758
解決すべき問題	-11.3758
称号	-11.3758
を要求する	-11.3758
リレーショナル	-11.3758
ʁ	-11.3758
瞬く間に	-11.3758
1/4	-11.3758
医薬品	-11.3758
シャルドネ	-11.3758
アスレチック	-11.3758
ニュートラル	-11.3758
に影響する	-11.3758
ブロードウェイ	-11.3758
枕	-11.3758
の台頭	-11.3758
スマート	-11.3758
泳ぎ	-11.3758
測量	-11.3758
ノバク	-11.3758
婦	-11.3758
アタリ	-11.3758
生じた	-11.3758
アベニュー	-11.3758
ファミコン	-11.3758
称賛	-11.3758
起こりうる	-11.3758
を含み	-11.3758
カナディアン	-11.3758
キャピトル	-11.3758
ˌ	-11.3758
岬	-11.3758
海王星	-11.3758
н	-11.3759
欠かせない	-11.3759
レスポンス	-11.3759
蜂蜜	-11.3759
GitHub	-11.3759
ن	-11.3759
と提携し	-11.3759
ディフェンディング	-11.3759
引っ越し	-11.3759
ワイヤレス	-11.3759
アップデート	-11.3759
きれいに	-11.3759
天井	-11.3759
夫妻	-11.3759
コモドゥス	-11.3759
シナモン	-11.3759
と定義している	-11.3759
廃止された	-11.3759
د	-11.3759
紫外線	-11.3759
貨物	-11.3759
相続	-11.3759
レッドソックス	-11.3759
美しく	-11.3759
鉛	-11.3759
堅	-11.3759
エレクトリック	-11.3759
レンズ豆	-11.3759
カレッジで	-11.3759
温室効果ガス	-11.3759
散乱	-11.376
ナトリウム	-11.376
確率分布	-11.376
偶数	-11.376
Blue	-11.376
が最も多い	-11.376
と結論づけ	-11.376
はずです	-11.376
ハムレット	-11.376
体操	-11.376
悪魔	-11.376
地球温暖化	-11.376
スイム	-11.376
子育て	-11.376
裏庭	-11.376
調節	-11.376
本質的に	-11.376
振動	-11.376
セーフティカー	-11.376
GPU	-11.3761
CRM	-11.3761
クマムシ	-11.3761
支流	-11.3761
必要に応じて	-11.3761
虫歯	-11.3761
地殻	-11.3761
バレエ	-11.3761
ファーストクラス	-11.3761
ベンダー	-11.3761
と題された	-11.3761
酸性	-11.3762
].[	-11.3762
ジェイソン	-11.3762
亜鉛	-11.3762
プレミアム	-11.3762
通知	-11.3763
不可	-11.3763
フォーラム	-11.3763
金融商品	-11.3763
低コスト	-11.3763
共通点	-11.3763
Book	-11.3763
総会	-11.3763
ダッジ	-11.3764
に関する研究	-11.3764
ハッシュ	-11.3764
ホームレス	-11.3764
乗り物	-11.3764
即座に	-11.3764
見なされ	-11.3765
奴隷制度	-11.3765
テーマパーク	-11.3766
熱心な	-11.3766
配線	-11.3766
最善の方法	-11.3766
が加えられ	-11.3766
を正式に	-11.3767
ロッジ	-11.3767
クレイグ	-11.3768
を通	-11.3768
社員	-11.3768
ように設計されている	-11.3768
ボーイ	-11.3769
8211	-11.3769
につき	-11.3769
に満ちた	-11.377
配分	-11.377
オスマン	-11.377
サチン	-11.3771
マグロ	-11.3771
ニク	-11.3772
スローガン	-11.3772
ジャーマン	-11.3772
red	-11.3773
青色	-11.3774
フェルド	-11.3774
影響を受ける	-11.3774
引力	-11.3774
取り付け	-11.3775
医者	-11.3776
に関する一連の	-11.3776
全身	-11.3776
▁以下を	-11.3777
労働力	-11.3777
ベック	-11.3778
生産者	-11.3778
の証拠	-11.3779
止め	-11.378
ライク	-11.3783
無敗	-11.3783
北東部の	-11.3784
国外	-11.3786
スポーツイベント	-11.3787
地理的な	-11.3787
ザクロ	-11.3788
写真家	-11.3788
を教える	-11.3789
ピール	-11.3789
ドローン	-11.3791
として働き	-11.3791
保持している	-11.3791
によって書かれた	-11.3793
選択肢がある	-11.3793
可能性があり	-11.3793
(2010	-11.3799
印象的な	-11.3799
ペレス	-11.3801
を擁し	-11.3802
グレ	-11.3803
州の州都	-11.3803
ATV	-11.3804
ギン	-11.3805
を支配する	-11.3807
ダウンタウン	-11.3809
恋人	-11.3809
過ごした	-11.3809
に近づく	-11.381
の典型的な	-11.381
1899	-11.381
を研究し	-11.3814
するような	-11.3817
(2004	-11.3818
Da	-11.3818
が大好きだ	-11.3819
母親の	-11.3819
正義	-11.382
が出た	-11.382
を教えて	-11.3821
教育者	-11.3821
提供している	-11.3822
バリア	-11.3822
の夜	-11.3823
が来	-11.3823
ファイルシステム	-11.3823
引き下げ	-11.3824
ある日	-11.3824
香港は	-11.3826
した最初の	-11.3827
149	-11.3828
自由な	-11.3829
の終わりに	-11.383
ることができます	-11.3831
ən	-11.3832
金持ち	-11.3837
6.5	-11.3838
ドク	-11.3841
北側	-11.3844
ワークショップ	-11.3846
ニシ	-11.3847
両手	-11.3848
どんなに	-11.3849
方法論	-11.3851
亜	-11.3854
何ですか	-11.3856
聞こえ	-11.3857
フォーマットで	-11.3858
てはならない	-11.386
デコ	-11.3861
ワンス	-11.3863
下位	-11.3864
しないこと	-11.3865
創設され	-11.3866
買う	-11.3872
その代わりに	-11.3875
風味の	-11.3879
トゥール	-11.388
相手が	-11.3881
つの方法	-11.3881
この地域の	-11.3882
が必要で	-11.3883
の象徴	-11.3884
が搭載され	-11.3888
タブ	-11.3888
で最も重要な	-11.3893
目的のために	-11.3895
カサ	-11.3897
中世の	-11.39
肉体的	-11.3906
アメリカにおける	-11.3907
異常	-11.3908
抽出する	-11.3911
▁1,	-11.3918
略	-11.3919
全米の	-11.3921
投票で	-11.3921
卒業後	-11.3922
サッカークラブ	-11.3924
を殺す	-11.3925
政治家で	-11.3927
すべきである	-11.3931
教師ありの	-11.3931
アニス	-11.3931
を避けるため	-11.3932
450	-11.3934
はありません	-11.3934
このシリーズは	-11.3935
グラー	-11.3937
を落とし	-11.3939
ないため	-11.3939
世紀後半には	-11.3939
国語	-11.3939
.8%	-11.3943
アクセスできる	-11.3949
▁天然水素	-11.395
昇格	-11.3951
の地位	-11.3952
の初代	-11.3952
語源	-11.3952
シャーク	-11.3953
タイトルを獲得し	-11.3958
ブロン	-11.3958
使用することができる	-11.3962
0%	-11.3963
▁13.	-11.3963
バレ	-11.3963
ギリシャ語の	-11.3964
ったりする	-11.3964
ワシ	-11.3965
で行う	-11.3965
IE	-11.3976
を供給する	-11.3978
南インドの	-11.3978
調べ	-11.3979
こともあるが	-11.3979
脱退	-11.3979
はいくつかある	-11.3983
年代半ば	-11.3984
複雑で	-11.3985
TO	-11.3985
意味で	-11.3991
レンジャーズ	-11.3992
への影響	-11.3992
正式	-11.3992
ミリーは	-11.3994
文化や	-11.3994
モンド	-11.3995
Vi	-11.3997
適している	-11.4002
の機会	-11.4007
導入され	-11.4008
男の子	-11.4008
に出演し	-11.401
数少ない	-11.4012
マインド	-11.4014
方法として	-11.4014
適切	-11.4017
解散	-11.4017
トゥルー	-11.4019
ことについて	-11.4021
に位置している	-11.4022
立法	-11.4024
ことに成功した	-11.4025
であることを示す	-11.4028
すぎた	-11.403
▁Too	-11.403
に入学し	-11.4031
人によって	-11.4032
の意	-11.4032
レイアウト	-11.4033
PI	-11.4033
もたらす	-11.4037
の販売	-11.4043
に進む	-11.4044
ていました	-11.4046
地球が	-11.4047
テク	-11.4047
人数	-11.4048
研究所の	-11.4049
感じる	-11.4054
となります	-11.4054
シリーズである	-11.4055
ins	-11.4058
可能であれば	-11.4058
同国	-11.4063
レフ	-11.4067
ジェファーソンは	-11.4068
軽減	-11.4072
購入者	-11.4072
従業員の	-11.4077
時間をかけて	-11.4078
0.0	-11.4079
クイーンズ	-11.4082
が発生した	-11.4082
が開催された	-11.4084
を示した	-11.4084
ニックス	-11.4087
マタ	-11.4089
トルコの	-11.409
が最適	-11.4091
日光	-11.4092
ビオ	-11.4092
ロスト	-11.4094
sta	-11.4095
ハッ	-11.4096
1,4	-11.4097
重視	-11.4097
だと考えている	-11.4098
その理由は	-11.4106
ゼー	-11.4106
人類は	-11.4108
恩恵	-11.4109
よく見られる	-11.4109
トレー	-11.411
Love	-11.4113
のメンバーとして	-11.4114
たことで	-11.4114
てみてください	-11.4115
多様	-11.4115
製造業	-11.4116
ということである	-11.4117
も使われる	-11.4118
に出かけ	-11.412
Sa	-11.4121
問題と	-11.4122
対抗	-11.4124
がないこと	-11.4125
アラバマ州	-11.4125
は決して	-11.4127
▁Sh	-11.4127
メジャー大会	-11.4133
マヤ	-11.4136
ポーク	-11.4137
いずれ	-11.4138
るよう	-11.414
使用し	-11.414
祭	-11.4142
パパ	-11.4142
アマ	-11.4143
を舞台に	-11.4143
以外に	-11.4143
MG	-11.4143
後半に	-11.4145
を作ること	-11.4149
イナゴ	-11.4149
とみなし	-11.415
否定的	-11.4151
会話を	-11.4153
人口は約	-11.4153
公表	-11.4153
秘	-11.4153
を考慮する	-11.4154
インク	-11.4154
駐	-11.4154
弧	-11.4155
芝	-11.4156
令	-11.4156
が完全に	-11.4157
疲労	-11.4157
レナード	-11.4157
デビルズ	-11.4157
モンゴメリー	-11.4157
パブリッシング	-11.4158
確立された	-11.4158
リチャーズ	-11.4158
コンシューマー	-11.4158
透	-11.4158
マッカートニー	-11.4158
招	-11.4158
エンターテイメント	-11.4158
光電効果	-11.4158
げっ歯類	-11.4158
アルジェリア	-11.4158
クリエイター	-11.4158
余裕	-11.4158
児童	-11.4158
トラフィック	-11.4158
の要求	-11.4158
シリコン	-11.4158
句	-11.4158
高層ビル	-11.4158
のんびり	-11.4158
トランスクリプトーム	-11.4158
熱帯低気圧	-11.4158
スルタン	-11.4158
ムガル帝国	-11.4158
テルグ語	-11.4158
トッテナム	-11.4158
余分な	-11.4158
傘	-11.4158
ダイヤル	-11.4158
枝	-11.4158
カエサル	-11.4158
パーカッション	-11.4158
ChatGPT	-11.4158
ヴォーカリスト	-11.4158
バッツマン	-11.4158
を連想させる	-11.4158
ケララ州	-11.4158
ワイナリー	-11.4158
平方フィート	-11.4158
格闘技	-11.4158
Twice	-11.4158
ガーデニング	-11.4158
パッシブ	-11.4158
プロンプティング	-11.4158
を救う	-11.4158
次の単語を予測する	-11.4158
降水量	-11.4158
農耕	-11.4158
ファイナンス	-11.4158
チュア	-11.4158
玄関	-11.4158
▁どの自動車メーカーが	-11.4158
ParOldGen	-11.4159
Metaspace	-11.4159
エルサレム	-11.4159
一貫した	-11.4159
Android	-11.4159
メソッド	-11.4159
忍耐	-11.4159
救急車	-11.4159
誤解	-11.4159
引っ張	-11.4159
映像	-11.4159
目覚め	-11.4159
壊滅的な	-11.4159
稼ぎ	-11.4159
舌	-11.4159
で破った	-11.4159
ストライキ	-11.4159
マグニチュード	-11.4159
起亜	-11.4159
評論家	-11.4159
サンプリング	-11.4159
欲望	-11.4159
尊敬	-11.4159
ステファニー	-11.4159
ittle	-11.4159
▁以下をそれぞれ	-11.416
解説	-11.416
資質	-11.416
に着手し	-11.416
柔らかい	-11.416
タイタン	-11.416
スタートアップ	-11.416
ハッキング	-11.416
銃器	-11.416
広めた	-11.416
サプライヤー	-11.416
と関連している	-11.416
家賃	-11.416
ウィンストン	-11.416
円周率	-11.416
ベアーズ	-11.416
開放	-11.416
アーノルド	-11.416
カウボーイズ	-11.416
スターバックス	-11.4161
間もなく	-11.4161
事象	-11.4161
電波	-11.4161
ライティング	-11.4161
NET	-11.4161
北極	-11.4161
7632	-11.4161
世紀初頭にかけて	-11.4161
灯台	-11.4161
長期的に	-11.4161
ニューラル言語モデル	-11.4161
法人化された	-11.4162
受動的な	-11.4162
パデュー	-11.4162
視聴率	-11.4162
人種差別	-11.4162
税制	-11.4162
へ行く	-11.4162
コネチカット州	-11.4162
機密	-11.4162
雄牛	-11.4162
▁/ˈ	-11.4162
混合物	-11.4162
ゲイツ	-11.4162
タックル	-11.4163
目標を達成する	-11.4163
通路	-11.4163
かどうか教えてください	-11.4163
条件下で	-11.4163
テキストプロンプト	-11.4163
出荷	-11.4164
プラネット	-11.4164
マルコム	-11.4164
マーフィー	-11.4165
学業	-11.4165
ルーベン	-11.4166
絞り	-11.4166
アメリカ独立戦争	-11.4166
コメディアン	-11.4166
私生活	-11.4166
スクラッチ	-11.4167
公正	-11.4167
対照的に	-11.4167
フレンズ	-11.4168
ドリル	-11.4168
平均寿命	-11.4168
後も	-11.4168
史上初の	-11.4169
出席し	-11.4169
HMS	-11.4169
そうとする	-11.417
疲れ	-11.4171
に達するまで	-11.4171
GSM	-11.4172
水深	-11.4172
書き留め	-11.4172
整理	-11.4172
1873	-11.4173
と推定され	-11.4173
_26	-11.4173
数回	-11.4173
情報セキュリティ	-11.4173
ベビー	-11.4173
レディー	-11.4174
手がけ	-11.4174
具体的には	-11.4175
ことを目的としている	-11.4175
ストリップ	-11.4175
SFO	-11.4176
ヒール	-11.4177
ブーム	-11.4177
ファイト	-11.4177
人格	-11.4177
ファニー	-11.4177
に出演した	-11.4177
英国で	-11.4178
の必要性	-11.4179
タブー	-11.418
を反映している	-11.4181
映画レビュー	-11.4181
年に発表された	-11.4181
1879	-11.4182
満たされ	-11.4183
日陰	-11.4184
心理学者	-11.4185
年にリリースされた	-11.4185
ハーン	-11.4188
メイド	-11.4188
メロン	-11.4189
ケニー	-11.4189
被害者	-11.4189
バッチ	-11.4189
から約	-11.419
ライナー	-11.419
しやすく	-11.4191
フィリップス	-11.4191
ドリンク	-11.4195
ラオス	-11.4195
中西部	-11.4196
ジョーンズと	-11.4197
実行される	-11.4197
ドメイン	-11.4198
動かし	-11.4203
眠る	-11.4204
名目	-11.4204
を挙げよ	-11.4206
それぞれ異なる	-11.4208
ことを示している	-11.4211
ハット	-11.4211
07	-11.4212
箇条書きで	-11.4214
を与えられた	-11.4215
という単語	-11.4218
コンマ	-11.4219
パース	-11.422
ガガ	-11.422
殺された	-11.4223
を披露	-11.4224
ローダー	-11.4224
の美しさ	-11.4225
タイムズ	-11.4228
民主党の	-11.423
高等教育	-11.423
が住んでいる	-11.4232
ich	-11.4232
パウ	-11.4233
失われた	-11.4234
グス	-11.4235
ボイ	-11.4238
製造された	-11.4239
優勝を果たし	-11.424
優勝チーム	-11.4244
計画を立てる	-11.4244
それから	-11.4245
を解決	-11.4246
キール	-11.4246
限られている	-11.4248
Hi	-11.4248
PM	-11.4249
音楽家	-11.4249
工作	-11.425
▁3,	-11.4251
(2020	-11.4251
▁Is	-11.4252
ミレ	-11.4253
のが難しい	-11.4256
NE	-11.4258
や行動	-11.4259
役立つ	-11.4262
セナ	-11.4262
開く	-11.4263
ガンジーは	-11.4264
に反対し	-11.4264
の成績	-11.4269
リベラ	-11.4271
授与され	-11.4273
確率論	-11.4275
共同体	-11.4275
回転させ	-11.4277
ted	-11.4281
で一番	-11.4281
出された	-11.4282
ているのか	-11.4282
銀行が	-11.4284
食品を	-11.4286
影響を受けている	-11.4293
の過程で	-11.4301
精神的な	-11.4302
テイク	-11.4304
br	-11.4305
を評価し	-11.4307
SL	-11.4308
増幅	-11.4314
ものから	-11.4315
前後	-11.4316
単独で	-11.4326
まるで	-11.4327
タスクで訓練され	-11.4329
大国	-11.433
にならない	-11.4331
記録された	-11.4331
ポルト	-11.4336
を保持する	-11.4336
例としては	-11.4336
バニー	-11.4346
キア	-11.4346
スタジアムで	-11.4346
を卒業し	-11.4348
登場	-11.4349
Hot	-11.435
を上回	-11.4352
ゴールを決め	-11.4355
ジョアン	-11.4355
考案した	-11.4357
ブレス	-11.4361
を達成するために	-11.4367
歳になる	-11.4371
存在しない	-11.4376
相談	-11.4376
oh	-11.4378
どれくらいの	-11.4378
ラウ	-11.4381
を付け	-11.4385
国際大会	-11.4386
説明している	-11.4388
を用いる	-11.4393
購入した	-11.4393
に使える	-11.4395
ata	-11.4396
サンダル	-11.4396
どうして	-11.4398
人の選手	-11.4401
フト	-11.4404
マスト	-11.4406
性的	-11.4407
Live	-11.4409
Bra	-11.441
万人から	-11.4411
ていれば	-11.4413
あなたに	-11.4413
供	-11.4416
から離れた	-11.4416
FM	-11.4421
に取り付け	-11.4421
を計画する	-11.4423
準々決勝で	-11.4423
190	-11.4424
フレイ	-11.4426
性のある	-11.443
(1999	-11.4437
タイヤの	-11.4437
を達成	-11.4438
若	-11.4438
倒れ	-11.4439
統制	-11.4443
マハー	-11.4443
の提供	-11.4443
デメリット	-11.4444
が導入された	-11.4447
アフリカで	-11.4448
年製	-11.445
東インド	-11.4451
PV	-11.4453
昇	-11.4453
最も長い	-11.4456
補完	-11.4458
他人の	-11.4459
打つ	-11.4461
ザック	-11.4462
を取得し	-11.4462
主演の	-11.4463
通過	-11.4466
を定義し	-11.4466
不満	-11.4466
を搭載し	-11.4467
普通	-11.4468
日常	-11.4471
護	-11.4471
オラ	-11.4477
に学習される	-11.4478
リグ	-11.448
ライカ	-11.4484
私たちに	-11.4484
El	-11.4486
計画を立て	-11.4488
を攻撃し	-11.4488
で起こった	-11.4496
書いている	-11.4496
のすぐ	-11.4497
の底	-11.4497
のひとつだ	-11.4497
ために使われる	-11.4498
河	-11.4498
デビューし	-11.4499
こともあった	-11.4499
示す	-11.45
有機	-11.4501
パイク	-11.4502
ance	-11.4506
チャンピオンズ	-11.4507
周り	-11.451
と言われ	-11.4513
内にある	-11.4514
メッセージを	-11.4515
を持った	-11.4518
を防ぐため	-11.4518
このシリーズ	-11.4518
に使われた	-11.4519
人であった	-11.4522
ソフトウェア開発	-11.4524
必要性	-11.4527
化され	-11.4527
あと	-11.4527
をとり	-11.4531
を抱え	-11.4536
』(2010	-11.4538
タンパ	-11.4538
に終わり	-11.4541
われている	-11.4541
青年	-11.4542
海岸沿い	-11.4543
チック	-11.4544
これまでの	-11.4545
分ほど	-11.4547
力学	-11.4547
敷地	-11.4549
できれば	-11.4549
を助けるために	-11.455
9,000	-11.455
の女王	-11.4552
高価	-11.4553
見学	-11.4553
主催	-11.4553
干	-11.4555
年ぶり	-11.4558
使用していた	-11.4558
弟子	-11.4561
が十分に	-11.4561
シンプル	-11.4562
ヨハネ	-11.4562
カジュアル	-11.4563
に再開する	-11.4564
▁Act	-11.4565
執着	-11.4568
飛行機で	-11.4569
シェン	-11.457
わけ	-11.457
造語	-11.457
を築き	-11.4571
最大級の	-11.4572
を除いて	-11.4572
次々と	-11.4573
スカンジナビア	-11.4573
噂	-11.4573
ファインチューニング	-11.4573
元の重みは	-11.4573
出力に接続する新しい重みの	-11.4573
を追求する	-11.4573
Open	-11.4574
我	-11.4574
柔らかく	-11.4574
持続可能な	-11.4574
こなす	-11.4574
起業家	-11.4574
ここ数年	-11.4574
停電	-11.4574
畑	-11.4574
停	-11.4574
既	-11.4574
ツイート	-11.4574
衣服	-11.4574
駆け	-11.4574
の導入	-11.4574
金曜日	-11.4575
エントロピー	-11.4575
をテーマにした	-11.4575
コンブチャ	-11.4575
モデルを微調整する	-11.4575
麺	-11.4575
の後任として	-11.4575
LSTM	-11.4575
ミネアポリス	-11.4575
electric	-11.4575
不快な	-11.4575
驚くべき	-11.4575
ダイレクト	-11.4575
SDLC	-11.4575
ب	-11.4575
継承	-11.4575
前日譚	-11.4575
薄明	-11.4575
ポテトチップス	-11.4575
赤外線	-11.4575
リオデジャネイロ	-11.4575
ワッフル	-11.4575
ガリレオ	-11.4575
焚き火	-11.4575
アジャイル	-11.4575
つま先	-11.4575
ν	-11.4575
バミューダ	-11.4575
チュラ	-11.4575
相互接続技術	-11.4575
アシモフ	-11.4575
と言える	-11.4575
マッドネス	-11.4575
にまつわる	-11.4575
アークテリクス	-11.4575
5743564	-11.4575
人間が生成した	-11.4575
麻	-11.4575
クライスラー	-11.4575
Taylor	-11.4575
闘争	-11.4575
タバコ	-11.4575
ي	-11.4575
根本的な	-11.4575
->57435	-11.4575
サバイバル	-11.4575
に匹敵する	-11.4575
α	-11.4575
パッカーズ	-11.4575
当事者	-11.4575
フラッグ	-11.4575
www	-11.4575
イエローストーン	-11.4575
中華人民共和国	-11.4575
いかなる	-11.4575
ダッシュボード	-11.4575
と語った	-11.4576
サボテン	-11.4576
カラカス	-11.4576
ال	-11.4576
と評した	-11.4576
画期的な	-11.4576
rgon	-11.4576
ブドウ畑	-11.4576
ちょうど	-11.4576
の一分野	-11.4576
ギニア	-11.4576
ゴルバチョフ	-11.4576
堆	-11.4576
マラヤーラム語	-11.4576
クランベリー	-11.4576
切断	-11.4576
提督	-11.4576
爆撃	-11.4576
遺言	-11.4576
デスクトップ	-11.4576
平方メートル	-11.4576
ギルモア	-11.4576
▁余り	-11.4576
水分補給	-11.4576
ガブリエル	-11.4576
社交	-11.4576
コストがかかる	-11.4576
インディペンデント	-11.4576
離散	-11.4576
ケルビン	-11.4576
お湯	-11.4576
史上最多の	-11.4576
室温	-11.4576
ショートヘア	-11.4576
フォーカス	-11.4577
骨格	-11.4577
ノックアウト	-11.4577
タレスは	-11.4577
プロイセン	-11.4577
質問応答	-11.4577
対立遺伝子	-11.4577
暴動	-11.4577
ワークロード	-11.4577
場所だ	-11.4577
の欠如	-11.4577
ナイトライフ	-11.4577
を担当する	-11.4577
ロマンチックな	-11.4578
エドガー	-11.4578
プリンター	-11.4578
シリンダー	-11.4578
装着	-11.4578
低温	-11.4578
真っ	-11.4578
->24	-11.4578
サファイア	-11.4578
センチメント分析タスク	-11.4578
呼び名	-11.4578
キャッツ	-11.4579
ブルーベリー	-11.4579
次世代	-11.4579
休息	-11.4579
に記載されている	-11.4579
外交政策	-11.4579
ウィンドウズ	-11.4579
パケット	-11.4579
マフィア	-11.458
不良	-11.458
ホールディング	-11.458
と感じる	-11.458
壁画	-11.458
チャット	-11.4581
主な目的は	-11.4581
enty	-11.4581
ハイキングコース	-11.4581
州知事	-11.4581
数兆	-11.4582
チャーチル	-11.4582
スプリングス	-11.4582
産地	-11.4582
追加トレーニング	-11.4583
と結婚した	-11.4583
友人と	-11.4583
まで遡る	-11.4583
ジャージ	-11.4583
ヘヴィ	-11.4584
ヒトラー	-11.4584
映画館	-11.4584
ルイジ	-11.4585
10,000	-11.4585
任天堂は	-11.4585
熱心	-11.4585
フランシスコ	-11.4585
旅行先	-11.4585
文化圏	-11.4586
セットアップ	-11.4586
結婚式	-11.4587
を破る	-11.4587
小さな町	-11.4587
カッター	-11.4588
ポンプ	-11.4588
戦場	-11.4589
曲げ	-11.4589
建築物	-11.4589
(2011	-11.459
その地域	-11.459
小規模な	-11.459
それ以外の	-11.4591
をもって	-11.4591
年に結成された	-11.4592
ハイカー	-11.4592
歳以上の	-11.4593
音楽ジャンル	-11.4594
身につけ	-11.4597
1876	-11.4597
ベリーズ	-11.4599
コンスタン	-11.4599
先進国	-11.46
デイリー	-11.4601
フェイス	-11.4602
ゲームプレイ	-11.4602
ニードル	-11.4605
シーズン終了後	-11.4606
争われ	-11.4607
最多優勝	-11.4608
メタン	-11.4608
当日	-11.4608
クローズ	-11.4609
スーパーカップ	-11.4609
ライオンズ	-11.4611
品目	-11.4612
ワールドカップで優勝した	-11.4612
に関連した	-11.4613
ポーズ	-11.4616
権威主義	-11.4618
スタンフォード大学	-11.462
タゴール	-11.462
を重視し	-11.4621
フン	-11.4621
を加えて	-11.4624
動作する	-11.4625
が比較的	-11.4628
構え	-11.4629
ek	-11.4632
行われている	-11.4632
を採用する	-11.4634
を支持した	-11.4635
をカバーする	-11.4636
奪われ	-11.4638
別れ	-11.4641
3/4	-11.4642
やかな	-11.4646
教師なし	-11.465
EX	-11.4651
方がいい	-11.4654
を運ぶ	-11.4655
を目的とした	-11.4658
生成される	-11.4658
安定性	-11.466
わせる	-11.4661
連絡	-11.4664
シャイ	-11.4669
Air	-11.4671
尋ねる	-11.4672
芸術的	-11.4675
に昇格した	-11.4677
を送っ	-11.4677
をリストアップし	-11.4678
越え	-11.4683
と言われる	-11.4683
(2007	-11.4683
キース	-11.4683
をカバーし	-11.4684
多くの種類の	-11.4684
ix	-11.4684
補完を提供する	-11.4684
再結成	-11.4685
を指導し	-11.4685
50,000	-11.4685
多様性	-11.4686
大きくなる	-11.4687
付近で	-11.4687
にあります	-11.4688
3,9	-11.4688
カレン	-11.4689
を生産する	-11.469
ひとり	-11.4692
よりも多くの	-11.4692
注ぐ	-11.4695
移動手段	-11.4696
her	-11.4699
で話されている	-11.4699
西ヨーロッパ	-11.4699
魔法の	-11.4702
行くことができる	-11.4707
の共同設立者	-11.4714
参加した	-11.4714
社会的な	-11.4718
最も長く	-11.4719
サービスを提供している	-11.472
年ごとに	-11.4721
NAB	-11.4724
を支配した	-11.4724
の回復	-11.4725
西ドイツ	-11.4725
テリ	-11.4726
てもらい	-11.4728
ミシガン	-11.4729
承認された	-11.4732
GO	-11.4733
小川	-11.4734
恋	-11.4736
の出現	-11.4739
合わせて	-11.4739
を保護し	-11.474
の統一	-11.4748
公的	-11.4749
を交換する	-11.4751
ジミ	-11.4753
劇的な	-11.4757
に任命され	-11.4757
に耐え	-11.4758
集め	-11.476
への道	-11.4762
ティナ	-11.4763
ロックス	-11.4764
年間最優秀	-11.4765
6.0	-11.4767
歴史的には	-11.4768
クレア	-11.4768
寄り	-11.4769
pro	-11.4771
Swi	-11.4773
ピク	-11.4774
tic	-11.4774
につながり	-11.4779
CT	-11.478
世紀半ばに	-11.478
▁Bi	-11.4781
理解する	-11.4782
クワ	-11.4782
▁出身地	-11.4789
にかける	-11.479
しないように	-11.4792
の完全な	-11.4792
大会である	-11.4796
海戦	-11.4797
を予測する	-11.48
世紀半ば	-11.48
の使い方	-11.4802
出される	-11.4805
の所有者	-11.4805
▁15.	-11.4807
創設	-11.4807
Pe	-11.4809
こともできます	-11.481
ネットワーキング	-11.4811
北東に	-11.4811
を信じ	-11.4813
シロ	-11.4815
バックス	-11.4815
より多く	-11.4816
の重さ	-11.4817
の誕生	-11.4821
違って	-11.4823
ストラトキャスターを	-11.4824
ないよう	-11.4825
当選	-11.483
ミリー	-11.4831
hat	-11.4834
何でも	-11.4835
調達	-11.4838
フック	-11.4839
の真ん中	-11.4845
Sun	-11.4845
が発売された	-11.4846
ボロ	-11.4846
UN	-11.4847
象徴	-11.4849
再利用	-11.485
位を獲得し	-11.4851
レノ	-11.4855
フロイドの	-11.4859
人だった	-11.486
レストランや	-11.4861
ていますか	-11.4863
シャラ	-11.4869
つながる	-11.487
を築く	-11.487
概要	-11.4872
ストリー	-11.4875
ワラ	-11.4876
構造的	-11.4878
一次	-11.4879
Mu	-11.4881
キャリアを通じて	-11.4881
に署名した	-11.4881
理由のひとつ	-11.4882
一歩	-11.4882
lay	-11.4883
ノス	-11.4887
になるには	-11.4887
に注ぐ	-11.4887
バブ	-11.489
を守り	-11.4891
が数多く	-11.4891
の頂上	-11.4892
app	-11.4893
を終え	-11.4893
煮	-11.4894
キリスト	-11.4899
遡	-11.49
次いで	-11.4904
^	-11.4908
迎え	-11.4911
彼らに	-11.4912
に住んで	-11.4913
名前の由来	-11.4913
北インド	-11.4916
ダメージ	-11.4917
動力	-11.4918
信じる	-11.492
取締役会	-11.4921
の複雑さ	-11.4923
優勝している	-11.4924
ことを目的とした	-11.493
哲学的	-11.4934
効果を	-11.4936
Do	-11.4944
後退	-11.4944
を目指した	-11.4949
ail	-11.4951
AA	-11.4952
活性	-11.4954
シャク	-11.4955
と感じ	-11.4956
ハミルトンは	-11.4959
博士号	-11.4961
ものとなった	-11.4965
ッシャー	-11.4965
することだ	-11.4966
トーナメントで	-11.4977
訪れるべき	-11.4978
を組み合わせて	-11.4978
関	-11.4979
柔軟	-11.4981
(1977	-11.4981
を取	-11.4982
ler	-11.4985
に適用される	-11.4985
全英	-11.4985
先進	-11.4988
nes	-11.4989
ッソ	-11.4989
を呼び	-11.4991
レジャー	-11.4993
似ているが	-11.4993
ポピュラー	-11.4996
は存在しない	-11.4996
ることがある	-11.4996
野生	-11.4999
出生	-11.4999
決めた	-11.5
束	-11.5001
クリエイティブ	-11.5002
にランクイン	-11.5002
投球	-11.5003
わせ	-11.5003
利用する	-11.5004
ドミニカ共和国	-11.5005
モンタナ	-11.5005
展	-11.5006
磨	-11.5007
について話し	-11.5007
併	-11.5008
普	-11.5008
コラボレーション	-11.5008
御	-11.5008
講義	-11.5009
オセアニア	-11.5009
予測不可能な	-11.5009
新規	-11.5009
できず	-11.5009
を促進し	-11.5009
驚異的な	-11.5009
葡	-11.5009
舎	-11.5009
摘	-11.5009
カジノ	-11.5009
検出器	-11.5009
ニューオーリンズ	-11.5009
考案された	-11.501
危険因子	-11.501
シグネチャー	-11.501
奉仕	-11.501
ブラザーズ	-11.501
バグダッド	-11.501
晴天	-11.501
を手がけた	-11.501
スモーキー	-11.501
OLTP	-11.501
枢機卿	-11.501
斧	-11.501
から逃れ	-11.501
に共通する	-11.501
バイナリサーチ	-11.501
ロペス	-11.501
右利き	-11.501
規範	-11.501
絶滅危惧種	-11.501
Black	-11.501
縦	-11.501
LinkedIn	-11.501
ストーブ	-11.501
所要時間	-11.501
山岳地帯	-11.501
ウェイトリフティング	-11.501
sqrt	-11.501
天王星	-11.501
ギブス	-11.501
エンパイア	-11.501
ドキュメント	-11.501
PlayStation	-11.501
レイチェル	-11.501
ワイドレシーバー	-11.501
ボランティア	-11.501
インセンティブ	-11.501
模様	-11.501
サインフェルド	-11.501
を歴任	-11.501
シンプソン	-11.501
地中海沿岸	-11.501
申	-11.501
ストレッチ	-11.501
に移った	-11.501
難易度	-11.501
を擁する	-11.501
子供の頃	-11.501
隔離	-11.501
労働組合	-11.501
暴風雨	-11.501
を失い	-11.501
キャプチャ	-11.501
祝福	-11.501
フォルクスワーゲン	-11.501
ラジャスタン	-11.501
ボルネオ	-11.501
有限	-11.501
生き残る	-11.501
コンサルティング	-11.501
撮	-11.501
好まれる	-11.501
ジャッキー	-11.501
ホッキョクグマ	-11.501
極低温	-11.501
審査員	-11.501
テンション	-11.5011
敬	-11.5011
パフォーマー	-11.5011
ギャラクシー	-11.5011
音響	-11.5011
に渡り	-11.5011
で覆われ	-11.5011
指揮官	-11.5011
国務長官	-11.5011
友情	-11.5011
ベンチプレス	-11.5011
怪物	-11.5011
ダートマス	-11.5011
鹿	-11.5011
モナコ	-11.5011
クライマー	-11.5011
ウッドストック	-11.5011
を楽しんだり	-11.5011
在住	-11.5011
電圧	-11.5011
アンドロイド	-11.5011
注意深く	-11.5012
年の大統領選挙で	-11.5012
ゼウス	-11.5012
一致している	-11.5012
ヤコブ	-11.5012
を創設した	-11.5012
▁Now	-11.5012
世界有数の	-11.5012
多種多様な	-11.5013
端末	-11.5013
雨が降	-11.5013
ポップコーン	-11.5013
ロビンソン	-11.5013
エドソン	-11.5013
強固な	-11.5013
狩り	-11.5013
ロブスター	-11.5013
英連邦	-11.5013
中国共産党	-11.5013
バイオリン	-11.5014
ことを指す	-11.5014
テレサ	-11.5014
ライディング	-11.5014
それ自体	-11.5014
光速	-11.5014
と比べて	-11.5014
フィット	-11.5014
石器	-11.5015
ゲージ	-11.5015
信頼性の高い	-11.5015
対決	-11.5015
幅広く	-11.5015
この番組は	-11.5015
歴史学	-11.5016
音節	-11.5016
製造した	-11.5016
チーター	-11.5016
バジル	-11.5016
アルゴン	-11.5017
ドイツ空軍	-11.5017
まったく異なる	-11.5017
と共同で	-11.5017
ヒューバー	-11.5017
ペダル	-11.5017
SOC	-11.5017
ミット	-11.5017
中継	-11.5018
USB	-11.5018
メモリアル	-11.5018
Yes	-11.5018
それ以降	-11.5018
ホークス	-11.5018
マイルストーン	-11.5018
が入った	-11.5019
スノウ	-11.5019
ラベンダー	-11.5019
ファーレイ	-11.5019
イギリス領	-11.5019
双方	-11.502
トムソン	-11.502
グレイシー	-11.5021
ガボン	-11.5022
アメリカ南北戦争	-11.5022
によって運営されている	-11.5022
技法	-11.5022
フォールズ	-11.5023
一日中	-11.5023
プラハ	-11.5023
実証した	-11.5024
長所	-11.5024
ガールズ	-11.5024
グー	-11.5024
ロバートソン	-11.5026
ガット	-11.5026
たりすることができる	-11.5026
にはどうしたらいい	-11.5026
集約	-11.5026
効果がある	-11.5027
チーフス	-11.5027
数ショット	-11.5027
クマール	-11.5027
スカル	-11.5027
ローガン	-11.5028
良い方法	-11.5028
ブラインド	-11.5028
1885	-11.5029
アディ	-11.5029
大統領就任	-11.503
マシューズ	-11.503
ベール	-11.5031
2.1	-11.5031
を作ったり	-11.5032
に移住した	-11.5032
モーターズ	-11.5032
に面している	-11.5036
を見つけることができる	-11.5037
マハル	-11.5037
赤道	-11.5038
性別	-11.5038
運転手	-11.5038
を多く含	-11.5038
と推定される	-11.5038
有益な	-11.5039
の作品を	-11.504
を吸収する	-11.504
が設立され	-11.5041
政府機関	-11.5043
ライバル関係	-11.5043
アニ	-11.5044
として機能する	-11.5046
中米	-11.5047
掘り	-11.5053
401	-11.5054
と信じている	-11.5054
かどうかを確認する	-11.5054
を強化する	-11.5056
ソニック	-11.506
経営者	-11.506
宗教的な	-11.506
支部	-11.5062
チームメンバー	-11.5063
ペリー	-11.5063
タック	-11.5066
が導入され	-11.5068
の一部となった	-11.5068
ミート	-11.5068
天文学者	-11.5069
支配的な	-11.5076
野球チーム	-11.5076
本社は	-11.5079
として設立された	-11.5079
郡にある	-11.508
ルナ	-11.508
だと感じ	-11.5081
自宅の	-11.5082
が追加され	-11.5082
グランドマスター	-11.5082
フアン	-11.5084
すべきか	-11.5084
意義	-11.5086
ニコ	-11.5087
センス	-11.5087
pl	-11.5088
▁Gu	-11.509
of	-11.509
マルティ	-11.5091
ということは	-11.5092
My	-11.5093
に到着し	-11.5093
サール	-11.5095
の運営	-11.5098
契約を結んだ	-11.5099
ことはなかった	-11.5099
この現象	-11.51
が存在し	-11.5101
続けること	-11.5102
以下のように	-11.5103
江は	-11.5104
9.0	-11.5106
選手として	-11.5106
ゴールを決めた	-11.5108
キリ	-11.5111
レッドブル	-11.5111
ハール	-11.5113
に強い	-11.5113
と合併し	-11.5115
トーン	-11.5116
売れ	-11.5116
が見られる	-11.5116
を記述する	-11.5117
月中旬に	-11.5118
名を冠した	-11.5124
トラブル	-11.5126
で放送された	-11.5133
のロゴ	-11.5137
For	-11.5139
を設定し	-11.514
出口	-11.514
sch	-11.5141
攻撃的な	-11.5146
スキッ	-11.5147
外に出	-11.5158
を行うことができる	-11.5159
サッカーリーグ	-11.5159
世界最高	-11.5163
ことを好む	-11.5166
を迎える	-11.5166
を報告し	-11.5167
うる	-11.5169
-11	-11.5176
南インド	-11.5182
ボア	-11.5184
グマ	-11.5188
でプレーしている	-11.5188
るだろう	-11.5189
人の子供	-11.519
専用の	-11.5199
ice	-11.5199
活動している	-11.52
ことを発見した	-11.5204
の和	-11.5204
のプロット	-11.5206
分類される	-11.5206
荒れ	-11.5207
を駆使して	-11.5209
レストランで	-11.5209
ドーサ	-11.5209
4.0	-11.5209
ノヴァ	-11.5209
毎	-11.5216
を歩く	-11.5218
シングルスで	-11.5222
えば	-11.5223
キャン	-11.523
で学んだ	-11.5231
Bu	-11.5234
を引き起こす可能性がある	-11.5238
ティカ	-11.524
クレディ	-11.5241
も多く	-11.5243
静かに	-11.5246
年のアメリカ	-11.5248
債	-11.5249
提供した	-11.5252
の一部であった	-11.5255
の周りに	-11.5256
そうとし	-11.5258
新世界	-11.5259
の息子である	-11.5263
者もいる	-11.5273
が中心	-11.5273
見ている	-11.5277
ting	-11.5279
仕事をし	-11.5279
唯一	-11.5279
金融サービス	-11.5281
司	-11.5283
den	-11.5283
リッター	-11.5284
アドルフ	-11.5287
リウス	-11.5291
アリア	-11.5292
の一人とみなされてい	-11.5292
含む	-11.5296
何回	-11.5297
がいない	-11.5301
一つ	-11.5301
夏には	-11.5303
回転する	-11.5309
わなければならない	-11.531
抜き出しなさい	-11.5311
ラジャ	-11.5312
を達成し	-11.5313
を確実に	-11.5314
周りの	-11.5315
サリ	-11.5315
度目	-11.5316
が見える	-11.5317
主な理由	-11.5318
▁6)	-11.5319
▁2,	-11.532
リップ	-11.532
授与された	-11.5329
方法を教えてください	-11.533
参加している	-11.5334
を考慮して	-11.5336
木の実	-11.5337
7.5	-11.5341
▁Se	-11.5347
ペイトリオッツは	-11.5352
戦争中	-11.5352
ゆっくり	-11.5352
デント	-11.5354
アウェイ	-11.5357
CR	-11.536
低下する	-11.536
抜粋する	-11.5366
Si	-11.537
カラス	-11.5371
終わる	-11.5373
su	-11.5376
を見せ	-11.5377
相手を	-11.5377
支払う	-11.5378
ost	-11.538
信じ	-11.538
クイ	-11.5383
を破壊し	-11.5386
ure	-11.539
を開ける	-11.5392
を立ち上げ	-11.5394
磁場	-11.5394
を供給し	-11.5394
追加された	-11.5399
American	-11.54
インターネット上	-11.5401
ヴァリ	-11.5401
に見舞われ	-11.5401
を監督した	-11.5401
もよい	-11.5402
として設立され	-11.5407
Th	-11.5416
シュリ	-11.5416
自伝	-11.542
均	-11.5421
健康的	-11.5423
プリンストン大学	-11.5424
に重点を置い	-11.5425
ゾー	-11.5426
祈	-11.5428
Le	-11.543
クリック	-11.5434
に入れて	-11.5435
ることになる	-11.5438
いくつかの重要な	-11.5438
解消	-11.544
農	-11.5442
正式名称	-11.5445
傾向があり	-11.5445
途	-11.5446
消滅	-11.5447
SG	-11.5447
ウィンター	-11.5447
ハイテク	-11.5453
退屈	-11.5454
330	-11.5454
荷	-11.5454
噴	-11.5454
数十億	-11.5455
選んだ	-11.5457
がないか	-11.5457
164	-11.5457
をリストアップする	-11.5458
モンテネグロ	-11.5459
ミャンマー	-11.5459
モルディブ	-11.5459
棄	-11.546
を果たす	-11.546
芝刈り機	-11.5461
ara	-11.5461
幸	-11.5461
歩兵	-11.5461
裂	-11.5461
ood	-11.5461
ヘルツェゴビナ	-11.5462
府	-11.5462
ピッチャー	-11.5462
に描かれた	-11.5462
講	-11.5463
ピクニック	-11.5463
縮	-11.5463
苦痛	-11.5463
韻	-11.5463
タイタニック	-11.5463
アラブ首長国連邦	-11.5463
財やサービス	-11.5463
ユトレヒト	-11.5463
につながっている	-11.5463
規律	-11.5464
オートメーション	-11.5464
札	-11.5464
削	-11.5464
胡椒	-11.5464
ゴシック	-11.5464
セレブリティ	-11.5464
を売り上げた	-11.5464
アノテーション	-11.5464
刊	-11.5464
モーツァルト	-11.5464
合衆国憲法	-11.5464
アトランティック	-11.5464
特有の	-11.5464
立法府	-11.5464
共産党	-11.5464
眼	-11.5464
ユネスコ	-11.5464
自閉症スペクトラム障害	-11.5464
非営利団体	-11.5464
兆候	-11.5464
温暖な気候	-11.5464
デュラント	-11.5464
修道院	-11.5464
ハーマイオニー	-11.5464
夜明け	-11.5464
最高技術責任者	-11.5464
に慣れ	-11.5464
オラクル	-11.5464
デュオ	-11.5464
沼	-11.5464
を促す	-11.5464
誤った	-11.5464
への移行	-11.5464
勇敢	-11.5464
細かく	-11.5464
Cloud	-11.5464
GNU	-11.5464
マルガリータ	-11.5464
郵便局	-11.5464
к	-11.5464
フェルナンド	-11.5464
金管楽器	-11.5464
鐘	-11.5464
到着数	-11.5464
▁Software	-11.5464
立方体	-11.5464
self	-11.5465
架	-11.5465
申し出	-11.5465
ा	-11.5465
クリスティアーノ	-11.5465
を制限し	-11.5465
姫	-11.5465
時間の経過とともに	-11.5465
َ	-11.5465
モニュメント	-11.5465
サンゴ礁	-11.5465
清	-11.5465
र	-11.5465
▁Park	-11.5465
アクセサリー	-11.5465
救済	-11.5465
iPad	-11.5465
蚊	-11.5465
バッカニアーズ	-11.5465
市販	-11.5465
就航	-11.5465
を引き受け	-11.5465
寝室	-11.5465
トロンボーン	-11.5465
(/ˌ	-11.5465
シグナル	-11.5465
表示される	-11.5465
と並行して	-11.5465
ユダヤ教	-11.5465
カンザスシティ	-11.5465
商標	-11.5465
ブラザース	-11.5465
理事	-11.5465
補償	-11.5465
算数	-11.5465
コリアンダー	-11.5465
ジェラルド	-11.5465
全部で	-11.5465
チーズバーガー	-11.5465
が住んでいた	-11.5465
円盤	-11.5465
スピンオフ	-11.5465
企画	-11.5465
フォト	-11.5465
丘陵地帯	-11.5465
年以上にわたって	-11.5466
賛成	-11.5466
インダストリ	-11.5466
コンパイラ	-11.5466
リカルド	-11.5466
セラピー	-11.5466
飛ば	-11.5466
抵当権	-11.5466
苦味	-11.5466
フェルメール	-11.5466
ユーモア	-11.5466
▁Well	-11.5466
原料	-11.5466
コミュニケーションをとる	-11.5466
古代エジプト	-11.5466
1871	-11.5466
ピエール	-11.5466
長編映画	-11.5466
トレーラー	-11.5466
歳未満	-11.5466
信条	-11.5466
有罪	-11.5466
ターンテーブル	-11.5466
スタンディング	-11.5466
運び	-11.5467
もう一度	-11.5467
メッセージング	-11.5467
モーニング	-11.5467
急性	-11.5467
奇数	-11.5467
ニューディール	-11.5467
広く使われている	-11.5467
メインストリーム	-11.5467
有害な	-11.5467
検索エンジン	-11.5467
ニューデリー	-11.5467
保険料	-11.5467
ウェストハム	-11.5468
ラマダン	-11.5468
週連続	-11.5468
に従い	-11.5468
微分	-11.5468
を横断する	-11.5468
幼い	-11.5468
オーバーヘッド	-11.5468
を最小限に抑える	-11.5469
に興味がある	-11.5469
カニエ	-11.5469
金融政策	-11.5469
こうすることで	-11.5469
フィンガー	-11.5469
何十	-11.5469
動いている	-11.547
取引所	-11.547
zo	-11.547
スパイシー	-11.547
ポジティブな	-11.547
ケネス	-11.5471
ステーション	-11.5471
を題材にした	-11.5471
のに役立った	-11.5472
血流	-11.5472
High	-11.5472
1,100	-11.5473
Good	-11.5473
リーバース	-11.5473
レーガン	-11.5473
に入っている	-11.5473
NFC	-11.5473
噴水	-11.5473
ヴォーン	-11.5473
タイタンズ	-11.5474
の間に生まれた	-11.5474
ヘッドセット	-11.5474
より高度な	-11.5475
モハン	-11.5475
パニック	-11.5475
分散型	-11.5475
低価格	-11.5475
王座	-11.5475
エルデン	-11.5475
ボーカル	-11.5475
水力発電	-11.5475
を排除する	-11.5476
救い	-11.5476
サングラス	-11.5476
有用な	-11.5476
フーバー	-11.5476
バイソン	-11.5477
ビクトリア州	-11.5477
掲載されている	-11.5478
デッドマン	-11.5478
右側	-11.5479
から解放され	-11.5479
残高	-11.5479
を確立した	-11.5479
母音	-11.5479
ガーフィールド	-11.548
サルサ	-11.548
クラウス	-11.548
1892	-11.5481
こなし	-11.5483
アッパー	-11.5483
悪用	-11.5483
1886	-11.5483
ヨーロッパ大陸	-11.5484
ヨークシャー	-11.5484
できる限り	-11.5484
0.2	-11.5484
▁次の文章から	-11.5485
他者	-11.5486
ピーマン	-11.5486
2,500	-11.5486
こうして	-11.5486
干し	-11.5487
専門的な	-11.5487
シュガー	-11.5489
に復帰した	-11.5489
が含まれていた	-11.5489
を倒す	-11.5489
コストコ	-11.549
ホモ	-11.5491
テニスプレーヤー	-11.5492
戦線	-11.5492
後者の	-11.5492
に直面し	-11.5494
ミクロ	-11.5494
.1%	-11.5495
のセカンド	-11.5495
HC	-11.5496
ley	-11.5497
1867	-11.5497
構造物	-11.5498
公社	-11.5498
大好きな	-11.5498
ネギ	-11.5499
スラブ	-11.55
弾き	-11.55
を共有している	-11.55
iv	-11.5504
を訪ね	-11.5504
の北東	-11.5505
に重点を置いている	-11.5505
離れ	-11.5505
1863	-11.5505
年半ば	-11.5506
汚れ	-11.5506
迅速	-11.5507
チャレンジャー	-11.5507
多くの国で	-11.5507
Ja	-11.5508
ディール	-11.5509
本当の	-11.5512
タイム誌	-11.5512
世界初の	-11.5513
ことを意図し	-11.5516
成立した	-11.5516
を無視し	-11.5518
サーフ	-11.5518
で死去	-11.5518
ガウ	-11.5518
を楽しめる	-11.5519
ズボン	-11.552
▁Entertainment	-11.552
nb	-11.5521
支払われる	-11.5524
わずかな	-11.5525
クラスター	-11.5526
スターズ	-11.5526
サケ	-11.5526
菌類	-11.5527
クエン	-11.5528
ミスター	-11.5529
1880	-11.5533
穴を開け	-11.5533
本拠地	-11.5534
でプレーしていた	-11.5534
生成され	-11.5535
インド料理	-11.5535
バロック	-11.5535
可能です	-11.5536
走ったり	-11.5537
に出場する	-11.5538
心理的	-11.5539
480	-11.554
アルト	-11.554
広い範囲	-11.5542
ゴマ	-11.5542
を必要としない	-11.5542
1,7	-11.5542
敗で	-11.5542
プレイス	-11.5543
流出	-11.5546
で使用された	-11.5547
失われ	-11.5547
可能だ	-11.5548
を刺激する	-11.5549
を可能にし	-11.555
エピ	-11.5551
継続的	-11.5552
ヴォル	-11.5553
を持っています	-11.5553
公国	-11.5553
するだけで	-11.5553
ブックス	-11.5555
は生きている	-11.5557
と書いている	-11.5557
体重を減らす	-11.5558
なっています	-11.5559
1850	-11.556
!"	-11.5564
を説明し	-11.5568
最もポピュラーな	-11.5569
を含める	-11.5569
度受賞し	-11.5569
8500	-11.557
を取り上げ	-11.5571
やすくなる	-11.5572
テストクリケット	-11.5573
いるのか	-11.5577
を征服した	-11.558
1821	-11.558
異なります	-11.5583
になったり	-11.5586
無料で	-11.559
3～4	-11.559
を構築し	-11.5593
連邦議会	-11.5594
に直面した	-11.5594
書いて	-11.5595
ラマー	-11.5595
1814	-11.5596
可能性があるため	-11.5598
!』	-11.56
port	-11.56
ink	-11.5608
パーム	-11.5613
選出された	-11.5614
に対抗するため	-11.5615
スタイルで	-11.5616
科学者たちは	-11.5617
民間人	-11.5618
起こり	-11.5619
記録を更新	-11.562
の気候は	-11.562
が磁気	-11.562
あれば	-11.5621
準々決勝	-11.5621
▁Hai	-11.5622
完了した	-11.5623
イギリス軍	-11.563
ルック	-11.563
が起こり	-11.5631
を横断し	-11.5633
が追加された	-11.5633
るような	-11.5637
電場	-11.5638
第二次世界大戦中の	-11.5638
と協力して	-11.5638
インド政府	-11.5639
短時間	-11.564
が行われている	-11.564
mon	-11.564
クオ	-11.5644
軍事的	-11.5646
パブ	-11.5647
に使用されている	-11.5648
2030	-11.5648
マグナ	-11.5648
つの大きな	-11.5649
セーブ	-11.5653
Cas	-11.5658
のが一般的だ	-11.5662
を観察し	-11.5663
その国	-11.5667
チョー	-11.5667
危険性	-11.5667
発明し	-11.5667
党員	-11.5669
に就任し	-11.5669
に選出され	-11.5671
全世界	-11.5673
アレクサ	-11.5675
を知っている	-11.5677
に統合され	-11.5677
1.9	-11.5677
という用語	-11.5678
マナー	-11.5681
見えた	-11.5685
が発明された	-11.5688
ite	-11.5688
を焼く	-11.5691
イタリア人	-11.5695
頃には	-11.5698
を拒否した	-11.5699
寒く	-11.5701
文法	-11.5706
タナ	-11.5706
dia	-11.5707
GM	-11.571
スキルや	-11.5711
TR	-11.5711
として使用される	-11.5714
を発生させる	-11.5715
ることはなかった	-11.5717
タイト	-11.572
後任	-11.572
攻撃的	-11.5722
発見した	-11.5724
ことを考えると	-11.5725
nti	-11.5725
はもはや	-11.5726
表面積	-11.5729
を経験する	-11.5731
含まれる	-11.5733
すために	-11.5735
連合軍の	-11.5749
進み	-11.5756
VR	-11.5757
フットボール選手	-11.5758
▁14.	-11.5761
ヘレン	-11.5761
を越えて	-11.5763
キリン	-11.5764
アーケード	-11.5765
コリン	-11.5766
ハルト	-11.5767
発見され	-11.5768
追放された	-11.5771
マーカー	-11.5772
に移動し	-11.5773
フィア	-11.5776
デッキは	-11.5777
バズ	-11.5778
飛	-11.578
開いた	-11.5781
を提唱し	-11.5786
▁3:	-11.5787
えない	-11.5788
さず	-11.5789
モロ	-11.5789
ann	-11.5798
ave	-11.5798
この新しい	-11.5798
(2016	-11.5803
肉体	-11.5804
を避けるために	-11.5806
ティヤ	-11.5807
75%	-11.581
▁Can	-11.5811
として生まれた	-11.5812
主義的な	-11.5812
優位性	-11.5816
政治的な	-11.5817
時点	-11.5818
に続いて	-11.5821
8.8	-11.5824
UC	-11.5826
フィギュアスケート	-11.5826
楽しんで	-11.5826
訴	-11.5826
に分類され	-11.5828
モデル化	-11.5828
ニオ	-11.5829
ジュディ	-11.5829
がいかに	-11.5829
いのであれば	-11.5837
フットボールリーグ	-11.584
のインタビューで	-11.5844
(2005	-11.5846
の集合	-11.585
っています	-11.5851
理由がある	-11.5852
歳のとき	-11.5853
シーズン中	-11.5855
貧しい	-11.5857
の多様性	-11.5858
自治	-11.5859
含まれない	-11.586
があるかどうか	-11.5862
長寿	-11.5865
暗く	-11.5866
悲	-11.5868
▁Du	-11.587
告げる	-11.5881
gen	-11.5884
ブロー	-11.5889
知る	-11.5889
することも	-11.5889
と考えられる	-11.5891
育った	-11.5893
つけられた	-11.5894
並べる	-11.5895
てみましょう	-11.5896
モバイルアプリ	-11.5901
をするのか	-11.5903
のアイデアは	-11.5903
▁San	-11.5904
神殿に	-11.5906
1,6	-11.5912
に昇格	-11.5914
外れ	-11.5914
輸	-11.5914
人が多い	-11.5914
を完成させ	-11.5915
JP	-11.5916
が率いる	-11.5916
譲渡	-11.5917
ストロ	-11.5919
をベースに	-11.592
で書かれた	-11.592
学士号	-11.5921
ロールプレイング	-11.5921
連想	-11.5922
辞	-11.5925
工場で	-11.5925
写	-11.5928
スキン	-11.5928
決意	-11.5929
予	-11.593
テンポ	-11.5931
ダイナミック	-11.5932
絞	-11.5933
活発	-11.5934
臨	-11.5934
ニューラル	-11.5934
グアテマラ	-11.5934
1.3	-11.5935
を調べる	-11.5935
灰	-11.5936
カンボジア	-11.5937
中を流れる	-11.5937
コートジボワール	-11.5937
クレーコート	-11.5937
ハリエット	-11.5937
の割合は	-11.5938
za	-11.5938
震	-11.5938
肝臓	-11.5938
係	-11.5938
セーフティ	-11.5939
シーケン	-11.5939
初の女性	-11.5939
に変更された	-11.5939
時間以内に	-11.5939
主題	-11.5939
教科書	-11.5939
幕	-11.5939
ホノルル	-11.594
航続距離	-11.594
フェリックス	-11.594
咳	-11.594
ヘルスケア	-11.594
タグ付け	-11.594
デビューを果たした	-11.594
ミッチェル	-11.594
エクスペリエンス	-11.594
プラズマ	-11.594
に広まり	-11.594
エキスパート	-11.594
フレミング	-11.594
に始まる	-11.594
マラーティー語	-11.594
にかかわらず	-11.594
インスティテュート	-11.594
ジャーナリズム	-11.594
パンサーズ	-11.594
モンスーン	-11.594
ジュネーブ	-11.594
フライドポテト	-11.594
ピラティス	-11.594
サバンナ	-11.594
ちょっと	-11.594
に与える影響	-11.594
サスペンション	-11.594
ブロンクス	-11.594
カージナルス	-11.594
ておかなければならない	-11.594
フロア	-11.594
燃焼	-11.594
を防ぎ	-11.594
オペレーション	-11.594
五大湖	-11.594
ピリオド	-11.594
密閉	-11.594
バビロニアの	-11.594
にちなむ	-11.594
ピュー	-11.594
クラウディウス	-11.5941
コンサルタント	-11.5941
きょうわこく	-11.5941
フッ化物	-11.5941
フューチャー	-11.5941
ヘルシンキ	-11.5941
稼	-11.5941
エクイティ	-11.5941
カリキュラム	-11.5941
ラニスター	-11.5941
七	-11.5941
カフカ	-11.5941
に包まれ	-11.5941
投獄	-11.5941
ラーマクリシュナ	-11.5941
Kinesis	-11.5941
エフェクト	-11.5941
▁Story	-11.5941
を専門とする	-11.5941
カモノハシ	-11.5941
ford	-11.5941
Association	-11.5941
炉	-11.5941
スモーク	-11.5941
消耗	-11.5941
充電ステーション	-11.5941
副詞	-11.5941
色覚異常	-11.5941
スペシャル	-11.5941
に分類せよ	-11.5941
持久力	-11.5941
連邦準備制度理事会	-11.5941
配備	-11.5941
KPMG	-11.5941
風光明媚な	-11.5941
ブロンコス	-11.5941
甥	-11.5941
神聖な	-11.5941
プロテスタント	-11.5941
構文	-11.5941
投票用紙	-11.5941
Life	-11.5941
近所の	-11.5941
僧	-11.5941
を横切る	-11.5941
オーケストラ	-11.5941
スティーラーズ	-11.5941
防衛機制	-11.5941
綿	-11.5941
Office	-11.5941
番目に大きい	-11.5941
辞書	-11.5941
ハッピー	-11.5941
孔	-11.5941
航路	-11.5942
ストライカー	-11.5942
マクスウェル	-11.5942
メロディー	-11.5942
ガールフレンド	-11.5942
エクスプレス	-11.5942
パルティア	-11.5942
スタンレー	-11.5942
ヘブライ語	-11.5942
羊飼い	-11.5942
内蔵	-11.5942
やり方	-11.5942
テランガナ州	-11.5942
指輪物語	-11.5942
集まる	-11.5942
に重点を置く	-11.5942
ポピュラー音楽	-11.5942
並行	-11.5942
振る舞い	-11.5942
スーザン	-11.5942
ブロックバスター	-11.5942
ESPN	-11.5942
ブローカー	-11.5943
活気ある	-11.5943
脂肪酸	-11.5943
クリニック	-11.5943
襲撃	-11.5943
大幅な	-11.5943
をはじめとする	-11.5943
港湾	-11.5943
メールを書く	-11.5943
本物の	-11.5943
心臓病	-11.5943
生活の質	-11.5943
筋力トレーニング	-11.5943
を抽出しなさい	-11.5943
攻勢	-11.5943
マルウェア	-11.5943
接近	-11.5943
対称	-11.5943
オークション	-11.5943
精製	-11.5943
変身	-11.5944
のサブセット	-11.5944
年代以降	-11.5944
キャンディー	-11.5944
失業率	-11.5944
▁End	-11.5944
美食	-11.5944
を破って	-11.5944
航行	-11.5944
を上回った	-11.5945
解剖学	-11.5945
凝乳	-11.5945
遺物	-11.5945
セーリング	-11.5945
映画祭	-11.5945
カレンダー	-11.5945
個体数	-11.5946
ホビット	-11.5946
ロータス	-11.5946
体格	-11.5946
抗体	-11.5946
役職	-11.5946
スペイン内戦	-11.5946
先端	-11.5947
バックドア	-11.5947
評価額	-11.5947
コーヒーショップ	-11.5947
を軽減する	-11.5947
自転車に乗る	-11.5947
の売上高	-11.5947
で測定される	-11.5947
サンドラー	-11.5948
も含まれている	-11.5948
日々の	-11.5948
ウルトラ	-11.5948
国防	-11.5948
ハリスン	-11.5949
パンケーキ	-11.5949
夕日	-11.5949
ゴッド	-11.5949
を構成している	-11.595
得票率	-11.595
プッシュ	-11.595
ラズベリー	-11.5951
アウェー	-11.5951
LIV	-11.5951
プライス	-11.5951
MMA	-11.5951
への貢献	-11.5953
不安定な	-11.5953
で構成されていた	-11.5954
ボーリング	-11.5954
ペール	-11.5954
多くの人にとって	-11.5954
ソースコード	-11.5956
刻まれ	-11.5956
禁止されている	-11.5956
ical	-11.5957
スリップ	-11.5957
発明家	-11.5957
ギャング	-11.5958
最善の方法とは	-11.5958
大きく異なる	-11.5958
によって創設された	-11.5958
立っている	-11.5958
バッター	-11.5958
保有する	-11.5958
勝を挙げた	-11.5959
アイドル	-11.5959
に対処するため	-11.5959
低地	-11.596
制限速度	-11.5961
▁Sc	-11.5961
視力	-11.5961
キャリー	-11.5961
に関わる	-11.5961
アヌ	-11.5963
レンチ	-11.5964
でしたか	-11.5964
Tra	-11.5964
ハープ	-11.5964
シスコ	-11.5964
パーツ	-11.5965
方向性	-11.5965
ハルク	-11.5966
データエンジニアリング	-11.5966
肯定的な	-11.5966
ジュール	-11.5966
ポストシーズン	-11.5966
を求めた	-11.5966
手動	-11.5968
アメリカ陸軍	-11.5968
を売る	-11.5968
を下し	-11.5969
ペニー	-11.5969
考古学者	-11.5969
起こっている	-11.5971
バトル	-11.5971
バーガー	-11.5971
円形の	-11.5972
破壊的な	-11.5972
ストリング	-11.5973
ることが多い	-11.5973
ネオン	-11.5975
ほとんどの人が	-11.5975
へ向かう	-11.5975
を消費する	-11.5975
金融市場	-11.5976
に成功し	-11.5977
海面	-11.5977
で学ぶ	-11.5977
デューン	-11.5977
よりも高い	-11.5977
ソール	-11.5978
祈り	-11.5979
Arc	-11.5979
通行	-11.598
見た目	-11.5981
年まで続いた	-11.5982
ルーン	-11.5982
レナ	-11.5982
1848	-11.5983
を取得した	-11.5984
大規模言語モデル	-11.5985
Data	-11.5986
を主張し	-11.5987
かき混ぜる	-11.5987
設計者	-11.5987
それまでの	-11.5989
感じられる	-11.5989
ヘルス	-11.599
人生の意味	-11.5992
ミナ	-11.5993
視覚化	-11.5994
水着	-11.5995
県にある	-11.5995
ブルーム	-11.5997
への投資	-11.5999
この作品は	-11.5999
ほんの	-11.5999
その他にも	-11.6
一生	-11.6002
コナー	-11.6002
最も低い	-11.6003
Fe	-11.6005
Ta	-11.6005
に入って	-11.6007
ものにする	-11.6007
日あたり	-11.6008
IPA	-11.6008
ことに気づく	-11.601
ローワー	-11.6012
不可能な	-11.6013
あるもの	-11.6013
ブルク	-11.6014
アイル	-11.6015
薄く	-11.6015
代数	-11.6015
東欧	-11.6018
抜き出してください	-11.6018
993	-11.6025
日照時間	-11.6026
メリー	-11.6026
極めて重要	-11.6028
にアクセスする	-11.6029
特化	-11.603
にさらされた	-11.6038
このタイプの	-11.6038
囚人	-11.604
実施される	-11.6041
ペロ	-11.6042
ことができるため	-11.6042
の後ろに	-11.6043
(3)	-11.6046
の勝者	-11.6046
Age	-11.6047
に遡る	-11.6049
ていった	-11.6049
父親が	-11.6051
に送られ	-11.6051
去り	-11.6056
ついて	-11.6058
を恐れ	-11.606
試合に出場し	-11.6062
焼け	-11.6063
たくない	-11.6065
で作った	-11.6067
ウマ	-11.6067
を使っている	-11.6068
を待つ	-11.6068
イタリアン	-11.6069
アーティストとして	-11.6073
を有し	-11.6074
で起こる	-11.6075
というものだ	-11.6076
をテストする	-11.6078
現実世界	-11.608
たい場合は	-11.6085
らなければならない	-11.6086
栄養価	-11.6086
から直接	-11.6087
が大幅に	-11.6088
大多数	-11.6088
闇の	-11.6088
:{	-11.6089
フープ	-11.6093
プロデュースした	-11.6099
たいと思います	-11.61
トロイ	-11.6104
呼びかけ	-11.6104
ニアン	-11.6105
に保存した	-11.6106
年代まで	-11.6109
(2006	-11.6109
を授与された	-11.6114
を活用する	-11.6117
キング牧師は	-11.6117
北西に	-11.6117
東西	-11.6118
あるものは	-11.6119
洗い	-11.612
これらすべて	-11.6121
が続いた	-11.6122
生地を	-11.6126
646	-11.6126
対戦し	-11.6129
を正確に	-11.6132
報告書は	-11.6135
手法である	-11.6138
に進み	-11.6142
と述べ	-11.6144
感情的な	-11.6146
レスター	-11.6147
pan	-11.6149
ブラウ	-11.6152
年代半ばに	-11.6154
細胞内	-11.6155
流れている	-11.6157
をコントロールし	-11.6162
集まった	-11.6163
語を話す	-11.6168
広まった	-11.6168
ワーキング	-11.6168
学習データ	-11.6168
今年	-11.6169
ことを示し	-11.617
お勧めの	-11.617
.7%	-11.6177
ラウンドで	-11.6177
ラオ	-11.6178
で撮影された	-11.6178
得点王	-11.6178
リーグ戦	-11.6179
従業員が	-11.6181
非公式に	-11.6189
その人が	-11.6193
ベネ	-11.6195
シュテ	-11.6199
で最も多くの	-11.6199
レコードと	-11.62
いますか	-11.6203
箇条書きにしてください	-11.6207
総数	-11.6207
翌	-11.6212
だと思います	-11.6216
からすると	-11.6217
制定された	-11.622
クライ	-11.6221
を下げ	-11.6222
0.7	-11.6222
述べた	-11.6222
はいくつある	-11.6224
リタ	-11.6229
米国政府	-11.623
tan	-11.623
理解できる	-11.6231
を重ねる	-11.6233
カトリックの	-11.6234
数百万	-11.6237
はどのようなもの	-11.6237
が公開された	-11.6238
クローン	-11.6241
ピング	-11.6242
ターボ	-11.6243
にアクセスし	-11.6245
とよい	-11.6249
見せ	-11.625
言語モデルの	-11.6251
座る	-11.6252
回避	-11.6254
苦し	-11.6255
データ分析	-11.6257
文学的	-11.6257
急成長	-11.626
サナ	-11.6261
ham	-11.6262
トーク	-11.6262
最も大きな	-11.6263
ゴス	-11.6263
コット	-11.6264
を支持し	-11.6266
を入れた	-11.6269
6.8	-11.6274
mar	-11.6275
地球上で最も	-11.6275
の主な違いは	-11.6282
水面	-11.6283
部長	-11.6286
ロビー	-11.6286
周囲に	-11.629
を買収し	-11.6294
に対応し	-11.6297
が続く	-11.6298
で亡くなった	-11.6298
ダード	-11.6299
ON	-11.63
マグネシウムの	-11.6304
を反映し	-11.6304
発明された	-11.6306
博	-11.6311
by	-11.6312
硬く	-11.6315
ブレイディは	-11.6316
パフォーマンスを向上させる	-11.6318
数ヶ月	-11.632
を運転する	-11.6322
法では	-11.6326
9.4	-11.6336
780	-11.6337
人々によって	-11.6338
受賞している	-11.6339
ブレア	-11.634
壁に	-11.6343
音を出す	-11.6348
ったとき	-11.6348
を結び	-11.6348
ある程度の	-11.6349
ano	-11.6352
失われる	-11.6354
地域には	-11.6357
静止	-11.6358
彫像	-11.6358
行列	-11.6362
つの主要	-11.6364
かに分類する	-11.6364
最も近い	-11.6365
プレミア	-11.6365
ache	-11.6372
イギリスでは	-11.6373
フランスでは	-11.6374
で唯一	-11.6374
のみである	-11.6379
夏季オリンピック	-11.638
大学ロースクール	-11.638
メトロ	-11.6381
個人的	-11.6384
両チーム	-11.6386
ラウド	-11.6387
機関である	-11.6389
発明され	-11.639
できるよう	-11.6393
回優勝している	-11.6394
タラン	-11.6394
デイヴ	-11.6395
具体的	-11.6396
複	-11.6397
フェラ	-11.6401
ザレ	-11.6401
と思われ	-11.6402
せば	-11.6404
エジンバラ	-11.6407
閉じた	-11.6407
ジュリア	-11.6408
と契約し	-11.6409
リラックスした	-11.6409
を変えること	-11.6411
エンジンを搭載	-11.6413
肯定的	-11.6414
年連続	-11.6416
擁護	-11.6416
ステン	-11.6417
この時期の	-11.6417
トシ	-11.6425
切って	-11.6425
態	-11.643
降伏	-11.6431
ケンタッキー	-11.6433
浅	-11.6434
を引き寄せる	-11.6435
プレゼン	-11.6435
敷	-11.6435
祖	-11.6436
バカ	-11.6436
手助け	-11.6436
人が死亡	-11.6436
心拍数	-11.6436
を箇条書きで挙げて	-11.6436
並べ	-11.6437
婚	-11.6437
拍	-11.6437
違法	-11.6437
.3%	-11.6437
ローマ時代	-11.6437
この時代	-11.6438
アルメニア	-11.6438
翅	-11.6438
とよいでしょう	-11.6439
温め	-11.6439
発泡スチロール	-11.6439
購買力平価	-11.6439
遂	-11.6439
素朴な	-11.644
ミッキー	-11.644
かのように	-11.644
俗	-11.644
ゼネラル	-11.644
にも役立つ	-11.644
敏	-11.644
献	-11.644
伸	-11.644
ビヨンセ	-11.644
フォーミュラ	-11.644
イニシアチブ	-11.644
投資信託	-11.644
シンセサイザー	-11.644
鮮やかな	-11.644
近郊で	-11.644
デリバリー	-11.644
指摘した	-11.644
掲載し	-11.644
オニオン	-11.644
結ばれた	-11.644
蘇	-11.644
は木管	-11.644
ニューサウスウェールズ州	-11.644
朝鮮	-11.644
カルガリー	-11.644
ピクチャーズ	-11.644
月曜日	-11.644
付与	-11.644
を突破	-11.644
人工ニューラルネットワーク	-11.644
艇	-11.644
枯	-11.644
化粧品	-11.644
インスタント	-11.644
エクスプロイト	-11.644
ミミズ	-11.644
在任中	-11.644
歩行者	-11.644
ヒョウ	-11.644
枠組み	-11.644
ノーベル賞受賞者	-11.644
潤	-11.644
マガジン	-11.644
時系列	-11.644
アナリティクス	-11.644
ハロルド	-11.644
正当な	-11.644
ぞ	-11.6441
ザリガニ	-11.6441
十字架	-11.6441
百科事典	-11.6441
残念ながら	-11.6441
カルカッタ	-11.6441
七面鳥	-11.6441
未亡人	-11.6441
ベーカーズフィールド	-11.6441
結局のところ	-11.6441
デモンストレーション	-11.6441
クーデター	-11.6441
レジェンド	-11.6441
井戸	-11.6441
汚職	-11.6441
ō	-11.6441
ピアニスト	-11.6441
ベゾス	-11.6441
として重宝され	-11.6441
アカデミック	-11.6441
カーネギー	-11.6441
列挙する	-11.6441
ミキサー	-11.6441
机	-11.6441
Server	-11.6441
琴	-11.6441
▁Bank	-11.6441
Modern	-11.6441
インペリアル	-11.6441
先史時代	-11.6441
飲酒	-11.6441
イベリア半島	-11.6441
ʊ	-11.6441
コンパニオン	-11.6441
を引く	-11.6441
バレンシア	-11.6441
ウィークエンド	-11.6441
レモネード	-11.6441
扉	-11.6441
皮をむ	-11.6441
説得力のある	-11.6441
コンスタンティノープル	-11.6441
クラスター事務所	-11.6441
ユベントス	-11.6441
デマンド	-11.6441
礁	-11.6441
ジャカルタ	-11.6441
を覆う	-11.6441
市街地	-11.6441
レディオヘッド	-11.6441
見どころ	-11.6441
は依然として	-11.6441
人里離れた	-11.6441
利回り	-11.6441
ロバーツ	-11.6441
モーターサイクル	-11.6441
奥	-11.6441
最先端の	-11.6441
伯爵	-11.6441
脂質	-11.6441
デリバティブ	-11.6441
RAID	-11.6441
軟	-11.6441
予防接種	-11.6441
困	-11.6441
スカッシュ	-11.6441
nternet	-11.6441
ふわふわ	-11.6441
真珠	-11.6441
法廷	-11.6441
アイオワ州	-11.6441
マルケス	-11.6441
を取り戻す	-11.6441
ヨーロピアン	-11.6441
電信	-11.6441
マルセイユ	-11.6441
ボヘミア	-11.6441
昇進	-11.6441
ファイアウォール	-11.6441
汗	-11.6441
平泳ぎ	-11.6442
犬を飼う	-11.6442
バタビア	-11.6442
シットコム	-11.6442
マヌエル	-11.6442
にまたがる	-11.6442
コントローラー	-11.6442
植生	-11.6442
が制作した	-11.6442
探査機	-11.6442
景気	-11.6442
を去った	-11.6442
厳しく	-11.6442
プロモーション	-11.6442
教材	-11.6442
カンクン	-11.6442
アニマル	-11.6442
にちなんで名付けられた	-11.6442
ヨハン	-11.6442
▁Fire	-11.6442
レーティング	-11.6442
ジャンクション	-11.6442
サミット	-11.6442
派閥	-11.6442
クロスオーバー	-11.6442
破産	-11.6442
プレッシャー	-11.6442
サハラ砂漠	-11.6442
明るく	-11.6442
迫害	-11.6443
エステル	-11.6443
処方	-11.6443
ハイズマン	-11.6443
賢く	-11.6443
ボルドー	-11.6443
に基づいて分類しなさい	-11.6443
が含まれています	-11.6443
カテーテル	-11.6443
指向	-11.6443
レイモンド	-11.6443
司法省	-11.6443
を特定しなさい	-11.6443
婚約	-11.6443
まとめてください	-11.6443
ユーカリ	-11.6444
がたくさんあります	-11.6444
が重要なのか	-11.6444
トリプル	-11.6444
ゴールを挙げ	-11.6444
フィジー	-11.6444
退任	-11.6444
お祭り	-11.6444
を見出す	-11.6445
目立つ	-11.6445
バックパック	-11.6445
ヘイレン	-11.6445
捕食者	-11.6445
に従っている	-11.6445
ソルブ	-11.6445
証明書	-11.6445
WHO	-11.6445
そのほとんどは	-11.6445
出発点	-11.6445
聖なる	-11.6445
不思議な	-11.6446
書類	-11.6446
インスタンス	-11.6446
輝き	-11.6446
浅い	-11.6446
学歴	-11.6446
世紀以降	-11.6446
アッサム	-11.6446
書記	-11.6446
電磁気学の	-11.6446
記録を樹立した	-11.6447
マレー語	-11.6447
エアバス	-11.6447
マイナー	-11.6447
セリエ	-11.6447
ケンタッキー州	-11.6447
番目に高い	-11.6448
野心	-11.6448
チャリティ	-11.6448
わかってい	-11.6448
満期	-11.6448
ケヴィン	-11.6448
重なる	-11.6448
グリーンベイ	-11.6449
番地	-11.6449
メイソン	-11.645
way	-11.645
商用	-11.645
生活費	-11.645
エアコン	-11.6451
1894	-11.6451
ペイント	-11.6451
ディフェンダー	-11.6451
ゴルフコース	-11.6451
フィッシング	-11.6452
ダッシュ	-11.6452
と表現される	-11.6453
』(2015	-11.6453
ルートヴィ	-11.6453
ケルン	-11.6454
行ける	-11.6454
の先駆者	-11.6454
関税	-11.6454
▁1.1.	-11.6455
アレンジ	-11.6455
レディング	-11.6455
毛色	-11.6456
ヨハネス	-11.6456
先発	-11.6457
強み	-11.6457
を与えている	-11.6457
にアクセスできる	-11.6457
同校	-11.6457
メッツ	-11.6458
より広範な	-11.6458
グレード	-11.6458
ジャネット	-11.6458
眠り	-11.6458
に囲まれた	-11.6458
137	-11.646
を所有している	-11.646
CBS	-11.6461
飲料水	-11.6461
記述されている	-11.6461
コメディ映画	-11.6462
バルカン半島	-11.6462
ルーシー	-11.6462
として使われる	-11.6463
フォーリー	-11.6464
下降	-11.6465
ロードレース	-11.6465
を決定し	-11.6465
保存されている	-11.6466
と並んで	-11.6467
唱え	-11.6467
という形で	-11.6468
を主張する	-11.6468
を指すこともある	-11.6468
置かれている	-11.6468
エヴァン	-11.6468
書かれ	-11.6469
馬力	-11.647
1868	-11.647
年に発表した	-11.6471
温泉	-11.6471
すか	-11.6471
[ˈ	-11.6472
マントル	-11.6473
天国	-11.6474
これも	-11.6474
ノーマン	-11.6476
クラシック音楽	-11.6477
演奏される	-11.6477
クロウ	-11.6477
性の高い	-11.6477
提供する	-11.6478
』(2017	-11.6478
たりして	-11.6479
年に建てられた	-11.6479
健康状態	-11.6479
を作るための	-11.6481
ナビ	-11.6481
ウェルズ	-11.6482
知性	-11.6482
1864	-11.6483
』(2006	-11.6484
安全な場所	-11.6484
を受け入れる	-11.6484
インナー	-11.6486
ジョル	-11.6486
有人	-11.6487
プラント	-11.6488
人工的な	-11.6489
に行われた	-11.649
スキルを身につけ	-11.6491
に出かける	-11.6493
人兄弟	-11.6493
ガヤ	-11.6493
テニスボール	-11.6494
日にかけて	-11.6494
キンス	-11.6494
少なくなる	-11.6495
ブラウンズ	-11.6496
に作用する	-11.6496
1860	-11.6499
平均して	-11.6501
rb	-11.6503
の数学者	-11.6504
近接	-11.6504
人も多い	-11.6505
大通り	-11.6507
で結成された	-11.6507
ウィズ	-11.6508
に挑戦し	-11.6511
後援	-11.6511
世界銀行	-11.6513
右手	-11.6514
にとって重要な	-11.6515
Big	-11.6518
が生まれる	-11.6518
増加している	-11.652
変わった	-11.6521
最大の都市は	-11.6521
探検隊	-11.6523
ベイカー	-11.6523
軍人	-11.6524
の殿堂入りを果たした	-11.6525
チッ	-11.6525
ってしまった	-11.653
と信じていた	-11.6531
製作した	-11.6534
で発売された	-11.6534
同一	-11.6536
決まる	-11.6537
地名	-11.6538
を低下させる	-11.6539
が発見され	-11.6541
に関するこのパラグラフから	-11.6541
を監督する	-11.6543
代大統領	-11.6545
複雑さ	-11.6545
南側	-11.6545
を考慮すると	-11.6547
ロッシュ	-11.6547
(1978	-11.6548
がない場合	-11.6549
の要約	-11.6549
サッカー界	-11.655
させたり	-11.655
ニョ	-11.655
を判断する	-11.655
で発表された	-11.6553
1817	-11.6555
その範囲	-11.656
焼いた	-11.656
だけでも	-11.6563
1857	-11.6563
に組み込まれ	-11.6566
(1980	-11.6568
を可能にした	-11.6568
記載された	-11.657
選出される	-11.6572
が見つか	-11.6573
ていません	-11.6577
にはほとんど	-11.6578
プロセッサー	-11.6579
ビルド	-11.658
になっていた	-11.6581
すぎない	-11.6581
が得られ	-11.6582
ことを学ぶ	-11.6584
億ドル以上	-11.6584
観察者	-11.6585
定め	-11.6585
ノア	-11.6587
発行され	-11.6589
ことはほとんどない	-11.6592
第一次	-11.6595
に収録された	-11.6598
ther	-11.6599
魚か	-11.66
人生を送る	-11.66
を合わせる	-11.6606
365	-11.6607
毛布	-11.6608
の最中	-11.6608
Sha	-11.661
art	-11.6615
するのに役立つ	-11.6616
育つ	-11.6617
息子たち	-11.6618
EB	-11.6621
犯した	-11.6625
ことを知る	-11.6628
ハク	-11.6629
の続編	-11.6629
を統合し	-11.6631
シヴァ	-11.6632
ことはできる	-11.6634
8.6	-11.6638
を重ね	-11.664
たいと思う	-11.664
og	-11.664
ベル研究所の	-11.664
tle	-11.6641
どこにあるのか	-11.6641
記念日	-11.6642
度の高い	-11.6649
ストラップ	-11.6654
数年後	-11.6655
墓	-11.666
で測定	-11.6661
直す	-11.6663
行っている	-11.6663
信じられている	-11.6666
を変更し	-11.667
[...]
