<pad>	0
<unk>	0
<s>	0
</s>	0
<USER>	0
<ASSISTANT>	0
<SYSTEM>	0
<bof>	0
<eof>	0
▁	-2.54343
_	-3.31164
.	-3.37533
python	-3.40144
(	-3.86654
,	-4.08987
;	-4.23071
▁{	-4.27436
▁}	-4.2952
▁=	-4.38951
::	-4.40209
)	-4.51945
>	-4.63639
:	-4.88119
);	-4.91433
▁$	-4.91691
▁*	-4.99338
-	-5.12269
->	-5.15402
▁<	-5.24852
/	-5.3362
<	-5.33851
s	-5.36458
()	-5.37877
▁//	-5.41826
▁c	-5.42193
\	-5.44824
▁"	-5.4503
="	-5.48187
"	-5.48546
▁shell	-5.49123
▁typescript	-5.49903
▁public	-5.50925
▁swift	-5.54293
sharp	-5.55363
▁@	-5.60455
▁'	-5.61588
();	-5.61613
▁the	-5.65387
▁return	-5.65898
▁class	-5.69678
▁if	-5.79423
'	-5.89029
("	-5.93945
▁(	-5.97025
i	-6.00485
div	-6.03865
a	-6.04279
('	-6.05764
id	-6.08157
▁import	-6.08467
▁pub	-6.08763
▁=>	-6.09277
▁let	-6.13415
▁use	-6.19448
▁for	-6.23828
▁</	-6.25567
($	-6.26198
this	-6.26609
get	-6.27346
',	-6.27557
▁#	-6.28712
▁&	-6.3342
▁*/	-6.34107
▁void	-6.34464
▁fn	-6.35547
",	-6.39316
t	-6.39559
x	-6.42801
">	-6.44169
▁int	-6.44629
[	-6.46812
▁to	-6.47299
h	-6.50091
2	-6.5153
name	-6.52771
▁+	-6.53156
▁new	-6.5331
n	-6.54326
▁std	-6.55534
▁a	-6.56716
include	-6.59604
d	-6.60346
▁///	-6.62348
▁function	-6.6344
▁/**	-6.64896
");	-6.65001
▁String	-6.65275
]	-6.6654
(&	-6.70997
▁#[	-6.71147
new	-6.71734
p	-6.71973
▁this	-6.74415
c	-6.7443
▁self	-6.74844
▁->	-6.75039
▁<<	-6.75424
▁of	-6.7574
String	-6.77436
data	-6.78917
▁const	-6.79876
▁i	-6.81326
▁==	-6.82095
▁is	-6.82679
f	-6.85202
().	-6.87738
int	-6.87774
1	-6.88185
▁in	-6.88485
▁private	-6.88713
(),	-6.89571
▁static	-6.90945
string	-6.92786
());	-6.93828
</	-6.94807
self	-6.98275
e	-7.01001
|	-7.01579
mut	-7.02627
*	-7.04788
u	-7.06938
T	-7.0743
▁m	-7.09016
S	-7.11503
b	-7.11585
['	-7.12996
▁0	-7.13477
3	-7.13586
to	-7.13942
set	-7.14034
');	-7.14909
m	-7.15348
php	-7.16171
▁as	-7.17867
value	-7.18109
size	-7.18576
▁0;	-7.21392
▁mod	-7.22083
▁else	-7.22255
▁and	-7.24837
is	-7.25944
str	-7.28008
▁org	-7.28272
▁namespace	-7.28535
type	-7.28836
=	-7.28861
▁type	-7.29599
class	-7.2986
&	-7.30731
user	-7.31201
y	-7.32228
')	-7.32468
param	-7.32708
▁final	-7.32895
";	-7.33477
test	-7.33779
),	-7.34073
!(	-7.34257
r	-7.34454
")	-7.36067
v	-7.38635
extends	-7.38777
));	-7.39071
())	-7.39962
▁value	-7.41644
▁com	-7.43362
4	-7.45176
▁false	-7.45188
input	-7.45412
from	-7.45627
▁null	-7.46283
)]	-7.4679
return	-7.47117
j	-7.49697
add	-7.50799
▁License	-7.5088
text	-7.51041
▁name	-7.51043
▁true	-7.51366
▁get	-7.51404
table	-7.51819
))	-7.52734
form	-7.53043
const	-7.53484
▁java	-7.55744
ing	-7.57059
0	-7.57114
Type	-7.57248
Error	-7.58019
C	-7.58222
▁impl	-7.60405
file	-7.62386
▁-	-7.62669
▁[	-7.64247
unwrap	-7.6427
li	-7.64747
▁be	-7.64855
td	-7.64887
▁data	-7.6502
util	-7.65301
▁mut	-7.6565
▁bool	-7.66947
▁assert	-7.67873
{	-7.68181
Test	-7.68702
label	-7.6905
D	-7.69886
Override	-7.70153
▁u	-7.7107
span	-7.71142
▁!=	-7.71379
▁file	-7.71662
request	-7.72636
path	-7.73058
std	-7.73194
key	-7.74203
error	-7.74712
A	-7.75168
▁or	-7.75217
▁struct	-7.76819
▁with	-7.77439
▁p	-7.79815
map	-7.81225
R	-7.81587
▁?>	-7.81874
index	-7.82272
l	-7.82524
k	-7.82689
Exception	-7.82771
▁array	-7.83431
://	-7.83965
▁};	-7.84392
▁<?	-7.84704
).	-7.85145
▁on	-7.85411
push	-7.85708
`	-7.85804
▁not	-7.85878
▁href	-7.86113
▁id	-7.86415
item	-7.87061
create	-7.87097
as	-7.87875
if	-7.88138
!("	-7.88215
▁Some	-7.89236
▁by	-7.89498
']	-7.89516
8	-7.89616
}	-7.89916
▁`	-7.90434
Name	-7.90995
▁f	-7.91639
----------------	-7.91663
F	-7.91794
title	-7.92352
()->	-7.93189
[]	-7.93215
32	-7.93506
end	-7.93879
Data	-7.9398
▁that	-7.9406
List	-7.94824
▁test	-7.94865
▁v	-7.95053
){	-7.95077
button	-7.95673
▁set	-7.9579
Id	-7.963
▁&&	-7.96356
▁b	-7.96387
▁from	-7.96667
▁echo	-7.96937
▁protected	-7.96974
▁string	-7.9773
};	-7.98496
eq	-7.98503
▁Ok	-7.98612
▁case	-7.98643
hpp	-7.98714
o	-7.99182
▁The	-7.99331
Controller	-7.99728
col	-8.00023
result	-8.00061
▁x	-8.00792
▁an	-8.01046
out	-8.01289
code	-8.01481
list	-8.02096
model	-8.02528
api	-8.0259
io	-8.02675
::{	-8.02851
▁0,	-8.03101
▁Self	-8.0326
th	-8.0331
ed	-8.03324
▁/*	-8.03542
Request	-8.03646
▁crate	-8.03877
▁n	-8.04105
';	-8.04536
script	-8.04719
on	-8.04864
▁A	-8.05449
at	-8.05517
▁main	-8.05914
row	-8.05978
++)	-8.06122
▁T	-8.06276
in	-8.06297
w	-8.06557
url	-8.066
NAME	-8.06857
link	-8.07575
ID	-8.08011
info	-8.1023
Result	-8.10708
with	-8.11003
len	-8.11013
></	-8.11094
content	-8.11167
message	-8.11861
vector	-8.12061
▁|	-8.1212
I	-8.12437
config	-8.12681
count	-8.12724
time	-8.12811
array	-8.13905
status	-8.14116
5	-8.14701
L	-8.14912
▁e	-8.15363
Value	-8.16331
▁?	-8.1689
group	-8.17406
▁1	-8.17441
db	-8.17649
ptr	-8.17687
▁result	-8.17946
or	-8.18067
B	-8.18196
▁package	-8.1843
];	-8.18705
▁char	-8.19138
▁under	-8.19671
▁1;	-8.19823
▁auto	-8.2032
▁None	-8.20711
▁match	-8.20756
var	-8.21083
M	-8.21249
)?;	-8.22039
"></	-8.22254
true	-8.22699
▁it	-8.23304
▁{}	-8.23425
view	-8.2386
▁Result	-8.23916
Get	-8.23999
default	-8.24337
com	-8.24725
▁Vec	-8.2484
g	-8.25163
▁error	-8.25229
app	-8.25329
post	-8.25342
▁double	-8.25366
z	-8.25946
▁using	-8.26087
Context	-8.26104
E	-8.2632
N	-8.26804
▁y	-8.26818
▁||	-8.26826
▁0)	-8.26905
read	-8.27465
▁break	-8.2833
▁App	-8.28557
tr	-8.28698
▁super	-8.28788
clone	-8.29179
iter	-8.29749
client	-8.298
▁S	-8.29883
section	-8.30201
!	-8.3022
derive	-8.30357
▁(!	-8.30377
core	-8.30587
Service	-8.30719
P	-8.31951
Illuminate	-8.3214
query	-8.32294
▁boolean	-8.3303
btn	-8.33117
1,	-8.33448
▁cout	-8.33497
cfg	-8.33589
64	-8.33736
Map	-8.33783
Object	-8.33897
max	-8.34206
▁+=	-8.3448
▁System	-8.34588
>,	-8.34594
put	-8.35171
author	-8.35515
min	-8.35663
','	-8.3572
')->	-8.35832
endif	-8.35855
To	-8.36037
▁r	-8.36137
>>	-8.36633
<'	-8.37077
X	-8.3739
▁usize	-8.37516
V	-8.37841
▁($	-8.38687
▁while	-8.3907
br	-8.39421
Model	-8.39977
▁%	-8.4041
▁OR	-8.4042
6	-8.40567
▁interface	-8.40744
static	-8.41234
next	-8.41275
▁long	-8.41426
start	-8.41496
html	-8.41643
▁size	-8.42512
format	-8.42627
▁btn	-8.43224
err	-8.43472
ref	-8.43935
="{{	-8.44363
▁throws	-8.4523
▁<!--	-8.45404
update	-8.45452
back	-8.46023
body	-8.46055
▁float	-8.46148
json	-8.46151
admin	-8.4636
state	-8.46374
▁are	-8.46641
▁//!	-8.46687
▁distributed	-8.46813
▁println	-8.46887
Http	-8.46905
▁});	-8.47014
email	-8.47269
write	-8.48047
println	-8.48288
"]	-8.48452
User	-8.48585
Set	-8.49025
▁OF	-8.49191
▁This	-8.49686
framework	-8.49695
▁C	-8.49755
File	-8.49977
px	-8.50171
")]	-8.50183
@	-8.50331
md	-8.50336
▁j	-8.50419
▁List	-8.5073
of	-8.50787
▁Route	-8.50842
▁try	-8.51015
er	-8.51285
▁text	-8.5149
no	-8.51952
false	-8.51989
select	-8.52508
js	-8.52997
color	-8.53464
Response	-8.53554
val	-8.53612
control	-8.54122
args	-8.54301
doc	-8.54561
length	-8.54717
all	-8.54772
event	-8.54866
Manager	-8.55226
apache	-8.55397
View	-8.55483
▁Option	-8.55503
▁src	-8.55526
(|	-8.55822
▁input	-8.55964
node	-8.56309
▁__	-8.56562
▁message	-8.56676
▁you	-8.56693
http	-8.56882
log	-8.56933
"),	-8.57045
Event	-8.58024
org	-8.5803
▁-->	-8.58269
image	-8.58541
line	-8.58824
date	-8.58829
▁key	-8.5901
▁can	-8.59096
▁throw	-8.59333
where	-8.59342
▁create	-8.59435
token	-8.59466
><	-8.59468
Node	-8.59491
▁method	-8.59822
width	-8.59881
header	-8.60432
Builder	-8.60453
spring	-8.61444
append	-8.62139
web	-8.62301
into	-8.62306
Config	-8.62684
load	-8.63116
password	-8.63474
crate	-8.63593
context	-8.6361
["	-8.63757
option	-8.63955
src	-8.64178
▁android	-8.64322
vec	-8.64417
buffer	-8.64582
▁t	-8.64693
field	-8.64725
?	-8.6533
Y	-8.65337
number	-8.65714
bytes	-8.65891
base	-8.6613
▁Err	-8.66488
::*	-8.66678
null	-8.66692
msg	-8.67345
▁at	-8.67752
Message	-8.67788
response	-8.67941
parse	-8.68022
Path	-8.68367
empty	-8.68447
output	-8.68512
common	-8.68574
H	-8.69034
▁P	-8.69057
▁!	-8.69194
pos	-8.69223
▁I	-8.69351
lang	-8.69353
▁str	-8.69434
Debug	-8.69827
page	-8.69914
block	-8.70076
▁['	-8.70193
").	-8.70295
sm	-8.70952
find	-8.7115
▁may	-8.71196
function	-8.7126
rs	-8.71349
insert	-8.71492
(){	-8.71857
object	-8.72185
▁vec	-8.72391
▁1,	-8.72555
7	-8.72591
num	-8.72832
▁ANY	-8.73117
▁max	-8.73487
32,	-8.73694
},	-8.739
"));	-8.74252
U	-8.74364
Key	-8.7439
else	-8.74426
filename	-8.74781
2,	-8.7484
▁we	-8.7525
Component	-8.7532
dir	-8.75401
Vec	-8.75607
9	-8.75667
"><	-8.75846
os	-8.75956
Item	-8.76031
css	-8.76115
']);	-8.76157
open	-8.76205
define	-8.76401
EXPECT	-8.76422
▁de	-8.7658
first	-8.7691
2.	-8.77083
https	-8.7712
▁k	-8.77151
1.	-8.77161
feature	-8.77344
▁state	-8.77359
▁source	-8.77521
▁template	-8.77614
▁number	-8.7774
State	-8.77962
Interface	-8.78059
img	-8.78247
▁style	-8.78253
****************	-8.78269
inline	-8.78364
env	-8.78697
AS	-8.79054
ul	-8.79231
K	-8.79463
double	-8.79608
Repository	-8.79713
q	-8.80051
Info	-8.80295
container	-8.80368
W	-8.80461
Size	-8.80607
www	-8.80985
left	-8.81489
▁See	-8.8159
▁required	-8.81699
▁object	-8.81787
delete	-8.81902
][	-8.81927
▁args	-8.81948
build	-8.81964
▁will	-8.82155
await	-8.82218
▁1)	-8.8257
▁node	-8.82795
Factory	-8.83009
'];	-8.83066
▁all	-8.83194
Class	-8.83285
target	-8.83576
▁index	-8.83632
▁{}",	-8.83889
('/	-8.84157
▁w	-8.84482
G	-8.84555
assertEquals	-8.84569
center	-8.84748
method	-8.84823
▁context	-8.84919
▁http	-8.85131
float	-8.85208
address	-8.8525
////////////////	-8.85639
construct	-8.85664
▁view	-8.85756
▁default	-8.8611
▁code	-8.86238
java	-8.86434
service	-8.86542
▁&'	-8.86867
▁copy	-8.87027
▁response	-8.87316
Self	-8.87352
▁catch	-8.87388
▁base	-8.87579
txt	-8.87706
▁extern	-8.87779
]);	-8.87916
endl	-8.88116
▁software	-8.88266
▁<=	-8.88562
description	-8.88727
▁uint	-8.8873
Configuration	-8.88801
collect	-8.88824
▁>>	-8.89003
cast	-8.89026
▁path	-8.89088
has	-8.89147
re	-8.89211
▁B	-8.89397
right	-8.89553
▁request	-8.89696
run	-8.89808
stream	-8.89919
}}	-8.89947
▁l	-8.90028
expect	-8.9009
cout	-8.90308
▁should	-8.90312
▁{{	-8.90599
▁g	-8.90651
▁time	-8.90774
action	-8.90789
▁res	-8.90855
▁event	-8.90908
▁++	-8.90955
▁out	-8.9121
▁{@	-8.91281
▁implements	-8.9147
ui	-8.91487
params	-8.91643
ly	-8.91775
order	-8.92015
],	-8.92124
▁where	-8.92327
].	-8.92482
▁Get	-8.92512
▁start	-8.92531
▁list	-8.92635
POST	-8.92727
▁used	-8.92833
success	-8.92951
▁format	-8.93066
App	-8.93346
void	-8.93461
filter	-8.93833
▁IS	-8.9398
the	-8.9424
▁user	-8.9451
▁NULL	-8.94578
annotation	-8.94868
main	-8.94901
▁F	-8.95193
EQ	-8.95304
▁num	-8.95553
version	-8.96022
begin	-8.96156
save	-8.96192
16	-8.96259
char	-8.96511
▁Object	-8.96762
▁javax	-8.97157
Action	-8.97442
32_	-8.97443
▁add	-8.97555
Array	-8.9761
(0,	-8.97875
uint	-8.97896
================	-8.98046
▁User	-8.98047
▁run	-8.98192
Field	-8.98412
Entity	-8.98483
▁output	-8.98866
Status	-8.99131
Database	-8.99217
▁col	-8.99667
res	-8.99961
category	-9.00007
repo	-9.00213
+	-9.00307
login	-9.00371
▁endl	-9.00477
init	-9.0054
Base	-9.00657
No	-9.00818
ok	-9.01032
server	-9.01313
product	-9.01331
impl	-9.01381
card	-9.0155
▁>=	-9.01556
▁E	-9.01587
make	-9.01729
▁var	-9.01767
and	-9.02225
▁WARRANTIES	-9.02353
Color	-9.02906
IS	-9.02947
▁read	-9.03154
auto	-9.03276
sub	-9.03422
▁target	-9.03557
source	-9.03613
[0]	-9.03699
▁D	-9.03893
final	-9.04185
▁do	-9.04471
Count	-9.04837
options	-9.04877
session	-9.04941
search	-9.05243
it	-9.05264
▁0.0	-9.05536
show	-9.05766
▁line	-9.05824
current	-9.05938
TYPE	-9.05941
▁has	-9.06176
'])	-9.06667
='	-9.06675
able	-9.0671
Point	-9.06734
EMAIL	-9.06782
▁fa	-9.06933
de	-9.06956
▁nullptr	-9.07155
assert	-9.07314
▁}}</	-9.07316
()));	-9.07353
▁parent	-9.0738
KEY	-9.07462
icon	-9.07835
#	-9.07891
Time	-9.07938
▁2	-9.08024
▁WITHOUT	-9.08339
()).	-9.08343
buf	-9.08406
device	-9.08562
'],	-9.08926
▁log	-9.09007
▁THE	-9.09046
Index	-9.09102
check	-9.09109
'),	-9.09159
▁current	-9.09232
▁N	-9.0925
Option	-9.09266
mod	-9.0928
])	-9.09611
Api	-9.09653
▁end	-9.09717
hash	-9.09846
serde	-9.09923
Property	-9.09987
arg	-9.10138
register	-9.10481
▁Error	-9.10542
▁R	-9.10646
▁one	-9.10677
▁L	-9.10731
print	-9.10913
Bundle	-9.10936
All	-9.11071
▁height	-9.11188
O	-9.11492
▁have	-9.11521
box	-9.11589
height	-9.11621
call	-9.11644
▁Copyright	-9.1172
In	-9.11782
▁virtual	-9.11915
root	-9.12504
▁io	-9.12529
submit	-9.12601
▁enum	-9.12837
▁Create	-9.12912
es	-9.12935
Text	-9.12996
property	-9.13294
▁M	-9.13324
▁unsafe	-9.13382
▁count	-9.13477
Client	-9.13748
nav	-9.13961
edit	-9.14233
close	-9.1432
▁client	-9.14323
Integer	-9.14579
gh	-9.15139
Buffer	-9.15375
xml	-9.15673
▁write	-9.15769
Command	-9.16035
▁specific	-9.1612
▁File	-9.16406
Box	-9.16421
%	-9.16455
for	-9.16668
by	-9.16751
▁version	-9.16886
entity	-9.17136
Vector	-9.17346
required	-9.17828
▁buffer	-9.17832
Input	-9.1803
equals	-9.18151
▁val	-9.18203
Method	-9.1823
SIZE	-9.18275
▁other	-9.18543
▁either	-9.18553
[$	-9.18563
bind	-9.18581
=0;	-9.18582
Z	-9.18611
toString	-9.1871
▁implied	-9.18798
▁];	-9.18919
▁field	-9.18993
top	-9.19477
Number	-9.19491
::<	-9.19494
cpp	-9.19818
▁check	-9.1991
▁0);	-9.20022
send	-9.20225
Handler	-9.20444
primary	-9.20482
android	-9.2059
username	-9.206
▁action	-9.20605
▁was	-9.2061
display	-9.20614
![	-9.20685
raw	-9.20745
▁map	-9.20756
offset	-9.21274
▁config	-9.2141
not	-9.21444
stars	-9.21521
▁d	-9.21649
▁first	-9.21786
++;	-9.2179
▁vector	-9.21797
fa	-9.21927
net	-9.21989
move	-9.22047
def	-9.22308
Utils	-9.22496
Query	-9.22743
level	-9.22913
long	-9.23005
Of	-9.2314
▁expected	-9.23688
tag	-9.23918
▁Clone	-9.24079
types	-9.24183
▁KIND	-9.24227
Models	-9.24279
0,	-9.24318
▁update	-9.24572
idx	-9.24625
Application	-9.24636
▁width	-9.25201
▁foreach	-9.25292
$	-9.25473
point	-9.25619
▁when	-9.25638
▁Map	-9.25725
licenses	-9.25756
▁writing	-9.25847
lib	-9.25859
isset	-9.2589
font	-9.25897
Stream	-9.2606
▁TEST	-9.26116
Line	-9.27107
▁app	-9.27242
▁which	-9.27503
Core	-9.27508
▁net	-9.27549
junit	-9.27746
The	-9.28243
use	-9.28431
Element	-9.28756
position	-9.28876
▁must	-9.28993
join	-9.29234
▁TODO	-9.29538
home	-9.29554
contains	-9.29627
▁U	-9.29655
1>	-9.29829
▁Integer	-9.30007
store	-9.30214
auth	-9.30226
▁no	-9.30289
System	-9.30325
▁only	-9.30387
▁your	-9.30411
LICENSE	-9.30443
bool	-9.30457
20	-9.30492
CONDITION	-9.30521
'=>'	-9.30703
▁Box	-9.30704
▁You	-9.30748
▁fmt	-9.31058
▁&[	-9.31096
▁express	-9.31187
▁any	-9.31312
remove	-9.31312
64,	-9.31516
Date	-9.31557
google	-9.31896
route	-9.31986
al	-9.31995
J	-9.32005
head	-9.32289
▁url	-9.32301
Window	-9.32324
▁language	-9.32386
ERROR	-9.32549
)),	-9.32552
▁values	-9.3256
ch	-9.32776
Form	-9.32914
lg	-9.32995
▁rel	-9.33114
style	-9.33158
>&	-9.33324
▁BAS	-9.33349
▁}}	-9.33351
▁Set	-9.33489
Code	-9.33509
(1,	-9.33647
Log	-9.33826
widget	-9.33952
▁parse	-9.34032
Position	-9.34046
▁2,	-9.34082
▁delete	-9.34187
sql	-9.34719
hidden	-9.34722
▁W	-9.34756
▁q	-9.34964
users	-9.34975
second	-9.35256
Properties	-9.35433
Instance	-9.35462
Table	-9.35503
▁1);	-9.35509
total	-9.35734
▁last	-9.36279
controller	-9.36319
menu	-9.3638
strong	-9.36464
values	-9.3655
▁info	-9.36971
10	-9.37228
en	-9.37543
▁instance	-9.37547
▁abstract	-9.37804
Default	-9.38222
▁permissions	-9.38228
▁o	-9.38416
github	-9.38485
▁async	-9.38615
unique	-9.39066
▁handle	-9.39445
Page	-9.39461
Unless	-9.39535
▁item	-9.39801
▁process	-9.39816
▁content	-9.39882
▁found	-9.40084
▁color	-9.40096
thread	-9.40227
typename	-9.40298
'));	-9.40423
▁cin	-9.40506
▁limitations	-9.40622
byte	-9.40895
window	-9.40905
template	-9.40927
parent	-9.40939
Resource	-9.40947
Util	-9.41108
▁position	-9.41334
other	-9.41442
builder	-9.41529
▁assertThat	-9.41613
▁applicable	-9.41643
Failed	-9.41654
Int	-9.41933
Content	-9.42029
exception	-9.42078
▁model	-9.42399
▁without	-9.42494
▁governing	-9.42719
▁agree	-9.42728
an	-9.42866
▁Default	-9.42918
port	-9.43092
▁Returns	-9.43122
macro	-9.4325
▁"\	-9.43357
obj	-9.43382
law	-9.43464
meta	-9.43523
▁unsigned	-9.43614
replace	-9.43788
▁}}"	-9.43815
()),	-9.439
▁V	-9.44005
▁IN	-9.44152
▁so	-9.44278
From	-9.44321
▁2.0	-9.44553
▁Version	-9.44593
▁env	-9.44626
▁block	-9.44698
render	-9.44855
▁but	-9.44865
entry	-9.44884
tree	-9.44921
▁Exception	-9.4518
utils	-9.45299
Image	-9.45363
(!	-9.45435
example	-9.45663
▁Software	-9.45792
(@	-9.45792
▁buf	-9.45809
ar	-9.46115
▁Q	-9.46249
created	-9.46251
op	-9.46286
▁If	-9.46318
alert	-9.46682
▁min	-9.46714
▁more	-9.46744
handle	-9.46746
module	-9.46809
Update	-9.46854
▁given	-9.46864
By	-9.46897
▁window	-9.46939
▁table	-9.47131
▁license	-9.47142
▁H	-9.47204
clear	-9.47271
"))	-9.47322
▁next	-9.47489
Server	-9.47512
Impl	-9.47517
▁header	-9.47637
Output	-9.47666
Url	-9.47857
command	-9.48089
addr	-9.48189
Token	-9.48212
-2.0	-9.48314
errors	-9.48745
▁sum	-9.4876
▁]);	-9.48792
---------------	-9.48802
▁into	-9.48838
Module	-9.48896
Create	-9.49121
▁command	-9.49201
(*	-9.49218
task	-9.49313
GET	-9.49507
last	-9.49939
rules	-9.50013
allow	-9.50035
▁ret	-9.50163
▁AND	-9.50315
package	-9.5058
instance	-9.50581
any	-9.5061
="<?	-9.50808
▁temp	-9.50993
License	-9.51028
range	-9.51191
expr	-9.51313
fmt	-9.51564
Group	-9.51635
▁HashMap	-9.51694
-4	-9.51695
detail	-9.51844
Filter	-9.51957
▁print	-9.51967
}}</	-9.52001
ctx	-9.52218
▁continue	-9.52218
unit	-9.5225
Helper	-9.52293
▁redirect	-9.52578
bits	-9.52745
▁**	-9.52843
stylesheet	-9.52958
account	-9.53151
▁task	-9.53198
([	-9.5323
▁ctx	-9.5323
▁switch	-9.53357
tab	-9.53483
process	-9.53499
assets	-9.53533
mode	-9.53697
Entry	-9.53777
lock	-9.53955
inner	-9.54072
▁pos	-9.54077
comment	-9.54148
modal	-9.54215
()))	-9.54265
▁?></	-9.54367
Q	-9.54432
11	-9.54526
▁stream	-9.54529
Is	-9.54591
▁offset	-9.5465
(['	-9.54676
1)	-9.54741
▁find	-9.54906
Mapper	-9.55065
settings	-9.55129
Mode	-9.55155
none	-9.55155
▁element	-9.55445
▁register	-9.55807
resource	-9.55843
▁Apache	-9.55846
1);	-9.55898
的	-9.5593
▁msg	-9.56109
Format	-9.56235
panel	-9.56277
Container	-9.56416
▁information	-9.56474
▁init	-9.5652
▁Date	-9.56583
bootstrap	-9.56613
Eloquent	-9.56613
Collection	-9.56682
Support	-9.56805
▁Response	-9.56861
▁/>	-9.56901
sync	-9.56902
Auth	-9.56904
pop	-9.57117
▁status	-9.5715
layout	-9.57183
▁route	-9.57197
usize	-9.57244
Connection	-9.57282
▁Debug	-9.57285
world	-9.57655
profile	-9.57742
▁1.0	-9.57886
64_	-9.57978
my	-9.58131
sys	-9.58787
queue	-9.58855
32)	-9.5886
(())	-9.58909
execute	-9.59011
shared	-9.59025
MAX	-9.59046
2);	-9.5907
us	-9.59129
jni	-9.59192
price	-9.59777
▁aria	-9.59796
▁resource	-9.59827
question	-9.5987
▁ArrayList	-9.5987
▁byte	-9.60107
▁builder	-9.60123
Controllers	-9.60169
▁IOException	-9.60198
URL	-9.60209
storage	-9.60317
(||	-9.6037
always	-9.60373
endforeach	-9.60414
footer	-9.60417
▁sizeof	-9.60448
now	-9.60533
▁address	-9.60701
▁arg	-9.60848
▁Model	-9.60901
Source	-9.61147
▁length	-9.61209
▁PartialEq	-9.6134
attr	-9.61439
▁trait	-9.6153
Write	-9.61648
one	-9.61656
Target	-9.61685
Param	-9.61818
Provider	-9.61856
Expression	-9.61948
gen	-9.62127
▁Test	-9.62157
arr	-9.62191
(0);	-9.62217
13	-9.62224
▁Class	-9.62371
▁operator	-9.62381
▁bytes	-9.62574
Category	-9.62583
▁FOR	-9.6267
1;	-9.62679
Button	-9.62739
manager	-9.6277
Level	-9.62818
▁session	-9.62873
encode	-9.62987
getName	-9.63014
owned	-9.63032
▁build	-9.63033
▁2)	-9.63113
debug	-9.63153
▁query	-9.63326
▁parameter	-9.63402
▁server	-9.63469
3>	-9.63497
On	-9.63634
bit	-9.63715
2;	-9.63735
▁my	-9.64044
For	-9.64053
▁GL	-9.6406
Add	-9.64116
sum	-9.6417
▁call	-9.64196
host	-9.64476
\\	-9.64815
[1]	-9.65005
',$	-9.65101
Version	-9.65178
Order	-9.65223
▁make	-9.65331
▁G	-9.65449
▁thread	-9.65477
▁port	-9.65626
▁filter	-9.65683
HPP	-9.65713
)->	-9.65797
▁override	-9.65813
foo	-9.65863
▁~	-9.65988
func	-9.65991
desc	-9.66144
boost	-9.66151
API	-9.662
up	-9.66207
▁load	-9.66586
▁REQUIRE	-9.66672
Address	-9.66848
Tag	-9.66994
With	-9.67201
▁system	-9.6722
project	-9.67505
images	-9.67528
stop	-9.67604
▁json	-9.67634
st	-9.67677
▁part	-9.67741
TEST	-9.67813
▁right	-9.67831
▁exit	-9.67933
Select	-9.6825
Json	-9.68261
pair	-9.68636
▁--	-9.68723
job	-9.68742
▁}}">	-9.68743
▁here	-9.68819
Matrix	-9.68869
▁un	-9.69022
exists	-9.69196
2)	-9.6922
rate	-9.69451
Channel	-9.69605
ne	-9.6976
system	-9.69853
▁NOT	-9.69863
Email	-9.69874
*/	-9.7
▁image	-9.70035
▁left	-9.70119
cache	-9.70146
Attribute	-9.70162
Ref	-9.70199
Listener	-9.70208
<()>	-9.70317
Column	-9.70514
▁date	-9.70626
▁mb	-9.70734
▁Form	-9.7092
Handle	-9.70935
▁4	-9.71386
/{	-9.71562
-3	-9.71562
component	-9.7172
▁ASSERT	-9.71745
channel	-9.71779
location	-9.7186
▁database	-9.72032
>{{	-9.7204
'=>	-9.72139
site	-9.72172
▁],	-9.72226
foreach	-9.72239
ng	-9.72293
▁stack	-9.72337
8_	-9.72651
danger	-9.72658
OK	-9.72699
","	-9.73153
▁ans	-9.73245
▁obtain	-9.73264
Storage	-9.73355
({	-9.73614
items	-9.73629
DATA	-9.73648
Description	-9.73675
(1);	-9.73716
8;	-9.73802
copy	-9.73829
fs	-9.74058
▁serde	-9.74087
▁Deserialize	-9.7413
▁'<	-9.7416
SESSION	-9.74226
nbsp	-9.74229
un	-9.74242
!("{}",	-9.74307
-6	-9.74416
▁===	-9.74469
++	-9.74529
▁[`	-9.74627
models	-9.74766
Operation	-9.74836
domain	-9.74957
transaction	-9.74979
slice	-9.75059
Frame	-9.75271
active	-9.75324
repository	-9.75404
see	-9.75503
▁tests	-9.75763
<<"	-9.75961
▁Color	-9.75991
▁#![	-9.76048
Task	-9.76249
ED	-9.76362
▁Created	-9.7664
0.	-9.76647
▁10	-9.76648
▁root	-9.76694
Parser	-9.76767
public	-9.77085
runtime	-9.77135
Parameters	-9.77153
try	-9.77226
flags	-9.77322
New	-9.77386
Kind	-9.7743
▁params	-9.77518
▁description	-9.77569
::~	-9.77627
▁instanceof	-9.77717
▁O	-9.77743
Read	-9.77812
▁hash	-9.78159
▁files	-9.7818
And	-9.78219
Player	-9.78409
▁It	-9.78529
▁typedef	-9.78584
LOG	-9.78594
async	-9.78696
prefix	-9.78707
factory	-9.78871
png	-9.78959
expected	-9.78968
▁except	-9.7898
▁world	-9.79016
el	-9.79103
Label	-9.79231
▁title	-9.79351
3,	-9.79416
INT	-9.79541
▁sub	-9.7963
getId	-9.79654
4>	-9.79677
do	-9.79752
Admin	-9.79957
HashMap	-9.80025
Long	-9.80109
toggle	-9.80265
▁frame	-9.80295
▁re	-9.80316
PASSWORD	-9.80335
Header	-9.80379
engine	-9.80438
matrix	-9.80449
Unit	-9.80474
bar	-9.80518
▁3	-9.80854
▁nums	-9.80907
▁FROM	-9.80936
▁Add	-9.81079
Bytes	-9.81162
▁cv	-9.81245
Check	-9.81248
▁failed	-9.81252
▁total	-9.81362
book	-9.81428
column	-9.81475
member	-9.8162
generator	-9.81764
scale	-9.81839
TRUE	-9.82099
child	-9.82183
unsigned	-9.82206
IOException	-9.82222
tmp	-9.82295
▁printf	-9.82382
3.	-9.82635
NO	-9.82718
<&	-9.82731
▁point	-9.82931
graph	-9.82949
ING	-9.83051
▁Base	-9.83157
("/	-9.83337
limit	-9.83426
minecraft	-9.83535
counter	-9.83654
assertTrue	-9.83724
year	-9.83817
random	-9.83922
game	-9.83925
Params	-9.84039
mem	-9.84052
[2]	-9.84057
co	-9.84178
END	-9.84184
Block	-9.84415
>0	-9.84458
12	-9.84535
2_	-9.84587
▁device	-9.84623
Start	-9.84682
▁group	-9.8481
fn	-9.84818
▁show	-9.84987
Invalid	-9.85007
Process	-9.85019
Reader	-9.85052
validation	-9.85079
lombo	-9.8517
Symfony	-9.85175
theme	-9.85193
ops	-9.8532
▁ui	-9.85379
▁specified	-9.85395
short	-9.85465
▁DB	-9.85509
▁range	-9.85519
rust	-9.85521
zero	-9.85697
Cache	-9.85714
ndef	-9.85785
case	-9.86038
IN	-9.86051
Callback	-9.86053
▁Message	-9.8606
▁obj	-9.862
▁role	-9.86229
annotations	-9.86326
pre	-9.86601
asset	-9.86656
Location	-9.86792
role	-9.86835
Session	-9.86933
▁Vector	-9.86978
record	-9.87045
Record	-9.87186
15	-9.87333
▁operand	-9.87501
iterator	-9.87502
▁logger	-9.87527
<?	-9.8753
▁loop	-9.87538
tbody	-9.87541
ad	-9.87611
'))	-9.87734
em	-9.878
getValue	-9.88039
">{{	-9.88156
xs	-9.88177
▁program	-9.88228
>";	-9.88241
▁len	-9.88265
▁defined	-9.88427
▁global	-9.88539
categories	-9.88548
Login	-9.88616
reset	-9.88695
mail	-9.8877
global	-9.8892
element	-9.88942
▁BOOST	-9.89207
internal	-9.89342
temp	-9.89428
▁service	-9.89572
cs	-9.89638
▁API	-9.89697
part	-9.89774
▁5	-9.89793
▁Value	-9.89933
▁argument	-9.89956
▁From	-9.90042
▁channel	-9.90085
▁Long	-9.90131
▁following	-9.90265
▁up	-9.90306
Ptr	-9.90355
Adapter	-9.90389
mp	-9.90418
getMessage	-9.9059
▁provided	-9.90674
getInstance	-9.90735
.0.	-9.90968
wrapper	-9.91016
local	-9.91113
py	-9.91175
since	-9.91226
End	-9.9127
("\	-9.91575
database	-9.91681
▁2;	-9.91877
▁Node	-9.91894
▁compliance	-9.92098
14	-9.92135
me	-9.9217
▁entity	-9.92176
▁change	-9.92304
Duration	-9.92362
red	-9.92396
Store	-9.92485
Schema	-9.92514
▁parameters	-9.92567
5,	-9.92714
▁.=	-9.92845
validate	-9.92864
Function	-9.92938
<>();	-9.9304
<<	-9.93078
dyn	-9.93089
Range	-9.931
cb	-9.93125
▁store	-9.93165
ASSERT	-9.93216
▁J	-9.93288
Registry	-9.93303
▁two	-9.93323
throws	-9.9339
▁__('	-9.93499
ty	-9.93513
Activity	-9.93555
4,	-9.93683
-=	-9.93892
ion	-9.93959
▁order	-9.93996
Display	-9.9405
▁copyright	-9.94244
▁SOFTWARE	-9.94336
▁Point	-9.94474
Title	-9.9449
::$	-9.94545
pool	-9.94551
il	-9.94796
▁mem	-9.94806
Fragment	-9.94925
player	-9.94928
Offset	-9.94942
▁placeholder	-9.95095
▁All	-9.95172
skip	-9.95176
ll	-9.95178
Texture	-9.95216
area	-9.95245
argv	-9.95304
▁inline	-9.95318
diff	-9.95348
▁Assert	-9.95385
▁"";	-9.95424
ip	-9.95466
▁entry	-9.95477
Not	-9.95535
media	-9.95561
▁connection	-9.95719
!");	-9.95785
once	-9.95859
▁rhs	-9.95879
8,	-9.95882
word	-9.95999
Options	-9.95999
Length	-9.96097
cc	-9.96296
cloud	-9.96376
services	-9.9642
▁Command	-9.96501
gt	-9.96519
Search	-9.96532
printf	-9.96536
▁non	-9.96542
▁https	-9.96556
invalid	-9.96625
▁core	-9.96792
ret	-9.96828
GL	-9.96937
▁{!!	-9.96968
Clone	-9.97088
align	-9.97107
sequence	-9.97117
integer	-9.97141
application	-9.97146
None	-9.97272
DIR	-9.97446
nombre	-9.97472
nama	-9.97524
tags	-9.97557
▁bit	-9.97597
▁border	-9.9791
draw	-9.97918
▁than	-9.98008
▁alt	-9.98014
▁mixed	-9.98026
old	-9.98139
frame	-9.98371
,$	-9.98428
▁options	-9.98502
conn	-9.98507
▁asset	-9.98607
FILE	-9.98979
sort	-9.99037
properties	-9.9918
("%	-9.99201
match	-9.99208
small	-9.99284
▁access	-9.99311
blog	-9.99338
Settings	-9.99347
brief	-9.99358
Pointer	-9.99387
uri	-9.99443
▁!!}	-9.99494
▁module	-9.99697
64)	-9.99729
==	-9.99827
▁?>"	-9.99918
files	-10.0002
▁tmp	-10.0013
rename	-10.0049
▁Abstract	-10.005
}',	-10.0061
support	-10.0062
weight	-10.0073
drop	-10.0078
pass	-10.0081
▁os	-10.0083
ident	-10.0085
)))	-10.0096
off	-10.0103
>>,	-10.011
(0	-10.0111
InputStream	-10.0113
split	-10.0114
hr	-10.0115
connect	-10.0117
Hello	-10.0128
pragma	-10.0128
access	-10.0129
amount	-10.0129
This	-10.0132
trim	-10.0134
loop	-10.0138
...	-10.0139
Definition	-10.0145
Renderer	-10.0152
▁scope	-10.0153
nullable	-10.0158
-1	-10.0158
gl	-10.0165
OR	-10.0188
▁dir	-10.019
At	-10.0234
Call	-10.0241
cell	-10.0267
attribute	-10.0281
NotNull	-10.0282
connection	-10.0287
16,	-10.0289
document	-10.0289
▁empty	-10.0294
▁Send	-10.0298
▁K	-10.0306
opt	-10.0311
parser	-10.0312
Serialize	-10.0314
convert	-10.0316
dump	-10.032
▁row	-10.0321
。	-10.0324
REQUEST	-10.0324
▁noexcept	-10.0324
bindgen	-10.0326
▁open	-10.0327
bottom	-10.033
▁{:?}",	-10.0332
padding	-10.0335
▁writer	-10.0338
▁LICENSE	-10.034
▁username	-10.034
Some	-10.0346
selected	-10.0348
math	-10.0368
req	-10.0372
Copy	-10.0387
Thread	-10.0395
▁Schema	-10.0396
Float	-10.0415
▁its	-10.0428
▁typename	-10.0435
per	-10.0449
dev	-10.0451
tests	-10.0451
▁tree	-10.0453
▁Controller	-10.0461
events	-10.0474
32>	-10.0487
▁operation	-10.0502
setText	-10.0509
Str	-10.0515
▁Event	-10.0517
bench	-10.052
▁LOG	-10.0521
PATH	-10.0524
=$	-10.0525
ca	-10.0526
Framework	-10.0527
▁```	-10.0534
="<?=	-10.0544
dropdown	-10.0545
Boolean	-10.0547
▁<?=	-10.0557
NULL	-10.0562
grid	-10.0567
▁op	-10.0568
metadata	-10.0576
▁then	-10.0582
▁box	-10.0591
full	-10.0602
▁Arc	-10.0605
▁Run	-10.0606
)){	-10.061
▁General	-10.0633
3);	-10.0643
▁page	-10.0659
Reference	-10.0668
▁mode	-10.0672
reference	-10.0685
▁directory	-10.069
▁same	-10.069
change	-10.0696
▁Public	-10.0703
Mock	-10.0707
Tests	-10.0709
Device	-10.0719
Constants	-10.0724
Autowired	-10.0728
▁GNU	-10.0738
phone	-10.0743
stack	-10.0746
▁listener	-10.0756
▁points	-10.0758
▁glm	-10.0764
forward	-10.0767
se	-10.077
iostream	-10.0772
region	-10.0775
Op	-10.0777
memory	-10.078
cannot	-10.0781
Sub	-10.0798
Product	-10.08
lines	-10.0802
Edit	-10.0808
DB	-10.0814
Open	-10.0816
▁after	-10.0818
)));	-10.082
▁valid	-10.0839
▁each	-10.0849
Re	-10.0852
▁1]	-10.0862
cmd	-10.0864
pt	-10.0882
rows	-10.0895
▁Serialize	-10.0896
▁Solution	-10.0901
▁require	-10.0904
--------------	-10.091
(0)	-10.0913
Widget	-10.0931
vendor	-10.0936
Plugin	-10.0938
▁now	-10.0939
Logger	-10.0946
datetime	-10.0951
handler	-10.0964
▁fill	-10.097
Metadata	-10.0972
▁(*	-10.0974
jquery	-10.0976
00	-10.0978
utf	-10.0981
▁WHERE	-10.0981
hello	-10.0987
origin	-10.0991
exit	-10.1005
Out	-10.1007
Assert	-10.1007
▁3,	-10.1014
[0].	-10.1023
eval	-10.1025
Notification	-10.1025
-2	-10.1028
Ok	-10.1029
getString	-10.1029
":	-10.1029
▁idx	-10.1033
▁notice	-10.1036
▁handler	-10.1042
belongsTo	-10.1051
Parameter	-10.1052
nodes	-10.1053
▁render	-10.1056
▁some	-10.1068
-8	-10.1096
▁5,	-10.1108
▁macro	-10.1111
One	-10.1118
Args	-10.1119
products	-10.1131
▁account	-10.1134
▁exception	-10.1137
Game	-10.1137
▁send	-10.1141
▁panic	-10.1143
Register	-10.1146
svg	-10.1146
mark	-10.1149
dashboard	-10.1149
ap	-10.1151
dist	-10.1152
'=>$	-10.1153
Style	-10.1154
isEmpty	-10.1157
▁been	-10.116
ER	-10.1178
▁Eigen	-10.118
tx	-10.1182
▁created	-10.1195
im	-10.12
light	-10.1201
ac	-10.1204
company	-10.1206
front	-10.1207
Post	-10.1208
Deserialize	-10.1226
mock	-10.1232
Double	-10.1237
private	-10.1239
▁level	-10.1241
struct	-10.1245
Up	-10.1247
ArrayList	-10.1252
ex	-10.1257
trace	-10.1259
▁ss	-10.1273
▁Logger	-10.1282
payment	-10.1302
▁storage	-10.1308
export	-10.1311
Row	-10.1315
modules	-10.1322
▁X	-10.1326
Package	-10.1328
Layout	-10.1331
▁Input	-10.1336
Template	-10.134
▁In	-10.1354
30	-10.1365
currency	-10.1365
▁FITNESS	-10.1367
navbar	-10.1368
▁la	-10.1373
Enum	-10.1375
(_)	-10.1381
keys	-10.1403
▁already	-10.1414
▁"<	-10.142
can	-10.1425
▁argv	-10.1433
custom	-10.1442
▁move	-10.1452
▁Data	-10.1456
▁Image	-10.1457
▁types	-10.1462
Authentication	-10.1465
Stack	-10.1467
fetch	-10.1467
Access	-10.1482
▁host	-10.1483
mesh	-10.1485
rng	-10.1488
then	-10.1489
day	-10.1503
▁sb	-10.1539
Extension	-10.1549
▁child	-10.1551
▁remove	-10.1559
Document	-10.1563
routes	-10.1581
Formatter	-10.1588
▁MERCHANTABILITY	-10.1589
csrf	-10.159
▁We	-10.159
2>	-10.1594
▁password	-10.1594
▁work	-10.1598
Facades	-10.1598
fill	-10.1605
mm	-10.1607
▁ID	-10.1609
:</	-10.1622
▁{{$	-10.1625
▁local	-10.1632
18	-10.1647
Width	-10.1657
▁called	-10.1661
▁merge	-10.1666
pattern	-10.1667
ms	-10.1669
Delete	-10.1673
license	-10.1676
borrow	-10.1682
▁4,	-10.1691
SELECT	-10.1694
ft	-10.1708
sleep	-10.171
DEBUG	-10.1712
DEFAULT	-10.1717
Num	-10.1723
logger	-10.1726
Scope	-10.173
pages	-10.1735
▁For	-10.1735
▁conditions	-10.1745
tt	-10.1752
Identifier	-10.1758
▁memory	-10.1759
▁need	-10.1763
▁-1;	-10.1764
Body	-10.1766
▁token	-10.1783
▁Copy	-10.1786
updated	-10.1789
um	-10.1792
>{{$	-10.1796
spec	-10.1797
▁configuration	-10.1805
▁An	-10.1814
▁cause	-10.1815
▁PARTICULAR	-10.1816
concurrent	-10.1818
{{	-10.1819
▁player	-10.1821
34	-10.1843
go	-10.1869
▁validate	-10.188
▁Output	-10.1885
▁record	-10.1896
Tree	-10.1898
Menu	-10.1901
upload	-10.1912
fields	-10.1918
interface	-10.193
▁save	-10.1934
▁MIT	-10.1946
Null	-10.1947
dom	-10.196
provider	-10.1962
▁random	-10.1972
-3">	-10.1977
mb	-10.1979
.0	-10.199
Port	-10.1991
eff	-10.1997
As	-10.2009
cur	-10.2019
▁arr	-10.2032
▁application	-10.2033
dto	-10.2035
▁connect	-10.2046
pay	-10.2046
Pos	-10.2059
▁TO	-10.2066
-12">	-10.2073
▁tag	-10.2093
▁once	-10.2105
▁does	-10.2114
be	-10.2118
▁PURPOSE	-10.2119
layer	-10.2126
Generator	-10.2133
Active	-10.2146
Render	-10.215
-12	-10.2159
▁available	-10.2162
sample	-10.2171
▁Double	-10.2176
Queue	-10.2178
operator	-10.2188
non	-10.2196
flex	-10.2209
compare	-10.2221
valid	-10.224
Msg	-10.2245
▁display	-10.2245
>();	-10.2246
Bean	-10.2247
city	-10.2248
▁matrix	-10.2258
▁req	-10.2264
border	-10.2271
▁Client	-10.2276
▁Context	-10.2284
']))	-10.2286
TEXTURE	-10.2287
▁reader	-10.2293
▁$('#	-10.23
"=>"	-10.23
ION	-10.2304
tools	-10.2311
32;	-10.2316
▁conn	-10.2325
cat	-10.2325
substr	-10.2325
▁details	-10.2326
ArgsConstructor	-10.2327
▁arguments	-10.2328
▁argc	-10.2328
ia	-10.2333
chain	-10.2341
contents	-10.2344
ix	-10.2351
[];	-10.2372
If	-10.2379
month	-10.2379
fillable	-10.238
▁settings	-10.2381
03	-10.2386
bot	-10.24
▁reference	-10.2407
▁2);	-10.2409
▁short	-10.2418
Password	-10.2418
05	-10.242
contact	-10.242
le	-10.2425
▁0..	-10.2428
Val	-10.243
Profile	-10.2433
configuration	-10.2436
chars	-10.2437
callback	-10.2437
timestamp	-10.2445
[])	-10.2453
lower	-10.2456
sf	-10.2461
▁CHECK	-10.2468
rest	-10.2468
▁alert	-10.247
capacity	-10.2471
platform	-10.248
batch	-10.2483
margin	-10.2488
Init	-10.249
▁serial	-10.2491
▁grid	-10.2492
▁items	-10.2502
CC	-10.251
Descriptor	-10.2514
▁form	-10.2518
Writer	-10.2521
170	-10.2523
lease	-10.2524
▁old	-10.2525
EQUAL	-10.253
Nullable	-10.2532
swing	-10.2532
▁Path	-10.2538
hi	-10.2557
la	-10.2568
Account	-10.2569
thead	-10.2575
UI	-10.258
▁want	-10.2584
Common	-10.2586
Resources	-10.2586
▁search	-10.2588
▁contains	-10.2589
Reg	-10.2598
▁received	-10.2611
▁there	-10.2617
ma	-10.2619
▁dp	-10.2625
Height	-10.2664
Validator	-10.2664
▁column	-10.2667
Right	-10.2667
Route	-10.2675
▁supported	-10.269
Main	-10.2693
schema	-10.2693
Local	-10.2703
▁dst	-10.2724
)).	-10.2725
Show	-10.2728
ther	-10.2729
Link	-10.273
VERSION	-10.2736
renderer	-10.2741
guard	-10.2744
help	-10.2747
dao	-10.275
FALSE	-10.2752
▁project	-10.2752
▁over	-10.2754
SERVER	-10.2781
prelude	-10.2781
until	-10.2781
localhost	-10.2782
Arrays	-10.2784
**	-10.2786
tokio	-10.279
argc	-10.2799
24	-10.2801
▁constexpr	-10.2806
javascript	-10.2813
pdf	-10.2817
▁implementation	-10.283
▁job	-10.2836
256	-10.2841
(1)	-10.2844
ol	-10.2856
details	-10.286
pc	-10.2872
▁results	-10.2876
▁example	-10.2895
cmp	-10.2909
Packet	-10.294
rd	-10.2944
side	-10.2947
Proxy	-10.2952
pp	-10.2953
wait	-10.2971
pixel	-10.2973
mat	-10.2979
DateTime	-10.2984
invoke	-10.2993
fluid	-10.2995
TO	-10.2996
▁err	-10.2997
Real	-10.2999
cl	-10.3
▁JSON	-10.3009
bin	-10.3013
Abstract	-10.3018
▁NO	-10.302
spawn	-10.3022
VALUE	-10.3028
language	-10.3037
▁execute	-10.3044
reader	-10.3045
pub	-10.3046
RuntimeException	-10.3048
Pass	-10.3052
64;	-10.3057
TAG	-10.3077
writer	-10.3079
className	-10.3083
});	-10.3084
nt	-10.3088
▁lock	-10.3122
Part	-10.3122
resources	-10.3124
32);	-10.313
16_	-10.3149
ee	-10.3168
posts	-10.3172
First	-10.3175
Directory	-10.3185
▁ex	-10.3197
▁bits	-10.3234
lt	-10.3235
▁fp	-10.3251
▁Config	-10.3254
Close	-10.326
Rule	-10.3262
Wrapper	-10.3262
Shader	-10.3263
Direct	-10.3267
flash	-10.3275
Engine	-10.3275
texture	-10.3277
ids	-10.328
>';	-10.3281
Bit	-10.3289
Policy	-10.3297
▁IMPLIED	-10.33
TestCase	-10.3302
Dto	-10.3304
payload	-10.331
World	-10.3312
destroy	-10.3317
(2,	-10.3319
rule	-10.3319
mc	-10.332
flag	-10.3335
▁'';	-10.3344
Dialog	-10.335
▁just	-10.3358
▁font	-10.3358
docs	-10.3361
mul	-10.3374
▁before	-10.3385
ToString	-10.3386
']['	-10.3405
▁cache	-10.3406
▁attribute	-10.3414
▁anyhow	-10.3426
Dao	-10.3428
▁StringBuilder	-10.3431
▁"/	-10.3431
25	-10.3433
▁3)	-10.3434
▁gl	-10.3464
Uri	-10.3477
▁boost	-10.3481
▁//-------------	-10.3488
▁di	-10.3492
vertex	-10.3496
Send	-10.3519
.*	-10.352
Static	-10.3536
report	-10.3553
Iterator	-10.3556
transform	-10.3562
8)	-10.3564
▁24	-10.3567
StackTrace	-10.3571
badge	-10.3571
▁round	-10.3579
serialize	-10.3584
space	-10.359
="{{$	-10.3591
▁game	-10.3592
Signature	-10.3595
Material	-10.3603
INFO	-10.3605
^	-10.3607
NOT	-10.361
Prop	-10.361
▁location	-10.3612
▁component	-10.3612
matches	-10.3615
▁toString	-10.3617
▁initial	-10.3618
ready	-10.3619
▁No	-10.3621
Or	-10.3622
▁Request	-10.3627
stringstream	-10.3629
▁Eq	-10.363
*)	-10.3635
▁Server	-10.3643
▁''	-10.3646
▁fail	-10.3657
▁Use	-10.3657
100	-10.3662
points	-10.3662
//	-10.367
attributes	-10.3674
ext	-10.3676
ci	-10.3677
▁free	-10.3677
ue	-10.3698
▁yii	-10.3704
rc	-10.3722
todo	-10.3724
▁Check	-10.3725
abs	-10.3732
').	-10.3734
MIN	-10.3739
Resolver	-10.3744
0);	-10.3751
Mapping	-10.3765
▁see	-10.3776
▁constructor	-10.3794
[0];	-10.381
▁transaction	-10.381
Last	-10.3821
inc	-10.3822
ies	-10.3831
MODULE	-10.3833
▁integer	-10.3836
Flag	-10.3838
***************	-10.3839
21	-10.3848
▁LIMITED	-10.3848
MESSAGE	-10.3849
inheritdoc	-10.3849
tipo	-10.3849
isEqual	-10.385
ajax	-10.3851
faker	-10.3853
▁timer	-10.3863
validator	-10.3865
warning	-10.3868
enum	-10.3868
}/	-10.3876
Pool	-10.3876
Empty	-10.3882
▁Application	-10.3883
36	-10.3884
▁above	-10.3885
Font	-10.3886
compile	-10.3889
down	-10.3903
")),	-10.3904
decode	-10.3904
?;	-10.3906
shape	-10.3907
master	-10.3908
entities	-10.3908
Load	-10.3917
CHECK	-10.3919
break	-10.3921
redirect	-10.3922
results	-10.3922
▁db	-10.3924
conf	-10.3929
▁z	-10.3931
age	-10.3952
am	-10.3964
My	-10.3968
▁binary	-10.3973
▁down	-10.3977
Person	-10.3992
ps	-10.4003
[1].	-10.4013
repr	-10.4045
cx	-10.4053
stat	-10.4059
▁Register	-10.4083
4_	-10.4085
▁Boolean	-10.4089
Loader	-10.4102
▁rights	-10.4103
▁addr	-10.4107
](	-10.411
1/	-10.4126
Role	-10.4127
Import	-10.4132
Enter	-10.4134
▁BUT	-10.4134
▁Update	-10.4135
logging	-10.4135
Converter	-10.4136
security	-10.4141
logo	-10.4141
Seeder	-10.4143
getType	-10.4144
1-10	-10.4145
▁CV	-10.4147
TextView	-10.4149
Def	-10.4151
▁owner	-10.4153
Change	-10.4154
▁library	-10.4155
02	-10.4155
Control	-10.4163
Instruction	-10.4169
▁select	-10.4169
▁align	-10.418
alpha	-10.4181
▁generate	-10.4195
CREATE	-10.4197
ns	-10.4199
Screen	-10.4207
UInt	-10.4208
fd	-10.4208
Memory	-10.4208
fold	-10.4208
IO	-10.4214
1:	-10.4215
con	-10.4216
kind	-10.4221
▁variable	-10.4223
UUID	-10.4223
Max	-10.4226
▁Log	-10.423
pointer	-10.4234
boolean	-10.4239
generated	-10.4241
elements	-10.4245
▁raw	-10.4249
collections	-10.4255
bi	-10.4264
star	-10.4272
Icon	-10.4285
[0],	-10.4288
▁SDL	-10.4299
▁verify	-10.43
}",	-10.4316
▁signature	-10.4334
▁wait	-10.4354
Argument	-10.4361
numeric	-10.4361
▁scale	-10.437
▁py	-10.437
gui	-10.4373
Html	-10.4386
<?>	-10.4387
▁Note	-10.4388
dd	-10.4389
[3]	-10.4393
":"	-10.4393
▁queue	-10.4402
reg	-10.4411
awt	-10.4415
▁visit	-10.4425
nums	-10.4426
rand	-10.4427
rgumentException	-10.4428
slug	-10.4428
▁associated	-10.4428
jpg	-10.443
gpu	-10.4431
`.	-10.4437
▁"../	-10.4437
▁Item	-10.4448
term	-10.445
▁properties	-10.4456
sh	-10.4456
Layer	-10.4464
goods	-10.4464
ord	-10.4464
less	-10.4465
▁COPYRIGHT	-10.4467
edu	-10.447
Left	-10.4476
bg	-10.4478
40	-10.4482
equal	-10.4485
="#	-10.4486
rem	-10.4487
objects	-10.4487
plugin	-10.4488
kernel	-10.4495
▁USE	-10.45
Bool	-10.4505
alloc	-10.4514
Save	-10.4518
▁dist	-10.4518
each	-10.452
plugins	-10.4522
▁Time	-10.4523
sidebar	-10.4525
Expr	-10.4528
Types	-10.453
release	-10.453
multi	-10.4535
▁-1	-10.454
▁controller	-10.4544
subject	-10.4549
Foundation	-10.4553
▁20	-10.4555
after	-10.4557
mask	-10.4559
failed	-10.4561
▁cur	-10.457
▁Hash	-10.457
timeout	-10.4583
OS	-10.459
▁even	-10.4598
=""	-10.4619
':	-10.4633
\0"	-10.4639
Un	-10.4647
sp	-10.4649
▁sp	-10.4662
▁ma	-10.4662
▁Z	-10.467
()?	-10.4674
`]	-10.4679
fas	-10.4686
▁Number	-10.4704
▁timestamp	-10.4707
lf	-10.4709
SQL	-10.4723
Could	-10.473
circle	-10.4731
▁WARRANTY	-10.4731
cascade	-10.4731
Unable	-10.4734
gray	-10.4734
uid	-10.474
man	-10.4741
▁counter	-10.4743
currentTime	-10.4745
Member	-10.4748
take	-10.4758
▁Auth	-10.4759
ostream	-10.4761
▁10;	-10.4768
ation	-10.4769
"/>	-10.4775
Environment	-10.478
(0),	-10.4781
▁top	-10.4781
▁collection	-10.4781
▁mt	-10.4782
so	-10.4784
22	-10.4795
Same	-10.48
Char	-10.4804
▁3;	-10.4806
segment	-10.4807
▁Thread	-10.4809
▁errors	-10.4816
True	-10.4818
▁me	-10.482
ao	-10.482
angle	-10.4822
shader	-10.483
fail	-10.4832
packet	-10.4833
Two	-10.4836
UTF	-10.4838
Events	-10.4848
USER	-10.4855
unused	-10.4862
▁!==	-10.4863
Simple	-10.4866
▁second	-10.4868
algorithm	-10.4868
pow	-10.4877
optional	-10.4877
free	-10.4883
background	-10.4884
single	-10.4886
binary	-10.4887
exec	-10.4888
▁rng	-10.4893
super	-10.4895
Hash	-10.4895
Mat	-10.4909
work	-10.4911
8>	-10.4913
▁LI	-10.4917
▁documentation	-10.493
Arc	-10.4947
▁(!$	-10.4965
▁0.5	-10.497
ON	-10.4981
Domain	-10.4982
▁Return	-10.499
▁debug	-10.4991
Next	-10.5009
▁{};	-10.5012
Millis	-10.5016
Socket	-10.5018
Region	-10.5021
▁best	-10.5025
import	-10.503
cdn	-10.5035
BLOCK	-10.5035
messages	-10.504
invoice	-10.5043
servlet	-10.5044
Year	-10.5044
Loop	-10.5044
protobuf	-10.5045
-0	-10.5062
▁elements	-10.5063
beans	-10.5063
▁reserved	-10.5063
Run	-10.5068
::__	-10.5071
▁Inc	-10.5073
▁Function	-10.5086
2::	-10.5093
collection	-10.5096
▁active	-10.51
Fields	-10.5104
sdk	-10.5136
▁THIS	-10.5139
round	-10.514
▁returned	-10.5147
stmt	-10.5156
basic	-10.5163
video	-10.5166
▁graph	-10.5166
▁Text	-10.5178
listener	-10.5181
contract	-10.5185
balance	-10.5185
signature	-10.5191
commit	-10.5193
START	-10.5197
mysql	-10.5198
recv	-10.52
▁single	-10.5202
flush	-10.5203
-6"	-10.5206
Unknown	-10.5207
Cursor	-10.5208
poll	-10.521
Zero	-10.521
reply	-10.5211
merge	-10.5217
prev	-10.5222
mapper	-10.5225
expression	-10.5229
lo	-10.5231
cpu	-10.5233
sender	-10.5239
ts	-10.5239
▁Field	-10.5251
▁ref	-10.5266
44	-10.5271
▁ON	-10.5278
▁Throwable	-10.5281
▁st	-10.5286
Job	-10.5295
01	-10.5299
ines	-10.5304
▁parser	-10.5311
Visitor	-10.5311
Success	-10.5316
80	-10.5317
channels	-10.5333
▁answer	-10.5336
MAP	-10.5337
="/	-10.5343
Current	-10.5346
plane	-10.5361
IMAGE	-10.5366
BUFFER	-10.5366
FAILURE	-10.5366
Scalar	-10.5367
▁amount	-10.5373
est	-10.5375
▁Intent	-10.539
big	-10.5393
Ext	-10.5401
&&	-10.5408
29	-10.5408
▁vr	-10.5409
CASE	-10.5412
Timer	-10.5419
▁12	-10.5428
▁7,	-10.5429
-4">	-10.5431
Detail	-10.5445
19	-10.5454
ALL	-10.5464
▁feature	-10.5465
schedule	-10.5466
▁inner	-10.5474
4.	-10.5474
▁sender	-10.5476
▁Connection	-10.549
helper	-10.5503
▁icon	-10.5506
timestamps	-10.5509
nio	-10.5513
screen	-10.5514
><?	-10.5514
(3)	-10.5515
Move	-10.5516
=1;	-10.5517
room	-10.5524
cluster	-10.5525
▁flex	-10.553
folder	-10.5532
setting	-10.5535
tuple	-10.554
Permission	-10.554
▁BigDecimal	-10.5549
▁Token	-10.5551
▁Foundation	-10.556
▁previous	-10.5563
▁mask	-10.5565
note	-10.5569
threshold	-10.5569
logout	-10.5571
axis	-10.5576
wasm	-10.5576
runner	-10.558
socket	-10.5582
driver	-10.5585
uuid	-10.5589
based	-10.559
You	-10.5591
Err	-10.5595
generate	-10.5602
Sample	-10.5608
▁Example	-10.561
nullptr	-10.5615
▁cnt	-10.5617
▁common	-10.5619
zone	-10.5632
tbl	-10.564
)*	-10.5645
▁{{--	-10.5647
DataType	-10.5654
Trait	-10.5655
▁both	-10.5657
▁original	-10.5659
▁drop	-10.5675
columns	-10.5682
components	-10.5683
▁15	-10.5684
xx	-10.5692
▁fields	-10.5694
▁se	-10.5698
ws	-10.5699
Room	-10.5699
Space	-10.5699
stereo	-10.57
▁initialize	-10.57
blocksocial	-10.57
AT	-10.5701
▁6	-10.5702
ADN	-10.5703
71	-10.571
CARD	-10.5715
▁explicit	-10.5716
SUCCESS	-10.5721
▁'',	-10.5723
cin	-10.5737
▁margin	-10.5759
streams	-10.5767
▁requires	-10.5777
ser	-10.5778
Information	-10.578
▁Java	-10.5781
gtest	-10.5782
Character	-10.5784
hh	-10.5788
▁pool	-10.5796
▁Display	-10.5805
Host	-10.5807
-2">	-10.5827
Report	-10.5832
▁prev	-10.5834
da	-10.5836
0)	-10.584
ic	-10.5841
Card	-10.5843
Transaction	-10.5849
Transformer	-10.5862
dialog	-10.5863
Begin	-10.5863
▁document	-10.5865
Var	-10.5869
▁chunk	-10.5869
high	-10.587
di	-10.5874
Rect	-10.588
EN	-10.5886
step	-10.5889
Project	-10.5897
program	-10.5903
><?=	-10.591
PathBuf	-10.5913
flow	-10.5916
Mutex	-10.5916
trait	-10.5917
▁reset	-10.5919
▁container	-10.5921
▁Page	-10.5924
8]	-10.5925
click	-10.5925
cargo	-10.5936
white	-10.5936
shop	-10.5936
executor	-10.5937
Print	-10.5938
remote	-10.5943
Carbon	-10.5945
wrap	-10.5945
cursor	-10.595
rating	-10.5951
checked	-10.5951
transfer	-10.5955
▁full	-10.5956
ur	-10.5958
depth	-10.5961
symbol	-10.5961
Remove	-10.5962
▁property	-10.5964
,0	-10.5969
classes	-10.5974
setup	-10.5976
course	-10.5983
timer	-10.5989
▁our	-10.5991
▁like	-10.5997
▁Permission	-10.6014
Net	-10.6016
="">	-10.6018
▁sort	-10.6019
mo	-10.6031
MODE	-10.6032
Selector	-10.6036
NonNull	-10.6044
blank	-10.6044
mobile	-10.6044
METHOD	-10.6045
atomic	-10.6045
FAILED	-10.6045
JsonProperty	-10.6048
graphics	-10.6049
▁onclick	-10.6049
COL	-10.6061
EXIT	-10.6063
▁enable	-10.6063
▁between	-10.6067
Addr	-10.6068
lso	-10.6072
▁email	-10.6078
Const	-10.6082
▁Py	-10.6084
)|	-10.6088
▁multiple	-10.6097
▁resp	-10.6101
sk	-10.6104
Tool	-10.6122
IP	-10.6125
6,	-10.6136
▁PROVIDE	-10.615
ml	-10.6156
cols	-10.6166
▁BY	-10.6171
AL	-10.6172
Tab	-10.6174
)?)	-10.618
▁bg	-10.6193
▁doc	-10.6194
Scale	-10.6194
aws	-10.6197
▁define	-10.6206
▁per	-10.6206
▁Start	-10.621
▁stop	-10.6212
8],	-10.6224
-------------	-10.6232
fragment	-10.6234
Security	-10.6242
▁person	-10.6267
pin	-10.6269
inputs	-10.6272
[1]);	-10.6273
▁success	-10.6274
▁rand	-10.6275
[1];	-10.6279
Values	-10.6279
Graph	-10.6282
ge	-10.6285
future	-10.6286
scope	-10.6288
TEXT	-10.6296
migrations	-10.6297
prop	-10.6298
argument	-10.63
`](	-10.63
activity	-10.6308
doesn	-10.6309
Selected	-10.6309
Top	-10.6315
assign	-10.632
ffi	-10.6328
proxy	-10.6329
Random	-10.6329
\"	-10.6331
duration	-10.6332
▁additional	-10.6333
entries	-10.6334
Single	-10.6335
te	-10.6339
▁parts	-10.6339
Future	-10.6344
)?	-10.6351
operation	-10.6353
▁metadata	-10.6363
ff	-10.6363
▁engine	-10.6378
06	-10.6383
▁My	-10.6389
bo	-10.6396
FLOAT	-10.6402
FORMAT	-10.6402
plus	-10.6405
/'.$	-10.6406
redis	-10.6406
の	-10.6407
*>(	-10.6409
Selection	-10.6413
mt	-10.6432
PI	-10.6433
ec	-10.6437
plain	-10.6439
Rate	-10.6441
▁XML	-10.6442
are	-10.6443
▁through	-10.6445
▁whe	-10.6447
exceptions	-10.6459
Repo	-10.6473
3;	-10.6487
00,	-10.6489
▁Offset	-10.649
}")	-10.6495
Script	-10.6496
▁body	-10.6503
Dir	-10.651
"];	-10.6521
rm	-10.6538
▁loaded	-10.654
Pattern	-10.6544
sprintf	-10.6563
DTO	-10.6569
rp	-10.6569
▁Task	-10.6572
▁IllegalA	-10.6576
▁lines	-10.6585
▁func	-10.6591
Feature	-10.66
9,	-10.6601
▁mock	-10.6601
Direction	-10.6608
▁compact	-10.6608
▁center	-10.662
fb	-10.6623
▁cmd	-10.6623
"],	-10.6623
▁100	-10.663
Mesh	-10.6634
getClass	-10.6635
hour	-10.6652
git	-10.6653
DX	-10.6659
low	-10.6661
flat	-10.6666
enable	-10.6668
▁category	-10.667
▁10,	-10.667
Func	-10.6676
▁about	-10.6676
▁apply	-10.6678
▁Read	-10.6682
Names	-10.6689
ve	-10.6689
protocol	-10.6689
Library	-10.669
variant	-10.669
let	-10.6692
keyword	-10.6693
▁off	-10.6694
persistence	-10.67
Validation	-10.6701
Lock	-10.6701
"><?	-10.6702
echo	-10.6706
Chain	-10.6709
09	-10.6712
regex	-10.6719
black	-10.6721
Audio	-10.6722
secret	-10.6723
policy	-10.6726
▁routes	-10.6727
Intent	-10.6727
fee	-10.673
▁ERROR	-10.6739
canvas	-10.6739
children	-10.674
lhs	-10.674
owner	-10.674
▁expr	-10.674
library	-10.6744
▁Player	-10.6748
descriptor	-10.6748
apply	-10.6755
MS	-10.6759
bd	-10.6766
Inject	-10.6768
foreign	-10.677
barang	-10.6772
Dependency	-10.6772
Quantity	-10.6772
▁HOLDER	-10.6772
delivery	-10.6772
codigo	-10.6772
overlay	-10.6773
['<{	-10.6773
STATE	-10.6773
textarea	-10.6783
unix	-10.6786
<=	-10.6786
▁fs	-10.6787
▁BE	-10.6791
Counter	-10.68
▁bind	-10.6802
▁allow	-10.6803
▁users	-10.6806
▁KEY	-10.6813
-1)	-10.6816
▁otherwise	-10.6822
▁contract	-10.6823
▁isize	-10.6827
▁State	-10.6828
▁Yii	-10.6829
cerr	-10.6831
Variable	-10.6838
▁returns	-10.684
26	-10.6853
▁"#	-10.686
▁console	-10.6861
▁perform	-10.6863
▁via	-10.6865
▁depth	-10.6867
tasks	-10.6877
2:	-10.6906
-5	-10.6914
Ad	-10.6927
setName	-10.6927
lu	-10.6944
ios	-10.6947
bb	-10.695
▁Key	-10.695
aload	-10.6964
Return	-10.697
HttpServlet	-10.6977
▁runtime	-10.6985
Extra	-10.6985
Setting	-10.6989
setValue	-10.6993
▁exist	-10.6994
▁permission	-10.701
Transform	-10.702
1(	-10.7023
abc	-10.7032
names	-10.7035
Child	-10.7038
Items	-10.7045
▁ImGui	-10.7047
▁QString	-10.7047
▁generated	-10.7048
ba	-10.705
visit	-10.7057
▁Iterator	-10.7058
▁definition	-10.7059
Strategy	-10.7062
works	-10.7068
blocks	-10.7069
▁login	-10.7071
▁methods	-10.7075
HTTP	-10.7076
▁different	-10.7081
Condition	-10.7081
photo	-10.7087
ru	-10.7088
Enable	-10.7091
va	-10.7093
READ	-10.7093
Root	-10.7097
ssertFalse	-10.7099
delta	-10.71
▁INT	-10.7107
breadcrumb	-10.7109
Global	-10.7109
▁matches	-10.7109
libs	-10.7114
▁-1)	-10.7115
▁Category	-10.7115
clippy	-10.7116
network	-10.7118
▁modify	-10.7118
commons	-10.7119
Normal	-10.7119
family	-10.7124
chat	-10.7124
Cloud	-10.7131
ent	-10.7131
Tensor	-10.7133
RGB	-10.7133
▁added	-10.7137
4:	-10.7139
!("{}	-10.7139
yield	-10.714
FIELD	-10.7147
lookup	-10.7149
serializing	-10.7151
developer	-10.7153
Draw	-10.7154
standard	-10.7155
▁50	-10.7156
CodeStructure	-10.7157
millis	-10.7158
!("{:?}",	-10.7159
dark	-10.716
▁passed	-10.716
8])	-10.716
▁EXPRESS	-10.7164
Primitive	-10.7164
alias	-10.7172
NotFound	-10.7173
▁future	-10.7175
▁close	-10.7193
mutex	-10.72
1'	-10.72
▁7	-10.7203
parameters	-10.7204
▁HTTP	-10.7206
▁meta	-10.7216
included	-10.7218
ast	-10.7224
tex	-10.7225
(3,	-10.7226
▁them	-10.7229
▁these	-10.7233
helpers	-10.7235
sizeof	-10.7236
▁swap	-10.7242
▁Auto	-10.7242
Processor	-10.7243
▁region	-10.7244
ry	-10.7244
ERR	-10.7244
е	-10.7248
Actions	-10.7249
_1_	-10.7256
▁expression	-10.7256
dp	-10.7256
--;	-10.7258
▁iter	-10.7259
ORM	-10.726
()){	-10.7261
Columns	-10.7267
▁structure	-10.727
▁how	-10.7277
▁identifier	-10.7283
testing	-10.7298
▁Custom	-10.7305
ra	-10.7306
stdio	-10.7308
Article	-10.7318
pro	-10.7326
ro	-10.7332
Internal	-10.7342
▁cross	-10.7344
sun	-10.7346
ring	-10.7348
opts	-10.7358
ab	-10.736
bad	-10.7367
++]	-10.7375
cv	-10.738
pk	-10.7384
▁OUT	-10.7386
▁Product	-10.7405
xF	-10.7411
linear	-10.742
cd	-10.742
many	-10.7425
▁convert	-10.7438
64>	-10.744
▁web	-10.7442
vo	-10.7443
df	-10.7451
▁\"	-10.7454
dr	-10.7454
Contact	-10.7454
▁Math	-10.7461
ho	-10.7468
▁decode	-10.747
rt	-10.7479
▁features	-10.7479
av	-10.748
team	-10.7487
Step	-10.7488
▁pre	-10.7488
▁HashSet	-10.7494
Byte	-10.7496
resp	-10.7498
7.	-10.7502
over	-10.7504
ABILITY	-10.7505
userdata	-10.7505
Camera	-10.7514
sign	-10.7519
Build	-10.752
Media	-10.7524
Actor	-10.7526
▁Write	-10.7527
▁descriptor	-10.7527
▁draw	-10.7527
▁Query	-10.7528
resize	-10.7533
boot	-10.7537
▁payload	-10.7537
mapping	-10.7539
HALL	-10.7541
erase	-10.7543
headers	-10.7546
ARRAY	-10.7546
backend	-10.7548
INPUT	-10.7551
distance	-10.7551
TIME	-10.7552
Submit	-10.7552
swap	-10.7553
Before	-10.7553
dismiss	-10.7557
WIDTH	-10.7557
Prefix	-10.7557
Utf	-10.7557
▁least	-10.7557
',['	-10.7557
epoch	-10.7558
grey	-10.7558
prepare	-10.756
▁again	-10.756
Win	-10.7562
primaryKey	-10.7564
▁calculate	-10.7564
Bar	-10.7566
99	-10.7573
▁terms	-10.7575
quantity	-10.7577
BASE	-10.7578
Network	-10.7578
▁because	-10.7579
missing	-10.758
failure	-10.7581
JSON	-10.7581
▁Main	-10.7584
bold	-10.7585
dash	-10.7586
▁contain	-10.7589
Delta	-10.7593
▁cluster	-10.7599
when	-10.7601
▁back	-10.7601
elseif	-10.7611
▁layer	-10.7622
{}",	-10.7625
namespace	-10.7626
▁control	-10.7639
▁edit	-10.7643
stdout	-10.7649
arguments	-10.765
pl	-10.7651
HH	-10.7651
▁remote	-10.7658
;&	-10.7662
▁menu	-10.7664
RO	-10.7666
board	-10.7673
UN	-10.7678
▁Scanner	-10.768
▁pattern	-10.7683
▁normal	-10.7685
defined	-10.7698
▁trans	-10.7703
1),	-10.7708
layouts	-10.771
delay	-10.7711
ace	-10.7714
07	-10.7721
(2);	-10.7732
▁DEFAULT	-10.7735
macros	-10.7736
proc	-10.7737
-1);	-10.7742
▁background	-10.7766
▁removed	-10.7776
3:	-10.7781
▁maximum	-10.7786
times	-10.7794
Constant	-10.7805
▁names	-10.7805
▁el	-10.7809
shift	-10.7811
extra	-10.7822
kit	-10.7842
De	-10.7844
▁kind	-10.7852
▁statement	-10.7853
▁в	-10.7853
▁Author	-10.7855
Enabled	-10.7856
agent	-10.7857
▁Game	-10.7866
Binary	-10.7873
23	-10.7888
Flags	-10.7888
▁dest	-10.7899
▁30	-10.7912
'])->	-10.7914
▁Interrupt	-10.7916
Executor	-10.7919
jo	-10.7923
Team	-10.7927
Files	-10.7942
par	-10.7952
forge	-10.7955
ta	-10.7955
controls	-10.7959
strict	-10.7963
▁Optional	-10.7964
bank	-10.7965
period	-10.7968
SET	-10.7972
▁Into	-10.7973
tmproductvideos	-10.7973
RIGHT	-10.7973
▁synchronize	-10.7973
▁would	-10.7973
▁copies	-10.7973
enumerate	-10.7973
banner	-10.7973
▁during	-10.7973
NAMESPACE	-10.7974
▁successfully	-10.7974
unchecked	-10.7974
glyphicon	-10.7975
Shared	-10.7977
training	-10.7977
RequestMapping	-10.7978
Cluster	-10.7979
warn	-10.7982
upiter	-10.7982
generic	-10.7983
csv	-10.7984
Usage	-10.7985
hex	-10.7987
DELETE	-10.799
PC	-10.799
Payload	-10.7991
128	-10.7993
peer	-10.7994
▁custom	-10.7994
phi	-10.7996
accept	-10.7996
Author	-10.7998
demo	-10.7999
▁'0'	-10.8001
▁gen	-10.8001
▁numbers	-10.8003
wi	-10.8003
heading	-10.8005
Section	-10.801
▁children	-10.801
surface	-10.8012
Exists	-10.8013
▁Service	-10.8013
Symbol	-10.8014
▁MAX	-10.8019
CONFIG	-10.8019
Sequence	-10.8021
5>	-10.8022
Surface	-10.8023
▁[0	-10.8026
Web	-10.8026
bundle	-10.8026
rect	-10.8026
▁Project	-10.8027
Total	-10.8027
▁charset	-10.8035
▁useful	-10.8037
references	-10.8038
Any	-10.8042
slf	-10.8046
▁batch	-10.8048
emit	-10.8049
original	-10.805
32::	-10.8052
directory	-10.8053
Kernel	-10.8054
same	-10.8056
▁socket	-10.8061
Sum	-10.807
only	-10.8076
▁operations	-10.8078
▁invalid	-10.8082
数据	-10.8085
traits	-10.8086
real	-10.8094
<'_>	-10.8095
getKey	-10.81
▁Template	-10.8105
[2];	-10.8106
▁existing	-10.8108
Scene	-10.8109
▁city	-10.8109
▁que	-10.8119
Elements	-10.8127
IT	-10.8128
RED	-10.8129
▁Array	-10.8131
nom	-10.8138
▁Duration	-10.8139
▁SP	-10.8139
▁edge	-10.814
-100	-10.8146
▁INCLUDING	-10.8148
userId	-10.8156
▁foo	-10.8165
hot	-10.8172
Requests	-10.8195
]]	-10.8198
Receiver	-10.8211
=\"	-10.8231
▁don	-10.8231
▁Construct	-10.8242
▁texture	-10.8242
▁Address	-10.8247
nome	-10.8247
ir	-10.825
ance	-10.8251
▁volume	-10.8251
="#"	-10.8261
links	-10.8262
▁head	-10.8262
▁opt	-10.8269
▁zero	-10.827
▁channels	-10.8274
TH	-10.8284
dot	-10.829
ct	-10.8292
▁'\	-10.8294
▁11	-10.8295
[1],	-10.8296
cart	-10.8305
pending	-10.8316
▁{:?}	-10.8332
chart	-10.8333
▁Status	-10.8355
Priority	-10.8356
tracker	-10.8362
))]	-10.8365
Annotation	-10.8373
Program	-10.8373
Users	-10.8375
▁failure	-10.8382
Customer	-10.8385
▁stroke	-10.8386
frames	-10.8388
▁2021	-10.8392
ter	-10.8394
lin	-10.8398
Algorithm	-10.8402
stock	-10.8404
Math	-10.8405
COUNT	-10.8407
信息	-10.8408
anonymous	-10.8408
▁CONTRIBUTORS	-10.8408
something	-10.8408
Suppress	-10.8408
▁Redistribution	-10.8408
Blueprint	-10.8409
dInstanceState	-10.8409
PORT	-10.8409
LIST	-10.8409
Transport	-10.8409
Backend	-10.841
Cannot	-10.841
DESC	-10.8413
(0).	-10.8413
orderBy	-10.8413
MM	-10.8423
▁8	-10.8426
▁LIABLE	-10.8429
Area	-10.8432
▁relative	-10.8436
▁lazy	-10.8438
Example	-10.8447
▁canvas	-10.8447
▁lhs	-10.8447
getLogger	-10.8448
article	-10.8448
17	-10.8452
student	-10.8453
cookie	-10.8455
OutputStream	-10.8456
▁rows	-10.8458
extension	-10.8465
Word	-10.8465
=1	-10.8469
▁?>">	-10.847
IR	-10.8472
permission	-10.8473
Meta	-10.8476
Parse	-10.8479
Attributes	-10.8481
native	-10.8485
ViewById	-10.8486
Void	-10.8487
▁9	-10.8487
▁Block	-10.8491
material	-10.8492
Power	-10.8492
transport	-10.8495
Generic	-10.8501
play	-10.8502
▁transfer	-10.8503
Bits	-10.8504
Changed	-10.8506
▁Order	-10.8512
middleware	-10.8513
calc	-10.8516
notify	-10.8519
registry	-10.852
▁EVENT	-10.8523
Throwable	-10.8525
about	-10.8526
FilePath	-10.8527
asMany	-10.8531
▁'/	-10.8534
placeholder	-10.8536
two	-10.8537
▁Entity	-10.8538
vm	-10.8539
▁being	-10.8539
crypto	-10.8557
Operations	-10.856
Authorization	-10.8571
county	-10.8571
33	-10.8573
dc	-10.8575
Mut	-10.8578
dst	-10.8582
stats	-10.8583
Ui	-10.8585
▁packet	-10.859
scan	-10.8593
ow	-10.8597
ls	-10.8604
weights	-10.8604
words	-10.8608
▁actual	-10.8609
▁objects	-10.8621
▁URI	-10.8627
mid	-10.863
▁way	-10.8632
pid	-10.8633
FromFile	-10.8634
▁JSONObject	-10.8634
`,	-10.8638
getY	-10.8643
▁nodes	-10.865
"].	-10.8654
OPT	-10.8656
bt	-10.8671
seq	-10.8674
▁limit	-10.8679
▁con	-10.8681
▁aux	-10.8683
▁iterator	-10.8684
ang	-10.8686
04	-10.8694
!",	-10.87
plan	-10.8702
getX	-10.8707
▁DWORD	-10.8714
▁ll	-10.873
▁identity	-10.873
Len	-10.8736
▁registry	-10.8739
ions	-10.8741
sc	-10.8748
ById	-10.8748
face	-10.8768
cli	-10.8768
After	-10.8769
▁su	-10.8773
▁flag	-10.8777
Theme	-10.8787
===============	-10.8788
2000	-10.879
customer	-10.8791
utc	-10.8802
▁URL	-10.8808
Observer	-10.8809
▁World	-10.8823
cr	-10.8824
Side	-10.8824
<>(	-10.8829
ratio	-10.8832
16(	-10.8832
Case	-10.8838
sel	-10.8842
Namespace	-10.8846
(2)	-10.8853
▁prefix	-10.8856
Spec	-10.886
sock	-10.8861
FUNCTION	-10.8862
department	-10.8862
为	-10.8862
Decimal	-10.8862
LENGTH	-10.8863
denizen	-10.8863
Owned	-10.8863
ặ	-10.8863
▁warranty	-10.8863
MESS	-10.8863
LEFT	-10.8863
Factories	-10.8863
Encoder	-10.8863
LINE	-10.8864
▁DAMAGES	-10.8866
▁Local	-10.8869
','$	-10.8875
▁pass	-10.8878
Particle	-10.8882
60	-10.8882
some	-10.8886
structopt	-10.8887
Required	-10.8888
sec	-10.8892
000	-10.8896
▁6,	-10.8897
loc	-10.8901
-8">	-10.8902
Pixel	-10.8903
▁their	-10.8905
Car	-10.8905
4/	-10.8911
ant	-10.8913
reflect	-10.8916
▁Open	-10.8919
Valid	-10.892
▁criterion	-10.8924
rel	-10.8926
Producer	-10.8929
Getter	-10.8934
adapter	-10.8939
rank	-10.8949
CODE	-10.895
▁Storage	-10.8952
history	-10.8956
ver	-10.8963
normal	-10.8964
instruction	-10.8964
▁compare	-10.8966
Conversion	-10.8967
Driver	-10.897
ServiceProvider	-10.897
Employee	-10.8973
chunk	-10.8975
Basic	-10.8977
place	-10.8978
Dynamic	-10.8982
parameter	-10.8983
▁characters	-10.8991
Serializer	-10.8997
getProperty	-10.8997
finish	-10.8999
arc	-10.9
registration	-10.9002
acc	-10.901
chrono	-10.9012
disabled	-10.9013
blue	-10.9015
Cell	-10.9016
8);	-10.902
metrics	-10.9025
Timestamp	-10.9029
lon	-10.903
locale	-10.9031
catch	-10.9036
more	-10.9038
bl	-10.9038
▁Timer	-10.9053
props	-10.9055
56	-10.9057
1"	-10.9058
clock	-10.9062
arch	-10.9064
scheduler	-10.9065
ting	-10.9065
▁generator	-10.9066
interfaces	-10.9073
▁tokens	-10.9077
▁ip	-10.9084
▁LOGGER	-10.9084
▁seed	-10.9097
Res	-10.9102
{}	-10.9105
▁exec	-10.9109
а	-10.9113
views	-10.9113
▁va	-10.9114
}}"	-10.9117
Locale	-10.912
Details	-10.9123
▁PHP	-10.9125
▁pointer	-10.9134
▁transform	-10.9135
▁subject	-10.9145
Canvas	-10.9149
identity	-10.9153
08	-10.9153
rpc	-10.9161
ai	-10.9162
(|(	-10.9167
ev	-10.9171
▁fixed	-10.9172
Runner	-10.9183
▁Code	-10.9186
▁sql	-10.9188
▁they	-10.9205
Track	-10.9206
▁shadow	-10.9207
sse	-10.921
>',	-10.921
▁times	-10.9215
Back	-10.9216
href	-10.9217
▁"%	-10.9218
▁ts	-10.9219
Rotation	-10.922
ie	-10.9231
ss	-10.9239
fp	-10.9242
Segment	-10.9243
-1,	-10.9243
zip	-10.9249
bus	-10.9268
Available	-10.9268
▁When	-10.9272
▁delay	-10.9273
Site	-10.9276
fu	-10.9277
▁vk	-10.9284
+1]	-10.9285
ticket	-10.9294
1",	-10.9294
▁destroy	-10.9303
Pair	-10.9304
serve	-10.9306
actor	-10.9307
▁padding	-10.9312
Metrics	-10.9314
à	-10.9315
#"	-10.9318
Delegate	-10.9325
~	-10.9331
Flow	-10.9333
Release	-10.9335
Final	-10.9337
用户	-10.9337
Encoding	-10.9338
MOVE	-10.9338
名	-10.9338
Mnemonic	-10.9339
><!--	-10.9339
jasperreports	-10.9339
semantic	-10.9339
hadoop	-10.9339
emplace	-10.9339
▁such	-10.9341
▁delta	-10.9345
Center	-10.9345
still	-10.9347
28	-10.935
publish	-10.9357
ASF	-10.9371
▁lib	-10.9371
▁compute	-10.9373
▁ORDER	-10.9374
ak	-10.9378
▁prop	-10.9382
▁profile	-10.9386
ErrorKind	-10.9388
dim	-10.939
▁shared	-10.9391
50	-10.9395
dt	-10.9401
Custom	-10.9406
!=	-10.9408
af	-10.9413
Contract	-10.9414
'=',	-10.9415
lua	-10.9417
▁step	-10.9417
features	-10.9422
STR	-10.9424
▁receive	-10.9427
▁ev	-10.943
<&'	-10.9434
Constraint	-10.9435
Match	-10.9439
%',	-10.9449
employee	-10.9452
}}">	-10.9452
+1	-10.9452
Book	-10.9453
CPP	-10.9456
▁8,	-10.9457
Should	-10.9458
▁skip	-10.9459
cars	-10.946
sprite	-10.946
om	-10.9467
Migration	-10.947
SE	-10.9473
rf	-10.9474
▁curl	-10.9474
compiler	-10.9482
Laravel	-10.9482
decl	-10.9483
Registration	-10.9484
mov	-10.9484
Expected	-10.9486
Vertex	-10.9487
▁4)	-10.9488
▁progress	-10.9493
{"	-10.9494
▁rs	-10.9496
Bank	-10.9497
visible	-10.9499
]),	-10.95
Use	-10.9502
branch	-10.9507
VersionU	-10.9507
Tile	-10.9508
Video	-10.9514
aux	-10.9517
configure	-10.9529
stderr	-10.9533
OUT	-10.9536
70	-10.9538
[0])	-10.9539
Google	-10.9539
radius	-10.9539
▁product	-10.9542
what	-10.9544
simple	-10.9544
indices	-10.9545
▁libc	-10.9545
previous	-10.9546
▁audio	-10.9548
compact	-10.9549
camera	-10.955
SDL	-10.955
verify	-10.9552
▁Simple	-10.9558
found	-10.9559
▁2020	-10.9559
▁since	-10.956
commands	-10.956
▁TreeNode	-10.956
Find	-10.9561
cpy	-10.9565
▁pq	-10.9566
sig	-10.9567
Processing	-10.9568
')}}">	-10.9573
cnt	-10.9574
▁selected	-10.9577
mysqli	-10.9581
.0)	-10.9582
▁Matrix	-10.9596
▁mesh	-10.9597
MIT	-10.9599
▁internal	-10.96
▁columns	-10.9603
300	-10.9618
GE	-10.962
▁indices	-10.9627
+"	-10.9634
sr	-10.9637
▁Html	-10.964
▁rule	-10.9656
▁exists	-10.9659
▁timeout	-10.9662
▁'$	-10.9673
Buf	-10.9673
nd	-10.9679
▁Initialize	-10.9681
1->	-10.9691
8>,	-10.9695
▁slice	-10.9709
")));	-10.9712
▁END	-10.9714
▁notify	-10.9715
Movie	-10.9717
tion	-10.9724
;}	-10.9724
Collections	-10.9725
▁selection	-10.9728
▁da	-10.9733
128,	-10.9743
▁abs	-10.9752
▁Sync	-10.9753
exp	-10.9762
▁post	-10.9773
▁"\"	-10.9775
MC	-10.9783
Join	-10.9787
▁Build	-10.9789
Owner	-10.9804
▁weight	-10.9806
▁unit	-10.9814
1.0	-10.9815
▁IO	-10.9816
Pay	-10.9819
ive	-10.9823
collapse	-10.9824
85	-10.9829
THROW	-10.983
▁Real	-10.9831
Dashboard	-10.9832
BIT	-10.9833
ubernetes	-10.9835
Desc	-10.9837
Worker	-10.9838
mit	-10.9838
用	-10.9839
▁ARISING	-10.9839
▁CONTRACT	-10.9839
jackson	-10.9839
inventory	-10.9839
INVALID	-10.9839
▁0.050000	-10.9839
camel	-10.984
Invoice	-10.984
▁instead	-10.9842
▁yet	-10.9842
faster	-10.9844
SWT	-10.9848
fast	-10.985
32>,	-10.9852
Co	-10.9853
colour	-10.9857
▁possible	-10.9863
stdlib	-10.9865
▁schema	-10.9871
(0.0	-10.9872
Warnings	-10.9877
party	-10.9877
Arr	-10.988
▁black	-10.988
▁enter	-10.9883
▁View	-10.9885
ally	-10.9885
(|_	-10.9894
ce	-10.9896
▁Collection	-10.9897
ы	-10.9898
▁Load	-10.9903
▁symbol	-10.9905
▁later	-10.9906
▁OTHER	-10.9906
▁Remove	-10.9907
▁Rc	-10.9911
是	-10.9913
Pro	-10.9913
train	-10.9916
ode	-10.9923
assertNotNull	-10.9929
▁"")	-10.9942
ck	-10.9942
getInt	-10.9943
ea	-10.9948
▁justify	-10.995
2'	-10.9951
far	-10.9955
▁0.0;	-10.9957
Append	-10.9964
▁dynamic	-10.9967
Mod	-10.9972
16)	-10.9974
▁wrap	-10.9974
Limit	-10.9976
edge	-10.9979
ping	-10.998
Messages	-10.9986
▁xe	-10.9986
exe	-10.9998
▁setup	-11
Protocol	-11.0004
ClassName	-11.001
muted	-11.0014
▁ty	-11.0022
tile	-11.0028
ka	-11.0029
actual	-11.0036
archive	-11.0038
logic	-11.004
6">	-11.0041
summary	-11.0053
Statement	-11.0053
Chunk	-11.0057
variable	-11.0058
▁headers	-11.006
▁pair	-11.0062
Has	-11.0064
answer	-11.0068
Free	-11.0069
CLASS	-11.007
▁ch	-11.0075
beta	-11.0075
+1,	-11.0077
▁Group	-11.008
compute	-11.0081
Down	-11.0084
CH	-11.0085
▁seq	-11.0088
refresh	-11.0088
Clear	-11.0088
Iter	-11.0092
reverse	-11.0093
<_>	-11.0093
llvm	-11.0093
URI	-11.0095
templates	-11.0096
▁Free	-11.0097
7,	-11.0098
deserialize	-11.0101
safe	-11.0102
JSONObject	-11.0105
shell	-11.0105
27	-11.0106
available	-11.0109
yii	-11.011
("\\	-11.011
▁acc	-11.0112
endpoint	-11.0114
factor	-11.012
linked	-11.0121
groups	-11.0122
Comment	-11.0127
▁camera	-11.0128
▁simple	-11.0136
▁native	-11.0137
▁AZ	-11.014
Light	-11.0148
▁ListNode	-11.015
▁Font	-11.0151
Folder	-11.0155
▁lua	-11.0158
▁alloc	-11.0162
rx	-11.0167
(3);	-11.0169
▁distribution	-11.0175
▁signal	-11.0179
▁visitor	-11.0182
▁scanf	-11.0185
that	-11.0188
▁filename	-11.0197
▁loc	-11.0204
▁events	-11.0205
37	-11.0206
Sort	-11.0211
ans	-11.0215
▁space	-11.0217
deleted	-11.0219
▁validation	-11.0221
▁peer	-11.0221
xa	-11.0222
▁Un	-11.0242
uk	-11.0244
▁Method	-11.0247
parts	-11.0249
-10	-11.025
97	-11.0255
BA	-11.0257
▁Post	-11.026
▁encoding	-11.0266
▁contents	-11.0267
Ids	-11.0287
")).	-11.0291
▁cx	-11.0304
▁variables	-11.0307
▁On	-11.0311
▁scene	-11.0312
scalar	-11.0315
Do	-11.0317
MU	-11.0319
[2]);	-11.0326
▁cursor	-11.0328
▁TestCase	-11.0337
▁**/	-11.0342
sRef	-11.0344
seconds	-11.0344
escape	-11.0352
▁ec	-11.0358
▁speed	-11.0358
WRITE	-11.036
ENABLE	-11.036
Distance	-11.0363
Trigger	-11.0363
Welcome	-11.0365
Progress	-11.0365
kuliah	-11.0365
brotli	-11.0365
SYSTEM	-11.0365
OBJECT	-11.0365
including	-11.0365
Entities	-11.0365
Middleware	-11.0365
mockito	-11.0365
WRAP	-11.0365
yaml	-11.0365
secondary	-11.0366
▁HRESULT	-11.0366
\":\"	-11.0367
ADDR	-11.0367
alamat	-11.037
popup	-11.037
▁standard	-11.0371
▁2018	-11.0373
sd	-11.0373
NS	-11.0375
EventListener	-11.0376
onDelete	-11.0379
Tags	-11.038
Filesystem	-11.0381
▁Execute	-11.0386
▁del	-11.0386
CALL	-11.0388
数	-11.0393
▁Account	-11.0399
LoggerFactory	-11.0399
▁Foo	-11.0405
[2],	-11.0407
▁TABLE	-11.0408
Created	-11.0408
na	-11.041
▁sequence	-11.0412
▁stored	-11.0414
<_>>()	-11.0421
▁callback	-11.0423
tcx	-11.0425
loader	-11.0427
Off	-11.043
country	-11.043
▁ros	-11.0435
▁die	-11.0438
CA	-11.0442
▁below	-11.0443
theta	-11.0446
TreeNode	-11.0447
fc	-11.0448
▁Print	-11.045
CL	-11.0456
▁layout	-11.0457
▁Random	-11.0459
▁provide	-11.0459
ut	-11.0461
tu	-11.0462
▁tx	-11.0481
▁sent	-11.0481
▁setUp	-11.0482
▁ensure	-11.0483
▁flags	-11.0483
▁/*!	-11.0487
▁dfs	-11.0488
▁correct	-11.049
2/	-11.0492
▁esc	-11.0493
coll	-11.0494
sb	-11.0495
je	-11.0502
▁4;	-11.051
▁img	-11.0512
8(	-11.0513
▁panel	-11.0515
Payment	-11.0517
▁xkb	-11.0531
▁driver	-11.0542
▁IF	-11.0544
PER	-11.0548
uv	-11.0549
▁??	-11.0552
SZ	-11.0552
▁para	-11.0558
Unique	-11.056
▁rgb	-11.0567
rv	-11.0567
▁и	-11.0573
▁strings	-11.0576
pagination	-11.0584
Constructor	-11.0585
fstream	-11.059
▁take	-11.0593
Asset	-11.0597
et	-11.06
▁16	-11.0601
▁todo	-11.0602
▁"+	-11.0606
Fail	-11.061
fire	-11.0614
Panel	-11.0615
solver	-11.0618
topic	-11.0621
64::	-11.0623
▁equal	-11.0624
near	-11.0625
Browser	-11.0628
Env	-11.063
▁onClick	-11.0631
Arg	-11.0631
audio	-11.0632
quote	-11.0632
ignore	-11.0635
▁safe	-11.0637
structure	-11.0638
Variant	-11.0639
▁//$	-11.0639
▁cpu	-11.0646
ST	-11.0649
upper	-11.065
Your	-11.0652
Sender	-11.0654
▁seen	-11.0655
latest	-11.0656
Execution	-11.066
Editor	-11.0663
Platform	-11.0663
usage	-11.0669
rgb	-11.067
▁article	-11.0673
effect	-11.0677
Quaternion	-11.0677
constraints	-11.068
extract	-11.068
heap	-11.068
loot	-11.0681
▁trace	-11.0681
authentication	-11.0681
Bind	-11.0681
sym	-11.0683
▁what	-11.0687
▁cell	-11.0688
icons	-11.0689
INCLUDING	-11.069
Timeout	-11.0694
▁turn	-11.0694
▁//~	-11.0697
operand	-11.0698
BOOST	-11.0699
pipe	-11.07
ri	-11.0701
51	-11.0702
seed	-11.0708
▁St	-11.0708
must	-11.071
kt	-11.0716
▁Memory	-11.0716
▁fileName	-11.0724
92	-11.0737
▁1000	-11.0738
ity	-11.0742
▁le	-11.0743
1];	-11.0749
trans	-11.075
scripts	-11.0753
[4]	-11.0753
一个	-11.0755
Objects	-11.0763
------------	-11.0764
▁three	-11.0768
dm	-11.0784
globals	-11.0785
▁scan	-11.0787
76	-11.0787
▁phone	-11.0794
edException	-11.0798
▁network	-11.0802
(((	-11.0812
▁done	-11.0815
▁1024	-11.0821
▁mapping	-11.0823
0;	-11.0837
▁curr	-11.0837
68	-11.0843
sz	-11.0843
ized	-11.0848
▁support	-11.0855
Idx	-11.0862
▁Transaction	-11.0863
Triangle	-11.0865
▁allowed	-11.087
▁proc	-11.0873
exchange	-11.0875
(5)	-11.0877
whitelist	-11.0878
é	-11.088
quot	-11.0881
ONE	-11.0881
10,	-11.0886
asm	-11.0895
Failure	-11.0898
▁constant	-11.0904
PARAM	-11.0909
Pane	-11.0915
fonts	-11.0916
repeat	-11.0917
Present	-11.0917
eng	-11.0919
SPEC	-11.0921
COLUMN	-11.0921
▁WHETHER	-11.0921
TRACK	-11.0921
peek	-11.0921
catalog	-11.0921
OnClickListener	-11.0921
radix	-11.0921
▁every	-11.0921
unordered	-11.0921
TestStruct	-11.0924
类	-11.0928
Chart	-11.0928
threads	-11.0928
trade	-11.0929
Assign	-11.0931
hide	-11.0934
hero	-11.0934
ator	-11.0938
▁another	-11.0939
cm	-11.0941
parseInt	-11.0945
CM	-11.0948
▁Reverse	-11.0948
ze	-11.0951
pcap	-11.0952
cert	-11.0954
▁BSD	-11.0959
he	-11.0962
CHAR	-11.0963
54	-11.0969
..."	-11.098
▁Resource	-11.0983
▁FALSE	-11.0986
cam	-11.0989
▁Settings	-11.0995
▁Filter	-11.0998
▁uri	-11.0999
▁word	-11.1009
▁по	-11.101
▁receiver	-11.1015
lp	-11.1017
▁entries	-11.1026
▁win	-11.1028
mu	-11.1028
▁mat	-11.1032
que	-11.1034
Doc	-11.1036
▁clazz	-11.1045
▁Grid	-11.1046
▁Any	-11.1052
Setup	-11.1053
See	-11.1057
secs	-11.1058
bc	-11.1061
▁running	-11.1063
{0};	-11.1064
Grid	-11.1067
▁requested	-11.1073
album	-11.108
getPath	-11.1083
forms	-11.1083
solid	-11.1083
▁positive	-11.1095
0000	-11.1098
]))	-11.1098
▁reverse	-11.1103
▁day	-11.1114
switch	-11.1115
pv	-11.1121
▁Target	-11.1126
▁runner	-11.1127
Headers	-11.1129
themes	-11.1134
loaded	-11.1143
▁conversion	-11.1148
▁CSS	-11.1149
▁sym	-11.1158
pen	-11.1163
▁detail	-11.1166
▁Identifier	-11.1167
▁tags	-11.1169
▁Int	-11.1169
StringUtils	-11.1171
▁Constructor	-11.1174
pi	-11.1177
eta	-11.1179
▁negative	-11.1195
Chat	-11.1196
Pose	-11.12
[\	-11.1212
4);	-11.1213
SL	-11.1214
不	-11.1214
▁TS	-11.1218
]=	-11.1218
▁solve	-11.1219
+=	-11.1222
^^	-11.1224
bf	-11.1224
Question	-11.1228
1[	-11.1239
Receive	-11.1247
rep	-11.1248
comp	-11.125
complex	-11.1251
bucket	-11.1256
resolve	-11.126
TS	-11.1265
IC	-11.1266
fw	-11.1266
()}	-11.1268
▁updated	-11.127
4;	-11.1271
pressed	-11.1272
▁Action	-11.1275
shutdown	-11.1275
▁Session	-11.1282
like	-11.1282
▁mysqli	-11.1285
▁declare	-11.1287
proto	-11.1287
square	-11.1288
▁reading	-11.129
▁messages	-11.129
中	-11.129
Exit	-11.1292
elapsed	-11.1293
▁upgrade	-11.1294
slide	-11.1294
elem	-11.1295
UnityEngine	-11.1296
track	-11.1297
Keys	-11.1299
▁html	-11.13
!</	-11.1301
Serializable	-11.1302
priority	-11.1302
▁real	-11.1302
pull	-11.1303
Only	-11.1304
pd	-11.1306
á	-11.1308
EVENT	-11.1308
progress	-11.1308
53	-11.1309
▁255)	-11.1313
▁note	-11.1317
identifier	-11.1318
▁serialize	-11.1319
Optional	-11.132
before	-11.1321
should	-11.1324
UserController	-11.1327
BE	-11.1339
si	-11.134
APP	-11.1343
▁hop	-11.1347
getAttribute	-11.1354
tail	-11.1362
▁tok	-11.1366
▁'</	-11.1369
▁pack	-11.1379
ment	-11.1387
▁insert	-11.1388
▁mu	-11.1389
==============	-11.1389
ize	-11.1396
>>>	-11.1398
▁clear	-11.1403
▁Email	-11.1415
-9	-11.1425
Compiler	-11.1427
49	-11.1428
fileName	-11.1437
▁"[	-11.1438
▁strto	-11.1442
46	-11.1448
share	-11.145
▁intent	-11.1458
market	-11.1458
39	-11.1458
ever	-11.1461
Lib	-11.1461
Ready	-11.1462
mi	-11.1464
▁Internal	-11.1464
Axis	-11.1468
slider	-11.1473
review	-11.1477
wp	-11.148
Clause	-11.149
▁mid	-11.1492
DAO	-11.1494
win	-11.1498
EX	-11.1498
FLAG	-11.15
▁fd	-11.1502
Publisher	-11.1503
colspan	-11.1503
▁literal	-11.1503
Orientation	-11.1506
Private	-11.1507
pm	-11.1508
RESULT	-11.1508
▁TORT	-11.1508
和	-11.1509
Manifest	-11.1509
出	-11.1509
を	-11.1509
INSERT	-11.1509
▁OTHERWISE	-11.1509
▁disclaimer	-11.1509
Persistence	-11.1509
▁regard	-11.1509
REGEX	-11.1509
▁ownership	-11.1509
flatten	-11.1509
car	-11.1509
RAW	-11.1509
STRING	-11.151
fix	-11.151
eclipse	-11.151
radio	-11.151
leave	-11.1511
GroupLayout	-11.1511
trash	-11.1512
Amount	-11.1512
tech	-11.1512
ByteArray	-11.1513
▁sure	-11.1514
▁made	-11.1517
RequestBody	-11.1519
▁These	-11.152
adwal	-11.1523
▁Transform	-11.1525
▁rx	-11.1527
▁commands	-11.1528
▁inv	-11.1528
OAuth	-11.1529
LE	-11.1529
▁attributes	-11.1532
Conf	-11.1533
▁factory	-11.1534
subscriber	-11.1535
minus	-11.1536
▁calling	-11.1537
▁implement	-11.154
▁"{$	-11.1546
viewport	-11.1549
DO	-11.1556
NEW	-11.1556
[]{	-11.1568
inv	-11.1568
▁Val	-11.157
▁dis	-11.1576
Contracts	-11.1576
▁vertex	-11.1577
▁broadcast	-11.1579
▁keep	-11.1582
▁"<<	-11.1582
52	-11.1583
▁"{}",	-11.1585
▁ns	-11.1586
对象	-11.1588
Db	-11.1588
ind	-11.1589
▁underlying	-11.1589
!{	-11.159
ViewHolder	-11.1592
▁hasher	-11.1597
▁Validator	-11.1598
▁findBy	-11.1599
Language	-11.1599
▁def	-11.1603
▁Convert	-11.1604
sol	-11.1617
▁13:4	-11.1621
▁Future	-11.1622
![0	-11.1622
actions	-11.1624
ln	-11.1635
')}}"	-11.164
iv	-11.1642
gate	-11.1647
getZ	-11.1647
[][]	-11.1654
Archive	-11.1659
Bound	-11.166
▁site	-11.1663
▁repository	-11.1668
▁kernel	-11.1672
keywords	-11.1691
▁fragment	-11.1701
▁extract	-11.1709
21,	-11.1713
Runtime	-11.1716
▁End	-11.1723
geo	-11.1724
Rank	-11.1734
Volume	-11.1734
Parent	-11.1736
ash	-11.1737
▁uuid	-11.1737
oc	-11.1738
($__	-11.174
gc	-11.1749
Sql	-11.1762
4),	-11.1767
textField	-11.1767
Min	-11.177
▁plugin	-11.1772
48	-11.1776
Alert	-11.1777
DIS	-11.1782
▁video	-11.1788
▁DEBUG	-11.1788
(1).	-11.1795
-1]	-11.1795
setAttribute	-11.1795
Reply	-11.1803
▁AL	-11.1804
TE	-11.1806
▁needed	-11.181
Cmd	-11.1814
▁inputs	-11.1816
▁rest	-11.1817
▁Process	-11.1821
90	-11.1822
Guard	-11.1824
bs	-11.1826
2),	-11.183
▁report	-11.1838
▁pt	-11.1838
▁Layout	-11.1841
▁ARE	-11.1841
here	-11.1843
Points	-11.1844
▁40	-11.1855
functions	-11.186
▁$("#	-11.1861
Obj	-11.1862
0.1	-11.1864
▁validator	-11.1868
GO	-11.1871
bla	-11.1874
tool	-11.1878
▁light	-11.188
▁Person	-11.1884
VR	-11.1892
logs	-11.1894
Allocator	-11.1895
Auto	-11.1898
istream	-11.1902
::*,	-11.1902
person	-11.1904
OF	-11.1908
41	-11.1909
tenant	-11.1911
force	-11.1914
▁actor	-11.1914
▁seconds	-11.1917
stdin	-11.1918
delegate	-11.1922
Java	-11.1925
dynamic	-11.1926
acquire	-11.1929
Tuple	-11.1932
completed	-11.1932
analysis	-11.1932
notification	-11.1933
magic	-11.1934
HEADER	-11.1935
-7	-11.1936
▁9,	-11.194
▁UUID	-11.1941
INDEX	-11.1942
machine	-11.1944
▁^	-11.1946
▁"&	-11.1946
Inner	-11.1946
statement	-11.1949
Insert	-11.1949
HttpStatus	-11.1949
prime	-11.195
geometry	-11.1951
unknown	-11.1955
snapshot	-11.1955
▁Invalid	-11.1956
й	-11.1957
▁[](	-11.1958
quick	-11.1962
receive	-11.1964
extend	-11.1965
evaluate	-11.1966
direction	-11.1966
vars	-11.1969
▁du	-11.1973
correct	-11.1976
running	-11.1978
mag	-11.198
bounds	-11.198
20);	-11.1981
selector	-11.1982
receiver	-11.1983
console	-11.1984
nan	-11.1993
▁forward	-11.1994
▁100;	-11.1995
enabled	-11.1996
copyright	-11.1997
tie	-11.1997
Rust	-11.1999
tax	-11.2001
▁represent	-11.2003
outline	-11.2006
▁stats	-11.2009
>>)	-11.2015
reload	-11.2016
▁conf	-11.2017
Warning	-11.2017
▁ACTION	-11.2018
Async	-11.202
Place	-11.2024
404	-11.2036
▁needs	-11.2039
▁emit	-11.204
▁Database	-11.2045
za	-11.205
▁ext	-11.2054
▁accept	-11.2056
▁variant	-11.2059
▁OS	-11.2063
▁actions	-11.207
▁userId	-11.2072
Schedule	-11.2073
Extractor	-11.2076
NODE	-11.2082
fx	-11.2095
################	-11.2101
6:	-11.2102
▁clock	-11.2102
Internet	-11.2104
▁Draw	-11.2111
alt	-11.2111
:49	-11.2111
ARD	-11.2112
Validate	-11.2113
pb	-11.2117
Ignore	-11.2117
Parallel	-11.212
82	-11.2121
///////////////	-11.2126
fake	-11.2127
Bus	-11.2131
返回	-11.2133
relation	-11.2133
gnu	-11.2133
▁great	-11.2133
BUF	-11.2133
third	-11.2134
transition	-11.2134
存	-11.2134
SOURCE	-11.2134
PREFIX	-11.2134
kategori	-11.2134
thumbnail	-11.2134
▁2020-08-	-11.2134
Between	-11.2134
Routing	-11.2134
HEIGHT	-11.2134
Navigation	-11.2134
Biome	-11.2134
▁ngày	-11.2134
cuda	-11.2134
Representation	-11.2135
COLOR	-11.2135
paginate	-11.2135
NOTICE	-11.2136
Presenter	-11.2136
logged	-11.2137
feedback	-11.2137
--)	-11.2138
Decoder	-11.2139
NONE	-11.2139
ABLE	-11.214
InvalidArgument	-11.214
▁Audio	-11.2141
▁lookup	-11.2142
owl	-11.2142
jpa	-11.2142
cube	-11.2146
accounts	-11.2146
Cpp	-11.2146
UP	-11.215
81	-11.2156
▁dev	-11.2161
▁19	-11.2162
CLK	-11.2164
BO	-11.2174
▁5;	-11.2175
▁changed	-11.2181
▁velocity	-11.2184
cycle	-11.2186
srv	-11.2187
partials	-11.2189
▁starting	-11.2194
(4);	-11.2196
▁platform	-11.22
cms	-11.22
pose	-11.2204
▁To	-11.2209
Endpoint	-11.221
signed	-11.2211
▁Str	-11.2214
gi	-11.2214
80,	-11.2215
▁pixels	-11.2224
del	-11.2227
SUM	-11.2234
▁sample	-11.2236
sge	-11.2237
▁utils	-11.2248
▁Direction	-11.225
stm	-11.2253
windows	-11.2258
▁UI	-11.2259
▁10)	-11.2263
▁own	-11.2264
deposit	-11.2267
Edge	-11.2268
▁...	-11.2273
▁nothing	-11.2275
Named	-11.2276
initial	-11.2276
act	-11.2278
Sound	-11.2282
getElementBy	-11.2294
▁avoid	-11.2296
ph	-11.2299
Ch	-11.2301
3-	-11.2306
▁Customer	-11.2308
Reset	-11.231
"+	-11.2311
binding	-11.2315
▁Description	-11.2325
("");	-11.2336
89	-11.2337
65	-11.2338
wire	-11.2342
FORM	-11.2347
"])	-11.2347
axRequestSegment	-11.2364
DE	-11.2366
FileName	-11.2368
Js	-11.2378
pu	-11.2382
▁assume	-11.2388
▁actix	-11.2389
▁DLL	-11.2389
give	-11.2391
USED	-11.2393
▁mysql	-11.2404
enc	-11.2406
▁producer	-11.2407
US	-11.2413
PM	-11.2414
iro	-11.2419
▁basic	-11.2424
▁pin	-11.2429
▁deserialize	-11.2434
▁reqwest	-11.2446
▁So	-11.2464
▁factor	-11.2466
PUT	-11.2466
▁Pr	-11.2474
▁sig	-11.248
getCount	-11.2484
editor	-11.2495
rod	-11.2496
qa	-11.2496
▁Match	-11.2498
▁mx	-11.25
▁track	-11.2503
▁could	-11.2503
▁focus	-11.2505
ke	-11.2508
▁Record	-11.2516
▁1.	-11.2517
▁Google	-11.2524
▁radius	-11.2524
Kit	-11.2524
▁release	-11.253
▁1:	-11.2534
digit	-11.2534
▁"");	-11.2542
▁Pair	-11.2543
Gen	-11.255
?>	-11.255
Connect	-11.255
cas	-11.2552
)?,	-11.2554
100,	-11.2554
▁deleted	-11.2561
▁Do	-11.2564
san	-11.2566
72	-11.2568
Mail	-11.2571
fv	-11.2577
Hit	-11.2578
candidate	-11.258
▁shall	-11.2585
▁Stream	-11.2597
▁Generic	-11.2599
numbers	-11.2601
▁Global	-11.2605
interpret	-11.2607
!"	-11.2608
naive	-11.2611
Weight	-11.2611
Agent	-11.2614
formatter	-11.2623
usuario	-11.2626
tokens	-11.2628
▁master	-11.2628
UPDATE	-11.2628
condition	-11.263
▁keys	-11.2631
indent	-11.2632
STATUS	-11.2632
ROLE	-11.2633
▁desc	-11.2635
2"	-11.2636
slot	-11.2637
ov	-11.2638
▁Position	-11.2639
▁middleware	-11.264
isValid	-11.2642
Branch	-11.2645
Sprite	-11.2646
projects	-11.2647
Compute	-11.2649
▁Constant	-11.265
HANDLE	-11.2652
vertical	-11.2653
▁Fn	-11.2654
rotate	-11.2654
Currency	-11.2655
reason	-11.2656
decrypt	-11.2657
download	-11.2661
ffff	-11.2664
destination	-11.2665
Bitmap	-11.2665
"]);	-11.2666
fExists	-11.267
▁got	-11.2672
▁score	-11.2673
allocator	-11.2674
Trans	-11.2675
Phone	-11.2677
amp	-11.2679
▁overflow	-11.268
Kelvin	-11.2683
dummy	-11.2683
▁rounded	-11.2683
▁1))	-11.2684
Mockito	-11.2684
▁visited	-11.2685
▁changes	-11.2685
dsp	-11.2687
require	-11.269
▁[])	-11.2693
fe	-11.2693
fun	-11.2693
2020	-11.2695
XML	-11.2695
Now	-11.2697
ine	-11.2698
Yii	-11.2699
multiple	-11.2699
Stop	-11.2701
Eigen	-11.2704
▁words	-11.2704
Equals	-11.2704
except	-11.2704
="0"	-11.2706
rhs	-11.2706
edges	-11.2709
▁protocol	-11.2718
▁hex	-11.2721
Price	-11.2726
▁sys	-11.2728
Help	-11.2729
▁Reg	-11.273
Pre	-11.273
glm	-11.2734
▁modified	-11.2739
)}}"	-11.2744
Multiple	-11.2746
▁Toast	-11.2746
Contains	-11.2749
finalize	-11.275
▁fin	-11.2753
you	-11.2754
Month	-11.2758
Work	-11.2763
particle	-11.2768
FR	-11.2771
sent	-11.2771
▁Source	-11.2775
▁AN	-11.2776
throw	-11.2784
▁0.0,	-11.2786
▁Implement	-11.279
Merge	-11.2791
EXCEPTION	-11.2791
provinc	-11.2792
lead	-11.2798
Dispatcher	-11.2798
social	-11.2799
Energy	-11.28
Like	-11.28
LOCATION	-11.28
ADMIN	-11.28
integrity	-11.28
selenium	-11.28
leetcode	-11.2801
TOKEN	-11.2801
▁AUTHOR	-11.2801
SyntacticWarning	-11.2801
UNKNOWN	-11.2801
amazon	-11.2801
25519	-11.2801
gwt	-11.2801
REGISTER	-11.2801
fecha	-11.2801
facebook	-11.2802
HASH	-11.2802
uppercase	-11.2802
mybatis	-11.2802
Deleted	-11.2802
exact	-11.2802
pelanggan	-11.2803
ROOT	-11.2803
RestController	-11.2803
▁power	-11.2804
ARGO	-11.2804
▁lbl	-11.2804
pojo	-11.2806
CV	-11.2807
Loaded	-11.2809
combine	-11.281
Codec	-11.2812
ViewGroup	-11.2813
downcast	-11.2813
▁quote	-11.2814
hasil	-11.2814
▁please	-11.2816
▁Can	-11.2817
oauth	-11.2818
containsKey	-11.282
57	-11.2821
ApiModel	-11.2821
waiter	-11.2822
Received	-11.2823
-1;	-11.2827
cash	-11.2827
='.$	-11.2829
deserializer	-11.283
DOC	-11.283
▁processing	-11.2832
reserve	-11.2832
batis	-11.2835
lite	-11.2841
lat	-11.2849
▁complete	-11.285
labels	-11.2854
iq	-11.2856
"})	-11.2859
avx	-11.2861
persona	-11.2861
8.	-11.2862
norm	-11.2863
ks	-11.2866
boxed	-11.2869
▁FILE	-11.2871
▁finally	-11.2874
▁onCreate	-11.2879
contentType	-11.2882
Uuid	-11.2884
▁help	-11.2885
▁[1,	-11.2885
▁chain	-11.2889
▁low	-11.2891
pa	-11.2893
dup	-11.2898
▁Poll	-11.2908
Stat	-11.291
▁unset	-11.291
orders	-11.2918
11.	-11.2922
▁proxy	-11.2928
▁"$	-11.293
An	-11.293
▁duration	-11.2935
comments	-11.2938
ElementType	-11.2939
fish	-11.294
▁una	-11.294
▁HttpServlet	-11.2941
▁days	-11.2942
▁functions	-11.2943
Upload	-11.2947
▁Async	-11.2951
)$	-11.2958
и	-11.2962
▁shader	-11.2966
66	-11.2968
▁Graph	-11.2977
fft	-11.2981
▁elseif	-11.2984
/{{$	-11.2985
▁Y	-11.2988
Gui	-11.2994
▁1),	-11.2994
High	-11.2998
▁enabled	-11.3004
books	-11.3007
▁provider	-11.3007
extInt	-11.301
▁|=	-11.301
▁glVertex	-11.3013
sin	-11.3015
variants	-11.3017
ped	-11.3017
subscription	-11.3019
79	-11.302
▁encoded	-11.3024
returns	-11.303
checkbox	-11.303
-1">	-11.3032
31,	-11.3033
▁dataSource	-11.3042
▁persons	-11.3045
▁schedules	-11.3048
▁place	-11.3063
reuse	-11.3072
▁unique	-11.3075
▁2]	-11.308
▁New	-11.308
Shape	-11.3081
uses	-11.3092
▁destination	-11.3097
▁authentication	-11.3098
▁fetch	-11.3101
▁board	-11.3101
VO	-11.3104
*>	-11.3106
2",	-11.3117
▁IP	-11.3123
DI	-11.3124
▁sleep	-11.3126
Col	-11.3133
cost	-11.3133
widgets	-11.3137
▁das	-11.314
▁Stack	-11.3146
▁llvm	-11.3159
DataSource	-11.316
▁0),	-11.316
filters	-11.3161
Scan	-11.3165
▁mouse	-11.3166
▁endpoint	-11.3168
WP	-11.3169
▁4]	-11.317
▁alpha	-11.3174
Eq	-11.3176
sa	-11.3179
▁arm	-11.3179
Initial	-11.318
Day	-11.318
3"	-11.3182
vis	-11.3194
▁255,	-11.3198
▁animation	-11.32
1()	-11.3202
▁*=	-11.3208
Services	-11.3218
lit	-11.3219
▁begin	-11.322
83	-11.3227
▁named	-11.3231
Operand	-11.3234
<$	-11.324
▁WITH	-11.3259
▁SQLException	-11.3259
▁Doctrine	-11.3259
kill	-11.3261
enter	-11.3266
og	-11.3269
▁Layer	-11.3271
getLast	-11.3271
Full	-11.3272
▁packets	-11.3273
▁disk	-11.3276
▁Cell	-11.3281
bw	-11.3282
0",	-11.3283
Course	-11.3284
(5);	-11.3285
▁chrono	-11.3287
strings	-11.3291
Ma	-11.3292
Bucket	-11.3293
▁CA	-11.3298
tm	-11.3298
RE	-11.3299
units	-11.3305
▁Pattern	-11.3307
▁21	-11.3317
▁member	-11.3317
pr	-11.3323
TL	-11.3326
Coord	-11.3326
complete	-11.3328
VA	-11.3339
Slot	-11.3339
2));	-11.334
rr	-11.3348
Problem	-11.3349
▁calc	-11.3349
▁area	-11.3352
robot	-11.3357
▁entities	-11.336
Company	-11.3361
▁[0,	-11.3363
-5">	-11.3367
▁200	-11.3368
2018	-11.337
▁Web	-11.3371
400	-11.3372
▁Part	-11.3373
="+	-11.338
kode	-11.338
▁18	-11.3381
direct	-11.3381
Consumer	-11.3381
Remote	-11.3383
Slice	-11.3383
▁DEFINE	-11.3385
▁written	-11.3385
BYTE	-11.3387
▁execution	-11.3388
design	-11.3388
StatusCode	-11.3388
Other	-11.339
bean	-11.3392
Photo	-11.3393
Struct	-11.3396
Tick	-11.3396
Student	-11.3396
corner	-11.3396
">{{$	-11.34
Effect	-11.3402
Notify	-11.3403
ENUM	-11.3404
Export	-11.3406
examples	-11.3406
▁Card	-11.3407
environment	-11.3407
benches	-11.3408
▁Network	-11.341
increment	-11.3412
PRINT	-11.3416
>(&	-11.3416
Apply	-11.3418
dead	-11.3419
▁implemented	-11.3421
Batch	-11.3421
utility	-11.3422
▁INFO	-11.3423
Console	-11.3424
TCP	-11.3424
attach	-11.3427
Username	-11.3429
Short	-11.3429
▁difference	-11.343
findAll	-11.3431
Multi	-11.3432
absolute	-11.3432
Shell	-11.3432
sorted	-11.3434
Wallet	-11.3439
Git	-11.3441
dispatch	-11.3441
Generated	-11.3442
present	-11.3443
sqrt	-11.3443
intern	-11.3444
confirm	-11.3447
PAGE	-11.3448
initialize	-11.3448
▁gamma	-11.3448
Suite	-11.3449
partition	-11.345
Clock	-11.345
▁Camera	-11.345
Structure	-11.3453
shi	-11.3454
trip	-11.3454
ada	-11.3454
ORDER	-11.3455
Holder	-11.3455
power	-11.3455
velocity	-11.3457
ja	-11.3458
rev	-11.3459
marker	-11.3461
Execute	-11.3461
cap	-11.3462
sheet	-11.3463
dimensions	-11.3464
categoria	-11.3464
lazy	-11.3465
relative	-11.3465
TABLE	-11.3466
zz	-11.3467
algo	-11.3467
between	-11.3468
cause	-11.3471
Digit	-11.3471
▁us	-11.3471
constants	-11.3471
calculate	-11.3473
otFoundException	-11.3476
onCreate	-11.3478
software	-11.3479
▁dx	-11.3479
ldc	-11.3482
reserved	-11.3484
booking	-11.3484
▁Engine	-11.349
▁bottom	-11.3491
▁17	-11.3494
31	-11.3495
512	-11.3498
▁2016	-11.3502
Stock	-11.3504
▁join	-11.3504
Horizontal	-11.3504
▁SubL	-11.3506
▁general	-11.3508
▁eval	-11.3508
Projection	-11.3513
Creator	-11.3513
Rating	-11.3513
Play	-11.3514
▁ports	-11.3514
时	-11.3514
LINK	-11.3514
kafka	-11.3514
carousel	-11.3515
opacity	-11.3515
antial	-11.3515
pegawai	-11.3515
gateway	-11.3515
FUNC	-11.3515
VIEW	-11.3515
proyek	-11.3515
Mobile	-11.3515
netSocketAddress	-11.3515
CLIENT	-11.3515
estimate	-11.3515
mnemonic	-11.3515
Bottom	-11.3515
Organization	-11.3515
responsive	-11.3515
▁Lesser	-11.3515
行	-11.3515
HOST	-11.3515
RTIFIC	-11.3515
DIRECTORY	-11.3515
WebDriver	-11.3515
snake	-11.3515
nwg	-11.3515
gallery	-11.3515
atlas	-11.3515
ENTRY	-11.3515
INDIRECT	-11.3515
sqlite	-11.3516
IAL	-11.3517
storm	-11.3517
house	-11.3517
▁greater	-11.3517
avatar	-11.3518
FORCE	-11.3518
▁AST	-11.3518
Translation	-11.3518
XMM	-11.3519
unlock	-11.3522
HomeController	-11.3522
ControlMessage	-11.3522
▁'/../	-11.3522
SERVICES	-11.3523
hasNext	-11.3523
batches	-11.3524
=='	-11.3525
IFC	-11.353
▁sc	-11.353
prod	-11.3532
Skill	-11.3533
instr	-11.3534
RING	-11.3537
▁always	-11.3537
hover	-11.354
个	-11.3541
ParseError	-11.3542
Foo	-11.3543
▁ids	-11.3546
Collector	-11.3548
notes	-11.3548
![];	-11.355
▁Represent	-11.355
"]["	-11.3551
##############	-11.3552
xff	-11.3553
▁[$	-11.3557
▁price	-11.3561
--------	-11.3561
Collectors	-11.3562
xy	-11.3563
▁dy	-11.3566
isNull	-11.357
Usuario	-11.3572
▁(0	-11.3573
sl	-11.3573
"};	-11.3582
contacts	-11.3582
▁Signature	-11.3586
Closed	-11.3589
▁Operand	-11.3589
())?	-11.359
primitives	-11.3592
pixels	-11.3594
(0))	-11.3596
▁devices	-11.3602
responses	-11.3607
openapi	-11.3607
GetValue	-11.3611
!($	-11.3612
reparedStatement	-11.3612
▁guard	-11.3613
▁Search	-11.3613
▁rc	-11.3614
sae	-11.3618
▁Sets	-11.3622
ero	-11.3622
▁cases	-11.3622
Helpers	-11.3627
SO	-11.3629
uml	-11.3629
]['	-11.363
▁3.0	-11.3635
▁Mockito	-11.3641
HTML	-11.3643
▁mr	-11.3645
}}">{{	-11.3645
▁Now	-11.365
records	-11.3653
▁fe	-11.3654
▁prob	-11.3655
12,	-11.3657
////////////	-11.3662
(100)	-11.3663
Seed	-11.3668
▁LocalDateTime	-11.367
86	-11.3673
▁PM	-11.3674
ErrorMessage	-11.3674
!(!	-11.3675
▁VALUES	-11.3678
payments	-11.3678
FT	-11.3678
16);	-11.3679
▁avg	-11.3682
▁par	-11.3686
SM	-11.3692
nonce	-11.3692
▁diff	-11.3698
rooms	-11.3702
PT	-11.3704
▁ws	-11.3708
▁Json	-11.371
▁cipher	-11.3715
tabs	-11.3718
▁upload	-11.3723
▁"<?	-11.3726
▁subst	-11.3731
▁":"	-11.3736
ros	-11.3744
▁minimum	-11.3744
dtype	-11.3746
Native	-11.3747
codes	-11.3748
▁setting	-11.3751
▁0.1	-11.3754
▁square	-11.3756
constant	-11.3763
[..]	-11.3767
▁bb	-11.3772
emp	-11.3777
▁"/"	-11.3778
▁axis	-11.378
xl	-11.3788
Io	-11.3789
Missing	-11.3795
▁Tests	-11.38
tester	-11.3802
▁Range	-11.3802
005	-11.3803
Note	-11.3812
▁side	-11.3813
▁DataType	-11.3818
getDefault	-11.3825
getSize	-11.383
▁'%	-11.3831
55	-11.3836
ssl	-11.3837
▁loot	-11.3841
▁resolve	-11.3841
90,	-11.3844
REF	-11.3844
("/")	-11.3846
▁option	-11.385
Errors	-11.3858
▁ra	-11.386
▁mapper	-11.3861
getRequest	-11.3864
▁Tag	-11.3865
**************	-11.3875
elongsToMany	-11.3878
▁charge	-11.3882
neg	-11.3888
cu	-11.389
▁0){	-11.3892
listed	-11.3893
▁Migration	-11.3895
PRE	-11.3898
Clicked	-11.3898
TP	-11.3901
tri	-11.3902
ti	-11.391
SUB	-11.3914
Demo	-11.3916
▁DATA	-11.3922
▁Widget	-11.3923
▁blocks	-11.3926
Se	-11.3932
Raw	-11.3934
▁extension	-11.3943
▁keyboard	-11.3946
▁sal	-11.3948
SENS	-11.395
▁metrics	-11.3955
AccountId	-11.3958
▁Shader	-11.3963
▁Parse	-11.3964
▁Sub	-11.3965
asio	-11.3969
Images	-11.3978
RY	-11.3991
("",	-11.3996
▁Byte	-11.4
AUTO	-11.4013
ability	-11.402
ES	-11.402
▁rt	-11.4023
▁Max	-11.4024
▁windows	-11.403
FieldType	-11.4035
MI	-11.4042
forget	-11.4043
▁Collections	-11.4044
Rpc	-11.4045
ef	-11.4045
AM	-11.405
5:	-11.4052
Supported	-11.4053
NE	-11.4055
▁shape	-11.4057
▁play	-11.4057
IF	-11.4058
▁vm	-11.4059
Graphics	-11.4067
▁dim	-11.407
01)	-11.4075
▁JpaRepository	-11.4079
▁fade	-11.408
▁28	-11.408
ram	-11.4081
▁mini	-11.4087
2021	-11.409
▁interval	-11.4095
need	-11.41
1',	-11.4102
')}}	-11.4106
▁//////////	-11.4107
bound	-11.4107
64(	-11.4112
UserId	-11.412
23,	-11.4121
;//	-11.4122
ack	-11.4124
mk	-11.4124
▁setId	-11.4131
▁most	-11.4134
gram	-11.4136
Once	-11.414
[10]	-11.4143
Used	-11.4148
▁unexpected	-11.4149
▁Try	-11.4151
ory	-11.4154
▁ne	-11.4154
▁ray	-11.4156
Be	-11.4162
▁character	-11.4162
▁Material	-11.4163
FK	-11.4163
Attachment	-11.4164
▁good	-11.4166
0));	-11.4168
})	-11.4172
Cancel	-11.4179
35	-11.4181
="1"	-11.4181
Operator	-11.4182
Subscription	-11.4184
[5]	-11.4188
▁tick	-11.4191
Make	-11.4192
▁Handle	-11.4192
▁environment	-11.4197
▁dropdown	-11.4197
disable	-11.4197
CI	-11.4198
▁100)	-11.4199
used	-11.4203
14,	-11.4204
inject	-11.4205
▁increment	-11.4207
Stub	-11.4212
Subject	-11.4213
profil	-11.4214
percent	-11.4214
▁"./	-11.4214
fcppt	-11.4215
▁Php	-11.4215
256,	-11.4218
获取	-11.4218
Anim	-11.422
days	-11.4224
PREFER	-11.4229
Secret	-11.4231
Polygon	-11.4235
Indices	-11.4236
wstring	-11.4236
Utc	-11.4236
remark	-11.4238
ran	-11.4239
▁missing	-11.4239
▁bound	-11.424
KV	-11.4241
Home	-11.4242
▁dd	-11.4244
wallet	-11.4249
Generate	-11.4252
Machine	-11.4257
Writable	-11.4258
PUBLIC	-11.4259
Singleton	-11.426
{$	-11.4261
leaf	-11.4262
proof	-11.4263
Unexpected	-11.4264
reduce	-11.4266
GUI	-11.4267
▁optional	-11.4268
Bootstrap	-11.4272
green	-11.4272
REG	-11.4274
▁TextField	-11.4274
SERVICE	-11.4276
skill	-11.4276
hart	-11.4276
secure	-11.4276
observe	-11.4277
▁pixel	-11.4277
▁notification	-11.4277
Fluid	-11.4277
XT	-11.4279
▁wrapped	-11.4279
SpringBoot	-11.4279
captcha	-11.428
Credentials	-11.4281
assertion	-11.4281
Animation	-11.4281
health	-11.4282
>10	-11.4282
chrome	-11.4282
Vertices	-11.4283
slash	-11.4283
RigidBody	-11.4283
列	-11.4284
Retention	-11.4284
intelli	-11.4284
DOUBLE	-11.4284
新	-11.4284
twitter	-11.4284
Calculator	-11.4284
scratch	-11.4284
TEMPLATE	-11.4284
daftar	-11.4284
deprecated	-11.4284
ợ	-11.4284
▁accompanying	-11.4284
PROCESS	-11.4284
ZERO	-11.4284
decision	-11.4284
▁certain	-11.4284
可以	-11.4284
Numeric	-11.4284
TARGET	-11.4284
linux	-11.4284
Nombre	-11.4284
aadin	-11.4285
▁desired	-11.4285
Phase	-11.4285
sapl	-11.4285
BufReader	-11.4285
Injection	-11.4285
expand	-11.4285
">*</	-11.4285
markdown	-11.4286
general	-11.4286
ProtocolVersion	-11.4286
ClosedEvent	-11.4286
DATABASE	-11.4286
lowercase	-11.4286
SecretKey	-11.4286
Finder	-11.4287
expanded	-11.4287
DATE	-11.4287
Pipeline	-11.4288
PointCloud	-11.429
getColumnName	-11.429
CP	-11.4291
ENV	-11.4291
Rider	-11.4291
("${	-11.4292
literal	-11.4292
digits	-11.4292
Rector	-11.4292
clamp	-11.4293
apple	-11.4293
quiz	-11.4293
initialized	-11.4294
▁amet	-11.4294
Recorder	-11.4294
memo	-11.4294
speed	-11.4294
qty	-11.4295
CMS	-11.4295
▁"0	-11.4295
▁Parser	-11.4295
67	-11.4296
Nav	-11.4296
▁present	-11.4297
3::	-11.4297
submenu	-11.4298
tcp	-11.4298
{{$	-11.4301
▁tuple	-11.4302
▁Element	-11.4303
ParseException	-11.4304
getAbsolute	-11.4305
Router	-11.4306
qblock	-11.4308
▁InputStream	-11.4309
120	-11.4311
TODO	-11.4311
extern	-11.4311
▁deref	-11.4313
▁distribute	-11.4313
ANY	-11.4314
assertThat	-11.4314
ACE	-11.4317
blob	-11.4317
▁42	-11.4318
tpl	-11.4318
...>	-11.432
Logout	-11.4321
ExceptionHandler	-11.4322
▁DIRECT	-11.4323
▁SPECIAL	-11.4323
deref	-11.4323
Proc	-11.4324
▁representation	-11.4324
processing	-11.4324
▁HTML	-11.4325
panic	-11.4326
▁Bit	-11.4328
▁3:	-11.4329
Assertions	-11.433
router	-11.4332
▁means	-11.4332
indexOf	-11.4335
183	-11.4336
Classes	-11.4338
changed	-11.4341
fit	-11.4341
excel	-11.4342
▁DateTime	-11.4342
ONLY	-11.4344
got	-11.4349
isize	-11.435
▁DISCLAIME	-11.4351
ot	-11.4352
▁confirm	-11.4353
Arguments	-11.4366
qv	-11.4368
▁condition	-11.4376
breadcrumbs	-11.4383
ли	-11.4384
vv	-11.4386
mutable	-11.4386
filesystem	-11.4389
▁CONNECTION	-11.4391
▁GLFW	-11.4391
opcode	-11.4392
Consts	-11.4394
▁bean	-11.4397
▁%%	-11.4398
▁Move	-11.44
▁rd	-11.4403
▁200);	-11.4405
▁folder	-11.4412
>--	-11.4414
Constraints	-11.4415
(|&	-11.442
pringApplication	-11.442
69	-11.442
forum	-11.4422
▁Kelvin	-11.4423
▁dummy	-11.4423
▁direction	-11.4427
▁choice	-11.4429
getText	-11.4436
cn	-11.4441
dns	-11.4445
TextField	-11.4448
foot	-11.4449
players	-11.4451
blink	-11.4453
▁media	-11.4454
pg	-11.4457
inst	-11.4461
▁BOOL	-11.4461
▁STM	-11.4464
▁2012	-11.4464
▁2:	-11.447
INIT	-11.4471
addon	-11.4474
▁CURL	-11.4475
increments	-11.4476
food	-11.4476
members	-11.448
cmath	-11.4487
clients	-11.4488
▁ignore	-11.4491
transactions	-11.4493
matcher	-11.4494
▁{},	-11.4502
▁Component	-11.4502
▁Store	-11.4505
47	-11.4512
Traits	-11.4513
acl	-11.4517
▁Carbon	-11.4518
(10);	-11.4522
={	-11.4525
180	-11.4531
▁Criterion	-11.4532
▁scanner	-11.4532
Std	-11.4535
▁Mini	-11.4541
live	-11.4547
▁currently	-11.455
▁Arg	-11.4553
"},	-11.4556
▁Module	-11.4558
dep	-11.4558
Lookup	-11.456
ong	-11.456
▁Serializable	-11.4564
▁priority	-11.4564
▁Only	-11.4567
places	-11.4573
▁effect	-11.4576
FF	-11.4579
!');	-11.459
-----------	-11.4593
Per	-11.4595
▁screen	-11.4595
solution	-11.4597
tport	-11.4601
inf	-11.4601
1")	-11.4605
VM	-11.4609
instances	-11.4612
▁Ordering	-11.4613
tensor	-11.4616
▁decoder	-11.4617
▁resources	-11.4623
(1));	-11.4624
getCode	-11.4625
="#">	-11.4627
Identity	-11.4628
news	-11.4633
}";	-11.4633
▁Quaternion	-11.4635
PS	-11.4637
Windows	-11.4643
Into	-11.4647
▁"{	-11.4649
AsString	-11.4651
bu	-11.4651
▁REST	-11.4653
getData	-11.4657
FP	-11.4659
100%"	-11.466
▁startTime	-11.4669
BACK	-11.467
▁poll	-11.4671
ا	-11.4673
▁Business	-11.4674
wrapping	-11.4676
▁sol	-11.468
▁Control	-11.4681
▁Reset	-11.4689
▁stdout	-11.4696
DES	-11.47
\":	-11.4705
▁refresh	-11.4706
▁Document	-11.4707
▁Clear	-11.4707
ت	-11.4711
[3];	-11.4712
▁around	-11.4713
Matcher	-11.4721
43	-11.4726
ecs	-11.4728
▁components	-11.4731
91	-11.4732
locked	-11.4733
[0]->	-11.4736
▁Authentication	-11.4739
soft	-11.4755
Rc	-11.4758
▁services	-11.4759
▁10.0	-11.476
▁constraint	-11.4763
po	-11.4765
ice	-11.4771
▁kv	-11.4771
▁migration	-11.4773
▁wx	-11.4774
▁mean	-11.4775
▁Index	-11.4776
▁Save	-11.4781
jar	-11.4788
***************/	-11.4791
Times	-11.4793
▁multi	-11.4793
▁At	-11.4796
▁tableName	-11.4803
▁launch	-11.4808
▁yang	-11.4808
▁Notification	-11.4811
eur	-11.4814
buk	-11.4814
ten	-11.4815
setData	-11.4815
Scheduler	-11.4826
Master	-11.4826
Tester	-11.4827
7;	-11.4833
fr	-11.4835
(""),	-11.4835
▁BaseController	-11.4839
Tx	-11.4845
dv	-11.4849
xor	-11.4851
Components	-11.4854
ServiceImpl	-11.4856
gr	-11.4861
intValue	-11.4863
inter	-11.4867
wm	-11.4871
EntityManager	-11.4872
▁ok	-11.4879
1::	-11.4881
1000	-11.4885
м	-11.4885
▁".$	-11.4886
45	-11.4887
▁rw	-11.4889
▁Instant	-11.4894
▁fuel	-11.4894
Can	-11.4894
we	-11.4895
▁vertices	-11.4895
▁classes	-11.4901
▁Empty	-11.4911
Cart	-11.4911
stamp	-11.4913
▁states	-11.4914
▁codec	-11.4917
Install	-11.4921
▁rust	-11.4923
一	-11.4929
etty	-11.4946
▁Term	-11.4947
▁Push	-11.4947
х	-11.4951
▁locale	-11.4957
я	-11.496
▁Is	-11.496
▁models	-11.4962
▁sets	-11.4963
Stats	-11.4967
▁suffix	-11.4969
▁HasFactory	-11.497
▁sha	-11.4971
=1)	-11.4979
Stage	-11.498
pet	-11.4982
▁encode	-11.4985
▁Pa	-11.499
▁deal	-11.4994
ga	-11.4994
▁theme	-11.4995
Visible	-11.5005
Entries	-11.5014
▁TRUE	-11.5021
Geo	-11.5026
les	-11.5027
dy	-11.503
loss	-11.5039
▁FILTER	-11.5044
▁bindings	-11.5044
ư	-11.5045
Fp	-11.5045
▁14	-11.5046
benchmark	-11.5053
▁forms	-11.5054
locator	-11.5058
▁auth	-11.506
Translate	-11.506
XmlElement	-11.5061
Angle	-11.5062
Setter	-11.5063
semaphore	-11.5067
Previous	-11.5068
▁quantity	-11.5074
sector	-11.5076
ore	-11.5079
Answer	-11.508
▁bc	-11.5083
hand	-11.5083
EXT	-11.5084
ạ	-11.5086
Compile	-11.5088
▁wasm	-11.5089
CORE	-11.5089
good	-11.5091
Click	-11.5092
manage	-11.5093
è	-11.5095
evolve	-11.5097
roles	-11.5099
arrow	-11.51
Sys	-11.5102
truncate	-11.5102
Cipher	-11.5108
Bot	-11.5109
Head	-11.511
THREAD	-11.511
Choose	-11.5111
ByName	-11.5111
Delay	-11.5112
backward	-11.5113
Bridge	-11.5113
13,	-11.5114
PTR	-11.5115
inherit	-11.5115
到	-11.5116
presta	-11.5117
ATIVE	-11.5117
查询	-11.5117
subscribe	-11.5117
reformcloud	-11.5117
movie	-11.5117
ー	-11.5117
删除	-11.5117
KERNEL	-11.5117
SYNTA	-11.5117
Cycle	-11.5117
awesome	-11.5117
variance	-11.5117
Invocation	-11.5117
QUEUE	-11.5117
welcome	-11.5117
ля	-11.5117
Guzzle	-11.5117
MASK	-11.5117
Purpose	-11.5117
kasir	-11.5117
separator	-11.5117
translator	-11.5117
▁INCIDENTAL	-11.5117
▁effectiveness	-11.5117
school	-11.5117
Histogram	-11.5117
mengetahui	-11.5117
teacher	-11.5117
TITLE	-11.5117
点	-11.5117
merchant	-11.5117
Term	-11.5117
bullet	-11.5117
LowerCase	-11.5117
MIME	-11.5117
Serialization	-11.5117
后	-11.5118
TRACE	-11.5118
▁occurred	-11.5118
swarm	-11.5118
WARNING	-11.5118
HasBeenSet	-11.5118
serialization	-11.5118
Letter	-11.5118
Colour	-11.5118
Specification	-11.5118
nazionalita	-11.5118
PROTO	-11.5118
verified	-11.5118
Modal	-11.5118
SimpleDateFormat	-11.5118
INLINE	-11.5118
OPEN	-11.5119
latitude	-11.5119
BIND	-11.5119
foto	-11.5119
pdo	-11.5119
install	-11.5119
Completed	-11.5119
facing	-11.5119
NUM	-11.5119
ctrl	-11.512
granted	-11.512
SIMD	-11.512
Pending	-11.512
▁published	-11.512
VALIDATE	-11.512
stride	-11.512
ascii	-11.512
▁corresponding	-11.5121
webkit	-11.5121
Will	-11.5121
foobar	-11.5122
virt	-11.5122
Supplier	-11.5122
History	-11.5122
▁leaf	-11.5123
findOr	-11.5123
phase	-11.5123
在	-11.5123
Turn	-11.5123
trigger	-11.5124
PROPERTY	-11.5124
Promise	-11.5124
CONTENT	-11.5124
Nama	-11.5124
:#	-11.5125
ActionListener	-11.5126
RGBA	-11.5127
character	-11.5128
▁Operator	-11.5128
gsl	-11.5129
Pack	-11.5129
Fai	-11.513
▁Con	-11.513
pwd	-11.5131
Binding	-11.5132
clicked	-11.5132
▁etc	-11.5134
pure	-11.5135
Cost	-11.5136
WIN	-11.5136
grad	-11.5136
Pages	-11.5137
Cpu	-11.5138
Fast	-11.5139
Subscribe	-11.514
[9]	-11.5141
UserRole	-11.5141
Tex	-11.5141
attn	-11.5142
checkNotNull	-11.5143
volume	-11.5145
keypair	-11.5145
RecyclerView	-11.5147
sigma	-11.5148
sink	-11.5148
TableData	-11.5149
Implementation	-11.5149
Pageable	-11.5151
cod	-11.5157
strategy	-11.5158
Decode	-11.5161
ide	-11.5162
mgr	-11.5162
die	-11.5163
Loading	-11.5164
-10">	-11.5164
Virtual	-11.5167
Inventory	-11.5167
processor	-11.5167
parallel	-11.5168
nn	-11.5168
cities	-11.5171
▁executed	-11.5173
problems	-11.5174
SHIP	-11.5175
PDF	-11.5176
Complex	-11.5177
queryBuilder	-11.5177
hashCode	-11.5178
Done	-11.518
Categories	-11.518
entityManager	-11.5181
Cast	-11.5185
Bad	-11.5186
strip	-11.5188
FILTER	-11.5191
simd	-11.5195
▁CI	-11.5195
Tools	-11.5195
▁provides	-11.5195
▁marker	-11.5195
gamma	-11.5196
JsonObject	-11.5196
▁agreement	-11.5196
modified	-11.5197
resolution	-11.5198
warp	-11.5199
scene	-11.5199
declare	-11.5199
▁were	-11.52
Php	-11.52
▁direct	-11.52
Convert	-11.5201
值	-11.5203
union	-11.5204
filePath	-11.5208
definition	-11.5208
modify	-11.521
serial	-11.5213
Public	-11.5213
▁25	-11.5215
valor	-11.5216
endTime	-11.5217
▁slot	-11.5218
5_	-11.5218
information	-11.522
Non	-11.522
▁policy	-11.5221
509	-11.5226
▁secret	-11.5226
allowed	-11.5227
▁syscall	-11.5228
curr	-11.523
best	-11.5232
()],	-11.5232
Interrupt	-11.5232
▁SYS	-11.5234
▁pl	-11.5236
prof	-11.5236
arca	-11.5247
dest	-11.5254
bindings	-11.5256
perf	-11.5257
midi	-11.5258
Leaf	-11.5258
IDX	-11.5259
asList	-11.5261
Ret	-11.5273
KB	-11.5275
Pref	-11.5275
▁20,	-11.5276
glib	-11.5277
enderror	-11.5278
Forward	-11.5281
xcb	-11.5283
▁"--	-11.5285
CON	-11.5286
Checked	-11.5291
Tabs	-11.5291
Pagination	-11.5292
Preferences	-11.5292
▁hit	-11.5292
Uint	-11.5294
Parameteri	-11.5299
cml	-11.5304
DT	-11.5305
▁ffi	-11.5305
Verifier	-11.5306
ql	-11.5309
▁successful	-11.5309
▁high	-11.531
▁Calculate	-11.531
led	-11.5311
▁Here	-11.5311
[5],	-11.5312
63	-11.5319
]")	-11.532
6);	-11.5321
CS	-11.5325
▁too	-11.5329
2.5	-11.533
▁evaluate	-11.5332
der	-11.5338
onUpdate	-11.5338
added	-11.5339
crates	-11.534
3[	-11.5341
▁testing	-11.5342
▁jit	-11.5342
▁bin	-11.5343
We	-11.5347
jet	-11.5348
ning	-11.5349
uploads	-11.5349
▁setName	-11.5349
getTitle	-11.5359
opengl	-11.536
4)	-11.5362
smart	-11.537
▁calls	-11.5372
getContext	-11.5372
Controls	-11.5373
dl	-11.5379
▁pid	-11.5384
swagger	-11.5385
▁abort	-11.5388
▁'\0'	-11.5391
charset	-11.5396
▁Distributed	-11.5405
▁QObject	-11.5408
meter	-11.5409
Ed	-11.5409
52,	-11.541
online	-11.5414
17,	-11.5419
▁futures	-11.5419
▁hr	-11.542
etl	-11.5421
▁proto	-11.5422
▁Exit	-11.5422
sdl	-11.5424
▁pull	-11.5428
/1.1	-11.5433
endDate	-11.5436
SP	-11.5438
errno	-11.5438
substring	-11.5439
DGE	-11.544
pe	-11.5442
▁EX	-11.5444
PY	-11.5454
▁60	-11.5461
dw	-11.5463
▁closure	-11.5466
▁energy	-11.5466
▁patch	-11.5467
▁ByteBuffer	-11.5468
limits	-11.5469
▁stub	-11.547
IllegalState	-11.5472
Sync	-11.5472
ite	-11.5475
6.	-11.548
▁works	-11.5487
▁mass	-11.5487
▁syn	-11.5488
firstname	-11.5499
Hex	-11.5507
-2"	-11.5508
▁red	-11.5508
El	-11.5511
Square	-11.5516
▁tables	-11.5518
Broadcast	-11.5525
DC	-11.5525
▁et	-11.5529
▁'/'	-11.553
▁scores	-11.553
Testing	-11.553
Orders	-11.5532
▁Change	-11.5532
▁Unit	-11.5541
▁Cat	-11.5545
(10,	-11.555
▁implementations	-11.5558
Mask	-11.556
"#)	-11.5563
ContentType	-11.5563
▁indexes	-11.5563
▁(0..	-11.5569
fff	-11.5569
Permissions	-11.5576
It	-11.5578
160	-11.558
od	-11.5585
50,	-11.5586
tc	-11.5592
▁Line	-11.5595
",$	-11.5598
<?=	-11.5613
▁Login	-11.5618
96	-11.5623
▁MainWindow	-11.5627
calls	-11.5634
▁2019	-11.5636
▁Char	-11.564
▁roll	-11.5641
materials	-11.5641
44,	-11.5642
score	-11.5647
▁pb	-11.5654
▁reg	-11.5666
Compare	-11.5668
){}	-11.5671
implemented	-11.5675
▁compiler	-11.5676
45,	-11.5684
=="	-11.5685
▁Header	-11.5688
▁Basic	-11.5703
▁##	-11.5704
mall	-11.5707
ou	-11.5708
.0,	-11.571
setContent	-11.5715
}\	-11.5721
▁sdf	-11.5726
sha	-11.5729
▁Locale	-11.573
Filters	-11.573
▁ULONG	-11.5731
▁contributor	-11.5733
FD	-11.5734
FOR	-11.5737
▁scheduler	-11.5739
Xml	-11.5744
▁One	-11.5744
▁hidden	-11.5745
▁disabled	-11.5746
▁fi	-11.5746
Fetch	-11.5746
)}	-11.5747
▁partial	-11.575
84	-11.5751
▁spi	-11.5751
▁co	-11.5752
▁plan	-11.5755
▁processor	-11.5756
▁Edit	-11.5757
servers	-11.5762
▁dt	-11.5765
DataObject	-11.5768
▁Res	-11.5769
idea	-11.5771
▁cookie	-11.5773
Rights	-11.5788
▁PDO	-11.5788
Blocks	-11.5796
▁rules	-11.5798
▁13	-11.5798
Allow	-11.5799
▁Student	-11.5801
CR	-11.5808
▁requests	-11.581
UM	-11.5825
▁"".	-11.5825
▁threads	-11.5828
▁props	-11.5831
pod	-11.5831
np	-11.5832
rn	-11.5833
▁pc	-11.5835
conv	-11.5841
95	-11.5843
loading	-11.5844
ob	-11.5855
vy	-11.5857
▁128	-11.5862
qr	-11.5863
▁products	-11.587
HashSet	-11.5876
Solution	-11.588
mx	-11.5883
▁rustc	-11.5886
▁Pin	-11.5889
Cd	-11.589
24,	-11.5898
Pet	-11.5899
Complete	-11.5903
4::	-11.5904
▁shift	-11.5907
gg	-11.5915
tooltip	-11.5919
sales	-11.5923
databind	-11.5924
▁bar	-11.5926
bility	-11.5927
▁Float	-11.5936
vals	-11.5937
mir	-11.5945
jd	-11.5945
LL	-11.5952
pw	-11.5959
▁prepare	-11.596
▁5)	-11.5961
Logged	-11.5963
GA	-11.5963
▁Ver	-11.5963
(4)	-11.5965
Duplicate	-11.5965
ClassLoader	-11.5972
ENCE	-11.5974
Exp	-11.5975
▁255	-11.5976
setType	-11.5976
▁warp	-11.598
idade	-11.5981
Rest	-11.5981
▁consider	-11.5983
Initializer	-11.5984
Attr	-11.5986
skin	-11.5988
jvm	-11.5989
Assertion	-11.599
modes	-11.599
TypeId	-11.5991
▁bad	-11.5992
Benchmark	-11.5996
▁keyword	-11.5996
nb	-11.6006
▁cost	-11.6007
parc	-11.6008
activate	-11.6009
Super	-11.6011
setUrl	-11.6012
Nucleotide	-11.6012
▁split	-11.6013
Inst	-11.6014
LEVEL	-11.6016
-3"	-11.6016
Trade	-11.602
▁regex	-11.6022
ray	-11.6023
ials	-11.6024
tracer	-11.6024
avail	-11.6025
ereo	-11.6025
Blue	-11.6025
线程	-11.6026
Reduce	-11.6026
标	-11.6026
ั	-11.6026
і	-11.6026
解	-11.6026
ALTER	-11.6026
码	-11.6026
请	-11.6026
produk	-11.6026
度	-11.6026
明	-11.6026
要	-11.6026
compensation	-11.6026
Ingredient	-11.6026
manual	-11.6026
ADDRESS	-11.6026
CLAIM	-11.6026
Verification	-11.6026
kelompok	-11.6026
内容	-11.6026
DEVICE	-11.6026
Writing	-11.6026
handling	-11.6026
sensitive	-11.6026
▁CONSEQUENTIAL	-11.6026
purchase	-11.6026
GROUP	-11.6026
PROGRAM	-11.6027
transmute	-11.6027
▁cọc	-11.6027
PLUGIN	-11.6027
Radius	-11.6027
MEMORY	-11.6027
][%-	-11.6027
TILE	-11.6027
impact	-11.6027
▁permitted	-11.6027
ppCompatActivity	-11.6027
LANDING	-11.6027
RUST	-11.6027
station	-11.6027
Spatial	-11.6027
Basis	-11.6027
coil	-11.6027
HOME	-11.6027
ignite	-11.6027
Loot	-11.6027
BigInteger	-11.6027
slope	-11.6027
LIMIT	-11.6027
NEAR	-11.6027
tensorflow	-11.6027
Hymnal	-11.6027
usoto	-11.6028
▁SH	-11.6028
corpus	-11.6028
Detector	-11.6028
▁ipsum	-11.6028
RunWith	-11.6028
xyz	-11.6029
ompletableFuture	-11.6029
gather	-11.6029
elgg	-11.6029
titulo	-11.6029
masked	-11.6029
axes	-11.603
CACHE	-11.603
MREF	-11.603
having	-11.6031
SCALE	-11.6033
Children	-11.6035
▁well	-11.6036
GetMapping	-11.6036
coba	-11.6037
MessageType	-11.6038
gms	-11.6039
TestRunner	-11.6039
sonar	-11.604
SHA	-11.604
}}">{{$	-11.604
addChild	-11.6041
Lang	-11.6042
THROWS	-11.6042
т	-11.6042
arena	-11.6044
▁Enable	-11.6047
qreal	-11.6049
RequestInterface	-11.605
Yes	-11.6051
vote	-11.6052
12\	-11.6054
6;	-11.6057
remain	-11.6057
Psr	-11.6065
rois	-11.6065
▁spawn	-11.6066
▁yield	-11.6066
byps	-11.6067
VS	-11.6072
▁initialized	-11.6072
▁AABB	-11.6073
pal	-11.6075
▁known	-11.6077
finder	-11.6083
名称	-11.6083
kita	-11.6086
Sensor	-11.6086
hxx	-11.6087
getID	-11.6089
sim	-11.6095
Exceptions	-11.6096
FB	-11.61
Keyword	-11.6102
astore	-11.6103
>(&'	-11.6103
:%	-11.6104
▁mutable	-11.6105
+1;	-11.6105
[2].	-11.6106
({{	-11.6108
▁Trait	-11.6109
tgl	-11.6112
ads	-11.6112
fusion	-11.6113
seat	-11.6113
▁PAGE	-11.6116
getMock	-11.6116
%02	-11.6118
Throws	-11.612
Criteria	-11.612
Verify	-11.6122
articles	-11.6122
lambda	-11.6125
resume	-11.6125
navigation	-11.6125
1.3	-11.6125
GlobalNamespace	-11.6125
About	-11.6125
MediaType	-11.6129
execution	-11.6131
SAMPLE	-11.6131
gif	-11.6133
starts	-11.6133
sessionId	-11.6134
getResource	-11.6136
11_	-11.6141
▁dimensions	-11.6141
interval	-11.6141
'){	-11.6142
▁rot	-11.6143
anchor	-11.6145
broker	-11.6145
clearfix	-11.6146
att	-11.6147
▁small	-11.6148
ADD	-11.6148
uniform	-11.6149
Deref	-11.615
allocate	-11.6151
Signal	-11.6151
TimeUnit	-11.6152
▁JOIN	-11.6155
▁directly	-11.6155
Rad	-11.6157
1024	-11.6158
bridge	-11.6158
offer	-11.6158
filtered	-11.6158
KG	-11.6159
concat	-11.616
Blob	-11.6165
colors	-11.6166
700	-11.6168
horizontal	-11.6168
interrupt	-11.6169
highlight	-11.6175
holder	-11.6175
▁Frame	-11.6178
Unsupported	-11.6179
▁modification	-11.6179
ipv	-11.618
02\	-11.618
tartsWith	-11.618
external	-11.6181
guid	-11.6181
hw	-11.6182
Alias	-11.6183
cancel	-11.6183
UINT	-11.6186
Visit	-11.6186
▁getName	-11.6188
rustc	-11.6188
getItem	-11.6189
Push	-11.6189
setColor	-11.6189
readonly	-11.6191
suffix	-11.6191
outer	-11.6193
HasFactory	-11.6194
DEFINE	-11.6196
ResponseEntity	-11.6196
written	-11.6197
dk	-11.6197
unexpected	-11.6198
(...)	-11.6198
ACTION	-11.6199
prefs	-11.62
pack	-11.6201
tip	-11.6203
ItemStack	-11.6203
most	-11.6204
stroke	-11.6206
visited	-11.6206
▁!!}</	-11.6207
rounded	-11.6208
different	-11.6209
overflow	-11.6209
encoding	-11.6209
TexCoord	-11.621
additional	-11.621
Idle	-11.6211
mouse	-11.6211
wal	-11.6212
usuarios	-11.6214
issues	-11.6214
▁car	-11.6214
REQUIRE	-11.6214
▁schedule	-11.6216
▁Codec	-11.6219
▁Operation	-11.6219
Software	-11.6219
▁retain	-11.622
which	-11.622
setDefault	-11.622
Try	-11.622
Capture	-11.6221
▁nor	-11.6222
chunks	-11.6223
nlp	-11.6224
Seq	-11.6225
getConnection	-11.6227
▁cap	-11.623
LP	-11.6231
preg	-11.6232
JsonIgnore	-11.6238
16;	-11.6238
▁NoSuch	-11.6239
▁Swift	-11.6239
▁Boost	-11.6239
▁CT	-11.6242
uno	-11.6255
(1.0	-11.6255
▁signed	-11.6259
states	-11.6267
refer	-11.6268
/{{	-11.6268
▁(%	-11.6268
constructor	-11.6274
▁4],	-11.628
▁Rust	-11.6281
cached	-11.6281
(1),	-11.6282
instructions	-11.6283
▁testGet	-11.6287
▁met	-11.6289
▁Reply	-11.6293
cond	-11.6295
typedef	-11.6297
▁Re	-11.6301
regs	-11.6303
Il	-11.6304
▁Generator	-11.6305
npos	-11.6307
▁white	-11.6308
▁MPI	-11.631
Then	-11.631
Many	-11.6311
xb	-11.6311
▁issue	-11.6316
▁4.0	-11.632
▁16;	-11.6321
("$	-11.6323
▁uk	-11.6323
▁PathBuf	-11.6324
▁diesel	-11.6325
TR	-11.6328
PK	-11.6332
MSG	-11.6335
▁Not	-11.6337
▁incorrect	-11.6343
▁ordered	-11.6344
▁'.$	-11.6348
▁1],	-11.6352
En	-11.6353
mon	-11.6355
▁checked	-11.6356
▁48	-11.6358
2[	-11.6359
Moves	-11.6361
indexed	-11.6364
ud	-11.6364
▁2017	-11.637
▁UnityEngine	-11.637
ep	-11.6373
3)	-11.6375
getStatus	-11.6376
lex	-11.6376
▁beta	-11.6377
pic	-11.6378
ny	-11.6379
▁tail	-11.638
▁saved	-11.6381
Providers	-11.6383
3<	-11.6384
RT	-11.6384
Ar	-11.6385
▁Deserializer	-11.6388
▁tbl	-11.6392
userID	-11.64
▁threshold	-11.6401
requests	-11.6405
1"),	-11.6406
▁Fill	-11.6407
▁fails	-11.641
Sized	-11.6411
▁average	-11.6411
▁ASC	-11.6413
AD	-11.6414
▁pageable	-11.6417
▁restore	-11.642
▁projects	-11.642
▁pipeline	-11.6421
▁Db	-11.6424
{};	-11.6424
▁AV	-11.6428
▁observer	-11.6428
VER	-11.6431
cp	-11.6433
Translator	-11.6433
▁getId	-11.6433
)+	-11.6436
arm	-11.6439
Pa	-11.6441
▁go	-11.6442
way	-11.6443
▁Platform	-11.6452
)?></	-11.6457
AZ	-11.6457
indexing	-11.6461
▁SM	-11.6463
88	-11.6477
▁instances	-11.6488
normals	-11.6489
nix	-11.6489
▁uniform	-11.649
▁With	-11.6491
▁rotation	-11.6497
▁hardware	-11.6498
▁Background	-11.6499
xE	-11.651
MK	-11.6514
▁topic	-11.6518
8>>	-11.6519
▁algorithm	-11.6523
▁browser	-11.6525
▁instruction	-11.6527
▁large	-11.6527
4"	-11.6528
watch	-11.6532
▁structures	-11.6532
93	-11.6535
▁problem	-11.6535
CE	-11.6537
▁retrieve	-11.654
ig	-11.6542
250	-11.6546
sController	-11.655
▁cookies	-11.655
xffff	-11.6556
Bi	-11.6556
▁])	-11.6566
ian	-11.6571
getNode	-11.6576
cos	-11.6579
▁connections	-11.6585
▁special	-11.6586
▁choose	-11.6586
▁wrong	-11.6586
lista	-11.6587
oogleapis	-11.6587
▁adj	-11.6591
COMM	-11.6606
=0	-11.661
▁Format	-11.661
Checker	-11.6611
PP	-11.6612
▁configure	-11.6612
▁{$	-11.6614
15,	-11.6617
//////////////	-11.662
▁Should	-11.6621
FC	-11.6624
▁bl	-11.6646
ha	-11.6649
ko	-11.6655
Pixels	-11.6659
▁terminal	-11.6663
▁related	-11.6666
▁encrypt	-11.6667
32(	-11.6672
▁systems	-11.6673
▁FLAGS	-11.6675
▁RTC	-11.6675
pms	-11.6677
100000	-11.6691
AN	-11.6695
▁vectors	-11.6698
▁registration	-11.6702
FA	-11.6703
▁origin	-11.6704
Dictionary	-11.6707
▁paths	-11.6709
▁bus	-11.6712
▁finish	-11.6713
▁blue	-11.6716
▁hu	-11.6718
sch	-11.6719
0.0	-11.672
▁Implementation	-11.6727
▁Button	-11.6728
VECTOR	-11.6728
▁bundle	-11.6733
MD	-11.6736
LONG	-11.6738
▁MA	-11.6748
nth	-11.6748
checking	-11.6751
************	-11.6761
▁sim	-11.6764
这	-11.6764
Statistics	-11.6767
dec	-11.6767
▁des	-11.6767
▁Job	-11.6771
▁mdl	-11.6775
xe	-11.6779
AND	-11.6781
stan	-11.6782
ness	-11.6786
Sha	-11.6796
Coordinate	-11.6797
Buffers	-11.68
▁Whe	-11.6801
▁PID	-11.6804
devices	-11.682
Fixed	-11.682
zu	-11.6825
done	-11.6827
▁nh	-11.6831
Slug	-11.6838
▁Alias	-11.6838
▁59	-11.6839
UID	-11.6846
Inline	-11.6851
▁Unsupported	-11.6855
Plan	-11.6857
▁readonly	-11.6857
EC	-11.686
▁prefs	-11.686
lay	-11.6866
▁cancel	-11.6868
Paint	-11.6881
▁By	-11.6884
▁/////////////	-11.6885
▁Compare	-11.689
▁Total	-11.6897
▁dataset	-11.6904
hint	-11.6906
▁flow	-11.6907
▁cached	-11.6909
!(&	-11.691
▁Close	-11.6913
Variables	-11.6913
-1"	-11.6913
nf	-11.6922
EMENT	-11.6924
▁click	-11.6928
200	-11.6931
Temp	-11.6932
▁tunnel	-11.6938
18,	-11.6945
CT	-11.695
profit	-11.6953
▁subscription	-11.6955
maps	-11.6957
Second	-11.696
tweet	-11.6966
ds	-11.6967
▁2),	-11.6969
、	-11.6973
quest	-11.6976
Metric	-11.6979
med	-11.6979
▁VM	-11.698
▁Contact	-11.6981
tables	-11.6981
▁'1'	-11.6984
Correct	-11.6988
UTC	-11.6991
ố	-11.6992
OpenGL	-11.6993
HttpClient	-11.6993
jam	-11.6994
▁na	-11.6996
▁Actor	-11.6996
LOAD	-11.6998
Accept	-11.7001
methods	-11.7009
aspect	-11.701
▁delegate	-11.7011
ibm	-11.7012
▁sit	-11.7012
Servlet	-11.7013
AF	-11.7016
Given	-11.7016
produced	-11.7018
CTRL	-11.7018
▁CString	-11.7019
Sdk	-11.702
Partition	-11.7022
produto	-11.7022
48,	-11.7022
Front	-11.7023
Fault	-11.7024
[6]	-11.7024
Increment	-11.7024
autoload	-11.7024
figure	-11.7026
م	-11.7026
inflate	-11.7026
dosen	-11.7026
▁prior	-11.7026
有	-11.7026
将	-11.7026
に	-11.7026
Amazon	-11.7026
CONTROL	-11.7026
图	-11.7026
DYNAMIC	-11.7026
Transition	-11.7026
smithy	-11.7026
yyyy	-11.7026
ATTRIBUTE	-11.7026
ENCRYPT	-11.7026
Minecraft	-11.7026
POSITION	-11.7026
VIDEO	-11.7026
状态	-11.7026
EMPLA	-11.7026
milliseconds	-11.7026
’	-11.7026
▁DEALINGS	-11.7026
▁governed	-11.7026
EXTENSION	-11.7026
INSTANCE	-11.7026
forbidden	-11.7026
spatial	-11.7026
▁GOODS	-11.7026
方法	-11.7026
Bracket	-11.7026
COEFF	-11.7026
RENDER	-11.7026
VERIFY	-11.7026
pseudo	-11.7026
接口	-11.7027
SECTION	-11.7027
inspection	-11.7027
管理	-11.7027
TREE	-11.7027
equiv	-11.7027
SUPPORTED	-11.7027
linearGradient	-11.7027
stories	-11.7027
bulk	-11.7027
Density	-11.7027
IgnoreCase	-11.7027
rifle	-11.7027
tanford	-11.7027
usart	-11.7027
RetentionPolicy	-11.7027
GRAY	-11.7027
下	-11.7027
▁Panics	-11.7027
birth	-11.7027
Dict	-11.7027
forEach	-11.7027
RecvError	-11.7027
▁LOSS	-11.7027
Interaction	-11.7027
QTableWidgetItem	-11.7028
Gson	-11.7028
▁Hallowed	-11.7028
paging	-11.7028
gender	-11.7028
wax	-11.7028
Designer	-11.7028
DataStructures	-11.7029
PGN	-11.7029
ldap	-11.7029
ify	-11.7029
Slider	-11.7029
1234567890	-11.7029
Transactional	-11.7029
ParsingException	-11.7029
SRC	-11.703
Forum	-11.703
nstab	-11.703
INCLUDED	-11.703
multipart	-11.703
/////////////	-11.703
159	-11.7031
(#[	-11.7031
authority	-11.7031
ARGS	-11.7032
FXML	-11.7032
lan	-11.7033
linkedin	-11.7033
▁outside	-11.7033
buy	-11.7034
MainActivity	-11.7034
wise	-11.7034
▁POS	-11.7034
###############	-11.7034
ABS	-11.7035
▁rho	-11.7035
uart	-11.7035
Rfc	-11.7035
.'/'.$	-11.7035
deep	-11.7035
setVisibility	-11.7035
▁JState	-11.7037
▁secure	-11.7037
dispatcher	-11.7038
deque	-11.7038
SELF	-11.7038
Printer	-11.7038
DVI	-11.7039
TypeDesc	-11.7039
▁Raw	-11.7039
▁Graphics	-11.7041
caret	-11.7041
"]').	-11.7042
CUP	-11.7042
▁specif	-11.7043
Plane	-11.7045
getTime	-11.7046
SUCH	-11.7048
![],	-11.7048
▁redistribut	-11.7048
styles	-11.705
▁bucket	-11.7051
NINF	-11.7052
LS	-11.7053
Vars	-11.7054
MEM	-11.7054
ResourceManager	-11.7056
credentials	-11.706
▁derived	-11.706
msy	-11.706
HAS	-11.7061
LTP	-11.7063
▁built	-11.7064
FormBuilder	-11.7065
▁obtaining	-11.7066
bills	-11.7066
MessageBox	-11.7067
▁sl	-11.7068
might	-11.7068
▁Validation	-11.7069
▁Pre	-11.707
▁ho	-11.7071
59	-11.7071
GetNum	-11.7072
setFont	-11.7074
AB	-11.7075
GetSize	-11.7077
▁reproduce	-11.7077
half	-11.7078
▁explo	-11.7079
SEND	-11.7081
sendMessage	-11.7083
frank	-11.7085
FL	-11.7087
Are	-11.7087
▁domain	-11.7088
cardId	-11.709
ung	-11.7092
rfc	-11.7093
gs	-11.7094
elif	-11.7094
Aware	-11.7095
bordered	-11.7097
du	-11.7102
AuthController	-11.7103
restart	-11.7105
%2	-11.7105
orse	-11.7107
▁represents	-11.7107
wmi	-11.7107
Wait	-11.7109
▁pEntity	-11.7109
▁Usuario	-11.7112
GetError	-11.712
▁dispatch	-11.7121
lorp	-11.7121
dataProvider	-11.7122
|\	-11.7124
our	-11.7128
▁nonce	-11.7129
▁sqrt	-11.713
▁sync	-11.7132
odd	-11.7136
▁en	-11.7139
Added	-11.714
getHeight	-11.7142
ful	-11.7144
izing	-11.7144
▁0.046	-11.7145
Me	-11.7148
dll	-11.7148
charts	-11.7149
textfield	-11.7149
ISO	-11.7149
する	-11.7152
URE	-11.7156
RequestMethod	-11.7157
▁CPU	-11.7158
▁23	-11.7158
▁determine	-11.716
(&*	-11.716
▁Se	-11.7161
[]>	-11.7161
vel	-11.7162
jint	-11.7166
▁compatibility	-11.7169
Balance	-11.7171
▁FAR	-11.7171
iframe	-11.7171
▁1.0.0	-11.7179
Div	-11.7186
500	-11.7186
▁Show	-11.7187
▁Single	-11.7187
sound	-11.719
▁Im	-11.7197
nik	-11.7197
▁contact	-11.7199
capture	-11.7199
▁Go	-11.7202
▁35	-11.7202
▁renderer	-11.7205
rems	-11.7205
jsr	-11.7207
workspace	-11.7211
▁git	-11.7211
▁permit	-11.7212
(20,	-11.7214
ini	-11.7214
never	-11.7217
**************/	-11.7219
<'_,	-11.7219
▁Weight	-11.7224
▁allocator	-11.7224
coord	-11.7226
40,	-11.7226
onductor	-11.7227
Comp	-11.7227
Authority	-11.7229
translate	-11.7234
Exchange	-11.7236
singleton	-11.7237
datos	-11.7237
Dummy	-11.7237
whitespace	-11.7238
brain	-11.7239
10);	-11.724
29,	-11.724
fer	-11.7241
personal	-11.7242
getC	-11.7243
▁Tree	-11.7243
Disable	-11.7245
Ray	-11.7247
RUN	-11.725
▁&$	-11.725
partial	-11.7251
manifest	-11.7254
disk	-11.7255
frontend	-11.7255
noise	-11.7257
xf	-11.7257
Initialize	-11.7258
keySet	-11.7263
▁INTEGER	-11.7263
▁material	-11.7264
▁Black	-11.7264
setPosition	-11.7264
exist	-11.7266
ignores	-11.7273
clean	-11.7277
▁cl	-11.7279
▁assigned	-11.728
▁traits	-11.7282
feed	-11.7282
▁Password	-11.7284
▁capacity	-11.7284
PX	-11.7286
quality	-11.7286
Standard	-11.7286
Atom	-11.7287
▁lower	-11.7288
choice	-11.7289
▁Insert	-11.7291
OM	-11.7291
chan	-11.7291
BEGIN	-11.7292
▁registered	-11.7293
ImageView	-11.7293
sw	-11.7293
Reflection	-11.7295
han	-11.7297
lk	-11.7298
5.	-11.7299
contributor	-11.7299
finished	-11.7299
cover	-11.73
▁srv	-11.7301
▁sk	-11.7302
Instant	-11.7303
Pi	-11.7303
PDO	-11.7304
JpaRepository	-11.7306
upgrade	-11.7308
vertices	-11.731
three	-11.7313
RAM	-11.7314
▁tc	-11.7315
Invoke	-11.7316
shadow	-11.7316
AccessException	-11.7318
▁started	-11.7318
ImGui	-11.732
cont	-11.732
fuel	-11.7323
Fq	-11.7328
PartialEq	-11.733
▁404	-11.7331
while	-11.7333
(!$	-11.7333
either	-11.7334
Units	-11.7334
freq	-11.7335
startTime	-11.7336
▁assign	-11.7338
:30	-11.7341
▁ctl	-11.7346
PR	-11.7348
your	-11.7348
▁outline	-11.7351
▁Jpa	-11.7351
▁executor	-11.7353
▁mp	-11.7355
?',	-11.7355
▁records	-11.7355
chr	-11.7356
Labels	-11.7357
▁parsing	-11.7358
▁Microsoft	-11.7359
even	-11.7361
▁aggregate	-11.7362
▁VK	-11.7368
Plugins	-11.7372
dims	-11.7379
▁NOTE	-11.738
']->	-11.738
▁cargo	-11.7385
▁card	-11.7385
Pressed	-11.7389
▁Title	-11.7394
▁Queue	-11.7395
den	-11.7396
hostname	-11.7399
peers	-11.7403
5;	-11.7409
▁Mage	-11.7411
ers	-11.7412
FS	-11.7412
QR	-11.7413
mdl	-11.7413
▁elem	-11.7413
ku	-11.7413
▁elapsed	-11.7413
pts	-11.7413
variables	-11.7415
▁interrupt	-11.7419
lm	-11.742
mer	-11.7421
""+	-11.7425
Cached	-11.7426
QString	-11.7427
▁archive	-11.7433
32]	-11.7434
▁authorization	-11.7443
ego	-11.7444
pad	-11.7451
▁uses	-11.7452
takes	-11.7457
SH	-11.7457
Links	-11.7459
fade	-11.7459
dvec	-11.746
▁{0}"	-11.7461
▁Co	-11.7468
getApplication	-11.7473
▁none	-11.7487
tan	-11.7488
openid	-11.7489
-1.0	-11.7492
fieldName	-11.7493
▁glTex	-11.7496
▁heap	-11.7497
Hi	-11.7499
aom	-11.75
▁[&	-11.7503
getColor	-11.7506
▁15,	-11.7507
▁usage	-11.7509
37,	-11.7512
▁Cache	-11.7514
▁itk	-11.7515
▁thrown	-11.7518
▁1.0,	-11.7519
Paths	-11.752
stk	-11.7531
▁listen	-11.7533
paths	-11.7535
rec	-11.754
sion	-11.7546
▁bi	-11.7547
▁reply	-11.7549
▁Js	-11.7549
▁country	-11.755
▁//~^	-11.7551
▁remaining	-11.7552
getUserId	-11.7552
▁clap	-11.7553
▁JavaScript	-11.7553
▁attrs	-11.7554
▁Delete	-11.7555
▁near	-11.7557
▁commit	-11.7561
▁There	-11.7562
▁loader	-11.7568
Span	-11.7573
▁Iter	-11.7579
▁external	-11.7586
getParameter	-11.7593
Pop	-11.7599
3),	-11.7601
▁tasks	-11.7604
Speed	-11.7608
ExecutionContext	-11.7609
[3],	-11.7614
▁Protocol	-11.7616
▁tracing	-11.7622
aa	-11.7623
Br	-11.7624
ErrorCode	-11.7627
47.	-11.7627
Features	-11.7632
cells	-11.7633
east	-11.7634
documents	-11.7635
▁hs	-11.7639
▁Mat	-11.764
▁manager	-11.764
▁getValue	-11.7642
:20	-11.7645
qu	-11.7645
requirement	-11.7645
▁pow	-11.7647
▁frequency	-11.765
▁floor	-11.7652
▁nl	-11.7654
Facade	-11.7655
{!!	-11.7659
▁Cow	-11.7659
▁stores	-11.7661
▁rate	-11.7662
▁Destroy	-11.7664
tk	-11.7664
▁dict	-11.7665
▁connected	-11.7666
----------	-11.7667
401	-11.7672
PE	-11.7672
weather	-11.7673
=1,	-11.7676
AC	-11.7679
PID	-11.7682
▁ValueType	-11.7686
[*	-11.7687
">&	-11.7689
▁[['	-11.7689
▁"</	-11.769
/2;	-11.7691
▁//#	-11.7693
LAS	-11.77
HttpResponse	-11.7701
")))	-11.7708
qs	-11.7712
▁Python	-11.7713
GR	-11.772
▁GS	-11.7722
▁far	-11.7723
vk	-11.7725
ML	-11.7725
▁sa	-11.7729
▁Location	-11.7731
()+	-11.7732
▁sell	-11.7734
▁samples	-11.7736
gu	-11.7741
Declaration	-11.7743
selection	-11.7743
▁team	-11.7744
▁Runnable	-11.7749
▁Faker	-11.775
▁JS	-11.7752
Gl	-11.7752
generators	-11.7753
TableSeeder	-11.7755
getPage	-11.7755
▁callable	-11.776
trees	-11.7762
pData	-11.7763
▁[],	-11.7766
▁fr	-11.7766
▁starts	-11.7767
▁Team	-11.7768
atu	-11.777
▁Role	-11.7774
mix	-11.7779
(6)	-11.778
ew	-11.7782
Para	-11.7788
270	-11.7797
▁ast	-11.7801
▁Metadata	-11.7802
▁Di	-11.7804
▁dolor	-11.7804
>{!!	-11.7805
Con	-11.7808
800	-11.7809
TF	-11.7811
▁adapter	-11.7814
[..])	-11.7815
▁prime	-11.7817
▁period	-11.7819
▁serializer	-11.7824
▁'1')	-11.7825
Star	-11.7828
oi	-11.7829
craft	-11.7833
▁500	-11.7838
▁student	-11.7839
▁uv	-11.7839
-15	-11.7839
▁Reflection	-11.7843
▁LP	-11.7845
▁Stop	-11.7846
menus	-11.7846
"<<	-11.7847
getFile	-11.7848
▁BEGIN	-11.7849
ner	-11.7851
▁restriction	-11.7852
raft	-11.7853
▁finished	-11.7853
EventHandler	-11.7857
(-1,	-11.786
▁Args	-11.7866
▁/************	-11.7871
▁hostname	-11.7873
fuzz	-11.7881
ki	-11.7881
ITY	-11.7894
▁compile	-11.79
tl	-11.7911
▁parsed	-11.7913
▁Power	-11.7913
apps	-11.7922
▁'#	-11.7926
Us	-11.793
▁Complex	-11.7932
Vertical	-11.7936
Large	-11.7938
.$	-11.7945
▁crc	-11.7946
parents	-11.7947
Alpha	-11.7948
Interfaces	-11.7953
alter	-11.7957
▁Si	-11.7958
pat	-11.7962
в	-11.7968
75	-11.7969
▁trigger	-11.7976
SA	-11.798
Leg	-11.798
GEN	-11.7981
Tracking	-11.7982
实现	-11.7984
bk	-11.799
CONST	-11.7991
DWORD	-11.7991
▁Sequence	-11.8001
cycl	-11.8006
uni	-11.8009
(){}	-11.8011
6_	-11.8019
▁corner	-11.8027
▁who	-11.8035
ando	-11.804
▁loading	-11.8043
Passed	-11.8053
RequestBuilder	-11.8053
▁JsonObject	-11.8057
strto	-11.806
▁tool	-11.8061
▁Rule	-11.8064
]\	-11.8066
1=	-11.8067
▁positions	-11.8069
▁Device	-11.8075
withdraw	-11.8076
ven	-11.8082
Velocity	-11.8082
enumeration	-11.8082
Depth	-11.8085
_2()	-11.8086
Fixture	-11.8087
▁limitation	-11.8092
.'/	-11.8098
Alignment	-11.81
▁soft	-11.8101
▁thing	-11.8102
offs	-11.8103
▁dw	-11.8106
hit	-11.8106
)((	-11.8109
tid	-11.811
Allowed	-11.8111
Tracer	-11.8111
Ev	-11.8114
▁tensor	-11.8114
▁6)	-11.8116
8",	-11.8118
PluginManager	-11.8119
▁Admin	-11.8123
grammar	-11.8124
Dispatch	-11.8124
WINDOW	-11.8127
▁backend	-11.8127
SHORT	-11.8128
Proto	-11.8128
POINT	-11.8129
Assoc	-11.8129
Creation	-11.813
▁hp	-11.8131
▁look	-11.8132
tor	-11.8132
acion	-11.8133
▁isn	-11.8135
▁PPMACcontrol	-11.8136
CFG	-11.8136
Crud	-11.8136
venue	-11.8136
Inflater	-11.8136
指定	-11.8137
Water	-11.8137
Money	-11.8137
decay	-11.8137
会	-11.8137
Chapter	-11.8137
Shift	-11.8137
Green	-11.8137
ر	-11.8138
PARENT	-11.8138
SIBILITY	-11.8138
ン	-11.8138
crawler	-11.8138
提	-11.8138
academic	-11.8138
simulator	-11.8138
放	-11.8138
instagram	-11.8138
已	-11.8138
FIRST	-11.8138
Kategori	-11.8138
SYNC	-11.8138
nominal	-11.8138
开	-11.8138
日	-11.8138
fibonacci	-11.8138
participant	-11.8138
ZonedDateTime	-11.8138
denominator	-11.8138
qualsAndHashCode	-11.8138
ủ	-11.8138
▁PROCUREMENT	-11.8138
▁PROFITS	-11.8138
▁PartialOrd	-11.8138
▁SUBSTITUTE	-11.8138
订单	-11.8138
ENGINE	-11.8138
capabilities	-11.8138
tRepositoryProxy	-11.8138
▁adipis	-11.8138
komponen	-11.8138
不存在	-11.8138
色	-11.8138
ColorHueSlider	-11.8138
Plus	-11.8138
certificado	-11.8138
willReturn	-11.8138
▁better	-11.8138
NORMAL	-11.8138
foaf	-11.8138
WAIT	-11.8138
Jwt	-11.8138
Pilih	-11.8138
Circle	-11.8138
clause	-11.8138
drain	-11.8138
ATTR	-11.8138
OPTIONAL	-11.8138
56,	-11.8138
Lorem	-11.8138
experimental	-11.8138
DOWN	-11.8138
salary	-11.8138
manufacture	-11.8138
WEIGHT	-11.8138
Running	-11.8138
小	-11.8138
UrlRewrite	-11.8138
Upgrade	-11.8138
UTILS	-11.8138
epics	-11.8138
guest	-11.8138
office	-11.8138
▁CRC	-11.8138
▁LibraryNumber	-11.8138
splitted	-11.8138
easy	-11.8138
MANAGER	-11.8138
grantHandler	-11.8139
SVG	-11.8139
Parameterized	-11.8139
invokevirtual	-11.8139
telepon	-11.8139
Ajax	-11.8139
REMO	-11.8139
Automo	-11.8139
communication	-11.8139
rig	-11.8139
verification	-11.8139
Syscall	-11.8139
RefCell	-11.8139
PostMapping	-11.8139
▁Skin	-11.8139
Mgr	-11.8139
[100]	-11.8139
shine	-11.8139
▁glDelete	-11.814
MAIN	-11.814
YES	-11.814
SFML	-11.814
CharSequence	-11.814
shipping	-11.814
Marker	-11.814
:0	-11.814
Borrowed	-11.814
GLOBALS	-11.814
Redirection	-11.814
hook	-11.8141
NotEmpty	-11.8141
Upper	-11.8141
▁Keygen	-11.8141
netfl	-11.8141
Twig	-11.8141
▁actually	-11.8142
▁ii	-11.8142
GrantHandler	-11.8142
Footer	-11.8142
Logic	-11.8142
Qword	-11.8142
Tracker	-11.8143
faceInfo	-11.8143
grado	-11.8143
xmlns	-11.8143
wiki	-11.8143
midpoint	-11.8144
twig	-11.8144
▁DCHECK	-11.8144
MULTI	-11.8145
98,	-11.8145
Sink	-11.8146
ThreadLocal	-11.8146
Chooser	-11.8147
DEV	-11.8147
Editar	-11.8147
Hide	-11.8147
Hive	-11.8147
="<?=$	-11.8149
filepath	-11.8149
jwt	-11.8149
pan	-11.8149
>#</	-11.815
getContent	-11.815
Subscriber	-11.8151
LOGIN	-11.8151
CheckBox	-11.8152
TestSuite	-11.8152
xFF	-11.8152
confidence	-11.8152
transferencias	-11.8152
ANCE	-11.8152
sieve	-11.8152
EditText	-11.8153
FragmentManager	-11.8153
▁fib	-11.8153
baz	-11.8154
Pdf	-11.8154
builtin	-11.8154
ary	-11.8154
NET	-11.8154
jetty	-11.8155
▁Ord	-11.8156
▁Bootstrap	-11.8156
Heap	-11.8156
porter	-11.8156
▁green	-11.8156
ITEM	-11.8156
timing	-11.8157
ImVec	-11.8159
joy	-11.816
▁获取	-11.816
BitSet	-11.8161
Alloc	-11.8161
NESS	-11.8162
▁router	-11.8162
"=>$	-11.8162
▁vot	-11.8163
--){	-11.8164
="../	-11.8165
gps	-11.8166
condicion	-11.8166
Called	-11.8167
▁tcp	-11.8169
brand	-11.8169
escaped	-11.8169
press	-11.8171
DataProvider	-11.8171
mq	-11.8171
'+	-11.8173
documentos	-11.8173
insn	-11.8174
ControllerImpl	-11.8174
▁coordinates	-11.8175
Registered	-11.8176
bigint	-11.8177
grpc	-11.8177
Ipv	-11.8178
nosql	-11.8179
Dev	-11.818
▁partition	-11.8182
Without	-11.8186
MODEL	-11.8187
▁EVEN	-11.8187
▁DAMAGE	-11.8188
getR	-11.819
▁Tensor	-11.8191
udg	-11.8191
!["	-11.8192
▁Bar	-11.8193
模	-11.8194
▁entire	-11.8194
tst	-11.8195
▁unreachable	-11.8196
▁everything	-11.8196
▁sanity	-11.8196
▁functionality	-11.8196
Terminate	-11.8197
!\	-11.8198
▁optimize	-11.8199
▁ir	-11.8201
setCurrent	-11.8205
▁Cloud	-11.8207
!!!	-11.8211
SED	-11.8212
eh	-11.8216
niversal	-11.8216
tabindex	-11.8217
▁instantiate	-11.8218
much	-11.822
▁&[&	-11.8227
dynamics	-11.8228
004	-11.8231
▁-----	-11.8235
DisplayName	-11.8235
▁3],	-11.8237
Mouse	-11.8238
codec	-11.8241
BL	-11.8243
projectId	-11.8243
eol	-11.8243
Hot	-11.8244
unload	-11.8244
intro	-11.8244
whom	-11.8246
TT	-11.8247
▁her	-11.8247
ticker	-11.8248
Cap	-11.8252
was	-11.8255
5);	-11.8256
REQUIRED	-11.8257
emf	-11.8259
tickets	-11.826
Blog	-11.8262
customers	-11.8262
cf	-11.8265
ging	-11.8269
▁ident	-11.8269
fence	-11.8271
▁Don	-11.8271
Trace	-11.8271
Movement	-11.8272
▁400	-11.8274
▁pointers	-11.8275
31.	-11.8278
Vote	-11.8278
ogl	-11.8278
▁cb	-11.8279
3'	-11.8285
iphone	-11.8286
Rules	-11.8287
***********	-11.8289
...</	-11.8292
2]	-11.8292
[0]['	-11.8293
194	-11.8294
▁Maybe	-11.8298
▁EPS	-11.83
GLfloat	-11.8301
toast	-11.8303
credit	-11.8305
▁TOP	-11.8308
".$	-11.8308
▁(1	-11.8308
▁Upload	-11.8309
▁Aws	-11.8311
▁handled	-11.8312
Fi	-11.8312
▁sorted	-11.8313
01\	-11.8314
▁contacts	-11.8316
toml	-11.8317
solve	-11.832
StringProperty	-11.8321
▁fee	-11.8322
Tip	-11.8322
0.0,	-11.8324
▁ZC	-11.8325
Over	-11.8327
projectE	-11.8327
▁Shape	-11.8327
▁Func	-11.8329
kan	-11.833
EP	-11.8332
▁exp	-11.8332
▁не	-11.8332
Nil	-11.8339
MLC	-11.8343
▁indicate	-11.8344
▁}}"></	-11.8348
▁inside	-11.8348
▁Compute	-11.8355
++,	-11.8357
tiles	-11.8361
fixed	-11.8368
Booking	-11.8372
mv	-11.8372
▁comments	-11.8373
Ifc	-11.8375
ounding	-11.8375
Put	-11.8377
▁worker	-11.8379
sdf	-11.8387
fuse	-11.8388
▁adjust	-11.8393
▁lint	-11.8394
ization	-11.8399
27,	-11.8399
▁Let	-11.8401
▁unknown	-11.8402
▁topology	-11.8404
▁JPanel	-11.8405
BR	-11.8407
onic	-11.8409
▁JSONArray	-11.8411
ler	-11.8413
EST	-11.8416
▁activity	-11.8417
Tr	-11.8418
▁geometry	-11.8423
$__	-11.8428
▁Files	-11.843
Tcp	-11.8431
▁JB	-11.8434
▁Objects	-11.8436
▁Initialized	-11.8438
Restore	-11.8439
▁на	-11.8439
Implementations	-11.8439
pick	-11.8441
▁room	-11.8442
ycat	-11.8445
fin	-11.8448
getUser	-11.8448
▁El	-11.8452
('/{	-11.8453
▁()>	-11.8454
xd	-11.8458
ake	-11.846
generics	-11.8465
047	-11.8471
posit	-11.8472
▁snapshot	-11.8472
▁Inner	-11.8472
▁More	-11.8473
completion	-11.8474
▁Runtime	-11.8475
▁11,	-11.8475
Cookie	-11.8479
Cut	-11.8479
dg	-11.8479
recursive	-11.8479
Geometry	-11.848
Logging	-11.8488
voxel	-11.8488
decimal	-11.8488
///////////	-11.8489
External	-11.849
Escape	-11.849
xlib	-11.8491
gson	-11.8493
Callable	-11.8495
eye	-11.8497
nip	-11.8499
constraint	-11.8499
ClassType	-11.8501
>{	-11.8502
Regex	-11.8502
修改	-11.8507
OFFSET	-11.8507
undefined	-11.8509
▁stage	-11.8509
classification	-11.851
QWidget	-11.8512
▁JSDate	-11.8512
authorization	-11.8516
respond	-11.8518
visitor	-11.8519
major	-11.852
syntax	-11.852
Observable	-11.852
▁cont	-11.852
creator	-11.852
business	-11.852
EXPORT	-11.852
rectangle	-11.8521
RUPT	-11.8526
Using	-11.8526
('/')	-11.8527
notifications	-11.8528
trie	-11.8528
Comparator	-11.8528
▁goto	-11.8528
incoming	-11.8529
udp	-11.853
publisher	-11.8535
▁rev	-11.8535
IntegerNumeral	-11.8536
Wire	-11.8538
▁au	-11.854
winner	-11.8541
Runnable	-11.8542
encrypt	-11.8542
related	-11.8543
terminal	-11.8545
website	-11.8545
▁spec	-11.8547
Faker	-11.8548
▁cmp	-11.8549
eec	-11.855
launch	-11.855
RTC	-11.8553
▁decoded	-11.8554
WITH	-11.8557
Doctrine	-11.8557
signal	-11.8558
Python	-11.8559
▁si	-11.856
callable	-11.8561
distribution	-11.8562
Construct	-11.8562
FLAGS	-11.8564
refs	-11.8565
225	-11.8565
When	-11.8566
Based	-11.8568
SQLException	-11.8574
documentation	-11.8575
General	-11.8576
ipos	-11.8579
62	-11.858
virtual	-11.8582
123	-11.8591
8::	-11.8592
lerp	-11.8594
▁{0}	-11.8594
supported	-11.8595
▁Render	-11.8596
scanf	-11.8597
▁1][	-11.8601
CString	-11.861
BaseController	-11.8614
cstring	-11.8615
conditions	-11.8616
▁PACKAGE	-11.862
▁applied	-11.862
▁Port	-11.8622
▁recent	-11.8623
▁omp	-11.8623
>>::	-11.8628
floating	-11.863
crc	-11.863
BN	-11.8631
▁---	-11.8632
cloned	-11.8633
needs	-11.8637
Redis	-11.864
<'_>,	-11.8641
mImage	-11.8645
▁UserController	-11.8645
Aggregation	-11.8647
"><?=	-11.8648
▁errorMessage	-11.8653
▁Menu	-11.8657
faces	-11.8661
▁dyn	-11.8661
slow	-11.8662
agents	-11.8663
DD	-11.8663
!";	-11.8667
ado	-11.8668
oid	-11.8668
▁pipe	-11.8668
▁Execution	-11.8669
▁decl	-11.8669
INE	-11.8669
war	-11.867
javax	-11.8671
▁offsets	-11.8676
▁getUrl	-11.8683
iso	-11.8687
▁Drop	-11.8687
izer	-11.8697
False	-11.8701
textures	-11.8703
cir	-11.8709
BP	-11.8713
▁fur	-11.8715
permissions	-11.8715
001	-11.8716
UT	-11.8718
ins	-11.872
▁Book	-11.8724
▁getUser	-11.8727
▁PVOID	-11.873
wo	-11.873
▁Other	-11.8731
without	-11.8731
▁BUS	-11.8731
▁Unknown	-11.8732
▁numero	-11.8733
lc	-11.8735
ME	-11.8735
closed	-11.8739
="0">	-11.8743
dados	-11.8743
newInstance	-11.8743
▁Channel	-11.8746
▁stmt	-11.875
▁30,	-11.8752
432	-11.8755
sce	-11.8755
Peer	-11.8757
▁gc	-11.8761
yang	-11.8763
▁DS	-11.877
vt	-11.8771
▁2],	-11.8772
▁Encode	-11.8774
getNumberOf	-11.8776
(0.0,	-11.8777
Updated	-11.8784
ach	-11.8787
ntuk	-11.8795
▁cli	-11.8799
▁CLASS	-11.8808
sell	-11.8813
▁warning	-11.8813
▁Meta	-11.8814
▁sz	-11.8817
vol	-11.882
des	-11.8832
▁Vertex	-11.8835
▁wp	-11.8835
setId	-11.8838
▁vehicle	-11.8842
▁unused	-11.8842
▁Dimension	-11.8845
zh	-11.8848
▁ST	-11.8852
DP	-11.8855
jing	-11.8858
▁bitmap	-11.8864
_1()	-11.8864
ate	-11.8867
11,	-11.8871
sam	-11.8876
▁ml	-11.8878
ier	-11.8879
Dataset	-11.8895
parsed	-11.8897
▁2.0,	-11.8904
months	-11.8907
ole	-11.8908
Le	-11.8912
▁mov	-11.8914
▁-1,	-11.8924
Ms	-11.8925
ade	-11.8926
▁34,	-11.8927
lsb	-11.893
answers	-11.8933
▁Article	-11.8936
kd	-11.8939
jobs	-11.8943
示	-11.8953
1\	-11.8953
▁IntegerNumeral	-11.8954
?></	-11.8956
2){	-11.8957
dates	-11.8957
▁Cookie	-11.8958
controllers	-11.8958
DM	-11.8965
rw	-11.8965
Nodes	-11.8965
▁writes	-11.8976
("--	-11.8981
bill	-11.8982
alend	-11.8986
Integration	-11.899
▁250	-11.899
42,	-11.8993
Handlers	-11.8995
▁generic	-11.8999
▁licenses	-11.9002
021	-11.9002
▁clients	-11.9003
regions	-11.9009
ute	-11.9012
94	-11.9013
)?.	-11.902
▁Me	-11.9021
()])	-11.9021
getS	-11.9022
▁Parameter	-11.9023
gene	-11.9024
Intersection	-11.9029
▁Span	-11.9029
▁sound	-11.9032
sea	-11.9033
isOpen	-11.9033
188	-11.9037
▁extend	-11.904
▁sr	-11.904
▁0.2	-11.9047
▁WM	-11.906
night	-11.9067
▁getData	-11.9068
expects	-11.9073
tls	-11.9076
47,	-11.9077
▁stat	-11.9083
getState	-11.9084
▁12,	-11.9094
▁'-'	-11.91
00);	-11.9106
ontaining	-11.9108
?>"	-11.9109
rad	-11.9112
▁fieldName	-11.9115
(2),	-11.9117
▁holder	-11.9117
Middle	-11.9118
▁crypto	-11.9118
)*)	-11.9123
]++;	-11.9127
ding	-11.9136
73	-11.9138
▁Generate	-11.914
-50	-11.9143
dic	-11.9146
ali	-11.9146
'/',	-11.9147
mContext	-11.9149
▁lay	-11.9151
leg	-11.9152
Shop	-11.9154
-9">	-11.9155
▁vp	-11.9155
Bibl	-11.9164
poly	-11.9166
▁Visit	-11.9166
Tasks	-11.9167
ports	-11.9168
Accessor	-11.917
▁allocate	-11.917
▁listing	-11.9171
hu	-11.9172
10]	-11.9173
▁Mock	-11.9174
▁takes	-11.9184
tim	-11.9185
▁UINT	-11.9192
RU	-11.9199
▁Pet	-11.9199
▁Usage	-11.9203
AX	-11.9204
28,	-11.9206
▁preg	-11.9211
FE	-11.9213
lab	-11.9213
▁Types	-11.922
▁micro	-11.9221
LIG	-11.9224
AG	-11.9224
▁Fetch	-11.9226
表	-11.9231
▁agent	-11.9231
▁XM	-11.9237
Members	-11.9241
▁conv	-11.9243
▁book	-11.9248
ker	-11.9251
Ident	-11.9254
▁weights	-11.926
上	-11.926
▁rect	-11.9262
▁SET	-11.9265
▁Expression	-11.9266
Topic	-11.9267
poi	-11.927
sta	-11.9271
▁absolute	-11.9281
▁Errors	-11.9285
▁setContent	-11.9285
RM	-11.9286
▁highlight	-11.9289
Notes	-11.9292
▁Cast	-11.9292
;?>	-11.9293
hip	-11.9295
▁resolution	-11.9297
grant	-11.9297
pds	-11.93
buttons	-11.9301
▁union	-11.9302
ky	-11.9304
ber	-11.9309
Shadow	-11.9315
▁joint	-11.9323
Candidate	-11.9327
▁Uri	-11.933
▁signer	-11.933
Tokens	-11.933
ObjectProperty	-11.9331
▁Buffer	-11.9331
Original	-11.9334
Equal	-11.9335
bitcoin	-11.9335
servicio	-11.9335
assignment	-11.9337
▁Io	-11.9343
]+	-11.9344
Derived	-11.935
▁Policy	-11.9353
xc	-11.9355
Allocate	-11.936
ception	-11.9366
OOT	-11.9369
"=>	-11.9369
drive	-11.937
Semaphore	-11.9371
cha	-11.9371
▁Common	-11.9371
19,	-11.9372
terminate	-11.9373
admins	-11.9375
Period	-11.9375
suite	-11.9376
PrivateKey	-11.938
Modified	-11.9381
Human	-11.9382
Destination	-11.9382
learn	-11.9382
▁!$	-11.9382
ttl	-11.9383
Stmt	-11.9383
Attach	-11.9384
Uniform	-11.9384
Frequency	-11.9385
▁appropriate	-11.9386
GPU	-11.9386
权	-11.9386
(&[	-11.9386
时间	-11.9386
Fluent	-11.9387
操作	-11.9387
▁links	-11.9387
Shutdown	-11.9387
STRUCT	-11.9387
STREAM	-11.9387
audit	-11.9387
น	-11.9387
Split	-11.9387
nished	-11.9387
JNI	-11.9387
abcdef	-11.9387
回	-11.9387
该	-11.9387
必	-11.9387
ymkhana	-11.9388
は	-11.9388
成	-11.9388
Origin	-11.9388
添加	-11.9388
pivot	-11.9388
年	-11.9388
aspek	-11.9388
▁NEG	-11.9388
SOUND	-11.9388
Three	-11.9388
Cube	-11.9388
Helvetica	-11.9388
Principal	-11.9388
doctrine	-11.9388
opaque	-11.9388
restassured	-11.9388
发	-11.9388
属性	-11.9388
Bubble	-11.9388
Calendar	-11.9388
Digest	-11.9388
PRECISION	-11.9388
RedbeamsDatabase	-11.9388
Repositories	-11.9388
dIconPathDevice	-11.9388
▁consectetur	-11.9388
件	-11.9388
("2015-13-05	-11.9388
BINARY	-11.9388
PLATFORM	-11.9388
PRIMARY	-11.9388
Resume	-11.9388
StructOpt	-11.9388
almacen	-11.9388
direccion	-11.9388
©	-11.9388
ì	-11.9388
▁HOWEVER	-11.9388
▁INTRIAVX	-11.9388
人	-11.9388
应	-11.9388
ASCII	-11.9388
HIGH	-11.9388
companies	-11.9388
currencies	-11.9388
包	-11.9388
Infrastructure	-11.9388
THRESH	-11.9388
WebContents	-11.9388
exhaustive	-11.9388
haystack	-11.9388
ouTubeDownloader	-11.9388
▁inclusive	-11.9388
128006::	-11.9388
CombinedStrategy	-11.9388
Deployment	-11.9388
Medium	-11.9388
Voxel	-11.9388
接	-11.9388
本	-11.9388
菜单	-11.9388
Continue	-11.9388
Social	-11.9388
▁particular	-11.9388
BLUE	-11.9388
symfony	-11.9388
dismissible	-11.9388
directories	-11.9388
ificacion	-11.9388
jenis	-11.9388
Either	-11.9388
SLOT	-11.9388
lifecycle	-11.9388
GAME	-11.9388
RETURN	-11.9388
▁cré	-11.9388
ulkUpdateCommand	-11.9388
SWAP	-11.9388
expiration	-11.9388
ACCESS	-11.9388
Overlay	-11.9388
nested	-11.9388
▁RpcStrategy	-11.9388
EXIST	-11.9388
▁\"{}\"	-11.9388
CALLBACK	-11.9388
sqft	-11.9388
detach	-11.9388
Eye	-11.9388
客	-11.9388
Configurator	-11.9388
telefono	-11.9388
Utilities	-11.9388
income	-11.9388
surr	-11.9388
▁emitter	-11.9388
Lower	-11.9388
pango	-11.9388
ACTIVE	-11.9388
music	-11.9388
▁cleanup	-11.9388
YangNode	-11.9388
harga	-11.9388
skew	-11.9388
KEW	-11.9388
▁epsilon	-11.9388
ByteBuf	-11.9388
▁CLD	-11.9389
overlap	-11.9389
Undefined	-11.9389
USAGE	-11.9389
emscripten	-11.9389
PROFILE	-11.9389
GREEN	-11.9389
Plot	-11.9389
himi	-11.9389
▁Auction	-11.9389
GetLastError	-11.9389
Notice	-11.9389
datepicker	-11.9389
Fn	-11.9389
District	-11.9389
nearest	-11.9389
mongodb	-11.9389
Bearer	-11.9389
isValidEmail	-11.9389
Drag	-11.939
Utility	-11.939
SystemParallel	-11.939
▁logs	-11.939
TERM	-11.939
Jvm	-11.939
toolbox	-11.939
yellow	-11.939
00-1000	-11.939
surat	-11.939
Animated	-11.939
OptionsResolver	-11.939
luce	-11.9391
ActiveRecord	-11.9391
[7]	-11.9391
Qu	-11.9391
upperBound	-11.9391
LocalDate	-11.9391
▁accum	-11.9391
Fraction	-11.9391
xxxxxx	-11.9392
mpsc	-11.9392
FnMut	-11.9392
citas	-11.9392
district	-11.9392
BYTES	-11.9392
GT	-11.9392
Frontend	-11.9392
descripcion	-11.9393
MouseEvent	-11.9393
ExpressionParser	-11.9394
PathVariable	-11.9394
saml	-11.9394
HttpKernel	-11.9395
▁bold	-11.9395
hwnd	-11.9396
animated	-11.9396
ExecutorService	-11.9396
▁'{}'",	-11.9396
▁Facet	-11.9396
DIMS	-11.9397
programmer	-11.9397
transpose	-11.9397
Bls	-11.9397
deny	-11.9398
React	-11.9398
VectorXd	-11.9398
▁GUI	-11.9398
BlockPos	-11.9398
RILL	-11.9399
enqueue	-11.9399
Ctx	-11.9399
subDir	-11.9399
Connected	-11.9399
DisplayMode	-11.9399
DOM	-11.94
Binder	-11.94
tiny	-11.94
▁reduce	-11.94
launcher	-11.9401
文件	-11.9401
TimeZone	-11.9401
BORDER	-11.9402
oftDeletes	-11.9402
▁rlp	-11.9404
tanggal	-11.9406
IBC	-11.9406
Never	-11.9407
TEX	-11.9407
Zone	-11.9408
amino	-11.9408
assoc	-11.9409
▁dump	-11.9409
DIM	-11.9409
jml	-11.941
("../	-11.941
too	-11.9411
Publish	-11.9411
pybind	-11.9412
ARC	-11.9412
jfree	-11.9413
dual	-11.9414
AREA	-11.9415
htc	-11.9415
▁tea	-11.9415
enericTestObject	-11.9415
TIP	-11.9416
OVER	-11.9416
▁occurs	-11.9417
getOriginal	-11.9417
Relations	-11.9417
▁proof	-11.9419
desa	-11.942
attachments	-11.942
Sampler	-11.942
▁Current	-11.9421
addEdge	-11.9422
JoinColumn	-11.9422
HeaderValue	-11.9423
▁dVector	-11.9423
getCoord	-11.9425
AdminController	-11.9425
PlayerP	-11.9425
▁weapon	-11.9425
NT	-11.9425
▁CS	-11.9426
jms	-11.9426
Renderbuffer	-11.9426
objClass	-11.9426
-900	-11.9426
timestep	-11.9427
sTo	-11.9427
sitemap	-11.9427
versions	-11.9428
▁endforeach	-11.9428
AddIn	-11.9429
▁Ca	-11.943
▁ops	-11.943
Oauth	-11.9431
moduleData	-11.9432
marked	-11.9432
_10	-11.9433
67,	-11.9433
getCity	-11.9434
prodi	-11.9436
hack	-11.9437
timezone	-11.9437
mapel	-11.9439
420	-11.944
Dlg	-11.9442
ReturnValue	-11.9442
beg	-11.9443
orange	-11.9445
suppliers	-11.9446
▁bm	-11.9447
Party	-11.9447
LoginEvent	-11.9447
KeyEvent	-11.9448
Indexes	-11.9449
Ram	-11.9449
TI	-11.945
cate	-11.945
ATION	-11.945
autocomplete	-11.945
reporting	-11.9452
Dist	-11.9454
▁Fuel	-11.9454
▁creating	-11.9454
▁anything	-11.9454
▁TASK	-11.9454
▁expiry	-11.9454
▁EV	-11.9456
lexer	-11.9458
LIB	-11.9458
pageCount	-11.946
ND	-11.9461
8),	-11.9461
▁nu	-11.9463
▁Used	-11.9464
tConstant	-11.9464
stable	-11.9465
CNI	-11.9466
'=>['	-11.9466
alive	-11.9468
▁usuario	-11.947
▁Shell	-11.9471
▁alias	-11.9471
▁Root	-11.9474
cxt	-11.9475
▁cat	-11.9478
startup	-11.9479
charA	-11.948
labs	-11.9481
ld	-11.9482
▁5.0;	-11.9482
ez	-11.9483
▁won	-11.9485
=2;	-11.9485
eu	-11.9486
supporting	-11.9489
DEC	-11.9491
kb	-11.9493
zoo	-11.9495
Starting	-11.9499
Prime	-11.9505
ル	-11.9507
▁qu	-11.9507
statuses	-11.9507
coords	-11.9508
▁ball	-11.9509
▁Abs	-11.9511
getSession	-11.9511
wcout	-11.9512
▁26	-11.9513
startDate	-11.9514
pager	-11.9517
DataFormat	-11.9519
MST	-11.9523
HttpException	-11.9524
▁Batch	-11.9525
▁Release	-11.9525
Pt	-11.9526
ciones	-11.9528
HttpServer	-11.9529
▁symbols	-11.9531
▁Texture	-11.9533
loom	-11.9533
fvm	-11.9535
getTransaction	-11.9538
setSelected	-11.954
2")	-11.954
▁Ui	-11.954
▁"*"	-11.9543
eea	-11.9543
▁Struct	-11.9545
PG	-11.9546
Themes	-11.9546
MAG	-11.9546
SHARE	-11.9547
Limits	-11.9556
spi	-11.9556
3.5	-11.9557
Conditions	-11.9557
▁Define	-11.9558
ww	-11.9558
▁")"	-11.956
pes	-11.9561
hx	-11.9561
wil	-11.9567
▁motor	-11.957
▁barrier	-11.9572
3/	-11.9573
▁Iterable	-11.9573
▁activated	-11.9573
▁prim	-11.9576
Hand	-11.9577
TRAIN	-11.9577
jsonValue	-11.9579
xpert	-11.9584
▁series	-11.9585
▁getEnv	-11.9585
▁Linear	-11.9586
▁tell	-11.9587
▁aim	-11.9589
getGroup	-11.9591
")?,	-11.9592
candidates	-11.9592
Ds	-11.9593
orderId	-11.9597
mine	-11.9601
▁pose	-11.9602
Rp	-11.9605
pf	-11.9611
5000	-11.9612
roll	-11.9612
gar	-11.9614
Low	-11.9617
lee	-11.9618
▁за	-11.9618
Tables	-11.9619
nya	-11.9621
Ball	-11.9622
▁Min	-11.9623
▁Gen	-11.9626
▁letter	-11.9626
▁sampler	-11.9627
▁VERSION	-11.9628
▁Uuid	-11.9632
999	-11.964
▁predicate	-11.9641
▁De	-11.9642
▁friend	-11.9645
employees	-11.9648
CK	-11.9649
Migrations	-11.9649
▁Core	-11.9653
EventType	-11.9656
▁Currency	-11.9657
stubs	-11.9657
▁Or	-11.9659
(..)	-11.9659
waiting	-11.966
▁HW	-11.9662
enums	-11.9666
5.00	-11.9669
evento	-11.967
cal	-11.9674
Ip	-11.9682
▁evt	-11.9682
▁hyper	-11.9688
Weather	-11.9691
nv	-11.9692
▁Lua	-11.9692
▁jedinicnaCena	-11.9692
▁kolicina	-11.9692
']}	-11.9692
▁INTER	-11.9695
▁Cs	-11.9696
▁necessary	-11.9696
165	-11.9697
но	-11.9701
▁Us	-11.9702
Go	-11.9702
▁converted	-11.9704
▁wire	-11.9706
▁bounding	-11.9706
7:	-11.9708
▁32]	-11.9713
viewBox	-11.9713
typ	-11.9715
bati	-11.972
nil	-11.9721
ome	-11.9721
chen	-11.9722
▁did	-11.9723
tableName	-11.9724
quad	-11.9725
▁notes	-11.9725
mos	-11.9725
;?>"	-11.9729
▁sin	-11.9731
▁Generated	-11.9735
UserData	-11.9735
182	-11.9738
Echo	-11.9741
007	-11.9742
▁addTo	-11.9743
mr	-11.9743
Destroy	-11.9755
lv	-11.9757
ECC	-11.9758
▁integration	-11.9758
▁lista	-11.9759
8>)	-11.9759
('#	-11.9764
▁{})",	-11.9766
outputs	-11.9766
msgs	-11.977
Special	-11.9771
173	-11.9771
▁0.9	-11.9779
▁39	-11.9781
128>	-11.9785
getTable	-11.9785
delegates	-11.9788
▁geo	-11.9792
getSystem	-11.9792
IK	-11.9793
rms	-11.9794
▁damage	-11.9795
metric	-11.9796
fil	-11.9797
erc	-11.98
'=>"	-11.98
hir	-11.9802
)==	-11.9812
cross	-11.9813
tain	-11.9814
▁pretty	-11.9816
▁Determine	-11.9816
▁WAY	-11.9816
▁copied	-11.9816
▁enemy	-11.9816
▁Anchor	-11.9816
▁baud	-11.9816
▁clipboard	-11.9816
▁PhantomData	-11.9816
▁AtomicLong	-11.9816
▁pitch	-11.9817
▁backup	-11.9818
oncurrentHashMap	-11.9819
()<<	-11.982
▁Rng	-11.9827
▁checksum	-11.9827
▁getS	-11.983
getTarget	-11.9833
Changes	-11.9834
▁Language	-11.9841
则	-11.9841
▁triangles	-11.9844
mei	-11.9848
QueryBuilder	-11.9853
参数	-11.9857
▁OP	-11.9859
▁dialog	-11.986
SocketAddr	-11.9863
ux	-11.9865
VN	-11.9867
Pin	-11.9869
▁к	-11.9874
Primary	-11.9875
money	-11.9878
nick	-11.988
JS	-11.988
>>(	-11.9881
Parsed	-11.9884
subcommand	-11.9884
▁RES	-11.9884
reflection	-11.9885
calculator	-11.9885
digest	-11.9885
Rational	-11.9885
Abort	-11.9885
Dropdown	-11.9886
ALIGN	-11.9886
requireNonNull	-11.9886
Administrator	-11.9886
alignment	-11.9886
Recipe	-11.9887
pres	-11.9888
UART	-11.9889
City	-11.9889
senha	-11.9889
Drawable	-11.989
▁outputs	-11.9892
consumed	-11.9893
LogLevel	-11.9895
▁al	-11.9896
consumer	-11.9896
strIndex	-11.9897
pdbg	-11.9897
Solver	-11.9899
▁PO	-11.9899
aligned	-11.9902
bias	-11.9906
ctor	-11.9908
Dimension	-11.9908
mpl	-11.9911
neighbors	-11.9911
Textures	-11.9912
Kafka	-11.9914
ropertyMacro	-11.9916
persist	-11.9916
FAIL	-11.9917
TX	-11.9917
COOKIE	-11.9917
BUTTON	-11.9917
normalize	-11.9918
workflow	-11.9918
Actual	-11.9918
▁50,	-11.9919
ный	-11.992
touch	-11.992
animation	-11.9921
2))	-11.9923
Maximum	-11.9925
using	-11.9926
problem	-11.9927
ть	-11.9927
▁ke	-11.9929
stub	-11.9931
Literal	-11.9931
-11	-11.9931
▁Comment	-11.9932
retry	-11.9933
Terminal	-11.9933
follow	-11.9934
▁Issue	-11.9935
▁Just	-11.9936
gradient	-11.9936
Confirm	-11.9936
orientation	-11.9936
prim	-11.9937
BTreeMap	-11.9938
interpreter	-11.9941
▁colors	-11.9941
▁physical	-11.9941
Toast	-11.9941
▁medium	-11.9941
▁Describe	-11.9941
2017	-11.9942
Swap	-11.9943
TRY	-11.9943
mkdir	-11.9944
▁Found	-11.9944
websocket	-11.9944
DEF	-11.9944
observer	-11.9945
getToken	-11.9948
Pipe	-11.9948
ji	-11.9948
Transfer	-11.9948
创建	-11.9949
Sphere	-11.9949
STATIC	-11.9949
certificate	-11.9949
initializer	-11.9949
Feedback	-11.9951
PublicKey	-11.9952
ác	-11.9953
Encode	-11.9953
vtk	-11.9954
focus	-11.9955
▁...)	-11.9958
Partial	-11.9958
Linux	-11.9958
PHPUnit	-11.9959
Rectangle	-11.9959
0),	-11.9959
replica	-11.996
:$	-11.996
TileEntity	-11.9962
orig	-11.9962
detect	-11.9963
()?.	-11.9965
vehicle	-11.9965
hupas	-11.9967
▁Null	-11.9969
▁"%2	-11.997
▁ru	-11.997
retrieve	-11.997
frequency	-11.997
large	-11.9971
converter	-11.9971
undef	-11.9972
▁released	-11.9972
special	-11.9973
choose	-11.9975
46,	-11.9975
wrong	-11.9976
resolver	-11.9976
floor	-11.9977
allocated	-11.998
ContainerBuilder	-11.9981
MainWindow	-11.9982
could	-11.9988
printer	-11.9988
dsn	-11.9988
Sign	-11.9989
Cow	-11.999
setLayout	-11.9992
0026	-11.9993
gov	-11.9994
▁sign	-11.9994
PHP	-11.9995
connected	-11.9995
▁lastName	-11.9995
▁cos	-11.9998
serializer	-11.9998
maximum	-11.9998
keyboard	-11.9999
BigDecimal	-12.0001
dict	-12.0001
▁tile	-12.0001
did	-12.0001
▁por	-12.0002
vn	-12.0002
Ver	-12.0003
132	-12.0005
▁rgba	-12.0006
▁gfx	-12.0007
bitmap	-12.0007
obtain	-12.0008
adj	-12.0008
Download	-12.0011
referenced	-12.0017
hashed	-12.0018
▁balance	-12.0018
Books	-12.0018
Dual	-12.0021
Redirect	-12.0021
34,	-12.0021
▁bt	-12.0023
fullname	-12.0025
▁------	-12.003
Sets	-12.003
▁download	-12.0032
mean	-12.0032
▁Editor	-12.0033
▁middle	-12.0035
▁Audi	-12.0037
▁handlers	-12.0037
EM	-12.0037
▁fid	-12.0037
students	-12.0039
▁gb	-12.0041
ence	-12.0043
▁mapped	-12.0044
▁'1	-12.0048
setUp	-12.0048
▁los	-12.0048
luck	-12.0058
▁rep	-12.0058
Rotate	-12.0063
▁Android	-12.0065
nto	-12.0065
▁organization	-12.0068
▁Reserved	-12.0069
▁Tenant	-12.007
getCurrent	-12.007
6.7	-12.0072
AI	-12.0075
']]	-12.0075
nimplemented	-12.0077
▁flush	-12.0077
▁em	-12.0079
▁encoder	-12.0079
dbname	-12.008
Factor	-12.0081
ORY	-12.0081
▁100%;	-12.0087
▁Binary	-12.0087
Cur	-12.0108
▁constraints	-12.0111
defaults	-12.0111
:{}	-12.0113
▁Virtual	-12.0113
58	-12.0115
ResultSet	-12.0119
97,	-12.0122
qt	-12.0124
asi	-12.0125
Inf	-12.0133
256::	-12.0135
▁quit	-12.0137
IE	-12.0139
sets	-12.0139
▁sprite	-12.014
▁75	-12.0145
ibo	-12.0148
▁det	-12.015
cons	-12.015
ted	-12.0151
▁Window	-12.0151
Mount	-12.0154
▁Smart	-12.0156
▁filters	-12.0166
▁Partial	-12.0173
▁Sign	-12.0178
▁16,	-12.0181
FileInfo	-12.0186
statements	-12.0196
▁Linux	-12.0196
▁Rectangle	-12.0196
▁Transfer	-12.0197
▁TileEntity	-12.0197
▁PHPUnit	-12.0198
▁RE	-12.0199
▁-1.0	-12.0204
Counts	-12.0208
hl	-12.0209
reading	-12.0211
packets	-12.0212
▁allocated	-12.0212
1000,	-12.0217
▁True	-12.0224
patterns	-12.0226
ValueType	-12.0227
ListNode	-12.0229
▁USER	-12.023
stdc	-12.0237
▁dos	-12.0239
SN	-12.025
▁mak	-12.0254
4"),	-12.0254
Rows	-12.0256
▁Expr	-12.0262
mas	-12.0263
samples	-12.0265
▁Video	-12.0271
Smart	-12.0275
"%	-12.0277
Ping	-12.0279
▁term	-12.028
{@	-12.0283
▁д	-12.0285
ARE	-12.0287
▁ES	-12.029
Connector	-12.0291
▁publish	-12.0293
▁sums	-12.0296
▁kk	-12.0305
▁Pro	-12.0306
▁orig	-12.031
NG	-12.031
Com	-12.0312
lps	-12.0313
Each	-12.0318
▁20;	-12.032
▁Qt	-12.0321
'><	-12.0323
changes	-12.0324
BM	-12.0325
▁Comparator	-12.0326
▁incoming	-12.0327
▁publisher	-12.0329
▁website	-12.0329
1-	-12.0329
▁ErrorKind	-12.0329
Ads	-12.0329
▁completion	-12.0331
▁Cursor	-12.034
allows	-12.0341
Di	-12.0341
10.	-12.0343
GB	-12.0343
▁}}"><	-12.0345
hana	-12.0346
98	-12.0346
gre	-12.0347
CmsResource	-12.0348
01,	-12.0352
数组	-12.0353
▁faces	-12.0356
▁less	-12.0358
late	-12.0358
usb	-12.0361
Pu	-12.0361
arant	-12.0363
▁BN	-12.0364
Cat	-12.0375
[3,	-12.0375
tv	-12.0377
55,	-12.0383
▁Timestamp	-12.0387
sky	-12.0389
express	-12.039
Cross	-12.0394
dx	-12.0396
▁sn	-12.0399
'=>1	-12.0411
----	-12.0416
()}}	-12.0417
▁Driver	-12.0417
yaw	-12.042
▁Pixel	-12.0425
jvalue	-12.0427
913	-12.043
▁$('.	-12.043
000000	-12.0433
Compat	-12.0436
▁uc	-12.0441
prog	-12.0442
▁Required	-12.0443
▁extra	-12.0444
▁est	-12.0453
▁Standard	-12.0456
▁clean	-12.0457
sstream	-12.0458
▁Serializer	-12.0461
▁hello	-12.0462
▁year	-12.0466
questions	-12.047
▁newUser	-12.0471
▁Wait	-12.0471
▁HttpResponse	-12.0473
HE	-12.0474
▁UInt	-12.0474
▁25,	-12.048
MO	-12.0484
hm	-12.0489
▁'./	-12.0492
Rx	-12.0501
LT	-12.0507
},{	-12.0517
▁1.,	-12.0518
ipp	-12.0525
lew	-12.0526
▁pages	-12.0529
$("#	-12.053
yes	-12.0532
▁solution	-12.0532
dq	-12.0533
▁guid	-12.0549
▁Void	-12.0552
▁Ke	-12.0553
')</	-12.0555
ette	-12.0556
\""	-12.0557
▁typ	-12.0558
▁MD	-12.057
▁cover	-12.057
▁tb	-12.0572
Locator	-12.0573
.0;	-12.0574
remember	-12.0574
114	-12.0575
Lifecycle	-12.0576
west	-12.0576
Da	-12.0583
▁horizontal	-12.0592
▁Signal	-12.0594
Was	-12.0594
cxx	-12.0597
▁peers	-12.0597
▁10000	-12.06
========	-12.0601
▁Serial	-12.0601
▁Word	-12.0603
ObjectId	-12.0603
▁surface	-12.0608
▁ResponseEntity	-12.0608
rollback	-12.0609
▁Multi	-12.0618
▁nome	-12.0623
TestEntity	-12.0631
3];	-12.0631
named	-12.0633
▁Surface	-12.0637
Scroll	-12.0637
ni	-12.0637
SC	-12.0637
▁42,	-12.0641
3(0.0	-12.0644
ool	-12.066
}});	-12.0661
Precision	-12.0666
RSA	-12.067
▁Section	-12.0674
256;	-12.0676
▁pod	-12.0678
16::	-12.0682
то	-12.0684
▁[[	-12.0685
eps	-12.0692
grade	-12.0693
curl	-12.0693
▁NT	-12.0693
CMD	-12.0695
fC	-12.0697
▁modifier	-12.0698
3))	-12.0706
ider	-12.0707
!("../	-12.0708
ServletRequest	-12.0713
Joint	-12.0713
dson	-12.0718
▁age	-12.0718
aire	-12.072
64))	-12.0721
Pressure	-12.0722
▁formatter	-12.0724
levels	-12.0724
eth	-12.0725
race	-12.0726
▁parallel	-12.0727
DR	-12.0727
▁Inventory	-12.073
Visibility	-12.0732
iss	-12.0732
▁Il	-12.0732
ger	-12.0732
▁hashCode	-12.0737
▁sink	-12.0738
▁stride	-12.0742
▁Tools	-12.0743
'}'	-12.0745
IER	-12.0745
▁Bad	-12.0752
carp	-12.0753
Old	-12.0753
RET	-12.0753
▁lo	-12.0753
3.79	-12.0754
diagnostic	-12.0755
fallback	-12.0756
getField	-12.0756
motion	-12.0761
mount	-12.0761
beacon	-12.0761
alumno	-12.0764
▁Media	-12.0765
Decl	-12.0765
intersect	-12.0765
favorite	-12.0766
pane	-12.0766
▁become	-12.0767
credential	-12.0768
piece	-12.0768
={{	-12.077
counters	-12.0771
COR	-12.0773
Department	-12.0774
arium	-12.0777
nano	-12.0779
Yo	-12.078
▁Mont	-12.079
Separator	-12.0791
▁nom	-12.0793
registers	-12.0794
Macro	-12.0794
classType	-12.0795
▁alarm	-12.0796
Recurring	-12.08
▁measure	-12.0801
advance	-12.0801
anggal	-12.0804
Behavior	-12.0804
adt	-12.0804
setString	-12.0805
0/	-12.0805
SETTING	-12.0806
wav	-12.0806
NUMBER	-12.0806
727	-12.0809
OPTION	-12.0809
!(),	-12.0809
▁2010	-12.0809
Follow	-12.081
Legacy	-12.081
Detect	-12.0811
Ignite	-12.0811
Where	-12.0811
INCLUDE	-12.0811
Vendor	-12.0811
bat	-12.0812
Sector	-12.0812
ã	-12.0812
Permanent	-12.0813
▁Machine	-12.0813
Finish	-12.0813
Borrow	-12.0813
Enumeration	-12.0813
Crypt	-12.0813
CascDcyBr	-12.0813
▁Identity	-12.0813
Indicator	-12.0814
Popup	-12.0814
="24"	-12.0814
ROWS	-12.0815
adRa	-12.0815
Management	-12.0815
Intersect	-12.0815
SQLite	-12.0815
Hymn	-12.0815
kotekan	-12.0815
Workflow	-12.0815
Catalog	-12.0815
字符	-12.0815
Wrap	-12.0816
Blank	-12.0816
EXECUT	-12.0816
能	-12.0816
visibility	-12.0816
次	-12.0816
注	-12.0816
字	-12.0816
cloudflare	-12.0816
Manual	-12.0816
前	-12.0816
_15619	-12.0816
Hidden	-12.0816
د	-12.0816
输入	-12.0816
子	-12.0816
ор	-12.0816
过	-12.0816
当	-12.0816
ロ	-12.0816
定	-12.0816
lokasi	-12.0816
tencent	-12.0816
recipient	-12.0816
と	-12.0816
PRODUCT	-12.0816
ọ	-12.0816
入	-12.0816
关	-12.0816
成功	-12.0816
UnityWorkItem	-12.0816
付	-12.0816
正	-12.0816
Campaign	-12.0816
Motor	-12.0816
Music	-12.0816
RwLock	-12.0816
WithPrimitives	-12.0816
policies	-12.0816
▁temporary	-12.0816
资	-12.0816
Connectivity	-12.0816
Focus	-12.0816
ラ	-12.0816
使用	-12.0816
所	-12.0816
fHistdEdxP	-12.0816
ingredient	-12.0816
witness	-12.0816
▁sistema	-12.0816
日志	-12.0816
看	-12.0816
APPLICATION	-12.0816
EtaRegion	-12.0816
WORLD	-12.0816
Д	-12.0816
ế	-12.0816
ừ	-12.0816
▁potential	-12.0816
▁tiền	-12.0816
▁vídeo	-12.0816
务	-12.0816
边	-12.0816
Which	-12.0816
calendar	-12.0816
emoji	-12.0816
nearClipPlane	-12.0816
tearDown	-12.0816
▁SSAValue	-12.0816
AUTH	-12.0816
Eliminar	-12.0816
VARIABLE	-12.0816
moniker	-12.0816
pencil	-12.0816
residual	-12.0816
trailer	-12.0816
ي	-12.0816
▁Revolut	-12.0816
▁STDMETHOD	-12.0816
▁monomial	-12.0816
Latitude	-12.0816
embedded	-12.0816
guzzle	-12.0816
trailing	-12.0816
ن	-12.0816
▁thuê	-12.0816
DECLARE	-12.0816
PACKET	-12.0816
SCREEN	-12.0816
Suffix	-12.0816
dictionary	-12.0816
索	-12.0816
SUCCEED	-12.0816
で	-12.0816
Billboard	-12.0816
▁supply	-12.0816
以	-12.0816
survey	-12.0816
FRAME	-12.0816
preferenceName	-12.0816
rabbit	-12.0816
NUnitExtensions	-12.0816
Simulator	-12.0816
加	-12.0816
SCRIPT	-12.0816
错误	-12.0816
OVERLAY	-12.0816
palette	-12.0816
料	-12.0816
MarketSort	-12.0816
▁Prepare	-12.0816
重	-12.0816
management	-12.0816
(255*	-12.0816
warehouse	-12.0816
jump	-12.0816
же	-12.0816
MISSING	-12.0816
Proof	-12.0816
Ensayo	-12.0816
Desktop	-12.0816
recursion	-12.0816
理	-12.0816
▁Guide	-12.0816
▁relevant	-12.0816
Keep	-12.0816
Already	-12.0816
DETAIL	-12.0816
LABEL	-12.0816
да	-12.0817
POOL	-12.0817
judul	-12.0817
wechat	-12.0817
Backup	-12.0817
TRAIT	-12.0817
▁glBindBuffer	-12.0817
feather	-12.0817
并	-12.0817
▁skipped	-12.0817
CONTEXT	-12.0817
JointPtr	-12.0817
endsWith	-12.0817
Summary	-12.0817
FEATURE	-12.0817
integral	-12.0817
centre	-12.0817
Excel	-12.0817
TIMEOUT	-12.0817
ponto	-12.0817
EOL	-12.0817
Launcher	-12.0817
spark	-12.0817
English	-12.0817
Longitude	-12.0817
DerefMut	-12.0817
jpeg	-12.0817
SerializedName	-12.0817
Association	-12.0817
dihapus	-12.0817
kabupaten	-12.0817
▁Wrapper	-12.0817
HelloWorld	-12.0818
▁authorized	-12.0818
▁FMOD	-12.0818
_15622	-12.0818
LayoutInflater	-12.0818
NOTHROW	-12.0818
▁compte	-12.0818
TOPIC	-12.0818
namabank	-12.0818
Animal	-12.0818
Directive	-12.0818
kelas	-12.0818
APPEND	-12.0818
AUX	-12.0818
HIDE	-12.0818
Gamepad	-12.0819
inheritDoc	-12.0819
pembayaran	-12.0819
LCD	-12.0819
hành	-12.0819
MetadataGetter	-12.0819
▁OpenOptions	-12.0819
Ciudad	-12.0819
Needed	-12.0819
Finished	-12.0819
HOOK	-12.0819
romote	-12.0819
propagate	-12.0819
SocketChannel	-12.0819
distpt	-12.082
crux	-12.082
▁errMsg	-12.082
staff	-12.082
TestingResponse	-12.082
deliv	-12.082
_15620	-12.082
▁USA	-12.082
▁Ti	-12.082
CustomActor	-12.0821
Universal	-12.0821
▁yew	-12.0821
orient	-12.0821
blockquote	-12.0821
Expose	-12.0821
love	-12.0821
unicode	-12.0821
TRANS	-12.0821
IsEmpty	-12.0822
AccessToken	-12.0822
BoundingBox	-12.0822
setBounds	-12.0822
▁rsip	-12.0822
quotation	-12.0822
▁Mil	-12.0822
ç	-12.0822
1530	-12.0822
▁intended	-12.0823
verbosity	-12.0823
unistd	-12.0823
anewarray	-12.0823
replacement	-12.0823
ersen	-12.0823
▁very	-12.0823
MTU	-12.0823
architecture	-12.0823
powered	-12.0823
▁movies	-12.0823
SECONDS	-12.0824
wpdb	-12.0824
Analytics	-12.0824
▁acceptor	-12.0824
tempDir	-12.0824
crum	-12.0825
Dense	-12.0825
poseNode	-12.0825
SeqC	-12.0825
▁50.0	-12.0825
emberDeclaration	-12.0825
life	-12.0825
Hack	-12.0825
etSchemaResponse	-12.0826
TestClasses	-12.0826
BlockState	-12.0826
Pwm	-12.0827
Roll	-12.0827
▁entered	-12.0827
▁2013	-12.0827
▁realm	-12.0828
CIAL	-12.0828
▁going	-12.0828
ough	-12.0828
smarty	-12.0828
DROP	-12.0829
FieldReader	-12.0829
SubCommand	-12.0829
endian	-12.0829
MatrixX	-12.0829
▁construction	-12.0829
powerup	-12.083
PNG	-12.083
THREADS	-12.083
Img	-12.083
3(1.0	-12.083
Parsing	-12.083
Force	-12.083
otog	-12.083
TimerTask	-12.083
St	-12.083
▁gap	-12.083
transparent	-12.0831
Mapped	-12.0831
15.3	-12.0831
Andre	-12.0831
▁Perform	-12.0831
alice	-12.0831
CSV	-12.0832
jfr	-12.0832
desk	-12.0832
▁trees	-12.0832
dealer	-12.0833
CLOSE	-12.0834
DELETED	-12.0834
HANDLER	-12.0834
RNG	-12.0834
enctype	-12.0835
FileNotFound	-12.0835
▁TStr	-12.0835
CBL	-12.0836
myAddr	-12.0837
CLI	-12.0837
Udp	-12.0837
guarded	-12.0837
province	-12.0838
Transformation	-12.084
caracter	-12.0841
Beta	-12.0841
DCM	-12.0841
Ship	-12.0841
draft	-12.0841
nowrap	-12.0842
`)	-12.0842
Trim	-12.0842
presenter	-12.0844
hub	-12.0844
Ability	-12.0844
LinkedList	-12.0845
BITS	-12.0845
Live	-12.0846
TextUtils	-12.0846
▁coordinate	-12.0847
yml	-12.0847
▁FVector	-12.0847
Readable	-12.0848
findOne	-12.0848
▁Anunci	-12.0848
Concept	-12.0848
extended	-12.0848
vMat	-12.0849
editable	-12.0849
KeyCode	-12.085
connector	-12.085
aw	-12.085
▁"../../	-12.0851
/2.0	-12.0852
▁______	-12.0852
GUID	-12.0853
WindowManager	-12.0853
\030\00	-12.0854
fwd	-12.0854
▁blob	-12.0855
JFrame	-12.0856
▁xhr	-12.0857
(400,	-12.0857
svc	-12.0858
sortable	-12.0858
getRemote	-12.0859
ishop	-12.0859
tw	-12.0859
etVisible	-12.086
▁labor	-12.0861
IoError	-12.0863
Hold	-12.0863
▁Directory	-12.0864
trig	-12.0864
ET	-12.0864
discount	-12.0865
▁PUBLIC	-12.0865
▁Writable	-12.0865
getLanguage	-12.0866
▁printed	-12.0867
▁imageData	-12.0868
▁Up	-12.0869
InitError	-12.087
Framebuffer	-12.0872
prints	-12.0872
Sku	-12.0874
▁Subject	-12.0875
(?	-12.0876
SSL	-12.0877
lift	-12.0877
▁Make	-12.0877
▁Rpc	-12.0878
baseUrl	-12.0878
SSE	-12.0879
-3.79	-12.0881
paid	-12.0882
conten	-12.0883
127	-12.0883
ware	-12.0883
containerBuilder	-12.0885
statusCode	-12.0886
subsystem	-12.0887
▁FilterType	-12.0888
GetClass	-12.0889
EmptyM	-12.089
OFF	-12.0891
▁Indicate	-12.0894
▁sequential	-12.0894
▁Bi	-12.0894
▁dependency	-12.0895
▁stash	-12.0895
▁encryption	-12.0895
extractor	-12.0895
▁performance	-12.0895
translations	-12.0896
▁Remote	-12.0897
checks	-12.0897
Encoded	-12.0897
Bookstore	-12.0897
topo	-12.0898
ClientConfig	-12.0898
GetType	-12.0898
undo	-12.0898
='$	-12.0902
中的	-12.0903
qq	-12.0904
▁contributors	-12.0905
ь	-12.091
excluded	-12.0911
comm	-12.0914
dung	-12.0915
FrameSource	-12.0918
AP	-12.0921
>@	-12.0921
REFERENCE	-12.0922
▁Normal	-12.0924
32>().	-12.0924
ana	-12.0925
200",	-12.0925
8:	-12.0925
▁spell	-12.0927
psi	-12.0928
▁av	-12.0929
(200)	-12.0929
CTR	-12.0929
sliders	-12.093
▁msgs	-12.0932
KOK	-12.0932
imag	-12.0937
64()	-12.0938
Recording	-12.0939
▁moved	-12.094
roads	-12.0942
markets	-12.0943
==1)	-12.0945
▁family	-12.0946
EVENTS	-12.0948
LLB	-12.0948
▁mst	-12.0949
bComponents	-12.0951
Dot	-12.0954
LogError	-12.0954
testcase	-12.0955
()`	-12.0956
▁nn	-12.0956
CDATA	-12.0957
][0]	-12.0959
▁20)	-12.0962
Todo	-12.0963
bol	-12.0967
currentIndex	-12.0973
Mag	-12.0973
:{$	-12.0975
Pred	-12.0977
▁purpose	-12.0977
04\	-12.0977
Rcpp	-12.0979
SEL	-12.0981
asc	-12.0981
vi	-12.0986
exam	-12.0987
fh	-12.0987
newData	-12.0988
NN	-12.0988
ika	-12.0992
388	-12.0993
▁'&	-12.0995
wind	-12.0996
getSelected	-12.0996
TypeDeclaration	-12.0996
tb	-12.0997
▁22	-12.0997
=%	-12.1002
▁Short	-12.1003
tel	-12.1004
▁Console	-12.1004
▁CommandLine	-12.1009
▁numberOf	-12.1011
aoc	-12.1011
93,	-12.1015
Seek	-12.1016
ham	-12.1016
448	-12.1016
ucho	-12.1017
ENT	-12.102
▁parm	-12.1023
(404)	-12.1024
fname	-12.1029
▁graceful	-12.103
▁traffic	-12.103
▁OWNER	-12.103
▁Thunk	-12.103
▁Creating	-12.103
▁increase	-12.103
▁volatile	-12.103
▁CRLF	-12.103
▁pump	-12.1031
▁lrh	-12.1031
▁Must	-12.1031
▁"*",	-12.1031
▁album	-12.1033
btc	-12.1035
▁rocket	-12.1037
▁norm	-12.1039
[0]]	-12.1043
EB	-12.1045
Plant	-12.1045
▁propertyName	-12.1047
▁4:	-12.105
Thrown	-12.1052
JR	-12.1057
▁checks	-12.1058
RequestException	-12.1061
▁NodeList	-12.1062
ifecycleRegistry	-12.1063
▁inputStream	-12.1064
ycl	-12.107
toFile	-12.1071
▁dao	-12.1072
[&]()	-12.1072
emini	-12.1072
boxes	-12.1073
-08	-12.1077
getPassword	-12.108
typeof	-12.1081
hj	-12.1086
tlv	-12.1087
();?>	-12.1089
getEntity	-12.1098
rg	-12.1099
▁Character	-12.1099
erlin	-12.1102
EE	-12.1103
▁Te	-12.1103
24\	-12.1108
[0][	-12.111
Bear	-12.1115
▁attempt	-12.1118
64),	-12.112
▁Connect	-12.1123
lastname	-12.1123
Inter	-12.1124
idle	-12.1124
listen	-12.1125
▁qx	-12.1125
▁rotate	-12.1127
']],	-12.1128
="30	-12.1128
▁merged	-12.1129
bx	-12.1131
wall	-12.1132
EXTR	-12.1135
▁games	-12.1136
▁HANDLE	-12.1137
▁'')	-12.1137
IL	-12.1138
▁constants	-12.114
sizes	-12.1141
▁Bitmap	-12.1144
hat	-12.1144
▁reason	-12.1145
▁decrypt	-12.1147
▁creation	-12.1147
+":	-12.1153
▁fast	-12.1156
▁Init	-12.1158
rights	-12.116
▁Git	-12.116
dal	-12.1161
AA	-12.1167
▁macros	-12.1167
1.1	-12.1169
▁============	-12.1171
▁gpio	-12.1171
▁138	-12.1172
Devices	-12.1172
▁genre	-12.1172
▁STRICT	-12.1172
▁naziv	-12.1173
▁removal	-12.1173
▁cycles	-12.1173
▁unsupported	-12.1173
▁plot	-12.1174
joints	-12.1175
▁256	-12.1175
ULP	-12.1177
DataItem	-12.118
Cone	-12.1181
Ljava	-12.1184
▁hashes	-12.1185
▁Air	-12.1186
▁Include	-12.1189
8))	-12.1191
La	-12.1194
ces	-12.1196
▁Edge	-12.12
baba	-12.12
▁tab	-12.1204
streaming	-12.1205
otp	-12.1206
▁PyObject	-12.1207
Channels	-12.1209
isassembly	-12.121
PANG	-12.1212
▁minutes	-12.1212
▁month	-12.1215
bug	-12.1217
5.5	-12.1222
▁<!--<	-12.1227
▁versions	-12.1231
▁5),	-12.1233
▁OLD	-12.1235
segments	-12.1244
▁sending	-12.1245
networks	-12.1248
sampler	-12.1252
▁HEADER	-12.1254
))?	-12.1255
setUser	-12.1258
blocking	-12.1258
kz	-12.1259
▁neighbor	-12.1263
▁Linked	-12.1264
TokenType	-12.1267
▁Length	-12.1268
analyze	-12.1274
userData	-12.1275
Na	-12.1276
SV	-12.1277
classList	-12.1278
[{}]	-12.1279
defines	-12.1279
-00	-12.1279
▁1000;	-12.1282
▁machine	-12.1284
▁LinearLayout	-12.1285
nodeId	-12.1285
▁INDEX	-12.1288
▁Rgb	-12.1289
▁exc	-12.1294
lek	-12.1296
▁getItem	-12.1299
marks	-12.1299
']."	-12.1301
▁Keyboard	-12.1302
00000000,	-12.1304
▁Volume	-12.1305
une	-12.1307
ản	-12.131
hbase	-12.1321
▁completed	-12.1321
PU	-12.1321
▁TokenStream	-12.1322
64>)	-12.1325
compression	-12.1327
▁primitive	-12.1328
UA	-12.1329
hy	-12.1332
rsa	-12.1333
▁steps	-12.1334
Po	-12.1334
Face	-12.1335
eb	-12.1335
▁ser	-12.1338
▁glyphs	-12.1341
▁ranges	-12.1342
Ab	-12.1346
▁Lib	-12.1353
Additional	-12.1355
▁working	-12.1358
В	-12.136
fds	-12.1366
feq	-12.1368
*>(&	-12.137
▁Rect	-12.1373
0',	-12.1373
Routes	-12.1376
dept	-12.1379
▁Curve	-12.138
▁Throw	-12.1381
().'	-12.1381
=&	-12.1382
▁appName	-12.1386
Tv	-12.1388
RequestId	-12.1388
▁bounds	-12.1389
▁firstName	-12.139
▁helper	-12.1391
nea	-12.1393
▁simulate	-12.1394
Serial	-12.1397
▁AUTO	-12.1403
▁16);	-12.1408
64(&	-12.1409
viewer	-12.1411
▁80	-12.1413
sBy	-12.1419
▁=========	-12.1423
▁Colors	-12.1424
▁0.01	-12.1425
691	-12.1425
▁shutdown	-12.143
warnings	-12.1432
Lo	-12.1435
Throw	-12.1436
▁Round	-12.1437
UNIT	-12.144
profiles	-12.1441
shaders	-12.1449
Predicate	-12.1449
ek	-12.1451
Locked	-12.1451
▁labels	-12.1452
DS	-12.1455
IA	-12.1459
▁supports	-12.146
▁2])	-12.146
sex	-12.1461
▁caption	-12.1463
getfield	-12.1464
▁temperature	-12.1464
▁picture	-12.1464
▁Calc	-12.1464
▁why	-12.1466
▁authors	-12.1468
▁atoi	-12.1473
(8,	-12.1473
▁deps	-12.1478
!',	-12.1481
ib	-12.1484
'",	-12.1484
7/	-12.1485
coverage	-12.1487
133	-12.1488
bp	-12.1489
registro	-12.1489
bio	-12.149
▁False	-12.1491
Workspace	-12.1495
50)	-12.1501
glyph	-12.1502
vip	-12.1503
QU	-12.1508
▁80,	-12.1509
ErrorResponse	-12.151
SPI	-12.1515
ily	-12.1524
▁userService	-12.153
reports	-12.153
38	-12.1534
▁building	-12.1537
ROS	-12.154
TableName	-12.1541
77,	-12.1543
rb	-12.1544
challenge	-12.1545
precision	-12.1547
compress	-12.1552
minute	-12.1552
ccc	-12.1552
Qt	-12.1553
pszEnd	-12.1554
monitor	-12.1554
Nothing	-12.1554
confirmation	-12.1555
Completion	-12.1555
BLACK	-12.1555
Lite	-12.1555
0")	-12.1559
▁fout	-12.1559
analyzer	-12.1561
MouseButton	-12.1561
Dom	-12.1563
opc	-12.1564
hpx	-12.1567
')){	-12.1568
▁Instance	-12.1569
mono	-12.1571
▁Ma	-12.1571
#"(	-12.1573
PL	-12.1573
passes	-12.1574
aaa	-12.1574
QG	-12.1575
behavior	-12.1575
_0_	-12.1577
▁'2'	-12.1579
Android	-12.158
Lazy	-12.1585
radians	-12.1585
Produto	-12.1585
principal	-12.1585
Reason	-12.1585
Csv	-12.1586
▁upper	-12.1586
Builtin	-12.1587
think	-12.1588
kp	-12.1589
Retry	-12.159
JsonValue	-12.1591
Tenant	-12.1593
stage	-12.1596
physics	-12.1597
▁8)	-12.1597
PROP	-12.16
trap	-12.1603
Spawn	-12.1603
Composite	-12.1604
设置	-12.1604
▁Sender	-12.1604
issue	-12.1604
▁Extract	-12.1604
'))->	-12.1604
▁ال	-12.1605
stopped	-12.1606
divide	-12.1607
Crypto	-12.1608
Teacher	-12.1608
placement	-12.1611
worker	-12.1613
▁embed	-12.1613
▁jkl	-12.1614
▁Board	-12.1614
▁TcpListener	-12.1614
Fill	-12.1614
▁Zero	-12.1614
▁placement	-12.1614
ofstream	-12.1615
Board	-12.1615
▁rb	-12.1616
embed	-12.1616
jkl	-12.1616
▁cls	-12.1616
TcpListener	-12.1617
▁EOF	-12.1617
letter	-12.1618
▁MouseButton	-12.162
▁Checks	-12.162
▁(!(	-12.1621
2021_	-12.1621
jb	-12.1621
BaseMapper	-12.1622
buff	-12.1622
▁accepted	-12.1623
middle	-12.1623
EOF	-12.1624
▁Member	-12.1624
Perm	-12.1625
organization	-12.1625
Reserved	-12.1625
▁Feature	-12.1627
accepted	-12.163
Indexed	-12.163
Background	-12.163
caller	-12.1631
Mutable	-12.1631
PVOID	-12.1633
JavaScript	-12.1635
numero	-12.1636
▁ROS	-12.1637
▁dbg	-12.1638
clap	-12.164
browser	-12.1641
Extract	-12.1641
hardware	-12.1642
rotation	-12.1642
anim	-12.1643
getRepository	-12.1643
quit	-12.1644
▁deleteBy	-12.1644
addAttribute	-12.1644
getMember	-12.1645
▁wrapper	-12.1646
por	-12.1647
remaining	-12.1647
Business	-12.1648
slg	-12.1648
pause	-12.1649
syn	-12.165
▁START	-12.165
likes	-12.1651
Audi	-12.1652
Drop	-12.1654
""){	-12.1654
reqwest	-12.1655
▁Chunk	-12.1656
charge	-12.1656
negative	-12.1657
▁recv	-12.1658
deg	-12.1659
LOGGER	-12.1662
malloc	-12.1663
needed	-12.1664
▁malloc	-12.1664
turn	-12.1667
BUS	-12.1667
▁SELECT	-12.1669
Resize	-12.167
anyhow	-12.167
Modules	-12.1671
IllegalA	-12.1672
25,	-12.1672
notice	-12.1674
slots	-12.1676
override	-12.1676
stdClass	-12.1678
unsafe	-12.1679
▁ds	-12.1686
There	-12.1688
uf	-12.1692
Dim	-12.1697
▁Swagger	-12.1701
▁certificate	-12.1705
che	-12.1706
])->	-12.1706
▁"."	-12.1706
intent	-12.1706
finite	-12.1707
("./	-12.1711
128)	-12.1712
encoder	-12.1714
▁Red	-12.1715
)>{	-12.1715
zoom	-12.1715
0.75	-12.1716
▁Redirect	-12.1722
disp	-12.1727
▁"`	-12.1731
today	-12.1731
indexes	-12.1741
imu	-12.1743
▁fos	-12.1751
▁dq	-12.1754
▁Access	-12.1758
Preference	-12.1758
▁Pipe	-12.1759
▁dsn	-12.176
▁创建	-12.1765
▁Sphere	-12.1766
▁hupas	-12.1766
▁Feedback	-12.1766
▁STATIC	-12.1766
▁0.5,	-12.1768
145	-12.1769
▁Literal	-12.1769
▁Has	-12.1771
▁-10	-12.1772
▁consumer	-12.1777
▁PublicKey	-12.178
khi	-12.178
around	-12.1783
='"	-12.1785
FileSystem	-12.1788
Pr	-12.179
▁Plugin	-12.1791
▁printer	-12.1797
▁Find	-12.1798
▁hashed	-12.1805
5.6	-12.1809
MOD	-12.181
▁lp	-12.1818
▁branch	-12.1825
cookies	-12.1829
dbg	-12.1834
getVersion	-12.1838
seen	-12.1843
▁moves	-12.1843
CENTER	-12.1846
7],	-12.1846
▁Users	-12.1853
▁force	-12.1854
salt	-12.1855
BF	-12.1857
▁gov	-12.1861
mapped	-12.1861
basename	-12.1865
▁Tile	-12.187
BAD	-12.1871
mus	-12.1873
▁images	-12.1878
getFull	-12.1884
StateManager	-12.1885
▁Asset	-12.1885
▁<!	-12.1889
dn	-12.1892
puesto	-12.1892
EnemyDropItem	-12.1895
CTL	-12.1896
quant	-12.1897
▁closed	-12.1899
layers	-12.1901
▁External	-12.1905
ệ	-12.191
Handles	-12.1913
======	-12.1916
*/)	-12.1917
▁vtk	-12.1918
▁business	-12.192
▁Observable	-12.192
▁creator	-12.192
:0;	-12.192
▁major	-12.192
▁rectangle	-12.192
▁EXPORT	-12.192
▁syntax	-12.192
▁Commands	-12.1921
removed	-12.1922
([0	-12.1923
ffffff	-12.1925
compressed	-12.1927
▁Using	-12.1927
VE	-12.1928
:5	-12.1937
FileWriter	-12.1939
▁sidebar	-12.194
Red	-12.1945
fos	-12.1945
▁'0')	-12.195
needle	-12.1951
ria	-12.1955
findBy	-12.1961
▁kc	-12.1965
▁respond	-12.1966
▁Container	-12.1967
▁ML	-12.1967
XY	-12.1967
▁phase	-12.1974
▁7);	-12.1975
▁sx	-12.1976
Sim	-12.1977
▁]->	-12.1979
▁rank	-12.1985
▁agents	-12.1986
igitally	-12.1988
eginning	-12.1988
89,	-12.199
eg	-12.1992
▁coord	-12.1994
▁customer	-12.2
sip	-12.2003
▁perm	-12.2005
+'	-12.2013
10)	-12.2023
Repositorio	-12.2024
▁capture	-12.2029
▁Dynamic	-12.203
avr	-12.2031
getAll	-12.2032
▁Employee	-12.2034
▁je	-12.2035
"){	-12.2037
uzzer	-12.2038
DateFormat	-12.2039
STER	-12.2044
▁Producer	-12.2045
▁chan	-12.2048
gem	-12.2054
).'	-12.2055
▁bank	-12.206
AndMessag	-12.2066
▁eu	-12.2066
ele	-12.2072
▁Atom	-12.2074
▁Disable	-12.2081
▁FO	-12.2083
▁workspace	-12.2087
OSS	-12.2087
casts	-12.2089
▁"0"	-12.2091
wapChain	-12.2095
22,	-12.2097
:16	-12.2101
1300	-12.2102
▁never	-12.211
8]>	-12.2116
▁freq	-12.2118
getConfiguration	-12.2119
16>	-12.2121
INET	-12.2121
getElement	-12.2133
Gr	-12.2134
▁10:	-12.214
75,	-12.2145
Existing	-12.2153
32),	-12.2154
▁floating	-12.2156
▁usb	-12.216
Cont	-12.2161
▁dr	-12.2166
UserService	-12.2168
▁te	-12.217
▁transport	-12.2172
kv	-12.2175
ual	-12.2179
ara	-12.2184
▁29,	-12.219
▁dims	-12.2191
-16	-12.2192
▁ini	-12.2193
í	-12.2198
ses	-12.22
Score	-12.2204
▁streams	-12.2204
>],	-12.2204
Wave	-12.2205
Infos	-12.2206
ub	-12.2211
Avail	-12.2212
ctr	-12.2212
▁Pool	-12.2212
BlockSize	-12.2214
getTrai	-12.2216
▁Capture	-12.2216
OPS	-12.2216
ogs	-12.2218
▁digit	-12.2227
crypt	-12.223
▁concat	-12.223
Matching	-12.2231
▁Matcher	-12.2233
▁ItemStack	-12.2233
glsl	-12.2238
▁Blob	-12.2239
139,	-12.2242
▁bridge	-12.2242
▁Sized	-12.2246
BX	-12.2248
3&	-12.2255
<<(	-12.2262
▁subscribe	-12.2263
smt	-12.2272
▁Illegal	-12.2278
LA	-12.2279
Charge	-12.2282
805	-12.2284
▁9]	-12.2286
Logo	-12.2295
attrs	-12.2296
RequestFactory	-12.2303
▁RED	-12.2306
ARG	-12.2312
0],	-12.2324
Album	-12.2326
Typeface	-12.2326
▁Symbol	-12.2326
▁userID	-12.2327
MR	-12.2334
▁($($	-12.2335
▁fully	-12.2335
tran	-12.2335
▁CONFIG	-12.2337
3()	-12.2338
REA	-12.2338
▁Hex	-12.2339
LED	-12.234
handles	-12.234
Past	-12.234
▁Decode	-12.2343
▁1000,	-12.2346
/#	-12.2348
с	-12.2352
divisi	-12.2353
▁200000	-12.2355
infini	-12.2358
repeated	-12.2359
255)	-12.2367
▁Per	-12.2368
Trip	-12.2372
▁Shared	-12.2376
▁Import	-12.2376
▁Label	-12.2379
ags	-12.2381
"?>	-12.2391
Blo	-12.2397
▁strategy	-12.2398
▁erase	-12.24
▁RecyclerView	-12.2401
▁fit	-12.2401
Bug	-12.2404
Comm	-12.2406
178	-12.2408
-400	-12.2409
▁Answer	-12.2412
Damage	-12.2412
5];	-12.2414
Gateway	-12.242
ся	-12.2421
Modifier	-12.2422
Snapshot	-12.2423
Assignment	-12.2423
Aspect	-12.2423
Guest	-12.2423
▁sec	-12.2423
imulation	-12.2424
Tap	-12.2424
Feed	-12.2426
interaction	-12.2426
chantier	-12.2428
announcement	-12.2428
season	-12.2428
cho	-12.2429
testimonial	-12.2429
Alarm	-12.2432
extent	-12.2433
isi	-12.2434
Heading	-12.2434
animal	-12.2434
▁dimension	-12.2435
Hook	-12.2436
PO	-12.2436
Extend	-12.2438
categorias	-12.2439
Graphic	-12.2442
spot	-12.2442
▁he	-12.2445
Market	-12.2447
▁photo	-12.2448
wy	-12.2448
REST	-12.2448
58,	-12.2452
NumberFormat	-12.2455
faq	-12.2456
Posts	-12.2457
Episode	-12.2458
Rel	-12.246
▁}//	-12.2461
▁valor	-12.2462
▁pra	-12.2462
ransferencia	-12.2463
sna	-12.2463
▁Delta	-12.2464
Hub	-12.2464
weigh	-12.2464
MENT	-12.2465
RenderTarget	-12.2465
cid	-12.2466
scape	-12.2466
:\/\/	-12.2469
utomatically	-12.247
Drive	-12.2472
LESS	-12.2472
icing	-12.2472
COMPONENT	-12.2472
▁groups	-12.2473
ELF	-12.2473
MON	-12.2473
▁describe	-12.2473
cyc	-12.2474
stead	-12.2474
Margin	-12.2474
Remaining	-12.2474
LAYER	-12.2475
л	-12.2475
protect	-12.2475
Coordinates	-12.2476
Evaluator	-12.2476
Results	-12.2476
Refresh	-12.2476
983	-12.2477
Heal	-12.2477
":{"	-12.2477
ari	-12.2477
Aggregate	-12.2478
▁happen	-12.2479
":1,"	-12.2479
Proposal	-12.2479
premium	-12.248
numerator	-12.248
Spark	-12.248
UseCase	-12.248
▁detect	-12.248
▁communicat	-12.2481
ftProc	-12.2481
所有	-12.2482
Repeat	-12.2482
vlanId	-12.2482
CANCEL	-12.2482
Mixin	-12.2482
]{4}-[0-9	-12.2482
定义	-12.2482
BUILD	-12.2482
ко	-12.2482
量	-12.2482
prevent	-12.2482
如	-12.2483
系统	-12.2483
第	-12.2483
Arena	-12.2483
Analysis	-12.2483
Immediate	-12.2483
Gradient	-12.2483
liquid	-12.2483
没有	-12.2483
题	-12.2483
ль	-12.2483
slopedDashPanel	-12.2483
akomodasi	-12.2483
か	-12.2483
Improver	-12.2483
ToneMapping	-12.2483
对	-12.2483
方	-12.2483
و	-12.2483
▁\001(\	-12.2483
CURREN	-12.2483
CONTINUE	-12.2483
nkowski	-12.2483
Smooth	-12.2483
更新	-12.2483
Exemplo	-12.2483
consensus	-12.2483
zyplayer	-12.2483
Assume	-12.2483
stretch	-12.2483
页	-12.2483
DISPLAY	-12.2483
Evaluate	-12.2483
Forbidden	-12.2483
Interceptor	-12.2483
Learn	-12.2483
Major	-12.2483
Population	-12.2483
Qemu	-12.2483
STORAGE	-12.2483
Sampling	-12.2483
WHITE	-12.2483
affiliate	-12.2483
behaviour	-12.2483
convolution	-12.2483
cudnn	-12.2483
duckburgStore	-12.2483
historial	-12.2483
notifikasi	-12.2483
pbfloc	-12.2483
sentinel	-12.2483
snatRule	-12.2483
structural	-12.2483
wedding	-12.2483
▁dolaczanyCiag	-12.2483
了	-12.2483
ALWAYS	-12.2483
Aggregator	-12.2483
Algolia	-12.2483
Allergen	-12.2483
Comparable	-12.2483
Infallible	-12.2483
Malformed	-12.2483
Populate	-12.2483
Registro	-12.2483
SEPARATOR	-12.2483
Sequential	-12.2483
attendance	-12.2483
azure	-12.2483
bloomBGLightList	-12.2483
currentLoopData	-12.2483
hập	-12.2483
inertial	-12.2483
kZValueTimeBar	-12.2483
maxTPDUSizeParam	-12.2483
promise	-12.2483
regular	-12.2483
ropuestaRetirada	-12.2483
wptAssert	-12.2483
ẽ	-12.2483
▁Chungxe	-12.2483
▁Explanation	-12.2483
▁dstStride	-12.2483
▁electrónico	-12.2483
▁nhận	-12.2483
▁probably	-12.2483
▁supplied	-12.2483
▁так	-12.2483
AVAILABLE	-12.2483
AminoAcid	-12.2483
Automation	-12.2483
Avatar	-12.2483
PARALLEL	-12.2483
Practice	-12.2483
Skript	-12.2483
Spreadsheet	-12.2483
editorial	-12.2483
gambar	-12.2483
vatorDriverInfo	-12.2483
ü	-12.2483
▁retrofit	-12.2483
▁those	-12.2483
characteristic	-12.2483
yahoo	-12.2483
合	-12.2483
Hessian	-12.2483
IndirectScaled	-12.2483
REPEAT	-12.2483
egress	-12.2483
omPrePassBGLight	-12.2483
remoting	-12.2483
▁Every	-12.2483
信	-12.2483
得到	-12.2483
Attack	-12.2483
EXAMPLE	-12.2483
RECORD	-12.2483
AVX	-12.2483
BACKGROUND	-12.2483
Spanned	-12.2483
vault	-12.2483
▁BinOp	-12.2483
器	-12.2483
目	-12.2483
ProfileAgreement	-12.2483
sobrenome	-12.2483
加载	-12.2483
计算	-12.2483
PERIOD	-12.2483
reward	-12.2483
RefinementLevel	-12.2483
pointIDCounter	-12.2483
pressure	-12.2483
Severity	-12.2483
lightingT	-12.2483
nat	-12.2483
wisted	-12.2483
数据库	-12.2483
INTERFACE	-12.2483
▁distanceMetric	-12.2483
▁greycat	-12.2483
ACCESSPOINT	-12.2483
Paging	-12.2483
Secondary	-12.2483
查	-12.2483
Verbose	-12.2483
FaceReflection	-12.2483
newsletter	-12.2483
▁enough	-12.2483
▁identify	-12.2483
getEnact	-12.2483
те	-12.2483
▁manually	-12.2483
[1024]	-12.2483
▁refractive	-12.2483
▁exactly	-12.2483
water	-12.2483
FillArc	-12.2483
RESOURCE	-12.2483
realisasi	-12.2483
STDOUT	-12.2483
enviar	-12.2483
▁together	-12.2483
amcrest	-12.2483
Finite	-12.2483
Correo	-12.2483
bords	-12.2483
dClassTypeInfo	-12.2483
▁originator	-12.2483
Consent	-12.2483
routing	-12.2483
{:.2}	-12.2483
repositories	-12.2483
▁Datum	-12.2483
yourAddr	-12.2483
taking	-12.2483
Storm	-12.2483
TATE	-12.2483
MUST	-12.2483
weekday	-12.2483
NotBlank	-12.2483
RESET	-12.2483
demand	-12.2483
oz	-12.2483
BodyInst	-12.2484
PLAN	-12.2484
operating	-12.2484
lution	-12.2484
▁Brain	-12.2484
alipay	-12.2484
BigInt	-12.2484
STYLE	-12.2484
Switch	-12.2484
[12]	-12.2484
SpriteSheet	-12.2484
Friendly	-12.2484
teks	-12.2484
▁Chrome	-12.2484
8888	-12.2484
planner	-12.2484
Padding	-12.2484
Products	-12.2484
Lane	-12.2484
PasswordDecoder	-12.2484
duty	-12.2484
jdbc	-12.2484
SetupPacket	-12.2484
ruangan	-12.2484
Allocation	-12.2484
▁periodNew	-12.2484
StringPiece	-12.2484
ATTAC	-12.2484
cacheProviders	-12.2484
desktop	-12.2484
sEle	-12.2484
FULL	-12.2484
Formatted	-12.2484
decrement	-12.2484
MotionEvent	-12.2484
prepend	-12.2484
invokespecial	-12.2484
Placement	-12.2484
▁EntryPoint	-12.2484
LootEntry	-12.2484
1890	-12.2484
QRCode	-12.2484
Launched	-12.2484
Automovil	-12.2484
Swing	-12.2484
directorio	-12.2485
Division	-12.2485
coprocessor	-12.2485
tlib	-12.2485
Hydrator	-12.2485
Kill	-12.2485
vFormatterPlugin	-12.2485
▁according	-12.2485
▁ChunkStatus	-12.2485
Income	-12.2485
estado	-12.2485
345	-12.2485
Protobuf	-12.2485
EXP	-12.2485
▁optionsPanel	-12.2485
Pitch	-12.2485
WORK	-12.2485
▁established	-12.2485
Birth	-12.2485
Parcelable	-12.2485
percentage	-12.2485
OBJ	-12.2485
vendorDir	-12.2485
SAFE	-12.2485
Retriever	-12.2485
Tiny	-12.2485
Cetak	-12.2485
correo	-12.2485
▁pinMode	-12.2485
CrudRepository	-12.2485
ANSI	-12.2485
binaryOp	-12.2485
oyal	-12.2485
:/^	-12.2485
roswasm	-12.2486
longitude	-12.2486
study	-12.2486
Multipart	-12.2486
Facebook	-12.2486
ageModelFileName	-12.2486
OfPoints	-12.2486
Caption	-12.2486
obligation	-12.2486
WHEN	-12.2486
Health	-12.2486
utilities	-12.2486
Fake	-12.2487
NodeEvaluator	-12.2487
watcher	-12.2487
Gate	-12.2487
integrated	-12.2487
SingleServer	-12.2487
▁Zip	-12.2487
HAVE	-12.2487
Boot	-12.2487
RpcMessage	-12.2487
Dead	-12.2487
bump	-12.2487
wood	-12.2488
forchart	-12.2488
ceil	-12.2488
facility	-12.2488
▁Lek	-12.2488
AtomicReference	-12.2488
Blockchain	-12.2488
debugging	-12.2488
shrink	-12.2488
Minutes	-12.2488
IntoIter	-12.2488
expenses	-12.2488
MySQL	-12.2488
stitute	-12.2488
lowest	-12.2488
OrCreate	-12.2488
sageb	-12.2488
ThemesController	-12.2488
mixin	-12.2488
EventDispatcher	-12.2488
SHOW	-12.2489
marshall	-12.2489
oneshot	-12.2489
MediaPlayer	-12.2489
LookupContext	-12.2489
SubExpression	-12.2489
sqlsrv	-12.2489
Meter	-12.2489
pengguna	-12.2489
inheritance	-12.249
32(&[	-12.249
Need	-12.249
PARAMETERS	-12.249
▁libraryNumber	-12.249
LARS	-12.249
Delayed	-12.249
FIF	-12.249
ServletException	-12.249
misa	-12.249
learning	-12.2491
lgpl	-12.2491
tower	-12.2491
▁0.25	-12.2491
tileEntity	-12.2491
▁maxSum	-12.2491
bull	-12.2491
▁pAssoc	-12.2492
Discount	-12.2492
VecDeque	-12.2492
▁Ac	-12.2492
utilization	-12.2492
Still	-12.2492
destruct	-12.2492
shaderProgram	-12.2493
translateResult	-12.2493
GAF	-12.2493
branches	-12.2493
OPTIONS	-12.2493
▁gtk	-12.2494
)?$/'	-12.2494
Cfg	-12.2494
▁convertView	-12.2494
official	-12.2494
aminas	-12.2494
▁mdI	-12.2494
Matches	-12.2494
eJoint	-12.2495
SceneNode	-12.2495
Park	-12.2495
delim	-12.2495
▁infinite	-12.2495
signatureFile	-12.2495
CredentialsError	-12.2495
dotenv	-12.2495
nomor	-12.2496
opencv	-12.2496
▁rpm	-12.2496
manufacturer	-12.2496
FluidS	-12.2496
addMouse	-12.2496
clubs	-12.2497
weak	-12.2497
episodes	-12.2497
Keyframes	-12.2497
▁CRect	-12.2497
lastPage	-12.2497
WARN	-12.2497
fibo	-12.2497
▁binder	-12.2497
SAVE	-12.2498
Pretty	-12.2498
▁socks	-12.2498
Radians	-12.2498
chosen	-12.2498
Ticket	-12.2498
Rom	-12.2498
objIter	-12.2498
Localized	-12.2499
mad	-12.2499
MHz	-12.2499
▁startOffset	-12.2499
PSU	-12.2499
SECOND	-12.2499
getFamily	-12.25
striped	-12.25
ResponseBody	-12.25
ImageLoader	-12.25
RMW	-12.25
Four	-12.25
landing	-12.25
▁elit	-12.2501
BOOT	-12.2501
dirent	-12.2501
invokestatic	-12.2501
JobStatus	-12.2501
SimpleAction	-12.2502
▁campo	-12.2502
LEN	-12.2502
USERNAME	-12.2503
1820	-12.2504
▁xpos	-12.2504
Phi	-12.2504
2014	-12.2505
sass	-12.2505
Subresource	-12.2505
analytics	-12.2506
wide	-12.2506
concepts	-12.2506
CAST	-12.2506
replay	-12.2506
Prev	-12.2507
!=0)	-12.2508
Gap	-12.2508
emailAccount	-12.2508
GetBoolean	-12.2508
SLI	-12.251
▁distance	-12.251
ApiClient	-12.251
TAB	-12.2511
▁INPUT	-12.2511
▁aggregation	-12.2511
▁11:	-12.2511
1766	-12.2511
elatedSearches	-12.2511
▁certs	-12.2511
dirty	-12.2512
typeMirror	-12.2512
rock	-12.2512
ErrorReport	-12.2512
GLM	-12.2512
SIGN	-12.2513
imageLoader	-12.2513
LocaleMessage	-12.2514
imports	-12.2514
JsValue	-12.2514
snippet	-12.2515
▁away	-12.2515
attack	-12.2515
▁magnitude	-12.2515
▁1.0.	-12.2515
ción	-12.2516
inuit	-12.2516
OperationContext	-12.2517
FunctionCall	-12.2517
ranking	-12.2517
▁bitcount	-12.2518
unless	-12.2518
UsersController	-12.2518
Cors	-12.2518
ParameterValue	-12.2519
1144	-12.2519
Pong	-12.2519
▁accessed	-12.2519
prove	-12.2519
Nome	-12.252
UTL	-12.252
`.`	-12.252
getFirst	-12.252
writeln	-12.2521
RequestCache	-12.2521
checkcast	-12.2521
swpr	-12.2521
veis	-12.2521
▁itemInfo	-12.2522
FromStr	-12.2523
FIELDS	-12.2524
PointerException	-12.2524
STD	-12.2525
contactos	-12.2527
Buk	-12.2527
-0">	-12.2528
▁getMax	-12.2528
Small	-12.2528
QB	-12.2528
Big	-12.2528
[11]	-12.253
GAS	-12.2531
gift	-12.2531
Hooks	-12.2533
setAxis	-12.2533
▁tQ	-12.2534
0)),	-12.2534
={}",	-12.2535
PART	-12.2535
!($($	-12.2536
PolicySet	-12.2538
▁jQuery	-12.2538
blockchain	-12.2538
654	-12.2538
deck	-12.2538
▁Home	-12.2539
▁0..=	-12.254
chiller	-12.254
Online	-12.2541
▁Materialize	-12.2541
VD	-12.2542
Lab	-12.2542
ustring	-12.2542
Jen	-12.2542
intersects	-12.2542
▁becomes	-12.2543
vertx	-12.2544
▁acid	-12.2544
four	-12.2544
BGR	-12.2544
minQueue	-12.2545
intersections	-12.2545
Five	-12.2545
(|(_	-12.2546
Extended	-12.2546
Started	-12.2547
255	-12.2547
retriever	-12.2547
rpu	-12.2549
Ctr	-12.2549
axy	-12.255
==0)	-12.2551
▁###	-12.2552
Das	-12.2552
▁arma	-12.2553
Goods	-12.2554
icrosoft	-12.2554
transformer	-12.2555
▁setP	-12.2555
delayed	-12.2555
▁DV	-12.2555
▁UserModel	-12.2556
toJson	-12.2556
+1][	-12.2556
▁0.053	-12.2557
infoText	-12.2557
jeu	-12.2558
signing	-12.2559
cre	-12.2559
peng	-12.256
positions	-12.2561
WX	-12.2561
▁pca	-12.2561
typed	-12.2563
▁wallet	-12.2563
="0	-12.2564
toggler	-12.2564
quota	-12.2564
2*(	-12.2565
▁ping	-12.2565
INAL	-12.2565
▁1)?	-12.2565
Song	-12.2565
Terms	-12.2566
einh	-12.2567
EntityRepository	-12.257
lum	-12.2571
}"	-12.2572
▁Subscription	-12.2574
028	-12.2574
ATER	-12.2575
▁codes	-12.2575
▁Poison	-12.2576
▁HMAC	-12.2576
▁comparator	-12.2576
▁outgoing	-12.2576
▁presence	-12.2576
▁LOCAL	-12.2576
▁computation	-12.2576
▁executable	-12.2576
▁WBT	-12.2577
▁ACPI	-12.2577
▁populate	-12.2578
▁deleting	-12.2578
Compress	-12.2578
LogManager	-12.2578
ResourceType	-12.2578
pour	-12.2578
▁Hyper	-12.258
UniqueId	-12.2581
Src	-12.2581
createdBy	-12.2582
Breakpoint	-12.2584
stddef	-12.2585
sTableSeeder	-12.2586
▁cond	-12.2586
hsv	-12.2587
thrust	-12.2587
sectors	-12.2589
semaphores	-12.2589
FileDTO	-12.2591
▁years	-12.2591
IES	-12.2592
▁timeinfo	-12.2593
ClassPath	-12.2593
anywhere	-12.2594
Faces	-12.2594
▁при	-12.2594
seek	-12.2595
FieldException	-12.2596
-1"></	-12.2598
jmp	-12.2598
ServerConfig	-12.2599
TestApi	-12.26
assertions	-12.2602
sess	-12.2602
sheets	-12.2605
schemaName	-12.2605
![1,	-12.2606
onAuthorization	-12.2606
');?>	-12.2607
decs	-12.2608
PREDICT	-12.2608
IMU	-12.2613
strike	-12.2613
tide	-12.2613
Cnt	-12.2613
:10	-12.2614
FileReader	-12.2615
FILES	-12.2617
Preview	-12.262
NA	-12.2622
preferences	-12.2623
')}}</	-12.2623
▁[%	-12.2625
▁powers	-12.2626
ocketchat	-12.2626
depends	-12.2628
192	-12.2629
Ranks	-12.2629
linker	-12.2632
cln	-12.2634
lable	-12.2636
addresses	-12.2636
gfx	-12.2637
uInt	-12.2638
pkt	-12.2639
▁generat	-12.2639
▁Windows	-12.2639
streamable	-12.2641
▁THEN	-12.2642
WithValue	-12.2643
shares	-12.2644
+`	-12.2644
[\\	-12.2647
planet	-12.2649
getNext	-12.2649
▁fragments	-12.2653
scalars	-12.2653
mover	-12.2654
78,	-12.2657
errmsg	-12.2657
!`	-12.2658
drm	-12.2658
▁31	-12.2659
▁buffers	-12.2659
Fuse	-12.2661
(4.0	-12.2664
963	-12.2664
▁Native	-12.2666
andReturn	-12.2666
qtd	-12.2666
Xz	-12.2669
Far	-12.2671
▁clippy	-12.2671
1301	-12.2672
So	-12.2674
TestInt	-12.2675
getDomain	-12.2675
QName	-12.2676
PHER	-12.2676
▁polygon	-12.2677
ssse	-12.2679
/')}}/	-12.2679
leap	-12.2681
Too	-12.2684
QStringList	-12.2685
ius	-12.2686
▁Atomic	-12.2688
[++	-12.2689
deals	-12.2691
trackers	-12.2692
onnectorOperator	-12.2695
▁members	-12.2697
ComponentType	-12.2697
51,	-12.2698
▁gt	-12.2698
Executors	-12.27
VectorX	-12.2704
kg	-12.2705
CustomType	-12.2705
Al	-12.2705
dFloat	-12.2706
Paren	-12.2707
ActionType	-12.2708
▁reco	-12.2708
▁Initial	-12.2709
FieldName	-12.2709
3454	-12.271
NR	-12.2711
>>()?	-12.2713
▁Day	-12.2715
absl	-12.2716
KI	-12.2717
▁"2"	-12.2717
bmi	-12.2719
▁Authors	-12.272
▁crt	-12.2724
▁caps	-12.2725
▁Rem	-12.2726
▁40,	-12.2727
Counters	-12.2728
(10)	-12.2728
▁1.5	-12.2728
▁PRINT	-12.273
▁utility	-12.273
▁descriptors	-12.273
▁Packet	-12.273
▁Export	-12.2732
fromValue	-12.2732
▁TCP	-12.2734
FileUtils	-12.2735
zA	-12.2736
▁RendererAPI	-12.274
▁recovery	-12.274
▁tampil	-12.274
▁BOTTOM	-12.274
▁SinglePassRange	-12.274
▁SIGNAL	-12.274
▁Clean	-12.274
▁boundary	-12.274
▁Configurable	-12.274
▁findAll	-12.274
▁arbitrary	-12.2741
▁70	-12.2741
▁whole	-12.2741
▁deadline	-12.2742
▁KeyStore	-12.2742
▁robot	-12.2742
Des	-12.2743
▁Specifi	-12.2743
▁story	-12.2745
▁MenuController	-12.2745
_'.$	-12.2745
▁Proxy	-12.2746
▁dead	-12.2747
timed	-12.2747
▁JsonResult	-12.2747
▁attach	-12.2748
Stored	-12.2748
()?>	-12.2749
▁hole	-12.275
ướ	-12.275
▁cleared	-12.275
▁transformed	-12.2753
dice	-12.2754
Acl	-12.2757
stl	-12.2758
endpt	-12.2759
5\	-12.276
sually	-12.2761
[0][0]	-12.2762
▁Zend	-12.2762
▁roc	-12.2762
▁getById	-12.2764
▁Question	-12.2764
ations	-12.2767
SU	-12.2768
▁physics	-12.2771
toRelease	-12.2776
Mass	-12.2776
▁hour	-12.278
pushed	-12.278
▁sF	-12.2781
Removed	-12.2781
▁getAttribute	-12.2781
dataType	-12.2783
adm	-12.2783
▁sout	-12.2784
Days	-12.2785
rSet	-12.2785
▁uid	-12.2789
▁hor	-12.2789
oom	-12.2789
(30)	-12.279
Layers	-12.2791
▁lot	-12.2791
VI	-12.2792
▁OpenGL	-12.2798
aba	-12.2799
HK	-12.2802
onStart	-12.2802
epi	-12.2805
▁0.014	-12.2807
sans	-12.2807
LayoutParams	-12.2809
unt	-12.2812
Matchers	-12.2813
TypeInfo	-12.2813
nine	-12.2814
getFields	-12.2815
▁TraceContext	-12.2817
oss	-12.2817
dlg	-12.2819
'></	-12.2822
CUDA	-12.2823
xun	-12.2823
HID	-12.2827
pubkey	-12.2829
64).	-12.2829
textbox	-12.2835
[..	-12.2836
▁persistence	-12.2836
erry	-12.2837
hZ	-12.2838
photos	-12.284
Filename	-12.2841
reversed	-12.2842
▁35,	-12.2844
0"))	-12.2846
}</	-12.2847
▁0.04	-12.2852
▁(64	-12.2855
(1))	-12.2858
Descriptors	-12.2858
rian	-12.2859
▁Die	-12.2865
ibra	-12.2865
UVa	-12.2868
era	-12.287
}}/	-12.2875
▁eyr	-12.2877
ún	-12.288
▁setC	-12.288
MDB	-12.288
Problems	-12.2881
important	-12.2882
StorageConnect	-12.2884
hiể	-12.2885
▁cliente	-12.2886
_1<	-12.2889
▁Branch	-12.2889
')].	-12.2892
▁Mail	-12.2895
▁Rate	-12.2895
edm	-12.2896
▁Fragment	-12.2897
▁methodName	-12.2897
▁vertical	-12.2898
▁Sprite	-12.2898
▁exponent	-12.2899
tempo	-12.2902
▁ld	-12.2909
▁LA	-12.2909
▁hard	-12.2909
AZU	-12.291
JC	-12.2911
▁ANDROID	-12.2911
▁sockaddr	-12.2911
▁Always	-12.2911
▁Bullet	-12.2911
▁respuesta	-12.2911
▁输出	-12.2911
▁METADATA	-12.2911
▁Since	-12.2911
▁根据	-12.2911
▁little	-12.2911
▁GLOBAL	-12.2911
▁datum	-12.2912
▁density	-12.2912
===	-12.2912
▁shard	-12.2913
Games	-12.2913
▁Unix	-12.2914
▁Country	-12.2915
Notifications	-12.2916
▁jPanel	-12.2918
▁getB	-12.292
INNER	-12.2921
';?>	-12.2921
▁fact	-12.2925
▁CardType	-12.2926
▁maybe	-12.2926
▁VideoStitch	-12.2926
▁ut	-12.2927
callName	-12.2929
EGL	-12.2929
SAP	-12.293
KO	-12.2934
▁'3'	-12.2935
▁trie	-12.2936
Ops	-12.2937
!(0	-12.2938
=0,	-12.2939
▁'*'	-12.2941
▁beach	-12.2942
▁gst	-12.2944
csn	-12.2948
AST	-12.295
osc	-12.2951
Н	-12.2954
▁'1',	-12.2957
GetKey	-12.2959
wu	-12.2961
▁yy	-12.2961
▁ami	-12.2963
wake	-12.2963
"/></	-12.2963
Confirmation	-12.2965
Lists	-12.2965
drawing	-12.2968
ORG	-12.2969
ju	-12.2969
▁0))	-12.2972
▁exclude	-12.2972
moment	-12.2973
102	-12.2976
▁8]	-12.2979
()==	-12.2982
▁ask	-12.2987
▁acl	-12.2988
jw	-12.2988
DN	-12.2991
▁triggers	-12.2993
Dog	-12.2997
▁pong	-12.2998
targetObject	-12.2999
`].	-12.3002
aac	-12.3004
▁scaled	-12.3004
▁consume	-12.3008
.*")	-12.3008
87	-12.3008
aman	-12.3009
lace	-12.3014
1],	-12.302
ongClickListener	-12.3023
▁255]	-12.3023
dah	-12.3026
TypeError	-12.3026
!("{}{}	-12.3027
▁Script	-12.3027
204	-12.3028
▁sensor	-12.3028
MB	-12.3029
={}	-12.303
▁intervals	-12.3033
iot	-12.3033
TB	-12.3038
hall	-12.3044
strList	-12.305
Pg	-12.305
bare	-12.3052
▁ro	-12.3052
▁Monitor	-12.3052
▁sku	-12.3054
128::	-12.3057
.*",	-12.3058
setMessage	-12.3063
▁{}\	-12.3063
▁Tuple	-12.3064
ben	-12.3068
addItem	-12.3068
household	-12.307
▁ab	-12.3071
▁analysis	-12.3075
▁Options	-12.3082
▁plug	-12.3082
▁dataSize	-12.3083
rail	-12.3085
▁behavior	-12.3085
▁bail	-12.3086
▁Modes	-12.3087
▁disconnect	-12.3087
▁refreshToken	-12.3088
▁Fail	-12.3091
▁selector	-12.3092
kc	-12.3093
[4],	-12.3094
▁atom	-12.3095
▁equalTo	-12.3095
▁iteration	-12.3096
▁FileInputStream	-12.3097
▁servers	-12.3102
▁scroll	-12.3104
▁linear	-12.3105
ule	-12.3108
▁----	-12.311
dos	-12.3115
▁'');	-12.3116
▁77	-12.3116
▁acquire	-12.3119
▁edges	-12.312
qui	-12.3122
▁NodeId	-12.3127
ção	-12.3128
▁IE	-12.3131
▁:</	-12.3133
']=	-12.3134
tes	-12.3136
(||"	-12.3142
01-	-12.3147
777	-12.3147
33,	-12.3148
▁getActivity	-12.3149
▁processed	-12.315
("[	-12.3151
<2>	-12.3154
▁Vk	-12.3162
ask	-12.3162
Del	-12.3165
Widgets	-12.3166
▁///////////////	-12.3166
ups	-12.3168
▁Mutex	-12.3169
▁ww	-12.3172
▁Begin	-12.3174
FX	-12.3178
▁//--------	-12.3179
Que	-12.318
kw	-12.3184
Instances	-12.319
tparam	-12.3191
[1])	-12.3191
▁getC	-12.3191
authorize	-12.3192
▁dl	-12.3193
▁0.05	-12.3194
リ	-12.3201
▁distr	-12.3201
▁histogram	-12.3205
0.5	-12.3205
▁chip	-12.3205
8/	-12.3206
184	-12.3209
▁Receive	-12.321
ken	-12.3219
counted	-12.3223
cup	-12.3223
▁JsonResponse	-12.3229
77	-12.3233
Disabled	-12.324
▁cg	-12.3242
idu	-12.3252
▁Elastic	-12.3253
Bv	-12.3254
▁Archive	-12.3255
hab	-12.3259
▁Chat	-12.3263
▁addition	-12.3264
▁proj	-12.3264
▁EMPTY	-12.3265
▁BufferedReader	-12.3265
▁Org	-12.3268
RA	-12.3269
▁Safe	-12.3269
▁Instruction	-12.327
▁ReturnCode	-12.327
▁Gray	-12.3272
▁Sample	-12.3278
5,0	-12.328
Man	-12.3282
forelse	-12.3282
▁Activity	-12.3283
▁ObjectMapper	-12.3287
▁Spring	-12.3288
▁thu	-12.3288
Wm	-12.3293
ACK	-12.3295
7,0	-12.3296
signs	-12.3299
requestId	-12.3301
▁Setup	-12.3307
▁deviceId	-12.331
RON	-12.3313
&)>	-12.3313
▁moment	-12.3317
TypeVariable	-12.3321
818	-12.3322
▁clusters	-12.3325
▁Sort	-12.3326
▁PB	-12.3328
▁configurations	-12.3333
abcd	-12.3339
buffers	-12.3344
",&	-12.3344
▁у	-12.3348
▁Env	-12.3353
20000	-12.3353
ptx	-12.3354
▁setS	-12.3365
cel	-12.3366
▁Bind	-12.3368
▁prevent	-12.3368
modo	-12.3372
017	-12.3375
▁Then	-12.3376
flows	-12.3377
▁Fuzz	-12.3378
WK	-12.3382
▁é	-12.3388
▁Fun	-12.3388
▁33,	-12.3389
Buttons	-12.3391
▁minute	-12.3399
wei	-12.3399
▁dec	-12.3404
143	-12.3409
▁==============	-12.341
460	-12.3415
▁60)	-12.3416
[4,	-12.342
▁Variant	-12.3427
▁Browser	-12.3431
-3-	-12.3432
sTable	-12.3433
Station	-12.3437
▁logout	-12.3437
▁StateManager	-12.3437
▁Spawn	-12.344
▁Teacher	-12.3441
▁Templates	-12.3441
▁((*	-12.3444
▁Unique	-12.3445
▁Crypto	-12.3447
▁设置	-12.3447
▁Composite	-12.3447
▁stopped	-12.3448
yan	-12.3449
nName	-12.3451
sq	-12.3452
▁lt	-12.3452
▁exceptions	-12.3453
USE	-12.3454
▁Constraint	-12.3454
▁FileSystem	-12.3456
▁BaseMapper	-12.3456
▁pairs	-12.3458
Forms	-12.3458
▁pause	-12.3458
intl	-12.3461
▁unpack	-12.3464
mart	-12.3465
yr	-12.3469
▁"-"	-12.3478
▁Ho	-12.3479
VB	-12.348
shortest	-12.348
▁salt	-12.3483
▁dpi	-12.3483
attachment	-12.3483
[2,	-12.3486
timers	-12.3487
▁mark	-12.3488
▁fps	-12.3491
▁latest	-12.3494
har	-12.3498
▁SPI	-12.3499
recover	-12.3503
News	-12.3505
imagen	-12.3508
road	-12.3509
▁Fr	-12.3514
ов	-12.352
OT	-12.352
Safe	-12.3523
689	-12.3524
eof	-12.3525
directive	-12.3526
mime	-12.3528
bomb	-12.3528
▁viewer	-12.3528
EV	-12.3532
303	-12.3533
iload	-12.3536
NodeType	-12.3537
resultSet	-12.3542
ope	-12.3542
20,	-12.3545
Share	-12.3546
sentence	-12.3552
61	-12.3553
formula	-12.3553
dimension	-12.3554
▁follow	-12.3555
"]))	-12.3555
Modify	-12.3556
HEAD	-12.3556
通过	-12.3556
按	-12.3557
verifier	-12.3557
evaluator	-12.3557
legacy	-12.3557
INTERNAL	-12.3557
fabric	-12.3557
handshake	-12.3557
eosio	-12.3557
COMMAND	-12.3557
revision	-12.3557
Skip	-12.3557
Sleep	-12.3557
legal	-12.3557
Round	-12.3557
Wrong	-12.3557
▁Redis	-12.3558
paper	-12.3558
inverse	-12.356
Break	-12.3561
reject	-12.3563
sensor	-12.3564
Portal	-12.3565
graphs	-12.3576
observation	-12.3576
nect	-12.3576
▁Your	-12.3576
primitive	-12.3577
processes	-12.3577
Found	-12.3578
guarantee	-12.358
][1]	-12.358
iteration	-12.358
Take	-12.3581
▁yaw	-12.3581
recent	-12.3582
▁Functions	-12.3583
▁3),	-12.3585
ب	-12.3586
citations	-12.3586
mensaje	-12.3586
prompt	-12.3587
▁tel	-12.3587
interp	-12.3589
Look	-12.3589
HU	-12.3592
encrypted	-12.3592
Interval	-12.3594
ink	-12.3594
Swagger	-12.3595
4096	-12.3595
errorMsg	-12.3597
decompress	-12.3598
▁getAll	-12.3598
RFC	-12.3599
JLabel	-12.3599
0.6	-12.3599
▁replica	-12.36
(-1);	-12.3601
JUnit	-12.3603
Elastic	-12.3604
addition	-12.3604
EMPTY	-12.3605
BufferedReader	-12.3605
histogram	-12.3605
targets	-12.3606
hashmap	-12.3606
Gray	-12.3608
ReturnCode	-12.361
▁summary	-12.361
;?></	-12.3615
ال	-12.3617
temperature	-12.3617
picture	-12.3617
caption	-12.3617
implementation	-12.3619
ebb	-12.3621
damage	-12.3621
▁resolver	-12.3622
why	-12.3622
Calc	-12.3623
126	-12.3623
011	-12.3625
physical	-12.3626
ged	-12.3626
medium	-12.3626
Just	-12.3626
Issue	-12.3627
Describe	-12.3627
▁gets	-12.3629
Org	-12.3629
prepared	-12.363
▁Confirm	-12.363
▁kill	-12.363
▁mkdir	-12.3632
partner	-12.3632
▁orientation	-12.3632
▁gradient	-12.3632
▁DEF	-12.3632
PACKAGE	-12.3632
applied	-12.3633
▁Maximum	-12.3633
ous	-12.3633
▁Terminal	-12.3633
▁BTreeMap	-12.3633
▁websocket	-12.3634
▁interpreter	-12.3634
atoi	-12.3634
uniqueName	-12.3635
▁smt	-12.3635
proj	-12.3636
Mac	-12.3641
▁converter	-12.3641
...\	-12.3641
average	-12.3642
closure	-12.3644
CommandLine	-12.3645
dataset	-12.3646
abstract	-12.3647
energy	-12.3647
▁includes	-12.3648
getAs	-12.3648
ObjectMapper	-12.3648
pipeline	-12.3649
patch	-12.365
ByteBuffer	-12.3651
producer	-12.3652
BT	-12.3652
▁HttpStatus	-12.3656
actix	-12.3656
aka	-12.3658
efi	-12.3659
('@	-12.3659
kat	-12.3663
DLL	-12.3666
tmpl	-12.367
FROM	-12.3675
Ga	-12.3675
longer	-12.3676
▁initializer	-12.3676
Apache	-12.3676
continue	-12.3676
specific	-12.3677
Conditional	-12.3677
▁'\''	-12.3678
64>(	-12.3679
getParent	-12.3682
49,	-12.3683
▁*>(	-12.3683
▁Two	-12.3687
getChild	-12.3688
▁quad	-12.3689
restore	-12.3689
CSS	-12.369
conversion	-12.369
pageable	-12.3692
Copyright	-12.3693
lastName	-12.3697
decoder	-12.37
rgba	-12.3702
deviceId	-12.3707
▁Regex	-12.3707
aov	-12.3708
sProcessing	-12.3709
subst	-12.3711
▁Po	-12.3711
GetCurrent	-12.3715
484	-12.3717
▁2019/	-12.3717
304	-12.3718
lb	-12.3719
▁Environment	-12.3721
3',	-12.3724
released	-12.3727
,0.0)	-12.3734
Ordering	-12.3735
900	-12.3736
ede	-12.3741
libc	-12.3741
{0,	-12.3742
CY	-12.3742
][2]	-12.3744
defaultValue	-12.3748
PB	-12.3749
▁updates	-12.375
building	-12.375
▁3-	-12.3753
295	-12.3757
hold	-12.3759
▁PROP	-12.3762
deps	-12.3769
ả	-12.3772
scores	-12.3773
▁Evaluation	-12.3774
о	-12.3775
/16	-12.3776
##	-12.3778
▁maxi	-12.3779
-%	-12.3779
Reporter	-12.3781
-20	-12.3782
▁visible	-12.3782
▁qui	-12.3783
tur	-12.3787
▁FE	-12.3789
▁Bank	-12.3795
0.0.	-12.3795
rl	-12.3797
rus	-12.3797
omp	-12.3797
▁dados	-12.3798
156	-12.3798
ableElement	-12.3798
*)&	-12.38
ick	-12.3804
dpi	-12.3808
but	-12.3809
teams	-12.3811
▁lerp	-12.3812
502	-12.3814
jj	-12.3816
▁Wire	-12.3817
gd	-12.3818
▁修改	-12.3822
▁OFFSET	-12.3822
▁undefined	-12.3825
ard	-12.3826
Mismatch	-12.3826
▁Geometry	-12.3826
▁pick	-12.3829
structures	-12.383
▁QWidget	-12.383
...);	-12.384
▁classification	-12.3841
▁winner	-12.385
ASC	-12.3851
dsController	-12.3851
amb	-12.3855
slices	-12.3857
preview	-12.3858
▁typed	-12.3858
-4"	-12.386
▁Sound	-12.3861
▁front	-12.3862
IB	-12.3862
-$	-12.3863
!("{}:	-12.3871
ToCha	-12.3873
▁//0	-12.3874
pTmp	-12.3882
Sparse	-12.3884
arp	-12.3885
mac	-12.3892
scroll	-12.3893
Steps	-12.3895
Converts	-12.3896
_14	-12.3899
▁[&](	-12.3907
Concurrent	-12.3907
("#	-12.3908
Male	-12.3914
Banner	-12.3914
16]	-12.3916
>>()	-12.3917
rds	-12.3919
CF	-12.393
ой	-12.393
!("[	-12.3931
.'</	-12.3936
▁rpc	-12.3938
▁2011	-12.3939
Unload	-12.3939
▁Clock	-12.3943
▁[&]	-12.3944
asd	-12.3955
dis	-12.3957
1].	-12.3959
▁numeric	-12.3963
▁hal	-12.3973
009	-12.3974
ically	-12.3974
▁ha	-12.398
Cam	-12.3985
▁SW	-12.3985
rounds	-12.3987
▁ErrorCode	-12.3988
She	-12.3993
▁Conversion	-12.3993
676	-12.3995
ooo	-12.3997
hp	-12.4
visual	-12.4001
flip	-12.4006
||	-12.401
Soft	-12.401
▁getT	-12.4011
▁stk	-12.4013
getUrl	-12.4014
▁noise	-12.4015
orch	-12.4016
▁manifest	-12.4016
{'	-12.4016
▁{{\	-12.402
▁Links	-12.4021
▁decompress	-12.4023
ShaderSource	-12.4025
:1;	-12.4026
▁Case	-12.4027
sso	-12.4029
▁Balance	-12.403
▁ImageView	-12.4033
SW	-12.4036
про	-12.4036
▁CREATE	-12.404
80)	-12.4046
userService	-12.4049
=>$	-12.4055
stringValue	-12.4057
getMethod	-12.4059
▁che	-12.4066
▁Fq	-12.4068
ries	-12.407
:{}",	-12.4071
▁dic	-12.4073
hai	-12.4075
Lin	-12.4077
▁chat	-12.4078
joint	-12.4081
fut	-12.4085
▁Fixed	-12.4087
▁Sha	-12.4087
▁security	-12.4091
▁150	-12.4095
0.7	-12.4095
ico	-12.41
.'.	-12.4101
▁Statistics	-12.4102
▁LONG	-12.4103
150	-12.4103
ResourceId	-12.4104
Gamma	-12.4106
fk	-12.4111
ticks	-12.4111
▁51	-12.4113
tup	-12.4116
iể	-12.4121
]{1,2	-12.4125
BLE	-12.4134
.5,	-12.4139
pq	-12.4139
...',	-12.4142
JsonResponse	-12.4148
108	-12.415
getCache	-12.4155
ó	-12.4161
NB	-12.4162
▁1500	-12.4166
判断	-12.4167
Streams	-12.4169
OA	-12.417
▁ob	-12.4171
ess	-12.4171
}/{	-12.4173
▁1000000	-12.4173
cliente	-12.4175
128_	-12.4177
▁Moj	-12.4192
▁CONTA	-12.4193
care	-12.4193
Functions	-12.4196
men	-12.4196
(12)	-12.4196
▁RM	-12.4205
▁Deref	-12.4206
Dec	-12.4208
▁personal	-12.4211
8000	-12.4212
▁anchor	-12.4212
▁broker	-12.4212
▁clearfix	-12.4213
perturb	-12.4213
▁ADD	-12.4213
).'"	-12.4215
▁TimeUnit	-12.4217
IG	-12.4221
▁Sensor	-12.4222
255,	-12.4224
▁getP	-12.4226
▁Vers	-12.4231
з	-12.4233
{1}	-12.4238
▁pts	-12.4243
▁Inline	-12.4246
RD	-12.4249
▁Photo	-12.4251
Configure	-12.4252
88.	-12.4252
umberOfProcesses	-12.4256
")?	-12.4261
Prevent	-12.4265
ull	-12.4267
空	-12.4267
2)]	-12.4268
quis	-12.4271
▁Allow	-12.4279
{\"@	-12.4279
mys	-12.4282
rex	-12.4284
▁Receiver	-12.4287
newUser	-12.429
▁Pagination	-12.4291
disc	-12.4292
▁GCC	-12.4293
ailor	-12.4293
?</	-12.4294
hangePathEntries	-12.4295
limited	-12.4298
ados	-12.4298
Targets	-12.4308
155	-12.431
MA	-12.4313
▁indicat	-12.4317
CAN	-12.4318
▁90	-12.4318
▁tp	-12.4319
slab	-12.4319
402	-12.432
contexts	-12.4324
▁regs	-12.4336
Et	-12.4338
▁demo	-12.434
VP	-12.4348
CHA	-12.435
getLocal	-12.4351
PLY	-12.4352
▁Constants	-12.4354
ours	-12.4354
Jobs	-12.4355
ش	-12.436
fly	-12.4362
▁sources	-12.4364
SIG	-12.4364
pairs	-12.4366
5.3	-12.4367
tspan	-12.4368
SR	-12.4369
▁vo	-12.437
▁DELETE	-12.4372
▁peripheral	-12.4374
."</	-12.4377
1";	-12.4377
Feign	-12.4381
121	-12.4385
▁Mark	-12.4388
Provide	-12.4389
LoadBalancer	-12.4389
3)),	-12.4391
EMU	-12.4392
BY	-12.4393
getClient	-12.4393
Relation	-12.4394
▁Sho	-12.4398
▁ypos	-12.4398
▁sigma	-12.4402
getHandler	-12.4404
Digi	-12.4405
stun	-12.4407
▁np	-12.441
Stroke	-12.4411
../../	-12.4412
EL	-12.4414
ure	-12.4415
▁LEA	-12.4417
▁PY	-12.4417
aria	-12.4419
▁Car	-12.4419
approved	-12.442
departemen	-12.442
Weapon	-12.442
rope	-12.4421
intrinsic	-12.4422
proposal	-12.4422
surname	-12.4423
tubo	-12.4423
ServerRequest	-12.4423
may	-12.4425
serie	-12.4427
unction	-12.4427
portlet	-12.4428
incident	-12.4428
▁WAR	-12.4428
Flash	-12.4429
▁occur	-12.443
191	-12.4431
Vp	-12.4432
BelongsTo	-12.4434
sale	-12.4438
▁getY	-12.4439
Blend	-12.4439
▁assum	-12.4441
Vol	-12.4442
Specific	-12.4445
lor	-12.4447
Cert	-12.4447
Most	-12.4448
033	-12.4449
▁7:	-12.4449
ă	-12.4449
Extent	-12.445
Flat	-12.4452
Difference	-12.4453
Spring	-12.4454
vfs	-12.4455
ờ	-12.4455
Absolute	-12.4456
Bag	-12.4456
trong	-12.4458
Family	-12.4458
▁13:	-12.4459
ö	-12.446
nl	-12.4462
bookId	-12.4464
stick	-12.4464
reatedAt	-12.4464
Measure	-12.4466
Capacity	-12.4466
Activate	-12.4467
Pause	-12.4469
1,1,	-12.4469
▁5.0	-12.447
commerce	-12.447
ITE	-12.4471
▁HP	-12.4471
staging	-12.4472
bsl	-12.4473
ới	-12.4473
PARAMETER	-12.4474
wr	-12.4475
ENTER	-12.4476
documento	-12.4476
\022	-12.4476
▁Mar	-12.4476
omni	-12.4476
Suit	-12.4476
Lambda	-12.4477
"{:?}",	-12.4477
RECEIVE	-12.4477
mission	-12.4477
Anexo	-12.4478
Robot	-12.4478
OsStr	-12.4478
ô	-12.4478
acao	-12.4478
collision	-12.4479
▁recommend	-12.4479
Until	-12.4479
TerimaBarang	-12.4479
Encrypt	-12.4479
RANGE	-12.4479
Expect	-12.448
ren	-12.448
deployment	-12.448
PCSTR	-12.448
Modul	-12.448
ROUND	-12.4481
coding	-12.4481
▁Bos	-12.4481
Activation	-12.4481
hal	-12.4481
awnTest	-12.4481
hapus	-12.4481
▁Wasm	-12.4481
Permute	-12.4481
000-00	-12.4481
Coordinator	-12.4481
TimeStamp	-12.4482
分	-12.4482
Magic	-12.4482
▁Scheduler	-12.4482
Toggle	-12.4482
portal	-12.4482
Scaling	-12.4482
dependent	-12.4482
Physical	-12.4482
META	-12.4482
Press	-12.4482
Something	-12.4482
presentation	-12.4482
组	-12.4482
Reflect	-12.4482
单	-12.4482
gobblin	-12.4482
HELP	-12.4482
Azimuth	-12.4482
自	-12.4483
]{2,}	-12.4483
س	-12.4483
来	-12.4483
Quote	-12.4483
Collision	-12.4483
键	-12.4483
列表	-12.4483
edmcouncil	-12.4483
る	-12.4483
作为	-12.4483
机	-12.4483
COMPARE	-12.4483
Telegram	-12.4483
WithMockDelegate	-12.4483
pretrained	-12.4483
验证	-12.4483
配置	-12.4483
AdvancedSettings	-12.4483
lmoxarifado	-12.4483
tactic	-12.4483
0.45,1	-12.4483
CONCEPT	-12.4483
Portfolio	-12.4483
任意	-12.4483
或者	-12.4483
统计	-12.4483
Monster	-12.4483
SHADOW	-12.4483
oxide	-12.4483
可	-12.4483
编	-12.4483
问	-12.4483
GENERIC	-12.4483
Visual	-12.4483
arithmetic	-12.4483
TimeDemoRecorder	-12.4483
panzer	-12.4483
▁serenity	-12.4483
化	-12.4483
FORWARD	-12.4483
Neighbour	-12.4483
SimpleAuthParams	-12.4483
TRANSFER	-12.4483
authenticator	-12.4483
perseus	-12.4483
转	-12.4483
AUDIO	-12.4483
Capabilities	-12.4483
Discriminator	-12.4483
Fornecedor	-12.4483
GameplayCue	-12.4483
JScrollPane	-12.4483
NphysicsWorld	-12.4483
Recipient	-12.4483
SUBJECT	-12.4483
SingleStrand	-12.4483
Study	-12.4483
htmlspecialchars	-12.4483
ncodedSignedMark	-12.4483
polynomial	-12.4483
risiko	-12.4483
于	-12.4483
始化	-12.4483
性	-12.4483
Associate	-12.4483
Configuracoes	-12.4483
DESCRIPTION	-12.4483
Funcionario	-12.4483
Kegiatan	-12.4483
PATCH	-12.4483
PalClientFactory	-12.4483
Privilege	-12.4483
Proveedores	-12.4483
Socks	-12.4483
UNSIGNED	-12.4483
destinasi	-12.4483
homilies	-12.4483
identical	-12.4483
rclcpp	-12.4483
sanitize	-12.4483
subAcctType	-12.4483
torrentpier	-12.4483
voucher	-12.4483
О	-12.4483
▁'2014-06-	-12.4483
▁Delegating	-12.4483
▁testRe	-12.4483
除	-12.4483
................	-12.4483
Advance	-12.4483
BLOCKNODELIST	-12.4483
BROWN	-12.4483
BluetoothGatt	-12.4483
DirectedEdge	-12.4483
Encodable	-12.4483
Feather	-12.4483
GlobMatcher	-12.4483
Grenades	-12.4483
IDENTIFIER	-12.4483
Introspector	-12.4483
LIGHT	-12.4483
Leave	-12.4483
MATRIX	-12.4483
NTetrahedra	-12.4483
PRIMITIVE	-12.4483
PRIVATE	-12.4483
Probabilities	-12.4483
RELEASE	-12.4483
Through	-12.4483
VISIBLE	-12.4483
empresas	-12.4483
extIkReal	-12.4483
funcionario	-12.4483
isTimePropType	-12.4483
notifiable	-12.4483
oneImgStr	-12.4483
singular	-12.4483
specular	-12.4483
srook	-12.4483
termination	-12.4483
ueDidChangeEvent	-12.4483
М	-12.4483
▁Vault	-12.4483
▁XPLM	-12.4483
▁battery	-12.4483
▁bodhi	-12.4483
▁easily	-12.4483
▁раз	-12.4483
完成	-12.4483
结果	-12.4483
Affine	-12.4483
AlterarPerfilDTO	-12.4483
AutoHideBehavior	-12.4483
[...]
