<pad>	0
<unk>	0
<s>	0
</s>	0
<USER>	0
<ASSISTANT>	0
<SYSTEM>	0
<bof>	0
<eof>	0
、	-3.12023
▁	-3.21247
。	-3.40828
の	-3.72031
)	-3.99042
(	-4.06481
年	-4.18357
は	-4.26845
が	-4.45371
・	-4.54377
を	-4.7706
に	-4.82852
月	-5.01281
▁-	-5.06576
で	-5.09423
と	-5.10928
」	-5.16966
「	-5.17155
日	-5.24148
1	-5.43602
2	-5.66135
:	-5.66876
や	-5.70088
である	-5.78928
から	-5.89856
3	-5.94708
し	-6.07983
』	-6.09345
した	-6.1616
4	-6.16944
として	-6.18651
も	-6.18717
『	-6.21625
する	-6.2195
駅	-6.25735
では	-6.34813
など	-6.5357
5	-6.54444
町	-6.57559
昭和	-6.59837
市	-6.60305
には	-6.62579
▁(	-6.64358
た	-6.69156
6	-6.69439
村	-6.69678
10	-6.73619
また	-6.75433
7	-6.77846
8	-6.82659
という	-6.83211
-	-6.87958
線	-6.88367
人	-6.88961
平成	-6.91435
大	-6.9188
その	-6.92429
9	-6.9251
る	-6.93012
号	-6.96466
12	-6.96475
して	-6.97698
この	-6.98825
な	-7.01328
第	-7.03269
11	-7.06479
山	-7.09638
された	-7.10011
,	-7.1044
年に	-7.11021
ス	-7.12194
により	-7.13199
している	-7.13988
であり	-7.14697
による	-7.15964
て	-7.17495
15	-7.17984
によって	-7.20189
となる	-7.21017
中	-7.22927
本	-7.24409
郡	-7.26062
一	-7.26785
上	-7.30565
川	-7.32346
20	-7.32724
される	-7.33688
ている	-7.34819
国	-7.35629
子	-7.35782
17	-7.36272
16	-7.36287
がある	-7.3664
され	-7.37356
法	-7.37614
18	-7.39762
.	-7.42954
か	-7.43312
などの	-7.43556
東	-7.4378
日本	-7.44744
であった	-7.45446
14	-7.46179
より	-7.46665
▁:	-7.48184
ため	-7.48301
13	-7.4886
西	-7.49806
となった	-7.49906
新	-7.50678
道	-7.50921
/	-7.51098
り	-7.51708
、「	-7.52709
名	-7.53217
JR	-7.53538
長	-7.56701
30	-7.56846
島	-7.57445
ア	-7.58106
南	-7.58683
い	-7.60119
部	-7.61763
へ	-7.62032
性	-7.62712
者	-7.62842
家	-7.63911
とは	-7.64006
水	-7.64082
および	-7.6418
現	-7.64854
内	-7.65235
において	-7.65622
北	-7.65658
ト	-7.66271
ク	-7.6648
後	-7.6731
ド	-7.67375
下	-7.67645
まで	-7.68395
への	-7.68628
三	-7.69293
的な	-7.69383
田	-7.69444
面	-7.70701
高	-7.72765
▁関連項目	-7.73235
19	-7.73383
明治	-7.73519
ラ	-7.73758
王	-7.74226
的	-7.74262
における	-7.74494
地	-7.74525
されている	-7.74901
▁概要	-7.7637
にある	-7.76579
回	-7.76802
m	-7.76823
前	-7.76891
s	-7.78059
小	-7.78247
分	-7.79014
日に	-7.79498
元	-7.79912
み	-7.80116
旧	-7.80142
化	-7.80258
同	-7.80865
数	-7.81259
▁『	-7.81369
25	-7.81757
き	-7.8221
つ	-7.82366
リ	-7.83049
大学	-7.84191
▁歴史	-7.85867
21	-7.86327
IC	-7.87741
していた	-7.88542
ズ	-7.89246
全	-7.89486
カ	-7.89774
く	-7.90145
行	-7.90456
C	-7.90567
系	-7.90598
にも	-7.90724
24	-7.91492
現在の	-7.9165
22	-7.92054
代	-7.92234
型	-7.92317
神	-7.92393
ら	-7.92862
語	-7.93061
野	-7.93382
ナ	-7.93653
放送	-7.93911
』(	-7.94395
時	-7.94682
しかし	-7.95006
ノ	-7.95183
タ	-7.95226
でも	-7.95371
形	-7.96141
生	-7.96259
23	-7.96453
A	-7.96598
マ	-7.97348
式	-7.97546
約	-7.98788
地域	-7.98939
ていた	-7.99063
城	-7.9949
だった	-7.99527
コ	-8.00095
▁脚注	-8.0053
等	-8.00746
金	-8.01089
)4	-8.01205
ル	-8.01537
27	-8.01713
世	-8.02055
とする	-8.0245
手	-8.03565
間	-8.03639
海	-8.04166
外	-8.042
となっている	-8.04529
木	-8.05027
ム	-8.05561
原	-8.05607
となり	-8.05782
光	-8.05991
29	-8.06013
った	-8.06126
目	-8.06193
28	-8.06435
東京	-8.06973
正	-8.07926
寺	-8.0868
区	-8.08991
(+	-8.09268
学	-8.09327
もの	-8.09399
26	-8.09466
す	-8.09722
会	-8.09801
のみ	-8.10232
S	-8.10487
日本の	-8.11082
バス	-8.11242
なお	-8.11426
B	-8.11445
または	-8.11553
こと	-8.12443
物	-8.12583
和	-8.13227
平	-8.13339
石	-8.13404
鉄道	-8.13532
州	-8.14054
その後	-8.14501
二	-8.14882
用	-8.15176
後に	-8.15197
作品	-8.15389
文	-8.15551
31	-8.1605
所	-8.16092
社	-8.16171
巻	-8.16441
公	-8.16509
時間	-8.16777
レ	-8.17295
バ	-8.17375
」(	-8.17396
があり	-8.17507
オ	-8.17628
(*	-8.17974
デ	-8.18035
力	-8.18312
お	-8.1884
こ	-8.20083
と呼ばれる	-8.20404
立	-8.21004
体	-8.21151
科	-8.21321
書	-8.21476
)3	-8.21535
特に	-8.21929
ロ	-8.22025
エ	-8.22348
県	-8.22431
」「	-8.2297
=	-8.23857
これは	-8.24509
イ	-8.24573
月に	-8.24843
ダ	-8.25045
点	-8.25945
になる	-8.2604
種	-8.26109
ある	-8.26269
さらに	-8.26419
版	-8.26575
シ	-8.27678
さ	-8.27745
M	-8.27996
映画	-8.28297
ており	-8.28597
台	-8.28714
サ	-8.28857
美	-8.29301
明	-8.30136
橋	-8.30336
車	-8.30746
との	-8.30759
ない	-8.31326
音	-8.31648
天	-8.3168
う	-8.31741
見	-8.31942
位	-8.31981
フ	-8.32156
ただし	-8.32459
度	-8.33294
とも	-8.33795
戦	-8.34362
キ	-8.34483
世界	-8.34611
機	-8.34759
P	-8.34808
ニ	-8.34931
F	-8.35031
同年	-8.35171
ジ	-8.35222
について	-8.36807
及び	-8.3695
流	-8.37037
出	-8.37575
局	-8.3793
40	-8.38263
両	-8.38439
方	-8.38567
を持つ	-8.38702
無	-8.39072
店	-8.39138
当時	-8.39635
大正	-8.39761
義	-8.3988
口	-8.40254
チ	-8.40305
については	-8.40347
できる	-8.40369
各	-8.40496
的に	-8.40501
ホーム	-8.40591
ミ	-8.40642
万	-8.4081
D	-8.41203
成	-8.41258
50	-8.41391
T	-8.41589
シリーズ	-8.41798
▁1	-8.42039
年には	-8.4228
作	-8.42331
▁日本	-8.4257
風	-8.42596
白	-8.42864
氏	-8.42934
文化	-8.4297
、『	-8.43337
論	-8.43372
施設	-8.43512
▁外部リンク	-8.44324
年度	-8.44413
マン	-8.44915
馬	-8.45262
構造	-8.45276
テレビ	-8.45396
って	-8.4578
ガ	-8.45946
▁3	-8.46086
場	-8.46236
音楽	-8.46347
ティ	-8.46373
宮	-8.46392
活動	-8.46442
軍	-8.46442
屋	-8.46645
"	-8.46879
番組	-8.46913
頭	-8.47513
G	-8.47516
中央	-8.47644
重	-8.48046
とされる	-8.48357
だ	-8.48464
星	-8.48631
つの	-8.48643
ゲーム	-8.48668
別	-8.48717
▁km	-8.48835
えき	-8.4896
関係	-8.49358
事業	-8.49463
ネ	-8.49811
谷	-8.50169
事	-8.50455
道路	-8.50606
ハ	-8.50647
km	-8.51016
ン	-8.51091
条	-8.5132
とともに	-8.51646
パ	-8.51965
通	-8.52128
▁4	-8.52517
路線	-8.5261
地区	-8.52676
地方	-8.52723
次	-8.52891
R	-8.52925
話	-8.53107
あるいは	-8.53117
リー	-8.53273
研究	-8.53771
株式会社	-8.53892
字	-8.53901
多	-8.53902
国際	-8.53972
情報	-8.54473
テ	-8.54683
古	-8.54723
他の	-8.549
番	-8.55148
例	-8.5515
賞	-8.55151
V	-8.55434
K	-8.55609
色	-8.55677
としては	-8.55701
ディ	-8.55937
ツ	-8.55942
H	-8.56006
100	-8.56104
だが	-8.56284
に対して	-8.56415
銀行	-8.56594
都市	-8.56646
システム	-8.5672
を行う	-8.5704
制	-8.57052
開発	-8.57371
J	-8.5738
船	-8.57471
ことから	-8.57549
学校	-8.57623
セ	-8.57706
問題	-8.57839
▁2	-8.58112
不	-8.58146
国道	-8.59039
になった	-8.59093
中国	-8.59552
期	-8.59561
カード	-8.59595
当時の	-8.59627
東日本	-8.5989
ビ	-8.59929
多くの	-8.60036
いた	-8.60079
座	-8.60373
安	-8.60512
メ	-8.6063
花	-8.60654
小学校	-8.60717
時代	-8.61321
事件	-8.61398
モ	-8.61417
のうち	-8.61742
信	-8.61773
ま	-8.62135
後の	-8.62466
!	-8.62714
N	-8.62883
場合	-8.63186
60	-8.63277
権	-8.63477
文字	-8.63613
会社	-8.6367
グ	-8.63736
ブ	-8.63775
社会	-8.639
▁第	-8.63948
宗	-8.63962
E	-8.63969
)10	-8.64169
〜	-8.64179
気	-8.64399
ケ	-8.64422
円	-8.64689
館	-8.6476
年から	-8.64764
にて	-8.64939
もある	-8.6506
久	-8.65187
センター	-8.65357
プ	-8.65893
武	-8.66102
井	-8.66392
大阪	-8.66511
直	-8.66672
真	-8.66894
グループ	-8.66925
言語	-8.6699
女	-8.67057
朝	-8.67155
教育	-8.67575
それ	-8.67605
人の	-8.67962
実	-8.68059
ず	-8.68075
め	-8.68204
においては	-8.68318
派	-8.68346
区間	-8.68359
心	-8.68368
計画	-8.68385
電子	-8.68751
組織	-8.68795
門	-8.68872
院	-8.68927
W	-8.6895
ではなく	-8.69265
ザ	-8.69276
入	-8.69476
といった	-8.69783
)」	-8.69917
t	-8.70256
発	-8.7026
アメリカ	-8.70378
イン	-8.70502
量	-8.70648
主	-8.70729
戦争	-8.70959
清	-8.71114
類	-8.71137
しており	-8.71197
運動	-8.71235
説	-8.71908
史	-8.71969
曲	-8.72015
からの	-8.72078
すると	-8.72419
む	-8.72427
列車	-8.72642
主に	-8.72705
を含む	-8.72872
吉	-8.72884
戸	-8.7309
に関する	-8.73243
開業	-8.73401
え	-8.73524
八	-8.73627
での	-8.73636
車両	-8.73848
政	-8.74048
五	-8.74092
勝	-8.74266
h	-8.7466
ー	-8.74914
波	-8.74929
のため	-8.75294
L	-8.75338
▁=	-8.75635
津	-8.75776
役	-8.75816
バー	-8.75829
尾	-8.75919
カー	-8.75963
ち	-8.76128
北海道	-8.7626
状態	-8.76424
側	-8.76432
初	-8.76713
定	-8.7672
記	-8.7678
ラー	-8.76881
O	-8.7709
室	-8.77118
企業	-8.77197
有	-8.77199
ボ	-8.7723
群	-8.77479
アン	-8.77793
先	-8.77818
に対する	-8.77902
～	-8.77975
あ	-8.78018
根	-8.78037
n	-8.78199
経済	-8.78254
▁12	-8.78281
都	-8.78309
ウ	-8.78624
ほど	-8.78652
藩	-8.78675
経	-8.78676
松	-8.7888
技術	-8.78899
▁また	-8.78907
国家	-8.78921
表	-8.78959
四	-8.7907
中学校	-8.79093
愛	-8.79366
江	-8.7952
高等学校	-8.79563
岩	-8.79613
歌	-8.80155
元年	-8.8026
徳	-8.80336
ように	-8.80696
▁10	-8.80771
歳	-8.80871
じ	-8.80995
ほか	-8.81186
開始	-8.81699
御	-8.81727
フランス	-8.8175
▁7	-8.81784
英	-8.81891
非	-8.82081
こう	-8.82102
▁S	-8.82234
土	-8.8234
親	-8.82542
廃止	-8.82823
ヤ	-8.82824
属	-8.8306
記録	-8.83158
されていた	-8.83463
通り	-8.83501
相	-8.83667
コン	-8.83771
の一部	-8.8379
)12	-8.83805
▁日本の	-8.83845
ゴ	-8.83907
上の	-8.84139
ピ	-8.84172
機能	-8.84183
y	-8.84316
西日本	-8.84502
男	-8.84639
シュ	-8.8474
を指す	-8.84756
▁5	-8.84789
方面	-8.84964
と共に	-8.84999
▁()	-8.85051
サービス	-8.85106
アル	-8.85253
62	-8.8554
▁11	-8.85636
)11	-8.85709
令和	-8.86195
設置	-8.86206
スポーツ	-8.86208
X	-8.86624
時に	-8.86717
漫画	-8.86735
→	-8.87028
年間	-8.87085
半	-8.87131
港	-8.87192
他	-8.873
当	-8.87417
45	-8.87766
管理	-8.87788
以降	-8.87834
35	-8.88132
林	-8.88303
当駅	-8.88564
治	-8.88658
の鉄道駅	-8.89032
そして	-8.89305
▁なお	-8.89341
これ	-8.8935
よりも	-8.89502
en	-8.89656
官	-8.89728
熱	-8.8973
80	-8.89763
ドイツ	-8.8979
ヒ	-8.90059
わ	-8.90076
のように	-8.90263
角	-8.90308
とした	-8.90368
足	-8.90548
春	-8.9057
公園	-8.90661
対	-8.90751
沢	-8.90859
I	-8.90905
丸	-8.90943
領	-8.91198
制度	-8.9128
に伴い	-8.91297
▁6	-8.9137
着	-8.91406
保	-8.91496
そのため	-8.91586
▁9	-8.91617
合	-8.9177
al	-8.91832
i	-8.92103
之	-8.92313
器	-8.92358
電	-8.92477
葉	-8.92543
ッ	-8.9284
広	-8.92861
と呼ぶ	-8.92943
同じ	-8.93002
人物	-8.93075
食	-8.93086
があった	-8.93184
世紀	-8.93266
▁大	-8.93281
母	-8.93367
女性	-8.93657
トン	-8.93679
プロ	-8.937
▁出典	-8.93751
知	-8.93835
シー	-8.93946
▁駅構造	-8.93984
夫	-8.94183
主義	-8.94184
U	-8.94341
生活	-8.94415
さん	-8.94653
させる	-8.94767
京都	-8.94871
現在は	-8.94912
七	-8.95017
天皇	-8.95056
▁8	-8.95145
民	-8.95149
黒	-8.95402
一部	-8.9544
交通	-8.95633
湖	-8.95797
雄	-8.95884
鉄	-8.95936
ために	-8.95959
一覧	-8.96125
サン	-8.96127
赤	-8.96195
ベ	-8.96458
建設	-8.96725
堂	-8.97456
図	-8.97525
郷	-8.97982
千	-8.98112
太	-8.98575
ラン	-8.98583
里	-8.98636
業	-8.98669
父	-8.98693
政治	-8.98816
第一	-8.98867
環境	-8.98887
総	-8.99066
チーム	-8.99332
監督	-8.99341
ソ	-8.99417
られた	-8.99457
の一覧	-8.99486
であるが	-8.99596
全国	-8.99622
を参照	-8.99879
例えば	-8.99915
すること	-8.99925
森	-9.00031
▁中国	-9.0027
データ	-9.00431
節	-9.00436
ニュース	-9.00474
39	-9.00493
組	-9.00503
聖	-9.00504
小説	-9.00611
値	-9.0063
スト	-9.00714
ぎ	-9.00745
鳥	-9.00773
米	-9.00803
のような	-9.00827
▁+	-9.01133
品	-9.01201
表現	-9.01393
六	-9.01629
空	-9.01692
等の	-9.02062
伝	-9.02127
リン	-9.02136
などで	-9.02258
を経て	-9.02506
志	-9.0259
ター	-9.02598
Y	-9.02622
基	-9.02627
良	-9.02628
36	-9.02871
方法	-9.02907
大きな	-9.0317
様々な	-9.03244
草	-9.03489
豊	-9.03593
帝	-9.0374
自然	-9.03923
士	-9.04164
横	-9.04251
〈	-9.04294
イギリス	-9.04377
集	-9.04395
教	-9.04418
a	-9.04501
神社	-9.04549
産業	-9.04625
坂	-9.04932
れ	-9.05021
一般	-9.05101
▁C	-9.05113
e	-9.05176
連	-9.05402
路	-9.0545
'	-9.05497
章	-9.05533
の一つ	-9.05536
出身	-9.05575
師	-9.0561
当初は	-9.05756
身	-9.05894
▁B	-9.05901
er	-9.05949
使用	-9.05962
場所	-9.0613
38	-9.06207
利用	-9.06256
層	-9.06373
であったが	-9.06464
以上	-9.06488
特急	-9.06507
としての	-9.06522
マー	-9.06729
党	-9.06768
これらの	-9.06924
系統	-9.0696
70	-9.07177
)7	-9.07186
リーグ	-9.07369
機関	-9.07388
人間	-9.07392
ことが	-9.07394
楽	-9.07586
0	-9.07586
自動車	-9.07589
ものの	-9.07613
のある	-9.0765
▁A	-9.07753
いる	-9.07953
ものである	-9.08012
福	-9.08093
開	-9.08176
国鉄	-9.08262
ロー	-9.08373
の駅となる	-9.08533
方式	-9.087
だけ	-9.08708
よう	-9.08893
▁国道	-9.08914
一方	-9.08997
軌道	-9.09073
▁明治	-9.09132
ラジオ	-9.09222
部分	-9.09228
誌	-9.09379
初代	-9.09605
運転	-9.09734
にあった	-9.09771
▁利用状況	-9.09871
▁of	-9.10056
塩	-9.10099
英語	-9.10181
命	-9.10197
37	-9.10202
忠	-9.1027
タイ	-9.10345
青	-9.10351
ことを	-9.10392
のこと	-9.10399
職	-9.10607
#	-9.10667
感	-9.10735
▁1987	-9.10796
階	-9.10815
よ	-9.10944
▁年表	-9.11004
ポ	-9.11049
スター	-9.11069
ご	-9.11222
大会	-9.11353
の中で	-9.11358
物語	-9.11417
33	-9.11471
ワ	-9.11495
販売	-9.1155
以下	-9.11657
▁m	-9.11661
制作	-9.11675
仏	-9.11736
周	-9.11799
ひ	-9.11881
今	-9.11889
訳	-9.11905
ような	-9.12167
校	-9.123
▁駅周辺	-9.12461
せん	-9.12599
隊	-9.12647
市立	-9.12671
火	-9.12803
d	-9.12822
ことで	-9.129
32	-9.13029
ながら	-9.13202
駅舎	-9.13212
工場	-9.13228
内の	-9.13318
河	-9.13376
カル	-9.13472
発売	-9.139
年代	-9.13901
を受け	-9.13925
ジャ	-9.14092
以外の	-9.14211
紀元前	-9.14385
番線	-9.14563
インド	-9.14694
関	-9.14746
):	-9.14768
コンピュータ	-9.14776
90	-9.14844
ビル	-9.14937
協会	-9.14954
へと	-9.15058
加	-9.15137
浦	-9.15488
エネルギー	-9.15509
こともある	-9.1573
を意味する	-9.15734
紙	-9.15759
これを	-9.15877
ではない	-9.15952
とし	-9.15955
玉	-9.16057
生産	-9.16082
仁	-9.1615
っている	-9.16161
それぞれ	-9.16196
p	-9.16314
34	-9.16323
総合	-9.16469
を中心に	-9.16483
工事	-9.16566
達	-9.16571
できごと	-9.16591
によると	-9.16623
などが	-9.16687
設立	-9.16694
42	-9.16704
)6	-9.1672
自	-9.16776
料理	-9.16786
兵	-9.17038
特別	-9.17113
b	-9.1715
あり	-9.17156
作家	-9.17207
ット	-9.17209
ね	-9.17288
形式	-9.17324
ば	-9.17451
諸	-9.17934
になっている	-9.17987
支店	-9.18019
ふ	-9.18167
宿	-9.18261
ローマ	-9.18388
越	-9.18603
のために	-9.18611
宇宙	-9.18906
陽	-9.18923
アニメ	-9.18926
け	-9.19026
死	-9.19045
族	-9.19059
線の	-9.19079
南部	-9.19092
しない	-9.19123
通信	-9.19151
率	-9.19156
単位	-9.19256
省	-9.19277
項	-9.19326
超	-9.19361
ギ	-9.19368
現在	-9.19403
岡	-9.19408
ベル	-9.19492
そ	-9.19573
間の	-9.19593
質	-9.19633
太郎	-9.19658
ヨーロッパ	-9.19762
湯	-9.19792
連載	-9.19804
▁←	-9.19855
浜	-9.19942
エル	-9.19942
永	-9.19945
温泉	-9.20043
)9	-9.20048
ヴィ	-9.20088
病	-9.2009
表記	-9.20258
々	-9.20365
動物	-9.20384
f	-9.2042
日から	-9.20707
とされている	-9.2096
佐	-9.21237
選手	-9.21334
製造	-9.21388
新聞	-9.21544
理論	-9.21611
調査	-9.21657
工業	-9.217
界	-9.21809
調	-9.2181
55	-9.22017
出版	-9.2207
43	-9.22116
ナー	-9.22133
られる	-9.22163
客	-9.22179
されて	-9.22378
政府	-9.22443
夏	-9.22613
帯	-9.22695
メートル	-9.22829
源	-9.22956
科学	-9.22974
板	-9.23053
最初の	-9.23077
分類	-9.23107
NHK	-9.23189
が多い	-9.23331
九州	-9.23338
員	-9.23341
夜	-9.23634
生物	-9.23693
48	-9.2376
乗	-9.23879
団体	-9.2395
46	-9.24016
させた	-9.24123
に位置する	-9.24351
羽	-9.24385
店舗	-9.24544
輸送	-9.24569
池	-9.24815
されており	-9.25051
進	-9.25155
ぶ	-9.25297
たち	-9.25328
独立	-9.25333
ること	-9.25335
利	-9.25425
電気	-9.25576
中の	-9.25619
中に	-9.25678
反応	-9.25786
指定	-9.25835
k	-9.25909
としている	-9.25929
47	-9.26031
第二	-9.26107
定義	-9.26193
設計	-9.26346
▁F	-9.26349
少年	-9.26359
ファン	-9.2646
歴史	-9.26541
泉	-9.26595
編	-9.26611
』『	-9.26785
たい	-9.26814
駅前	-9.26962
c	-9.26972
銀	-9.26992
運行	-9.27188
画	-9.27308
蔵	-9.27357
秋	-9.27396
関数	-9.27458
が多く	-9.27549
以下の	-9.27584
像	-9.27706
場合は	-9.2779
▁のりば	-9.27808
デザイン	-9.27847
翌	-9.27867
んだ	-9.28017
田村	-9.28067
営業	-9.28085
構成	-9.28185
装置	-9.28212
雑誌	-9.28258
表示	-9.28261
っ	-9.28276
園	-9.28349
ロン	-9.28356
などを	-9.28413
物質	-9.2842
リング	-9.28437
かつて	-9.28495
艦	-9.2851
ようになった	-9.28513
所属	-9.28526
アー	-9.28539
反	-9.28578
興	-9.28646
富	-9.2869
初の	-9.28906
ペ	-9.28918
高校	-9.28967
44	-9.29028
ゲ	-9.29085
時の	-9.29113
イタリア	-9.2928
東京都	-9.29297
最も	-9.29321
十	-9.29471
▁,	-9.29471
そう	-9.29487
クラブ	-9.29779
用の	-9.2981
級	-9.29821
ことがある	-9.29826
▁P	-9.30046
経営	-9.30106
速度	-9.30286
政権	-9.30448
日本では	-9.30463
の駅である	-9.30464
北部	-9.30486
ニー	-9.30503
付	-9.30631
瀬	-9.30662
リア	-9.30666
製品	-9.30723
比	-9.30742
人が	-9.30989
o	-9.31032
学科	-9.31049
地球	-9.31098
皇帝	-9.31156
左	-9.31199
航空	-9.3121
敵	-9.31268
シャ	-9.31357
来	-9.31359
大統領	-9.31369
龍	-9.31375
崎	-9.31402
駅番号は	-9.31452
を除く	-9.31469
になり	-9.31494
▁2004	-9.31517
59	-9.31519
彦	-9.31577
タン	-9.3165
を表す	-9.31661
現代	-9.31817
ヌ	-9.3183
条件	-9.3184
変更	-9.3185
ソン	-9.32037
行為	-9.32186
秀	-9.32432
同時に	-9.32533
▁|	-9.32566
香	-9.32614
文学	-9.32623
▁2007	-9.32813
▁注釈	-9.32828
紀	-9.32834
京	-9.3285
行き	-9.32964
▁東	-9.32968
設備	-9.33009
でもある	-9.33028
ことができる	-9.33066
を示す	-9.33118
からは	-9.33131
▁M	-9.33202
幸	-9.33219
エン	-9.33292
民族	-9.33449
名称	-9.33673
未	-9.33697
個	-9.3371
」、「	-9.33711
ロシア	-9.33749
バンド	-9.33977
パン	-9.34032
▁H	-9.34154
び	-9.34164
条約	-9.34221
or	-9.34262
の第	-9.34419
カン	-9.34437
レン	-9.34482
再び	-9.34547
オー	-9.34649
共和国	-9.3465
産	-9.34659
にあたる	-9.34711
駅間	-9.34921
49	-9.34949
味	-9.35057
効果	-9.35106
ホ	-9.35206
処理	-9.35376
取り	-9.35423
+	-9.35571
いて	-9.35581
金属	-9.35597
に由来する	-9.35696
ing	-9.35697
デビュー	-9.35703
空港	-9.3576
電車	-9.35795
かつ	-9.35795
何	-9.35811
▁2005	-9.35831
2000	-9.35833
異	-9.35943
解	-9.36008
ハイ	-9.36067
の場合	-9.36183
マル	-9.36213
人口	-9.36284
担当	-9.36305
なかった	-9.36332
月号	-9.36348
位置	-9.36401
ちょう	-9.36448
学部	-9.36452
状	-9.36456
モデル	-9.36477
以後	-9.36479
製	-9.36577
用語	-9.36927
委員会	-9.36931
祭	-9.37024
通称	-9.3709
沼	-9.37126
理	-9.37139
によれば	-9.37191
ところ	-9.373
とき	-9.37349
病院	-9.37407
Z	-9.37503
an	-9.37589
完成	-9.37664
関連	-9.37733
を行った	-9.3779
業務	-9.37802
細胞	-9.37873
向	-9.37975
声	-9.3806
ック	-9.38106
アイ	-9.38215
開催	-9.38278
絵	-9.38284
教会	-9.38369
SF	-9.38401
急行	-9.38432
させ	-9.3852
連続	-9.38578
郵便局	-9.38589
JCT	-9.38642
守	-9.38694
〉	-9.38696
副	-9.38721
満	-9.38872
っていた	-9.3891
植物	-9.38915
右	-9.38928
▁2003	-9.39049
宝	-9.39108
スーパー	-9.39146
攻撃	-9.39222
)8	-9.39242
56	-9.39269
渡	-9.39327
もしくは	-9.39353
分野	-9.39389
ヴァ	-9.39428
▁/	-9.39517
なし	-9.39538
と同じ	-9.39703
ど	-9.39821
本線	-9.3988
妻	-9.40094
現象	-9.4015
時代の	-9.40208
行政	-9.40238
宗教	-9.40291
せ	-9.4036
魚	-9.40482
▁2006	-9.40497
計算	-9.40515
パー	-9.40716
複数の	-9.40741
樹	-9.40758
フィ	-9.40886
したが	-9.41011
府	-9.41104
編成	-9.41148
状況	-9.41195
統一	-9.41334
政策	-9.41358
記事	-9.41364
ダー	-9.41385
能力	-9.4141
強	-9.41487
薬	-9.41577
差	-9.41732
▁参考文献	-9.41821
の歴史	-9.41862
人気	-9.41889
が存在する	-9.41936
年生	-9.42066
専用	-9.42077
標準	-9.42149
国民	-9.42248
代表	-9.42277
200	-9.42331
すなわち	-9.42346
57	-9.42379
管	-9.42406
帝国	-9.42439
年まで	-9.42449
ヘ	-9.42461
▁紀元前	-9.42466
最大	-9.42543
次は	-9.42651
藤	-9.42652
▁新	-9.42686
在	-9.42739
ガス	-9.42855
普通	-9.42863
アメリカ合衆国	-9.42892
シン	-9.42914
系の	-9.42932
自由	-9.42941
令	-9.4303
]	-9.43205
▁※	-9.43258
かん	-9.43449
41	-9.43567
霊	-9.43632
常	-9.43684
市場	-9.4369
対応	-9.43773
首	-9.43857
異なる	-9.4387
団	-9.43891
内容	-9.43907
基準	-9.43944
暦	-9.44141
ドラマ	-9.44221
このため	-9.44441
試合	-9.44483
家の	-9.44513
化学	-9.44538
▁干支	-9.44624
グレゴリオ暦	-9.44695
ファ	-9.44733
▁この	-9.44737
将軍	-9.44842
までの	-9.44939
核	-9.44947
記号	-9.44984
万人	-9.44999
対象	-9.45103
油	-9.4518
せい	-9.45246
パリ	-9.45259
悪	-9.45259
ネット	-9.45271
▁朝鮮	-9.4531
司	-9.45314
方向	-9.45346
g	-9.4543
奥	-9.4547
生まれ	-9.45614
などに	-9.45621
観	-9.45622
景	-9.45677
58	-9.45736
とも呼ばれる	-9.45739
エンジン	-9.4578
集合	-9.4596
端	-9.45981
名古屋	-9.46023
出演	-9.46073
54	-9.46247
伊	-9.46269
結果	-9.46339
ランド	-9.46408
ch	-9.4646
頼	-9.46569
運営	-9.46569
形態	-9.46609
毛	-9.46713
再	-9.46776
mm	-9.46806
ライン	-9.46946
導入	-9.4703
ビー	-9.47161
合併	-9.47237
極	-9.47364
為	-9.47452
の戦い	-9.47573
交差点	-9.47588
▁2000	-9.47632
温度	-9.47783
on	-9.47854
cm	-9.47856
に対し	-9.47875
▁誕生	-9.4791
個人	-9.47946
地上	-9.47975
街	-9.47999
空間	-9.48142
コード	-9.48188
言	-9.48243
程度	-9.48314
移動	-9.48319
開設	-9.48403
500	-9.48454
計	-9.48471
実験	-9.48552
海軍	-9.48566
洋	-9.48616
▁D	-9.48742
いわゆる	-9.48775
桜	-9.48902
東日本旅客鉄道	-9.48937
能	-9.49004
時期	-9.49038
新しい	-9.49039
男性	-9.49048
変化	-9.4913
江戸	-9.4915
▁他の紀年法	-9.49168
順	-9.49265
段	-9.49306
TBS	-9.49431
かい	-9.49457
▁隣の駅	-9.49479
重要な	-9.49671
倍	-9.4968
引	-9.49693
分子	-9.49716
造	-9.49765
慶	-9.49817
r	-9.49857
運用	-9.49894
▁T	-9.49916
に属する	-9.5
はない	-9.50002
前に	-9.50004
台湾	-9.50103
王国	-9.50117
学生	-9.50147
▁ユダヤ暦	-9.50175
▁西	-9.50195
跡	-9.50205
漢	-9.50233
税	-9.50262
▁皇紀	-9.50263
本社	-9.50287
逆	-9.50309
”	-9.5035
られ	-9.50393
関東	-9.50403
el	-9.50414
遠	-9.50435
しょう	-9.50449
以上の	-9.50481
意味	-9.50488
できない	-9.50556
血	-9.50586
市民	-9.5059
試験	-9.50636
末	-9.50654
契約	-9.50658
軸	-9.50894
部門	-9.50904
モン	-9.50924
▁2001	-9.50948
直接	-9.50953
目的	-9.51036
なく	-9.51198
設定	-9.51198
決定	-9.51218
ユリウス暦	-9.51282
国の	-9.51285
駅から	-9.51396
in	-9.51444
市の	-9.51532
神戸	-9.51545
酒	-9.51546
展開	-9.51605
酸	-9.51646
もあり	-9.51654
向け	-9.51699
x	-9.51707
矢	-9.51773
思想	-9.51804
▁北	-9.51817
企画	-9.51863
高速	-9.5194
増	-9.51998
ガン	-9.52102
られている	-9.5211
観光	-9.52161
を受けた	-9.52248
印	-9.52379
芸術	-9.52396
者の	-9.52428
ことが多い	-9.52468
上で	-9.52645
にかけて	-9.52702
発表	-9.52767
初期	-9.52835
▁仏滅紀元	-9.5285
仏教	-9.52855
トンネル	-9.52856
しん	-9.52889
竹	-9.52964
研究所	-9.53007
ガー	-9.53199
ed	-9.53263
便	-9.53284
場合もある	-9.53309
次の	-9.53326
バル	-9.53344
代目	-9.5335
距離	-9.53376
キャラクター	-9.53433
53	-9.53471
牛	-9.53491
バン	-9.53651
姓	-9.53651
)5	-9.53683
当時は	-9.53809
一部の	-9.5391
原作	-9.5392
までは	-9.54119
を持ち	-9.54241
地下	-9.54252
東海	-9.54291
キー	-9.54297
持	-9.54469
機器	-9.54658
w	-9.54658
街道	-9.54706
九	-9.54734
集団	-9.54737
圏	-9.54767
単	-9.54811
BS	-9.54849
メーカー	-9.54939
しか	-9.55098
雪	-9.55148
土地	-9.55211
よく	-9.5522
最	-9.55226
以来	-9.55312
▁2008	-9.55368
助	-9.55411
哲学	-9.55435
レイ	-9.55457
ジュ	-9.55482
▁R	-9.55497
だったが	-9.55537
砲	-9.55607
輪	-9.5566
かつては	-9.55691
骨	-9.55711
教授	-9.55727
ろ	-9.5575
l	-9.55765
us	-9.55845
夢	-9.55869
岳	-9.55872
西部	-9.55914
“	-9.55924
日まで	-9.56021
結合	-9.56031
ジョン	-9.56035
専門	-9.56041
写真	-9.56079
学者	-9.561
動	-9.56194
CD	-9.56194
終了	-9.56234
居	-9.56362
製作	-9.5637
どう	-9.56391
広島	-9.56452
画家	-9.56479
数は	-9.56495
▁その他	-9.56503
観測	-9.56505
女子	-9.56513
回転	-9.56565
おり	-9.566
チャ	-9.56621
横浜	-9.56799
規格	-9.56817
会議	-9.56849
雨	-9.5685
接続	-9.56853
コー	-9.56872
フェ	-9.56915
医療	-9.56944
近代	-9.56947
議会	-9.56965
韓国	-9.56979
整備	-9.56998
▁日本の鉄道駅一覧	-9.57003
一方で	-9.57008
予定	-9.57009
出入口	-9.57147
存在	-9.57162
康	-9.57186
学園	-9.57213
茶	-9.57398
にあり	-9.57403
演奏	-9.5751
▁2002	-9.57554
歯	-9.57696
頃	-9.57705
商品	-9.57787
甲	-9.57859
▁地理	-9.57861
前の	-9.57884
境	-9.57908
とう	-9.5796
61	-9.57997
内に	-9.58021
に近い	-9.58054
評価	-9.58055
&	-9.58109
友	-9.58214
選	-9.58221
ゼ	-9.58254
種類	-9.5827
栄	-9.58278
行動	-9.58356
兼	-9.58356
サー	-9.58413
キング	-9.58453
張	-9.5851
百	-9.5853
▁→	-9.58546
これが	-9.586
東部	-9.58607
タイトル	-9.5865
▁G	-9.58657
庁	-9.58718
低	-9.58732
自ら	-9.58856
63	-9.58906
高い	-9.58909
アルバム	-9.59053
ブル	-9.59072
領域	-9.5911
域	-9.59187
号線	-9.5919
発行	-9.59272
太陽	-9.59376
善	-9.59471
駒	-9.59496
せず	-9.59509
ar	-9.59649
▁死去	-9.59658
アジア	-9.59665
を設置	-9.59672
俳優	-9.59712
罪	-9.59745
機構	-9.59798
盛	-9.59826
ルー	-9.59837
イオン	-9.59856
z	-9.59955
th	-9.60036
ユ	-9.60127
et	-9.60276
-1	-9.60324
▁2010	-9.60328
制御	-9.60332
割	-9.60411
していたが	-9.60443
ネットワーク	-9.60477
▁E	-9.60498
建築	-9.60545
広く	-9.6055
快速	-9.60559
詩	-9.60647
法律	-9.60666
隆	-9.60744
の名称	-9.60807
名は	-9.60807
ジェ	-9.60832
言葉	-9.60907
球	-9.6102
ん	-9.61123
近鉄	-9.61151
やま	-9.61281
ーン	-9.61284
深	-9.61326
公開	-9.61358
倉	-9.61361
のための	-9.61454
周辺	-9.61461
を結ぶ	-9.61491
▁2009	-9.61493
難	-9.61588
剣	-9.61635
するため	-9.61659
下り	-9.61682
ほう	-9.61687
共同	-9.61725
陸軍	-9.61759
私	-9.61808
なる	-9.6188
建	-9.61912
バイパス	-9.62029
▁年表一覧	-9.62098
案	-9.621
原子	-9.62137
切	-9.62233
キリスト教	-9.62327
u	-9.62334
軍事	-9.62376
文庫	-9.62396
トリ	-9.62457
格	-9.62488
西日本旅客鉄道	-9.62576
▁2022	-9.62619
st	-9.62707
このような	-9.6286
貨物	-9.62867
喜	-9.62915
を行い	-9.63002
枠	-9.63021
なり	-9.63028
▁主な	-9.63029
幅	-9.63037
商	-9.63058
ほぼ	-9.63164
配置	-9.63211
▁沿革	-9.6326
素	-9.63303
減	-9.63314
上に	-9.63349
などがある	-9.63432
競技	-9.63479
最後の	-9.63513
...	-9.63562
軽	-9.63627
雲	-9.63633
つ前は	-9.63641
関西	-9.63662
事務所	-9.63683
インターチェンジ	-9.63702
日本語	-9.63768
交換	-9.639
されていない	-9.64
卒業	-9.64117
富士	-9.64303
上り	-9.64342
丁目	-9.64377
彼の	-9.64432
ルート	-9.64475
付近	-9.64582
遊	-9.64592
通常	-9.64719
ものは	-9.64758
落	-9.64765
これら	-9.64779
弾	-9.64873
列	-9.64897
込み	-9.64905
国内	-9.64911
新田	-9.64923
機械	-9.6497
le	-9.64971
美術	-9.6499
数学	-9.64997
フリー	-9.65232
レー	-9.65337
枝	-9.65342
辺	-9.65371
弁	-9.65446
筋	-9.65457
していない	-9.65633
読み	-9.65682
▁2018	-9.65688
統合	-9.65703
停留所	-9.65738
弘	-9.65746
竜	-9.65763
意	-9.6584
年開業の鉄道	-9.65995
ていたが	-9.6601
▁カレンダー	-9.66104
▁W	-9.66121
開通	-9.66193
月から	-9.66257
▁L	-9.66276
単に	-9.66295
のひとつ	-9.66314
若	-9.6635
スペイン	-9.66422
線の駅	-9.6643
出身の	-9.66448
を務めた	-9.66471
それを	-9.6657
以降は	-9.66591
湾	-9.66628
を用いて	-9.66665
作曲	-9.66668
肉	-9.66687
戦後	-9.66697
のほか	-9.66778
の大	-9.66796
のもの	-9.66815
つまり	-9.66885
PA	-9.66937
支援	-9.67018
席	-9.67047
II	-9.67177
規定	-9.67186
顔	-9.67259
彼は	-9.67259
工	-9.67398
だい	-9.67579
扱い	-9.67585
警察	-9.67711
)-	-9.67727
制限	-9.67728
変	-9.67802
受	-9.67805
君	-9.67817
者が	-9.67852
大陸	-9.67872
▁2015	-9.67911
シーズン	-9.67944
茂	-9.67985
事故	-9.68015
近	-9.68042
交流	-9.68137
なら	-9.68408
網	-9.68432
入り	-9.68493
伝説	-9.68578
柳	-9.68607
ブランド	-9.68621
作業	-9.68629
額	-9.68642
(『	-9.68677
▁K	-9.6869
取	-9.68704
革命	-9.68734
舞台	-9.68757
を有する	-9.68766
することで	-9.6878
打	-9.68788
残	-9.68804
勢力	-9.68871
▁2012	-9.68875
急	-9.68929
姫	-9.68932
ソフトウェア	-9.68968
もので	-9.69015
ぐ	-9.6907
テン	-9.69201
まち	-9.69208
映像	-9.69215
オン	-9.69324
レス	-9.69423
フジテレビ	-9.69451
野村	-9.69515
緑	-9.69697
家族	-9.69701
アフリカ	-9.69704
月には	-9.69779
デジタル	-9.69815
片	-9.69816
現在では	-9.69819
綱	-9.69828
延長	-9.69898
積	-9.69941
戦闘	-9.6998
野球	-9.6999
が設置されている	-9.70026
名前	-9.70086
ニュー	-9.70087
プログラム	-9.70128
国立	-9.70201
がない	-9.70297
恵	-9.70373
スタ	-9.7041
参照	-9.70417
障害	-9.7042
縁	-9.70422
智	-9.7046
体制	-9.70495
旅客	-9.70506
52	-9.70547
64	-9.70671
はその	-9.7069
後は	-9.70727
しばしば	-9.70786
オス	-9.70797
漢字	-9.70804
ほ	-9.70859
住	-9.70859
番号	-9.70873
要	-9.71018
全ての	-9.711
万円	-9.71105
そこで	-9.71134
の一	-9.71213
レース	-9.7122
コース	-9.71251
に変更	-9.71258
PC	-9.71301
書き	-9.71307
OS	-9.71375
支配	-9.71439
▁2011	-9.7156
海外	-9.71604
いずれも	-9.71644
ていない	-9.71648
案内	-9.71688
世紀の	-9.71731
▁ア	-9.71746
ゆ	-9.71812
地震	-9.71959
においても	-9.71982
称	-9.7206
ると	-9.72108
工学	-9.7214
ノー	-9.72159
に改称	-9.72178
51	-9.72405
海岸	-9.72674
歌手	-9.72685
元素	-9.72764
引き	-9.72774
殿	-9.72797
とされ	-9.7282
嘉	-9.72875
基本	-9.72934
華	-9.72952
線路	-9.73
ちゃん	-9.73056
期間	-9.73071
側の	-9.73076
長い	-9.73172
メディア	-9.73192
と考えられている	-9.73256
黄	-9.73359
エリア	-9.73373
法人	-9.73374
1980	-9.73516
要素	-9.73557
ハン	-9.73609
保護	-9.73724
内で	-9.73816
四国	-9.73829
からなる	-9.73878
▁2021	-9.73881
▁檀紀	-9.73912
SA	-9.74012
の名	-9.7403
を受けて	-9.74069
Q	-9.74128
視	-9.74198
セル	-9.74269
▁n	-9.74335
医学	-9.74398
柱	-9.74402
犬	-9.74428
の意味	-9.74483
半島	-9.74519
のち	-9.7452
ドル	-9.74522
分離	-9.74593
メンバー	-9.74612
▁2020	-9.74625
劇場	-9.74721
圧	-9.74729
枚	-9.74814
中心	-9.74856
楽器	-9.74904
サッカー	-9.74911
と言う	-9.74923
300	-9.74934
としても	-9.74975
鶴	-9.75017
ライ	-9.75098
日には	-9.75115
のちに	-9.75194
早	-9.75198
作曲家	-9.75212
陣	-9.75272
中村	-9.75296
好	-9.75301
したり	-9.75322
フル	-9.7534
が行われた	-9.7567
>	-9.7569
▁the	-9.7571
破	-9.75806
一般に	-9.75817
食品	-9.75856
説明	-9.75871
[	-9.75942
自治体	-9.75982
するために	-9.76015
を開始	-9.76055
成立	-9.76129
はこの	-9.76179
クロ	-9.76304
手法	-9.76324
堀	-9.76429
したもの	-9.76457
記念	-9.76505
特	-9.76557
指	-9.76648
になると	-9.76749
大型	-9.76792
したため	-9.76918
べ	-9.76921
トー	-9.77078
翼	-9.77084
古代	-9.77088
▁1990	-9.77172
塚	-9.77183
×	-9.77197
信仰	-9.77377
競走	-9.77382
特定の	-9.77394
協力	-9.77435
トラ	-9.77553
▁生涯	-9.77574
阿	-9.77588
信用金庫	-9.77593
てきた	-9.77598
貴	-9.77695
選挙	-9.77798
壁	-9.778
年頃	-9.77854
孝	-9.77883
布	-9.77942
札幌	-9.77977
文書	-9.78044
鹿	-9.78117
延	-9.78211
可能	-9.78307
かわ	-9.7846
特徴	-9.78494
断	-9.78546
術	-9.78579
すべて	-9.786
賀	-9.7865
稲	-9.78705
グリ	-9.78726
唐	-9.78747
批判	-9.78768
をもって	-9.78877
美術館	-9.78895
ヴェ	-9.78956
の研究	-9.78984
▁1999	-9.78997
ようになる	-9.79087
商業	-9.79209
れば	-9.79293
を受ける	-9.79322
ダイ	-9.79337
FM	-9.79367
穴	-9.79405
アメリカの	-9.79418
▁1995	-9.79431
別の	-9.7944
メン	-9.79466
空気	-9.79508
75	-9.79565
ソフト	-9.79595
のことである	-9.79608
▁東京	-9.79621
冬	-9.79624
;	-9.79642
経由	-9.79663
ごとに	-9.79746
費	-9.79763
内閣	-9.79806
ヨ	-9.79858
ウィ	-9.7989
吉田	-9.79894
材料	-9.80008
85	-9.80078
クラ	-9.80092
合成	-9.80165
と呼ばれ	-9.80333
を用いる	-9.80377
信号	-9.80394
全線	-9.80401
ジン	-9.80474
政党	-9.80536
撮影	-9.80569
参加	-9.80581
大和	-9.80625
国鉄分割民営化により	-9.80661
平均	-9.80737
望	-9.80751
仲	-9.80798
環	-9.80882
準	-9.80929
拡張	-9.8095
藤原	-9.80951
▁1997	-9.80997
収録	-9.81022
▁2013	-9.81064
転	-9.81125
ティー	-9.81133
▁来歴	-9.81144
記載	-9.81157
作用	-9.81175
乳	-9.81235
番目の	-9.81298
88	-9.81329
初期の	-9.81337
純	-9.81346
ことは	-9.81352
ーズ	-9.81372
▁ベトナム	-9.8138
同盟	-9.81384
ロック	-9.81461
であるため	-9.81522
自身の	-9.81553
登録	-9.81624
概念	-9.81655
登	-9.81687
留	-9.81822
中継	-9.81923
介	-9.81926
非常に	-9.81994
の中心	-9.82006
プロジェクト	-9.82033
1000	-9.82077
眼	-9.82088
結婚	-9.82103
を用いた	-9.82187
資料	-9.82325
兄	-9.82352
とその	-9.82353
じょう	-9.82357
実施	-9.82411
電力	-9.82415
it	-9.82445
経験	-9.8256
少女	-9.82562
滝	-9.82621
ハー	-9.82783
仙台	-9.82794
裏	-9.82825
』、『	-9.82916
部隊	-9.82949
拡大	-9.82972
アナウンサー	-9.83025
面積	-9.83039
床	-9.83065
貞	-9.83073
農業	-9.831
区分	-9.83144
の駅	-9.8319
固定	-9.83199
余	-9.8321
任	-9.83259
場合がある	-9.83289
作戦	-9.83297
イベント	-9.83393
発生	-9.83419
の娘	-9.83444
改札	-9.83535
典	-9.83557
配	-9.83562
デン	-9.83702
具	-9.83742
付け	-9.83785
ur	-9.83787
に基づく	-9.83822
かった	-9.83837
自分の	-9.83897
の場合は	-9.8395
78	-9.83967
▁2019	-9.83968
サイ	-9.83997
発音	-9.84071
脳	-9.84088
を取り	-9.84093
供用開始	-9.84131
粒子	-9.84133
フォ	-9.84243
ミニ	-9.84254
に登場する	-9.84303
スタジオ	-9.84378
イギリスの	-9.84395
地形	-9.84497
at	-9.84645
呼称	-9.85128
ール	-9.85171
▁1985	-9.85178
となって	-9.85236
となっており	-9.85258
エレベーター	-9.85334
える	-9.85394
様	-9.85444
刀	-9.85462
時には	-9.85479
68	-9.85483
▁V	-9.85571
子供	-9.85574
遺跡	-9.85618
交	-9.85685
優勝	-9.8569
億	-9.85701
▁J	-9.85705
憲法	-9.85736
65	-9.85774
鬼	-9.85794
番のりば	-9.85889
TV	-9.85991
河川	-9.86089
日本人	-9.86127
キン	-9.86164
連絡	-9.86191
乱	-9.86259
勢	-9.86272
山田	-9.86288
宣	-9.8629
飯	-9.86294
採用	-9.86296
塔	-9.86299
健	-9.86388
ロンドン	-9.86432
インターネット	-9.86476
将棋	-9.86481
建物	-9.86513
兄弟	-9.86537
ワン	-9.86555
67	-9.86558
するなど	-9.86566
ペン	-9.8664
▁1970	-9.86734
記述	-9.86746
の子	-9.86785
66	-9.86828
を見	-9.86838
改札口	-9.86874
まず	-9.86943
▁しかし	-9.86958
郎	-9.86963
則	-9.86971
出身の人物	-9.87014
ざ	-9.87096
▁1984	-9.87103
房	-9.87112
須	-9.87118
掲載	-9.87176
フォン	-9.8719
ヴ	-9.87251
最高	-9.8733
衛星	-9.87412
連合	-9.8746
清水	-9.87474
発足	-9.87486
砂	-9.87519
分割	-9.87565
冠	-9.87574
宇	-9.87588
分布	-9.87601
以前は	-9.87612
il	-9.8767
キャ	-9.87799
をもつ	-9.87829
民間	-9.87848
旗	-9.87865
本部	-9.87868
▁JR	-9.87924
オリンピック	-9.87973
埼玉県	-9.87979
用途	-9.87996
当初	-9.88012
伯	-9.88022
移転	-9.88148
務	-9.88156
流れ	-9.88284
医	-9.88294
▁1998	-9.88387
しい	-9.88407
ホテル	-9.88413
実行	-9.88453
東北	-9.88462
荘	-9.88493
新たに	-9.88503
剤	-9.88542
政治家	-9.8857
is	-9.88639
平和	-9.88688
声優	-9.8874
芝	-9.88894
礼	-9.88896
フランスの	-9.88908
連邦	-9.88913
人である	-9.88916
さまざまな	-9.89017
カラー	-9.8904
課	-9.89062
応	-9.89076
おお	-9.89081
ことになる	-9.89112
保存	-9.89144
中部	-9.89154
強い	-9.89253
けん	-9.89266
持ち	-9.89404
テル	-9.89407
陸	-9.89431
俊	-9.89441
精神	-9.89479
唯一の	-9.89504
博物館	-9.89505
切り	-9.89521
ジー	-9.89539
発展	-9.89554
材	-9.89554
又は	-9.89559
最終	-9.89585
車体	-9.89613
症	-9.89631
がいる	-9.89712
成分	-9.89717
形で	-9.89733
秦	-9.89796
ものを	-9.89859
ダン	-9.89932
自動車道	-9.89938
昭	-9.89991
李	-9.90027
諸島	-9.90028
首相	-9.90086
ほとんど	-9.90134
出場	-9.90219
仮	-9.90248
たが	-9.90257
比較的	-9.90303
バイ	-9.90363
▁1996	-9.90373
ディー	-9.90385
卵	-9.90414
社長	-9.90548
住宅	-9.90598
戦車	-9.90607
ICOCA	-9.90689
初めて	-9.90707
にして	-9.90771
アス	-9.90791
コーナー	-9.90819
▁南	-9.9084
▁2016	-9.90846
券	-9.90974
大字	-9.91034
後述	-9.91083
細	-9.91115
酸化	-9.9116
ともに	-9.91162
と同様に	-9.91198
歩	-9.91214
統治	-9.91301
は約	-9.91345
すべての	-9.91376
幕府	-9.91462
車線	-9.91501
操作	-9.91538
電話	-9.91595
殺	-9.9164
盤	-9.91669
re	-9.91696
▁小	-9.91728
泰	-9.91741
尊	-9.91811
物理学	-9.91838
共	-9.91896
の間に	-9.91898
ックス	-9.91903
しゃ	-9.91926
地下鉄	-9.91941
が行われる	-9.91998
を通じて	-9.92014
範囲	-9.92085
同じく	-9.92109
略称	-9.9212
とされた	-9.92137
意識	-9.92147
を行っている	-9.92192
場合には	-9.92201
標高	-9.92376
航空機	-9.92387
結	-9.92477
の地名	-9.92485
すれば	-9.92533
▁and	-9.92573
地名	-9.92574
86	-9.92613
98	-9.92741
となっていた	-9.92778
往復	-9.92822
弟	-9.92893
従	-9.92896
千葉	-9.92903
▁1993	-9.92923
の開発	-9.92995
改革	-9.93015
舞	-9.93053
多数の	-9.93149
反対	-9.93222
▁1994	-9.93242
共通	-9.93276
きた	-9.93279
ガラス	-9.93279
げ	-9.93285
小さな	-9.93295
僧	-9.93297
方言	-9.93302
輝	-9.93325
大きく	-9.93341
の名前	-9.93343
平野	-9.9337
速	-9.93391
農	-9.93429
者は	-9.9344
山口	-9.9347
クラス	-9.93471
ビデオ	-9.93547
ビット	-9.93737
必要	-9.93755
▁2014	-9.93818
従来の	-9.93846
臨時	-9.93851
禁止	-9.93915
ニア	-9.93924
編集	-9.93971
に相当する	-9.93976
線が	-9.93979
歳で	-9.93983
即位	-9.94021
旅行	-9.94023
孫	-9.94029
改正	-9.94036
八幡	-9.94124
規則	-9.94183
変換	-9.94228
新潟	-9.94249
性質	-9.94275
解釈	-9.94277
es	-9.94293
CM	-9.94305
セット	-9.9431
千葉県	-9.94342
被	-9.94373
世の	-9.94495
▁N	-9.94548
ホール	-9.94574
独自の	-9.94604
岡山	-9.94639
老	-9.94653
だけでなく	-9.9467
トゥ	-9.94786
やすい	-9.94847
▁その後	-9.94864
▁上	-9.9488
全て	-9.94922
除	-9.94968
イー	-9.94977
The	-9.94982
ップ	-9.94984
密	-9.94994
丘	-9.95022
置	-9.95048
まる	-9.95079
漫画家	-9.95171
過	-9.95184
国王	-9.95232
温	-9.95284
▁1986	-9.95322
メイン	-9.95329
休	-9.95364
なか	-9.954
退	-9.95408
ドゥ	-9.95445
ぼ	-9.95493
宋	-9.95518
際	-9.9558
報道	-9.95607
貴族	-9.95631
完全	-9.95738
諸国	-9.9576
数字	-9.95824
博	-9.95853
彼	-9.95856
最大の	-9.95891
株式	-9.95894
00	-9.95914
市内	-9.96014
防	-9.96015
:1	-9.96033
潮	-9.96068
SI	-9.96113
ルール	-9.96141
神話	-9.96156
第三	-9.96157
だけで	-9.96247
87	-9.96248
99	-9.96426
入れ	-9.96438
ジョ	-9.96442
クス	-9.96448
新たな	-9.96467
トップ	-9.96471
報	-9.96471
77	-9.96545
一般的な	-9.96564
あまり	-9.96591
貫	-9.96596
の一つである	-9.96644
勝利	-9.96692
チェ	-9.96753
失	-9.96781
ゆう	-9.96821
町駅	-9.9692
梅	-9.96939
これにより	-9.9695
施行	-9.96964
v	-9.97015
女優	-9.97025
底	-9.97044
ライト	-9.97052
大阪府	-9.971
主な	-9.97115
▁1980	-9.9713
算	-9.97132
崩壊	-9.97158
型の	-9.97212
が行われ	-9.97269
コミック	-9.97364
もう	-9.97381
することができる	-9.97401
69	-9.97406
ia	-9.97441
上野	-9.97485
その他の	-9.9752
丁	-9.97542
こともあり	-9.97544
候補	-9.9766
論文	-9.97747
鏡	-9.97789
ro	-9.9786
仕様	-9.97871
周波数	-9.9788
!』	-9.97886
サイト	-9.97912
リオ	-9.97968
ニューヨーク	-9.97969
-2	-9.97974
静	-9.97993
栗	-9.98011
ロス	-9.98021
秒	-9.98038
廃止された	-9.98041
ファイル	-9.98079
チャンネル	-9.98081
走	-9.98091
ation	-9.98158
服	-9.98239
▁O	-9.98242
ベース	-9.98275
ドイツの	-9.98306
リスト	-9.98306
の存在	-9.98389
幕	-9.98469
体系	-9.98482
奈	-9.98489
の一種	-9.98494
阪神	-9.98531
状の	-9.98605
ウス	-9.98622
▁20	-9.98675
▁1988	-9.98676
の中	-9.98717
翌年	-9.98736
マイ	-9.9875
時は	-9.98774
高速道路	-9.98803
岸	-9.98807
出し	-9.98886
弱	-9.98889
ものが	-9.98901
定数	-9.98929
いち	-9.98941
形状	-9.98971
一般的に	-9.99008
資格	-9.99012
営業所	-9.99025
▁1992	-9.99096
ザー	-9.99199
仕事	-9.99219
破壊	-9.99254
の各	-9.99311
起	-9.99339
上下	-9.99387
オブ	-9.9948
▁人物	-9.99534
主人公	-9.99537
王朝	-9.99563
伊勢	-9.99572
自己	-9.99588
シングル	-9.99619
に至る	-9.99626
荒	-9.99639
にとって	-9.99659
呉	-9.99718
液	-9.99822
本名	-9.99832
あった	-9.99897
解説	-9.99926
オーストラリア	-9.99945
いくつかの	-9.99946
レコード	-9.99948
存在する	-9.99994
安全	-10.0007
次元	-10.0008
度の	-10.0009
タイプ	-10.0015
後期	-10.0016
その他	-10.0019
区別	-10.0019
新幹線	-10.002
大臣	-10.002
脚	-10.0023
背景	-10.0023
認識	-10.0025
講談社	-10.0028
放	-10.003
主体	-10.0034
じゅう	-10.0043
MS	-10.0044
ボール	-10.0045
停車	-10.0056
奈良	-10.0057
窓	-10.0058
長崎	-10.0059
▁経歴	-10.0059
ブリ	-10.0061
たり	-10.0075
ドラ	-10.0076
兵庫県	-10.0081
際に	-10.0082
をする	-10.0082
文明	-10.009
に分類される	-10.0098
タイム	-10.01
平日	-10.0102
福岡	-10.0103
イングランド	-10.011
制定	-10.011
毎年	-10.0112
人は	-10.0123
昌	-10.0126
400	-10.0126
出す	-10.0128
普通列車	-10.0128
朝鮮	-10.0136
子の	-10.0143
文献	-10.0147
たとえば	-10.0155
▁1989	-10.0157
▁2017	-10.0158
のない	-10.0164
可能な	-10.0168
劉	-10.0169
亜	-10.0172
太平洋	-10.0175
と同時に	-10.018
▁旧	-10.0183
健康	-10.0185
ヶ	-10.0187
巣	-10.0191
一人	-10.0196
79	-10.0196
するが	-10.0197
の乱	-10.0199
▁三	-10.0203
ヒト	-10.0203
亀	-10.0204
市街地	-10.0204
成長	-10.0205
日より	-10.0207
らが	-10.0208
峰	-10.0226
ストーリー	-10.0229
家庭	-10.023
雅	-10.023
カール	-10.0231
画像	-10.0238
であること	-10.024
取引	-10.0243
三郎	-10.0244
著	-10.0248
筆	-10.0248
方程式	-10.0253
銅	-10.0254
ミー	-10.0257
シティ	-10.0264
▁1991	-10.0268
参	-10.0268
会員	-10.0274
オーストリア	-10.0281
大阪市	-10.0281
の影響	-10.0283
養	-10.0284
ドア	-10.0285
次郎	-10.0289
ad	-10.029
同一	-10.0293
一郎	-10.0298
治療	-10.0301
スキー	-10.0301
全体	-10.0308
ボン	-10.031
魔	-10.0314
桁	-10.0318
実際に	-10.0333
んで	-10.0333
分の	-10.0335
間に	-10.0346
こうした	-10.0347
オリジナル	-10.0356
西洋	-10.0362
町立	-10.0364
飛	-10.0373
になって	-10.0374
影響	-10.0375
中で	-10.0378
ケン	-10.0379
スタイル	-10.0392
te	-10.0394
精	-10.0394
技	-10.0398
事業者	-10.0405
ッチ	-10.0407
麻	-10.041
作成	-10.0417
田中	-10.042
解散	-10.0423
なども	-10.043
と考えられる	-10.0431
▁I	-10.0432
けい	-10.0433
それぞれの	-10.0435
会長	-10.0439
寛	-10.0439
図書館	-10.0448
刊行	-10.0449
▁天	-10.0454
的には	-10.0454
祖	-10.0455
両編成	-10.0455
についても	-10.0455
発着	-10.0458
つき	-10.046
逆に	-10.0465
プラ	-10.0476
更に	-10.0477
住民	-10.0482
旅	-10.0484
主要	-10.049
労働	-10.0496
川村	-10.0508
斉	-10.0512
抵抗	-10.0514
ぬ	-10.0518
補	-10.0519
公式	-10.0521
提供	-10.0524
名を	-10.0534
シェ	-10.0535
ポン	-10.0536
?	-10.0538
情	-10.0539
桂	-10.054
▁中	-10.0542
の利用が可能となる	-10.0545
認定	-10.0551
以前	-10.0552
将	-10.0554
可	-10.0556
優	-10.0564
畑	-10.0565
ボー	-10.0575
折	-10.0577
放送局	-10.0582
駅まで	-10.0588
雑	-10.0589
um	-10.0589
出力	-10.0594
寿	-10.0596
松山	-10.0598
乗車	-10.0602
娘	-10.0603
古くから	-10.0607
少	-10.0608
議員	-10.0616
世が	-10.0616
金融	-10.0622
、2000	-10.0624
年齢	-10.0627
峠	-10.0637
西暦	-10.0638
MA	-10.0643
しま	-10.0643
オープン	-10.0644
たか	-10.0646
銀河	-10.0655
犯罪	-10.0661
兵器	-10.0662
ッツ	-10.0665
劇	-10.0666
を構成する	-10.0668
の定義	-10.0675
中国の	-10.0683
区域	-10.0685
きょう	-10.0685
ともいう	-10.0686
ただ	-10.0687
オランダ	-10.0689
受け	-10.0692
規制	-10.0693
バック	-10.0694
首都	-10.0701
▁バス路線	-10.0709
タル	-10.0717
傾向	-10.0721
に入る	-10.0729
印刷	-10.073
策	-10.0736
構想	-10.0738
創	-10.0739
廃	-10.074
基地	-10.0747
延伸	-10.0748
栽培	-10.0749
出口	-10.0752
前後	-10.0752
也	-10.0761
ドン	-10.0763
入学	-10.0765
愛知県	-10.0766
柄	-10.077
敬	-10.0776
に位置し	-10.0776
ジャンル	-10.0778
理解	-10.0785
沖縄	-10.0787
滅	-10.079
▁"	-10.0795
山地	-10.0799
日本国有鉄道	-10.0803
付き	-10.0805
料	-10.0808
鎌倉	-10.0809
県道	-10.0811
トル	-10.0818
創立	-10.0821
と呼ばれた	-10.0822
89	-10.0824
支社	-10.0827
セン	-10.0828
恋	-10.0833
込む	-10.0837
ブラ	-10.0837
複数	-10.0842
デー	-10.0844
180	-10.0844
ナン	-10.0846
の意	-10.0846
段階	-10.0847
理由	-10.0848
ポリ	-10.0848
系列	-10.0854
創設	-10.0859
そのもの	-10.0864
結晶	-10.0866
死去	-10.0867
防衛	-10.0871
沖	-10.0873
皇子	-10.0875
ピアノ	-10.0879
電気鉄道	-10.0881
チン	-10.0882
木村	-10.0887
知識	-10.0894
バラ	-10.0896
搭載	-10.0899
ノン	-10.0899
乗り入れ	-10.0899
新宿	-10.0904
本店	-10.0906
側に	-10.0908
自分	-10.091
以降の	-10.0911
ページ	-10.0913
米国	-10.0916
個の	-10.0918
グラ	-10.0919
人類	-10.092
アップ	-10.0929
戻	-10.0933
デル	-10.094
加工	-10.0941
150	-10.0942
密度	-10.0942
の一人	-10.0948
それまで	-10.0952
打ち	-10.0956
短	-10.096
魏	-10.096
鳴	-10.0966
TO	-10.0967
開局	-10.0973
を設立	-10.0974
脇	-10.0975
エー	-10.0975
運	-10.0977
腕	-10.0983
皇	-10.0984
芸	-10.0985
飛行	-10.0995
炎	-10.0997
姉	-10.0998
東海道本線	-10.0999
という意味	-10.1003
質量	-10.1003
マリ	-10.1008
乗車券	-10.1008
ようになり	-10.1009
まま	-10.1015
出典	-10.1017
97	-10.1019
競馬	-10.102
タレント	-10.1024
休止	-10.1028
もあった	-10.1032
特定	-10.1037
▁1971	-10.1038
シア	-10.1039
化した	-10.104
通常の	-10.1041
▁日本では	-10.1041
行列	-10.1042
するための	-10.1046
賢	-10.1047
プリ	-10.1047
に関しては	-10.1051
翻訳	-10.1054
分析	-10.1055
医師	-10.1055
そのまま	-10.1058
律	-10.106
福島	-10.1069
検査	-10.1071
シャー	-10.1076
限定	-10.1081
いない	-10.1084
免許	-10.109
最初に	-10.1097
皮	-10.1107
▁ISBN	-10.111
電流	-10.1119
水素	-10.1121
マーク	-10.1123
至	-10.1124
主演	-10.1125
も多い	-10.1125
自動券売機	-10.1127
日本で	-10.1129
回り	-10.1136
札	-10.1139
他に	-10.114
トラック	-10.1142
アクセス	-10.1142
証	-10.1143
権力	-10.1143
アイルランド	-10.1144
カラ	-10.1159
臣	-10.116
1990	-10.1174
が異なる	-10.1177
が高い	-10.1178
の中に	-10.1182
修	-10.1183
粉	-10.1189
テレ	-10.12
遺伝子	-10.1204
Suica	-10.1209
中世	-10.1213
思	-10.1214
トロ	-10.1215
測定	-10.1223
やがて	-10.1227
棒	-10.1229
ピー	-10.123
金沢	-10.123
終点	-10.1232
膜	-10.1232
護	-10.1234
惑星	-10.1236
ハウス	-10.1239
虫	-10.1241
通過	-10.1242
燃料	-10.1242
価格	-10.1243
地元	-10.1248
の元	-10.1258
児	-10.1271
株	-10.1274
ルイ	-10.1277
東西	-10.1279
欧州	-10.1281
の使用	-10.1288
静岡県	-10.129
供給	-10.1291
句	-10.1292
テレビ朝日	-10.1295
多い	-10.1297
売	-10.1298
テレビドラマ	-10.13
料金	-10.1303
as	-10.1305
浅	-10.1305
▁北海道	-10.1307
報告	-10.1308
の種類	-10.1309
ここで	-10.1309
を発表	-10.1309
入口	-10.1318
to	-10.132
タウン	-10.132
各種	-10.1322
天体	-10.1322
営	-10.1331
糖	-10.1332
糸	-10.134
大規模な	-10.1343
性能	-10.1347
議論	-10.1351
エジプト	-10.1359
沿線	-10.136
韓	-10.1361
価	-10.1362
-3	-10.1363
羅	-10.1366
刑	-10.1373
男子	-10.1376
▁1972	-10.1377
コル	-10.138
ケース	-10.1381
1999	-10.1385
邦	-10.1386
植民地	-10.1386
づ	-10.1389
っており	-10.1392
べき	-10.1392
小型	-10.1395
晴	-10.1395
ための	-10.1395
ソ連	-10.1396
改良	-10.1399
さい	-10.1401
古い	-10.1404
学問	-10.1404
サイズ	-10.1404
トイレ	-10.1408
時代に	-10.1413
モー	-10.1413
起源	-10.1418
装	-10.1418
一時	-10.1427
安定	-10.1431
弓	-10.1432
示	-10.1434
j	-10.1434
焼	-10.1448
立ち	-10.1454
ベクトル	-10.1457
化された	-10.1458
軍の	-10.1458
気候	-10.1459
ドー	-10.146
正教会	-10.1466
火山	-10.1467
年代に	-10.147
同社	-10.147
現在も	-10.147
の間	-10.1471
la	-10.1472
長野県	-10.1477
山本	-10.1479
派の	-10.148
苦	-10.1481
神経	-10.1486
96	-10.1492
山村	-10.1494
侵攻	-10.1499
山脈	-10.15
三菱	-10.1501
kg	-10.1506
に入り	-10.1507
冷	-10.1509
マス	-10.151
できた	-10.1515
あい	-10.1515
化合物	-10.1516
登場	-10.1517
件	-10.1521
曖昧さ回避	-10.1525
脱	-10.1532
祖父	-10.1537
鼻	-10.1541
ブルー	-10.1544
リス	-10.155
駅名	-10.1552
が発足	-10.1554
ウィリアム	-10.1555
ステ	-10.156
考え	-10.156
通行	-10.1561
獣	-10.1562
雷	-10.1563
福祉	-10.1565
のみで	-10.1566
イメージ	-10.1568
本町	-10.1571
この時	-10.1573
演劇	-10.1583
▁大阪	-10.1584
おう	-10.1586
命令	-10.159
だと	-10.1593
太田	-10.1595
駅間の	-10.1597
分け	-10.1598
性格	-10.1598
詳細は	-10.1602
に含まれる	-10.1602
背	-10.1602
送	-10.1602
競馬場	-10.1604
途中	-10.1612
人間の	-10.1618
牌	-10.1618
石油	-10.1622
スペース	-10.1624
一番	-10.1626
ic	-10.1632
統計	-10.1633
1997	-10.1642
れる	-10.1647
億円	-10.1654
覚	-10.1656
スタジアム	-10.1658
村が合併して	-10.1663
在位	-10.1666
権利	-10.1679
以前の	-10.168
焼き	-10.1682
小学館	-10.1686
箇所	-10.1688
ta	-10.1689
ha	-10.169
取得	-10.1691
弦	-10.1703
共に	-10.1707
ネー	-10.1711
次第に	-10.1711
駅舎は	-10.1714
76	-10.1716
1970	-10.1724
エス	-10.1726
ていく	-10.1728
笠	-10.1734
中間	-10.1738
事務	-10.1738
時間帯	-10.1741
ポー	-10.1741
玄	-10.1743
電圧	-10.1757
自動	-10.1757
利用者	-10.1758
▁株式会社	-10.1763
2006	-10.1764
減少	-10.1764
パーク	-10.1767
ユー	-10.1767
一定の	-10.1769
判断	-10.1772
ごう	-10.1774
通勤	-10.1774
それが	-10.1774
分岐	-10.1786
の際に	-10.1786
銃	-10.1788
カップ	-10.1789
原村	-10.179
出した	-10.1797
大きい	-10.1798
犯	-10.1799
ポーランド	-10.1799
静岡	-10.1801
詩人	-10.1801
2012	-10.1803
秋田県	-10.1804
ギリシャ	-10.1807
ライブ	-10.1808
ワールド	-10.181
ろう	-10.1811
液体	-10.1811
応用	-10.1817
ジャー	-10.1817
消滅	-10.1819
仙	-10.182
ロード	-10.1824
暗	-10.1833
従来	-10.1833
展示	-10.1843
更新	-10.1853
連盟	-10.1853
音声	-10.1859
鈴木	-10.186
を得る	-10.1861
陰	-10.1864
てい	-10.1869
創刊	-10.187
イル	-10.1877
95	-10.1878
フランス語	-10.1884
li	-10.1884
の違い	-10.189
を使用する	-10.1892
運賃	-10.1893
ra	-10.1897
閉鎖	-10.1911
いい	-10.1912
伝承	-10.1912
母親	-10.1912
略	-10.1914
田駅	-10.1918
死亡	-10.1918
裕	-10.192
ri	-10.1921
なくなった	-10.1922
ミン	-10.1926
博士	-10.193
74	-10.1932
傷	-10.1932
ことも	-10.1934
ガンダム	-10.1936
広島県	-10.1945
流通	-10.1946
の人物	-10.1949
単独	-10.1953
洋式	-10.1953
600	-10.1954
近く	-10.1955
停留場	-10.1956
写	-10.1957
藩主	-10.196
日本テレビ	-10.196
貿易	-10.1964
ものであり	-10.1965
既に	-10.1966
舎	-10.197
程	-10.1971
腹	-10.1973
ter	-10.1975
ギリシア	-10.1979
ゴー	-10.1979
相互	-10.198
杉	-10.1983
動作	-10.1984
指導	-10.1984
すでに	-10.1984
リュ	-10.1988
2013	-10.1988
川崎	-10.1989
入力	-10.1989
庄	-10.1996
与	-10.2001
はなく	-10.2004
しながら	-10.2005
古典	-10.2006
に用いられる	-10.2007
ッシュ	-10.2016
回路	-10.202
解析	-10.203
発見	-10.2034
澤	-10.2035
学院	-10.2036
単行本	-10.2038
使用する	-10.2039
保険	-10.2043
艦隊	-10.2044
2004	-10.2046
射	-10.205
再生	-10.2051
整数	-10.2055
であれば	-10.206
月まで	-10.2063
題	-10.2069
停止	-10.2076
配信	-10.2085
接	-10.2086
追	-10.2088
上げ	-10.2092
▁1983	-10.2095
中山	-10.21
多く	-10.2105
に当たる	-10.2107
父の	-10.2107
世代	-10.2108
2003	-10.2109
ラム	-10.2112
ダム	-10.2113
があるが	-10.2113
ことにより	-10.2113
このとき	-10.212
ッド	-10.2121
執筆	-10.2123
CO	-10.2124
愛称	-10.2125
証明	-10.2127
年度の	-10.2129
守護	-10.213
改造	-10.2132
84	-10.2134
分解	-10.2144
誕生	-10.2147
振	-10.2149
維持	-10.2152
酸素	-10.2152
プレイ	-10.2155
受賞	-10.2155
エア	-10.2158
衣	-10.2161
も存在する	-10.2162
組合	-10.2163
大学院	-10.2168
始め	-10.2169
の位置	-10.2174
世界の	-10.2174
大橋	-10.2185
▁1944	-10.2185
2005	-10.2187
も多く	-10.2187
晋	-10.2188
バス停	-10.2189
かみ	-10.2192
書籍	-10.2197
独	-10.2203
宣言	-10.2208
まり	-10.2209
メル	-10.221
メモリ	-10.2212
使	-10.2214
クル	-10.222
▁生年未詳	-10.2223
を中心とした	-10.2232
ビジネス	-10.2232
といわれる	-10.2236
展	-10.2237
本の	-10.2246
によっては	-10.2247
衆	-10.2248
禁	-10.2254
由来	-10.2259
結成	-10.226
構内	-10.2261
式の	-10.2264
2014	-10.2276
表面	-10.2277
天文	-10.2279
を超える	-10.2283
の下	-10.2285
周年	-10.2288
陳	-10.2295
行われる	-10.2301
!!	-10.2303
ナイ	-10.2303
評	-10.2303
旭	-10.2308
その後も	-10.2308
主張	-10.2308
といい	-10.2315
ゾ	-10.2316
側面	-10.2318
中学	-10.2318
me	-10.2319
調整	-10.232
ないし	-10.2324
児童	-10.2324
大名	-10.2325
してきた	-10.2326
オル	-10.2326
ジョージ	-10.2329
の後	-10.2329
カナダ	-10.2331
絵画	-10.2332
耳	-10.2333
熊	-10.2333
▁1955	-10.2341
身体	-10.2342
加盟	-10.2343
▁1960	-10.2346
深夜	-10.2359
業界	-10.236
基礎	-10.2364
平面	-10.2369
▁東日本旅客鉄道	-10.2373
尚	-10.2375
寒	-10.2376
に伴う	-10.2377
間で	-10.2378
皇后	-10.2382
▁p	-10.2384
ヴァー	-10.2387
市町村	-10.2387
願	-10.2388
過程	-10.2388
行われた	-10.239
短い	-10.2393
キャンパス	-10.2397
選択	-10.2397
階段	-10.2399
相手	-10.2402
いく	-10.2405
するもの	-10.2406
きゅう	-10.2415
価値	-10.2416
83	-10.2417
閉	-10.2419
対策	-10.242
判	-10.2427
と言われる	-10.2429
▁de	-10.2432
ブラジル	-10.2433
長期	-10.2442
推進	-10.2443
のか	-10.2444
ジャパン	-10.2445
それは	-10.2451
議	-10.2456
特性	-10.2459
東洋	-10.2461
没	-10.2466
専門学校	-10.2468
についての	-10.247
つく	-10.2472
の法則	-10.2475
小さい	-10.2477
の利用	-10.2479
町にある	-10.2479
規模	-10.2484
したがって	-10.2485
実現	-10.2486
影	-10.2486
始めた	-10.2487
経路	-10.2488
の方が	-10.2495
ケイ	-10.2498
をはじめ	-10.2502
と呼び	-10.2503
責任	-10.2507
海峡	-10.2508
姿	-10.2508
返	-10.251
を務める	-10.2513
特殊	-10.2515
投票	-10.2516
都道府県	-10.2518
部の	-10.2521
se	-10.2522
ジャン	-10.2523
もっとも	-10.2527
隠	-10.2534
継	-10.2536
プレ	-10.2537
ときに	-10.2537
現実	-10.2538
ネス	-10.2539
▁1945	-10.2541
進出	-10.2545
復活	-10.2549
学会	-10.2557
などでは	-10.2559
▁1969	-10.2569
らない	-10.257
集落	-10.2575
益	-10.2578
得	-10.2582
後も	-10.2584
資金	-10.2588
起点	-10.2591
確認	-10.2603
が見られる	-10.2608
▁略歴	-10.2611
氷	-10.2611
東京メトロ	-10.2612
年より	-10.2616
中止	-10.2618
君主	-10.2619
でない	-10.2623
クリ	-10.2624
これらは	-10.2625
アナ	-10.263
向き	-10.2633
走行	-10.2638
穂	-10.2652
トルコ	-10.2661
階級	-10.2662
高橋	-10.2666
ファー	-10.2667
高松	-10.2669
長野	-10.2674
資本	-10.2675
圧力	-10.2677
地点	-10.268
沿岸	-10.268
を導入	-10.2685
山形	-10.2689
を開設	-10.2691
中華人民共和国	-10.2695
機体	-10.27
儀	-10.27
たもの	-10.2702
ものもある	-10.2705
親王	-10.2713
▁1982	-10.2714
IN	-10.2718
準備	-10.2719
うち	-10.2727
スタッフ	-10.273
牧	-10.2731
深い	-10.2734
アリ	-10.2738
テレビアニメ	-10.2741
ホー	-10.2742
露	-10.2743
▁X	-10.2743
外国	-10.2747
▁The	-10.2748
▁概説	-10.2753
分裂	-10.2753
シル	-10.2754
著作	-10.2759
lo	-10.2761
を使って	-10.2766
を作る	-10.2767
押	-10.2768
装備	-10.2775
ずつ	-10.2778
実際には	-10.2778
目標	-10.2779
紅	-10.278
ものであった	-10.2782
導	-10.2783
方針	-10.2783
▁f	-10.2786
似	-10.2786
AT	-10.2788
目の	-10.2789
ヌス	-10.2794
までに	-10.2796
–	-10.28
コミックス	-10.2801
させて	-10.2801
適	-10.2801
テーマ	-10.2803
小林	-10.2805
灯	-10.2806
かな	-10.2806
直線	-10.2813
の作品	-10.2816
循環	-10.282
の手	-10.2826
近い	-10.2829
正式に	-10.2829
のアルバム	-10.2829
支持	-10.283
にわたって	-10.283
するという	-10.2831
160	-10.2834
ロケット	-10.2836
1965	-10.2837
アメリカ合衆国の	-10.2838
一族	-10.2839
寄	-10.2842
氏の	-10.2847
1995	-10.285
寄り	-10.2852
▁1973	-10.2852
ブロック	-10.2854
向けの	-10.2861
学名	-10.2863
市にある	-10.2863
比較	-10.2866
ダイヤ	-10.2871
の総称	-10.2875
▁1968	-10.2875
果	-10.2877
を得た	-10.2877
西武	-10.2877
ショー	-10.2878
人々	-10.2889
72	-10.2891
長さ	-10.2892
平安時代	-10.2893
を行っていた	-10.2894
ミュージック	-10.2897
1994	-10.2899
不明	-10.2904
開発された	-10.2906
白い	-10.291
神奈川県	-10.2911
▁s	-10.2917
1992	-10.2923
よい	-10.2933
を使う	-10.2942
名が	-10.2945
裁判所	-10.2946
照	-10.295
可能性	-10.2954
ヴァン	-10.2959
▁1949	-10.2961
am	-10.2965
un	-10.2969
地帯	-10.2971
松本	-10.2972
原因	-10.2973
事実	-10.2974
財	-10.2974
ユニット	-10.2975
800	-10.2975
原理	-10.2975
負	-10.2988
中野	-10.2988
われ	-10.2988
2001	-10.2994
継続	-10.2998
73	-10.2998
世紀に	-10.2999
土曜	-10.3002
実際の	-10.3008
周期	-10.3012
河内	-10.3014
庭	-10.3015
ケー	-10.3017
呂	-10.3019
ング	-10.3021
乗車人員	-10.3023
していく	-10.3025
幼	-10.3025
簡易	-10.3028
購入	-10.303
注	-10.3033
始	-10.3038
、2006	-10.3038
の略	-10.3038
電波	-10.3039
2010	-10.3048
部屋	-10.305
福井	-10.3053
広域	-10.3053
したこと	-10.3054
それら	-10.3055
歴代	-10.3057
▁かつては	-10.3058
が必要	-10.306
現在でも	-10.3061
でき	-10.3062
英国	-10.3063
ポイント	-10.3072
を除き	-10.3072
チャー	-10.3076
岐阜県	-10.3078
圧縮	-10.308
略称は	-10.3082
ベイ	-10.3084
クト	-10.3086
の父	-10.3088
東急	-10.3091
劇団	-10.3091
まだ	-10.3094
裁判	-10.3104
定期	-10.3106
のまま	-10.3108
画面	-10.3108
同期	-10.311
グル	-10.3111
2007	-10.3112
母音	-10.3113
利益	-10.3119
当該	-10.3122
乙	-10.3123
追加	-10.3127
ウェイ	-10.3128
FC	-10.3135
ギター	-10.3135
動き	-10.3143
デス	-10.3144
竣工	-10.3148
淵	-10.3151
ドリ	-10.3153
名古屋市	-10.3153
を廃止	-10.3154
プロデューサー	-10.3158
という言葉	-10.3158
ma	-10.3161
収	-10.3161
ポート	-10.3162
の神	-10.3163
武蔵	-10.3165
▁日本国有鉄道の鉄道	-10.3168
の変化	-10.3169
める	-10.3176
拠点	-10.3176
数値	-10.3178
であっても	-10.3182
新設	-10.3183
ならば	-10.3184
楽曲	-10.3186
妃	-10.3189
カメラ	-10.3191
領土	-10.3195
京都府	-10.3197
よし	-10.3198
01	-10.3199
所在地	-10.32
縦	-10.3201
カイ	-10.3201
哲学者	-10.3202
広告	-10.3202
富山	-10.3204
2002	-10.3209
されていたが	-10.321
絶対	-10.321
南北	-10.3211
篇	-10.3211
統	-10.3211
改善	-10.3212
高等	-10.3214
現代の	-10.3215
球場	-10.3217
髪	-10.3217
菌	-10.3218
重要	-10.3218
低下	-10.322
込んだ	-10.3222
教師	-10.3222
自転車	-10.3223
尻	-10.323
イラン	-10.3234
▁近年の	-10.3237
鎖	-10.3239
ポール	-10.3242
自身	-10.3243
パラ	-10.3244
岡山県	-10.3246
からも	-10.3247
資源	-10.3252
です	-10.3254
一度	-10.3254
刑事	-10.3255
趙	-10.3261
和式	-10.3261
生徒	-10.3262
2,	-10.3263
08	-10.3265
青年	-10.3265
か月	-10.3266
2018	-10.3267
同様に	-10.3271
録	-10.3271
市域	-10.3273
功	-10.3277
奈良県	-10.3278
浮	-10.3279
個体	-10.328
os	-10.3281
建国	-10.3284
サル	-10.3291
ラス	-10.3293
形の	-10.3299
阪急	-10.3299
作者	-10.3299
ウイルス	-10.3302
されない	-10.3303
ベトナム	-10.3303
東側	-10.3304
120	-10.3305
が可能	-10.3306
かく	-10.3311
鷹	-10.3314
之助	-10.3314
倒	-10.3317
義務	-10.3318
ッカー	-10.3322
スウェーデン	-10.3322
柏	-10.3323
内部	-10.3325
高原	-10.3327
率いる	-10.3328
程度の	-10.3331
エピソード	-10.3332
セント	-10.3334
処分	-10.3336
▁1950	-10.3338
転換	-10.3339
項目	-10.334
警察署	-10.3343
との関係	-10.3344
検	-10.3345
敷	-10.335
駅に改称	-10.335
要求	-10.3353
習	-10.3354
エイ	-10.3356
散	-10.3356
立場	-10.336
洞	-10.3361
°	-10.3362
続く	-10.3364
線を有する地上駅	-10.3366
レット	-10.3368
2008	-10.3369
一つの	-10.3371
任意の	-10.3375
北西	-10.3386
鎌倉時代	-10.3387
夜間	-10.3388
十二	-10.339
村が	-10.339
混	-10.339
迫	-10.3392
ロボット	-10.3393
上記	-10.3396
リンク	-10.34
▁1974	-10.34
創業	-10.3401
観察	-10.3403
在籍	-10.3403
パーキングエリア	-10.3406
ほどの	-10.3411
名鉄	-10.3411
決	-10.3413
燕	-10.3413
の世界	-10.3415
意見	-10.3415
ント	-10.3417
春日	-10.3417
被害	-10.3421
豪	-10.3428
我	-10.3429
ine	-10.3433
獲得	-10.3436
の前身	-10.3442
改	-10.3444
行う	-10.345
モンゴル	-10.3451
一つ	-10.3451
の大きさ	-10.3452
読	-10.3452
離	-10.3453
そのような	-10.3455
国境	-10.3457
1945	-10.3459
新潟県	-10.346
派遣	-10.3462
袋	-10.3463
強化	-10.3472
秘	-10.3474
の結果	-10.348
池田	-10.3481
補助	-10.3482
山口県	-10.3483
描写	-10.3485
乗り換え	-10.3485
形成	-10.3486
イラスト	-10.3486
ます	-10.349
06	-10.3494
を代表する	-10.3495
co	-10.3502
のことを	-10.3502
聴	-10.3503
辛	-10.3505
1948	-10.3505
妹	-10.3507
紫	-10.351
▁0	-10.351
―	-10.3514
投	-10.3514
徐々に	-10.3516
上り線	-10.3517
一定	-10.3517
and	-10.3519
戦略	-10.352
▁a	-10.352
生命	-10.352
朱	-10.3525
教え	-10.3526
ATM	-10.3527
普及	-10.3528
英語の	-10.3528
庫	-10.3531
▁高	-10.3531
およそ	-10.3532
ゲル	-10.3537
彩	-10.3538
ものと	-10.354
の間で	-10.3541
動力	-10.3541
オール	-10.3542
出版社	-10.3543
南口	-10.3547
連結	-10.3548
歴	-10.3552
振り	-10.3554
管轄	-10.3561
曹	-10.3566
替え	-10.3566
乾	-10.3567
時点	-10.3568
?)	-10.3568
▁1978	-10.3569
社会主義	-10.3571
週	-10.3572
大宮	-10.3573
上昇	-10.3575
県の管轄となる	-10.3576
毒	-10.358
した場合	-10.3584
▁アメリカの	-10.3586
群馬県	-10.3586
女王	-10.3587
性の	-10.3588
財産	-10.3589
存続	-10.3589
重量	-10.359
対立	-10.3595
クレ	-10.3596
上位	-10.3597
出資	-10.3598
α	-10.3598
需要	-10.3598
▁2023	-10.3598
▁相対式ホーム	-10.3599
岩手県	-10.3599
ゲン	-10.36
の略称	-10.3604
1993	-10.3605
に加え	-10.3606
月刊	-10.3608
左右	-10.3608
マガジン	-10.3619
!」	-10.3621
たため	-10.3624
種類の	-10.3626
低い	-10.3629
むら	-10.3634
三重県	-10.3637
協定	-10.3641
患者	-10.3641
大学の	-10.3642
時点で	-10.3643
仕	-10.3644
曲線	-10.3644
許可	-10.3645
朝の	-10.3645
タンパク質	-10.365
製の	-10.3653
路線バス	-10.3659
下り線	-10.366
演	-10.3661
双	-10.3662
当駅から	-10.3664
パソコン	-10.368
代表的な	-10.3681
▁Re	-10.3685
賞を受賞	-10.3687
94	-10.3687
姉妹	-10.3691
は主に	-10.3692
名の	-10.3697
解放	-10.3703
を求める	-10.3705
▁in	-10.3706
通常は	-10.3706
堺	-10.3711
インター	-10.3716
るため	-10.3716
昇	-10.3719
PS	-10.3721
固	-10.3721
職業	-10.3722
自体	-10.3723
市役所	-10.3731
外部	-10.3736
西口	-10.3738
数が	-10.3739
第二次世界大戦	-10.3739
寺院	-10.374
鎮	-10.3742
憲	-10.3743
することを	-10.3746
ライナー	-10.3754
天正	-10.3755
誠	-10.3755
田町	-10.3756
脚本	-10.3756
必要がある	-10.3758
富山県	-10.3759
勇	-10.3759
成田	-10.3769
てん	-10.378
この頃	-10.378
厳	-10.3783
紹介	-10.3783
駅で	-10.3785
作り	-10.3788
北方	-10.3789
隣	-10.3789
爆発	-10.3791
した後	-10.3792
しても	-10.3794
北口	-10.3797
出発	-10.3798
合い	-10.3799
鳥取	-10.3801
団地	-10.3805
適用	-10.3805
荷物扱い廃止	-10.3808
を開始した	-10.381
無料	-10.3814
陵	-10.3816
負担	-10.3818
効率	-10.382
DNA	-10.3821
▁特徴	-10.3822
手段	-10.3822
使用開始	-10.3826
の長さ	-10.3829
の数	-10.3835
名誉	-10.3837
ピン	-10.3841
北側	-10.3846
ポルトガル	-10.3848
グリーン	-10.385
、2010	-10.3851
ISBN	-10.3852
▁藤原	-10.3854
知事	-10.3855
基本的に	-10.3857
否定	-10.3859
芳	-10.386
メキシコ	-10.3861
成功	-10.3862
軍人	-10.3871
衝突	-10.3875
南側	-10.3875
原則	-10.3877
旧制	-10.3877
ころ	-10.3878
の息子	-10.3878
たる	-10.388
舟	-10.3882
本来	-10.3884
島根県	-10.3887
ヘル	-10.3892
スペシャル	-10.3893
刺	-10.3901
直流	-10.3902
百貨店	-10.3903
05	-10.3906
事情	-10.3906
二人	-10.3912
の特徴	-10.3913
プレイヤー	-10.3917
海上	-10.3918
進化	-10.3921
屋敷	-10.3927
なければならない	-10.3928
ユダヤ人	-10.3931
銭	-10.3931
ぐん	-10.3937
近世	-10.3937
上記の	-10.3939
しく	-10.3943
無線	-10.3944
諏訪	-10.3946
跨線橋	-10.3947
大津	-10.396
モル	-10.3965
2023	-10.3967
顕	-10.3967
災害	-10.3968
キロメートル	-10.3976
卒業後	-10.3979
支線	-10.3979
07	-10.398
op	-10.3981
奇	-10.3981
それらの	-10.3983
09	-10.3983
浪	-10.3984
学習	-10.3984
元号	-10.3986
が高く	-10.3991
菜	-10.3993
AC	-10.3993
谷村	-10.3997
パス	-10.3998
様式	-10.3999
これに	-10.4004
由	-10.4009
ウェ	-10.401
猫	-10.4011
集英社	-10.4011
ことになった	-10.4012
敏	-10.4022
、2005	-10.4026
南海	-10.4031
心理学	-10.4032
、2007	-10.4033
承	-10.4037
カス	-10.4041
不足	-10.4042
イスラエル	-10.4044
このように	-10.4045
職員	-10.4045
納	-10.4046
キュ	-10.4046
▁かつて	-10.4046
流行	-10.4052
、2008	-10.4053
▁1964	-10.4053
かなり	-10.4054
物体	-10.4055
有名	-10.4056
生成	-10.4059
イタリアの	-10.4061
業者	-10.4063
de	-10.4068
指揮	-10.4068
に入	-10.4069
症状	-10.4075
戦艦	-10.4076
と改称	-10.4077
偏	-10.4079
公共	-10.4081
SS	-10.4085
江戸時代	-10.4085
サービスエリア	-10.4088
史上	-10.409
一帯	-10.4092
ート	-10.4099
チャン	-10.4099
発明	-10.4099
1960	-10.4099
プロ野球	-10.41
年にかけて	-10.4102
記憶	-10.4108
独立した	-10.4111
執行	-10.4112
を利用して	-10.4114
闘	-10.4116
出雲	-10.4117
侯	-10.4117
絶	-10.4118
トレ	-10.4121
と呼ばれている	-10.4124
活	-10.4125
シャン	-10.413
▁1965	-10.4131
沿革	-10.4134
たちは	-10.4135
生涯	-10.4135
、2004	-10.4137
青森県	-10.4144
ラル	-10.4146
の関係	-10.4146
同時	-10.4146
周辺の	-10.415
主要な	-10.415
フレ	-10.4151
することが	-10.4152
日付	-10.4153
訓	-10.4153
府中	-10.4153
でもあった	-10.4155
もともと	-10.4156
重力	-10.4159
ドイツ語	-10.4159
▁1963	-10.4163
MO	-10.4166
シス	-10.4167
ステーション	-10.4167
、1990	-10.4169
品種	-10.4173
1954	-10.4174
1989	-10.4177
違い	-10.4177
研究者	-10.4179
つか	-10.4182
振動	-10.4183
高度	-10.4184
ベン	-10.4184
こともあった	-10.4188
に移転	-10.4189
に基づき	-10.419
これまで	-10.4191
許	-10.4191
津軽	-10.4192
イスラム	-10.4195
塾	-10.4196
つつ	-10.4205
豆	-10.4207
後半	-10.4212
アンド	-10.4213
武器	-10.4215
複合	-10.4216
なければ	-10.4216
されたが	-10.4216
備	-10.422
公式サイト	-10.422
佐藤	-10.4222
保有	-10.4222
球団	-10.4224
▁1962	-10.4229
2009	-10.4229
委託	-10.423
テー	-10.4236
1955	-10.4237
ホールディングス	-10.4239
屋根	-10.4241
頭部	-10.4242
長く	-10.4243
げん	-10.4246
ベルト	-10.4247
うえ	-10.4248
1949	-10.4248
箱	-10.4252
根拠	-10.4253
保守	-10.4256
ry	-10.4257
DVD	-10.4264
1950	-10.4267
いている	-10.4268
秋田	-10.4268
の建設	-10.4269
自治	-10.4271
しき	-10.4272
伊豆	-10.4274
宮城県	-10.4276
録音	-10.4277
ッカ	-10.4278
じん	-10.4278
地域の	-10.4282
を実施	-10.429
鋼	-10.4292
にもかかわらず	-10.4296
é	-10.4297
支	-10.4297
おか	-10.43
を持っている	-10.4305
試	-10.4306
セイ	-10.4309
濃度	-10.4309
されること	-10.431
天然	-10.4311
の時代	-10.4313
TA	-10.4316
海洋	-10.4316
を除いて	-10.4319
▁1981	-10.4319
ミル	-10.432
らの	-10.4325
ul	-10.4327
シーン	-10.4329
の対象	-10.4331
日野	-10.4337
こく	-10.4338
厚	-10.4339
思い	-10.4341
就任	-10.4342
北区	-10.4348
資	-10.4353
体の	-10.4354
未来	-10.4355
か所	-10.4355
解決	-10.4356
スクール	-10.4357
中央区	-10.4357
にあたり	-10.4358
遺	-10.4359
敗	-10.4363
例外	-10.4363
▁1967	-10.4364
の中でも	-10.4364
ビン	-10.4365
配列	-10.4365
ウルトラマン	-10.4365
渡辺	-10.4365
井上	-10.4367
てしまう	-10.4367
回復	-10.4369
降	-10.4369
ol	-10.4373
全体の	-10.4373
飛び	-10.4373
隻	-10.4374
ミサイル	-10.4375
メス	-10.4376
因	-10.4377
が大きく	-10.4378
有力	-10.4381
限	-10.4382
と同じく	-10.4383
がなく	-10.4386
危機	-10.4387
長官	-10.4388
投手	-10.439
▁元	-10.4391
梁	-10.4391
アカ	-10.4393
▁名称	-10.4394
として知られる	-10.4398
キャスター	-10.4398
であったため	-10.44
時代は	-10.4401
桃	-10.4403
ne	-10.4403
半分	-10.4405
大島	-10.4405
▁アメリカ合衆国の	-10.4406
んでいる	-10.4409
下の	-10.441
1958	-10.4412
があったが	-10.4412
斎	-10.4414
先に	-10.4415
虎	-10.4419
なった	-10.442
欠	-10.4421
活用	-10.4421
部品	-10.4422
ブー	-10.4423
を持った	-10.4426
られていた	-10.4427
祐	-10.4431
コスト	-10.4432
和田	-10.4433
関係者	-10.4435
ぞ	-10.4436
ケーブル	-10.4436
、2003	-10.4437
ent	-10.4438
ことに	-10.444
期待	-10.4441
己	-10.4441
の国	-10.4441
磁気	-10.4442
司会	-10.4445
戦闘機	-10.4452
▁b	-10.4453
04	-10.4458
選出	-10.4458
朝日	-10.4459
二つの	-10.446
ベー	-10.4462
を始め	-10.4468
川町	-10.4468
沢村	-10.4472
感染	-10.4476
京成	-10.4477
日本の漫画家	-10.4478
車庫	-10.4483
自動改札機	-10.4493
暫定	-10.4499
▁1979	-10.4507
熊本	-10.4511
オペラ	-10.4514
バージョン	-10.4514
期の	-10.4524
再建	-10.4532
鉄道の	-10.4532
村となる	-10.4535
直通	-10.4536
委員	-10.4539
誘導	-10.4541
学術	-10.4543
吾	-10.4543
の愛称	-10.4545
id	-10.4548
がわ	-10.4549
ウン	-10.4551
進行	-10.4552
線と	-10.4553
1988	-10.4554
1987	-10.4555
メイ	-10.4561
700	-10.4564
針	-10.4564
父は	-10.4565
子会社	-10.4568
採	-10.4569
自らの	-10.4576
変数	-10.4576
ナイト	-10.458
南西	-10.4582
大賞	-10.4585
の際	-10.4585
宮崎	-10.4587
1972	-10.4589
原料	-10.459
▁イスラム暦	-10.459
▁1948	-10.4595
人民	-10.4595
リウス	-10.4599
高田	-10.4601
1930	-10.4603
盆地	-10.4605
象	-10.4609
前駅	-10.4611
中島	-10.4613
向上	-10.4614
鉱物	-10.4615
ブーム	-10.4616
かつての	-10.4617
済	-10.4618
過去	-10.4622
閏	-10.4624
をいう	-10.4626
社員	-10.4631
はほとんど	-10.4632
北東	-10.4633
に基づいて	-10.4635
▁以下の	-10.4635
JA	-10.4643
気体	-10.4644
まつ	-10.4652
クロス	-10.4652
の概念	-10.4654
02	-10.4655
自社	-10.4658
ゴール	-10.4658
死者	-10.4662
▁道路	-10.4664
談	-10.4664
処	-10.4668
溝	-10.4669
小説家	-10.4669
福岡県	-10.4671
課程	-10.4672
na	-10.4672
レッド	-10.4672
に合わせて	-10.4682
チョ	-10.4682
創作	-10.4683
東口	-10.4683
モノ	-10.4686
im	-10.4688
フィールド	-10.4695
1961	-10.4695
小野	-10.4695
天皇の	-10.4697
をはじめとする	-10.4698
栃木県	-10.4699
▁1975	-10.4699
日平均乗降人員は	-10.4699
弥	-10.47
中国語	-10.4702
方向に	-10.4703
らず	-10.4704
ことも多い	-10.4706
費用	-10.4713
申	-10.4714
猿	-10.4717
篠	-10.472
イエス	-10.472
フラ	-10.4721
スタート	-10.4723
たちの	-10.4724
乾燥	-10.4728
給	-10.4729
南東	-10.473
著書	-10.4734
役割	-10.4738
滋賀県	-10.474
専攻	-10.4742
財政	-10.4743
電鉄	-10.4745
然	-10.4752
復	-10.4756
しゅう	-10.4757
多数	-10.4757
加藤	-10.4757
休日	-10.4759
固体	-10.4759
マリア	-10.4761
会場	-10.4764
アウト	-10.4765
▁1889	-10.4766
1986	-10.4768
続	-10.4768
を描いた	-10.4773
無人化	-10.4774
シリア	-10.4774
啓	-10.4775
人を	-10.4777
2011	-10.4783
▁1961	-10.4786
ヤン	-10.4787
宏	-10.4787
陸上	-10.4791
徳川	-10.4791
CS	-10.4796
帰	-10.4798
チベット	-10.4799
▁1977	-10.48
すぐに	-10.4801
、2009	-10.4805
コール	-10.4807
広い	-10.4809
IP	-10.481
朝廷	-10.481
司法	-10.4811
船橋	-10.4814
星座	-10.4815
をしていた	-10.4818
などは	-10.4819
の呼称	-10.482
棟	-10.4822
孔	-10.4822
チュ	-10.4827
ディスク	-10.483
時台	-10.483
-0	-10.4833
演出	-10.4834
カトリック教会	-10.4835
する場合	-10.4838
代替	-10.4841
Windows	-10.4842
道具	-10.4847
1975	-10.4847
もと	-10.4852
との間に	-10.4858
得点	-10.4861
繁殖	-10.4864
川駅	-10.4865
かれ	-10.4866
鹿児島県	-10.4866
現地	-10.4866
くん	-10.4868
國	-10.4869
渋谷	-10.4872
譜	-10.4874
」・「	-10.4875
なので	-10.4875
レンズ	-10.4877
ゴン	-10.4877
困難	-10.4879
を中心とする	-10.4881
混乱	-10.4881
噴火	-10.4883
元々	-10.4886
ヴォ	-10.4886
琴	-10.4886
年以降	-10.4897
ショ	-10.4902
別名	-10.4908
聖書	-10.4912
ヒット	-10.4913
ISO	-10.4913
130	-10.4916
ヘンリー	-10.4918
と言われている	-10.4922
に関して	-10.4926
無限	-10.4927
フィルム	-10.493
徳島	-10.4935
が用いられる	-10.4937
ate	-10.4938
浩	-10.494
ie	-10.4941
GA	-10.4942
を使った	-10.4945
西側	-10.4959
徒歩	-10.4959
を利用する	-10.4961
ソー	-10.4965
宇都宮	-10.4975
をとる	-10.4976
サラ	-10.4977
▁東京都	-10.4977
全域	-10.4978
ンズ	-10.4983
病気	-10.4986
とは異なる	-10.4987
駅構内	-10.4987
ウム	-10.4987
菊	-10.4987
▁路線データ	-10.4988
1959	-10.4991
合計	-10.4995
▁1976	-10.4995
ということ	-10.5001
教員	-10.5003
週間	-10.5003
が始まる	-10.5003
洲	-10.5005
ていった	-10.5005
少ない	-10.5007
かず	-10.5008
訓練	-10.5012
すべき	-10.5012
法令	-10.5013
北条	-10.5014
加熱	-10.5017
政治的	-10.5017
は以下の通り	-10.5018
日光	-10.5019
淡	-10.5021
兵衛	-10.5024
譲渡	-10.5026
のに対し	-10.5028
踏切	-10.5034
▁島式ホーム	-10.5035
】	-10.5035
と思われる	-10.5035
ベルリン	-10.5036
に応じて	-10.504
常に	-10.5041
有効	-10.5047
ST	-10.5048
に就任	-10.5055
ard	-10.5057
浅草	-10.5057
籍	-10.5059
と同様	-10.506
依頼	-10.5061
使用された	-10.5062
修正	-10.5064
170	-10.5064
放送開始	-10.5065
テレビ番組	-10.5066
)、『	-10.5067
解体	-10.5068
日本国内	-10.5069
恩	-10.5071
北陸	-10.5071
今日	-10.5071
テープ	-10.5075
なん	-10.5079
継承	-10.508
番地	-10.508
正式な	-10.5083
の中では	-10.5089
発射	-10.509
人で	-10.5093
が行われている	-10.5102
市川	-10.5107
昼	-10.5111
両者	-10.5113
如	-10.5116
種の	-10.5117
ここ	-10.5118
リニューアル	-10.512
ウル	-10.5122
あたり	-10.5123
番目に	-10.5124
甘	-10.5125
で第	-10.5125
軍が	-10.5127
、2002	-10.5129
ir	-10.513
をしている	-10.5133
der	-10.5137
母は	-10.5138
茨城県	-10.5149
ut	-10.5149
ワイン	-10.515
初め	-10.5152
受験	-10.5156
経済学	-10.5156
第一次世界大戦	-10.5159
装甲	-10.5163
蘭	-10.5166
大野	-10.5167
▁1966	-10.5168
登山	-10.5169
れた	-10.517
の戦いで	-10.5173
ワイ	-10.5173
スコットランド	-10.5179
巨人	-10.5182
室町時代	-10.5189
(1871	-10.5191
相互作用	-10.5193
にした	-10.5197
no	-10.5197
を描く	-10.5197
に存在する	-10.5198
を通して	-10.5199
ネル	-10.52
の登場人物	-10.5203
増加	-10.5204
旨	-10.5204
承認	-10.5209
▁古代	-10.521
京阪	-10.5212
ホームの	-10.5215
に入った	-10.5218
基盤	-10.5219
伝統	-10.522
実装	-10.5221
を形成する	-10.5222
県内	-10.5223
世は	-10.5223
涼	-10.5229
行った	-10.5229
ホームは	-10.523
でん	-10.5231
ラテン語	-10.5231
素材	-10.5232
うる	-10.5235
それに	-10.5235
提案	-10.5236
誤	-10.5236
その後は	-10.5241
アイドル	-10.5241
日本書紀	-10.5241
冬季	-10.5241
io	-10.5243
協	-10.5245
三井	-10.5247
per	-10.525
注意	-10.5253
カトリック	-10.5254
月より	-10.5254
日本海	-10.5254
隣の	-10.526
がく	-10.5261
▁1943	-10.5261
沖縄県	-10.5262
名義	-10.5267
福島県	-10.5268
の設置	-10.5269
男女	-10.527
島の	-10.527
乗り	-10.5271
ロゴ	-10.5271
ごく	-10.5272
待合室	-10.5278
掛け	-10.5281
日曜	-10.5282
念	-10.5283
時計	-10.5284
▁U	-10.5284
サイド	-10.5285
那	-10.5286
の表記	-10.5288
ワー	-10.5288
横浜市	-10.529
証券	-10.529
駅周辺	-10.5293
北朝鮮	-10.5295
公表	-10.5296
王子	-10.5296
刻	-10.53
きん	-10.53
▁金	-10.5301
鹿児島	-10.5302
指摘	-10.5303
を変更	-10.5306
公演	-10.5306
RE	-10.531
ボル	-10.531
社名	-10.5311
島村	-10.5315
RA	-10.5317
カリ	-10.5319
III	-10.532
ライフ	-10.5321
接触	-10.5325
危険	-10.5326
ザン	-10.5331
恒	-10.5335
特急列車	-10.5335
水戸	-10.5336
アラ	-10.5337
高さ	-10.5339
外交	-10.534
作られた	-10.5342
かけ	-10.5345
黄色	-10.5346
当初の	-10.5346
時代から	-10.5348
列車が	-10.5348
1998	-10.5351
81	-10.5351
疾患	-10.5352
発展した	-10.5356
京都市	-10.5358
SP	-10.5363
付近に	-10.5366
短編	-10.5368
1974	-10.5371
ジャズ	-10.5374
ヴァル	-10.5374
認可	-10.5375
ても	-10.5377
八王子	-10.5378
放射	-10.538
窓口	-10.5381
せる	-10.5384
の高い	-10.5385
も参照	-10.5387
泊	-10.5388
ファッション	-10.5389
1969	-10.5389
確定	-10.539
▁アメリカ	-10.5393
隣接する	-10.5395
に参加	-10.5399
出来事	-10.5403
合わせ	-10.5404
を与える	-10.5407
さない	-10.5407
の運行	-10.5408
グラフ	-10.5409
蓮	-10.5409
問	-10.5412
振興	-10.5413
に指定されている	-10.5415
▁1959	-10.5416
と同	-10.5416
▁1954	-10.5417
検討	-10.5418
少し	-10.5422
幹	-10.5422
▁1956	-10.5422
鹿島	-10.5424
胡	-10.5426
専用の	-10.5428
▁c	-10.5428
電化	-10.5431
新聞社	-10.5434
他にも	-10.5434
香港	-10.5444
包	-10.5445
部に	-10.5445
ダル	-10.5446
したものである	-10.5446
ニン	-10.5449
交渉	-10.5451
供	-10.5452
▁1952	-10.5454
5%	-10.5454
ge	-10.5455
▁1951	-10.5461
モード	-10.5463
整	-10.5465
周囲	-10.5466
に際して	-10.5468
ca	-10.5474
五郎	-10.5474
阪	-10.5477
堅	-10.5479
アド	-10.548
と呼ばれていた	-10.5482
AM	-10.5483
選定	-10.5485
デュ	-10.5488
季節	-10.549
社の	-10.5494
サーバ	-10.5495
ラブ	-10.5498
編纂	-10.5502
ソビエト連邦	-10.5503
輸入	-10.5506
東方	-10.5508
頃から	-10.5513
グロ	-10.5514
ガル	-10.5514
カム	-10.5516
係数	-10.5517
小松	-10.5518
のみが	-10.5521
用いられ	-10.5526
デンマーク	-10.5527
まさ	-10.5529
経緯	-10.5534
アッ	-10.5539
が大きい	-10.554
祝	-10.5541
痛	-10.5542
キハ	-10.5543
居住	-10.5545
集中	-10.5551
撃	-10.5555
強く	-10.5557
が設置された	-10.5559
時代には	-10.5565
ワールドカップ	-10.5565
サイクル	-10.5565
年代の	-10.5566
1947	-10.5567
吉野	-10.5569
立て	-10.5569
のちの	-10.5573
|	-10.5575
丹	-10.5575
出生	-10.5578
のみならず	-10.5579
箱根	-10.5579
皇族	-10.558
アクション	-10.5583
に比べて	-10.5583
1940	-10.5588
岬	-10.559
年没	-10.5595
本人	-10.5595
杯	-10.5601
日目	-10.5602
1953	-10.5603
▁第二次世界大戦	-10.5604
わずか	-10.5608
自身が	-10.5611
無人駅	-10.5612
を持たない	-10.5614
を占める	-10.5614
-8	-10.5615
ランプ	-10.5616
封	-10.5618
建造	-10.5632
駐車場	-10.5632
人工	-10.5635
相当	-10.5635
尺	-10.5637
茎	-10.564
されるようになった	-10.564
しなかった	-10.5643
間は	-10.5645
友人	-10.5647
使われ	-10.5648
リズム	-10.5648
三河	-10.5649
要因	-10.565
▁国際	-10.5651
の問題	-10.5653
ヶ月	-10.5654
1971	-10.5654
調理	-10.5654
境界	-10.5654
東北本線	-10.5655
小さく	-10.5655
乗客	-10.5657
毎日	-10.5661
マイクロ	-10.5662
作風	-10.5662
しているが	-10.5665
住宅地	-10.5666
蛇	-10.5666
の新	-10.5666
創造	-10.5667
ヤング	-10.5668
地図	-10.567
アプリケーション	-10.567
1968	-10.5671
ay	-10.5672
指示	-10.5673
の前	-10.5673
1976	-10.5677
魂	-10.5679
感覚	-10.568
八戸	-10.5681
デイ	-10.5681
ローカル	-10.5686
東武	-10.5688
大手	-10.5688
薄	-10.5691
息	-10.5692
力を	-10.5696
されてきた	-10.5696
年代から	-10.5699
締結	-10.57
日記	-10.5701
体験	-10.5702
るようになった	-10.5703
日平均乗車人員は	-10.5705
商店街	-10.5705
代当主	-10.5705
山梨県	-10.5706
州の	-10.5709
成績	-10.5709
を利用した	-10.5711
外側	-10.5714
のみである	-10.5714
通貨	-10.5715
エスカレーター	-10.5716
放送された	-10.5717
最終的に	-10.5718
争い	-10.5719
山駅	-10.5724
笑	-10.5724
ブロ	-10.5725
拝	-10.5729
の範囲	-10.573
フリードリヒ	-10.573
話題	-10.5733
抗	-10.5733
2020	-10.5735
郵便	-10.5735
リーダー	-10.5736
元の	-10.5737
趣味	-10.5737
失敗	-10.574
多摩	-10.5742
高知	-10.5745
奉行	-10.5746
03	-10.5752
容	-10.5752
勝ち	-10.5752
ブラック	-10.5755
エドワード	-10.5756
週刊	-10.5757
符号	-10.5763
当たり	-10.5767
アシスタント	-10.5769
嶋	-10.5769
慶長	-10.5769
が完成	-10.5769
アク	-10.5773
ものがある	-10.5775
萩	-10.5777
作詞	-10.5777
メール	-10.5778
松平	-10.578
怪獣	-10.5782
両親	-10.5782
イラク	-10.5787
ケル	-10.5788
石川	-10.5789
落ち	-10.579
ヤマ	-10.5791
発言	-10.5793
労働者	-10.5793
売り	-10.5794
-5	-10.5794
りょう	-10.5795
パル	-10.5795
の管轄となる	-10.5797
福井県	-10.5799
彼女	-10.5801
二次	-10.5806
の政治家	-10.5806
ものとして	-10.5808
自宅	-10.5808
高山	-10.5809
強制	-10.5812
力学	-10.5813
足利	-10.5814
同日	-10.5815
止	-10.582
全く	-10.5821
事実上	-10.5821
の森	-10.5821
込んで	-10.5824
分散	-10.5826
1985	-10.5828
事項	-10.5829
暗殺	-10.5829
太平洋戦争	-10.5832
酵素	-10.5833
▁アメリカ合衆国	-10.5836
であることから	-10.5839
、2011	-10.5842
外国人	-10.5845
優先	-10.5846
1957	-10.5846
の地	-10.5847
(24	-10.585
を務め	-10.5852
りん	-10.5854
前身	-10.5856
派生	-10.5856
気象	-10.5856
man	-10.5859
岐阜	-10.5861
状態で	-10.5861
電荷	-10.5862
高く	-10.5864
5000	-10.5864
ねん	-10.5865
働き	-10.587
島式ホーム	-10.587
戦い	-10.5871
折り返し	-10.5872
微	-10.5872
行われ	-10.5874
近年	-10.5875
素数	-10.5875
法則	-10.5875
フー	-10.5876
1946	-10.5877
代皇帝	-10.5881
併設	-10.5882
宅	-10.5883
労	-10.5884
敷設	-10.5884
▁St	-10.5885
標	-10.5888
ホル	-10.589
|}	-10.5894
ac	-10.5901
忍	-10.5901
になっていた	-10.5903
公布	-10.5905
CH	-10.5907
人に	-10.5909
坊	-10.591
を目指す	-10.5911
機動戦士ガンダム	-10.5912
場合に	-10.5918
剛	-10.592
BC	-10.592
予想	-10.5925
1964	-10.5927
種子	-10.5927
小倉	-10.5928
教皇	-10.5928
戦国時代	-10.5933
ード	-10.5935
、2001	-10.5936
さき	-10.5937
炭素	-10.5937
くる	-10.5938
フォー	-10.5939
一般的には	-10.594
再編	-10.5943
1920	-10.5943
磯	-10.5945
地方の	-10.5947
グレ	-10.5948
遼	-10.5951
各駅停車	-10.5952
ではあるが	-10.5955
奴隷	-10.5964
勤務	-10.5964
植	-10.5971
どの	-10.5976
羊	-10.5977
2015	-10.5979
宝塚	-10.598
長男	-10.598
ひろ	-10.5982
和歌山	-10.5984
レベル	-10.5985
サブ	-10.5986
プル	-10.5986
隣接	-10.5987
このうち	-10.5987
:2	-10.5989
化する	-10.5994
小田原	-10.5994
作品の	-10.5997
が強い	-10.5997
JIS	-10.5998
辞	-10.5998
の多くは	-10.6001
を得て	-10.6004
唯一	-10.6006
命名	-10.6006
などと	-10.6008
色の	-10.6009
アニメーション	-10.6009
ion	-10.601
の曲	-10.601
委員長	-10.6013
列車は	-10.6016
軒	-10.6017
▁役	-10.6018
▁現在	-10.6024
が少ない	-10.6025
完全に	-10.6027
最多	-10.6029
he	-10.603
☆	-10.603
短縮	-10.6031
火災	-10.6032
垣	-10.6035
存	-10.604
ける	-10.604
ネタ	-10.6042
菓子	-10.6044
こそ	-10.6044
ミス	-10.6045
ぶり	-10.6045
橋本	-10.6049
はじめ	-10.605
中華民国	-10.6051
不動産	-10.6053
オフ	-10.6054
魔法	-10.6055
主力	-10.6057
上は	-10.6061
本体	-10.6062
記者	-10.6063
▁mm	-10.6064
野町	-10.6065
の他	-10.6066
中川	-10.6066
以外	-10.6071
を含めた	-10.6072
野田	-10.6073
したという	-10.6077
とする説	-10.6077
広島市	-10.608
▁清	-10.608
彼ら	-10.6082
、1970	-10.6083
ほとんどの	-10.6086
使用されている	-10.609
の王	-10.6091
ているが	-10.6092
ことが多く	-10.6093
の発展	-10.6094
辰	-10.6096
引き続き	-10.6099
の単位	-10.61
BA	-10.61
ごろ	-10.61
の下で	-10.6103
-4	-10.6105
ハル	-10.6106
近畿	-10.6106
偽	-10.6106
_	-10.611
京王	-10.611
時刻	-10.611
正式	-10.6113
天使	-10.6116
暗号	-10.612
合同	-10.612
伏	-10.6121
レギュラー	-10.6122
数の	-10.6123
▁八	-10.6123
リリース	-10.6124
▁イギリス	-10.6125
▁<	-10.6128
SC	-10.6129
AN	-10.6133
代天皇	-10.6134
重複	-10.6136
一宮	-10.6136
あらゆる	-10.6136
ポスト	-10.614
発売された	-10.6141
1996	-10.6142
付属	-10.6143
英語では	-10.6145
していった	-10.6146
しばらく	-10.615
肩	-10.615
文章	-10.615
本作	-10.615
ベスト	-10.615
ディング	-10.6152
民主党	-10.6156
をした	-10.6157
第四	-10.6158
ティング	-10.6158
空母	-10.6162
定理	-10.6163
丹波	-10.6165
わけではない	-10.6165
江戸幕府	-10.6169
したのは	-10.617
大規模	-10.617
買収	-10.6171
河原	-10.6173
武士	-10.6176
合格	-10.6177
AR	-10.6178
この場合	-10.6179
にまで	-10.6179
ot	-10.6182
ジャンプ	-10.6185
所有	-10.6186
ti	-10.6187
弟子	-10.619
▁河川	-10.6191
沙	-10.6203
ッタ	-10.6205
▁1947	-10.6206
大山	-10.6206
執	-10.6207
名詞	-10.6208
に出	-10.6209
概要	-10.621
始める	-10.6214
<	-10.6216
独特の	-10.6218
官僚	-10.622
▁1941	-10.622
史料	-10.622
1982	-10.6223
生き	-10.6226
に出演	-10.6226
新人	-10.623
場合が多い	-10.6231
の分類	-10.6231
ることができる	-10.6231
代将軍	-10.6234
▁1927	-10.6234
ゼン	-10.6235
山陽	-10.6236
RO	-10.6239
身長	-10.6242
信号場	-10.6249
なくなる	-10.625
大衆	-10.625
事態	-10.6252
えん	-10.6253
黒い	-10.6253
二重	-10.6255
コンコース	-10.6256
ロバート	-10.6259
の路線	-10.6259
北京	-10.6261
を使用した	-10.6262
容量	-10.6262
当駅は	-10.6265
会津	-10.6266
秩父	-10.6266
幕末	-10.6266
3000	-10.627
NO	-10.6272
1967	-10.6276
1951	-10.6277
運輸	-10.6283
見る	-10.6283
の形	-10.6284
は非常に	-10.6285
用法	-10.6287
美濃	-10.6289
法第	-10.6297
を扱う	-10.6299
などから	-10.6301
▁1909	-10.6304
混合	-10.6305
1984	-10.6305
日本初の	-10.6307
離れた	-10.6312
かどうか	-10.6312
講	-10.6314
三条	-10.6315
ell	-10.6317
譲	-10.6319
〉)	-10.6322
サポート	-10.6322
IT	-10.6324
復帰	-10.6326
第一次	-10.6326
前述の	-10.6327
身分	-10.6327
-6	-10.6329
概ね	-10.634
附属	-10.6341
語源	-10.6341
有名な	-10.6346
を担当	-10.6346
座席	-10.6348
プロダクション	-10.6353
ハンガリー	-10.6353
ジョー	-10.6355
立川	-10.6356
71	-10.6357
の三	-10.6359
のメンバー	-10.636
系電車	-10.6366
アム	-10.6367
ウィン	-10.6369
並	-10.6369
妙	-10.6378
駅と	-10.6386
物を	-10.6387
囲	-10.6389
瑞	-10.6393
の仕事	-10.6396
古くは	-10.6402
欧米	-10.6403
||	-10.6403
しょ	-10.6406
同様の	-10.6407
煮	-10.6407
ソニー	-10.6413
時から	-10.6416
で最も	-10.6418
営業キロ	-10.6419
伝統的な	-10.6419
全日本	-10.642
au	-10.6421
直径	-10.6423
町となる	-10.6424
メー	-10.6425
読者	-10.6426
2019	-10.6427
市長	-10.6427
使用される	-10.6429
再開	-10.643
プレー	-10.6433
狂	-10.6434
捜査	-10.6435
all	-10.6435
中期	-10.6436
収入	-10.644
に使われる	-10.644
先の	-10.6441
改めて	-10.6441
の上	-10.6452
結局	-10.6454
状に	-10.6455
家は	-10.6456
降り	-10.6457
帳	-10.6459
高架	-10.6463
ly	-10.6463
栄養	-10.6463
臨	-10.6465
始発	-10.6467
▁下	-10.6467
ヒル	-10.6471
野菜	-10.6472
伊藤	-10.648
中央部	-10.648
のもと	-10.648
みや	-10.6482
社会的	-10.6485
▁1930	-10.6485
ab	-10.6487
に移管	-10.649
AL	-10.6493
鍋	-10.6493
tr	-10.6494
細川	-10.6495
ON	-10.6496
本来の	-10.6496
mo	-10.6502
ci	-10.6504
橋上駅舎	-10.6505
森林	-10.6509
するまで	-10.6512
ワイド	-10.6512
見解	-10.6513
衛	-10.6514
▁×	-10.6517
旧暦	-10.6517
ナス	-10.6517
早く	-10.6522
番目の数	-10.6523
短期大学	-10.6526
歌人	-10.6529
汁	-10.6532
、1980	-10.6532
住吉	-10.6533
令和元年	-10.6533
活躍	-10.6534
武装	-10.6534
キロ	-10.6536
セー	-10.6538
を取る	-10.6539
用いられる	-10.6542
列車の	-10.6545
米子	-10.6552
を経由して	-10.6553
交代	-10.6554
ブック	-10.6559
業績	-10.656
一旦	-10.6562
観音	-10.6562
丘陵	-10.6563
とは異なり	-10.6563
を作り	-10.6565
近年では	-10.6568
上場	-10.657
しゅ	-10.657
新規	-10.6573
壇	-10.6574
発達	-10.6574
パターン	-10.6576
詞	-10.6576
数学者	-10.6577
姿勢	-10.6577
難波	-10.6578
1966	-10.6583
られて	-10.6586
認知	-10.6589
航路	-10.6589
基本的な	-10.659
帰国	-10.6601
ワシントン	-10.6602
インドネシア	-10.6602
プロセス	-10.6603
モーター	-10.6603
準急	-10.6604
の都市	-10.6604
権限	-10.6604
たちが	-10.6605
差別	-10.6605
明石	-10.6607
良い	-10.6608
鳥取県	-10.6608
追放	-10.661
側は	-10.661
○	-10.6615
三重	-10.6619
航	-10.6619
狭	-10.6623
▁明	-10.6624
の音楽	-10.6624
町村	-10.6628
DA	-10.6628
一丁目	-10.6629
デザイナー	-10.663
コンサート	-10.663
言及	-10.6631
白色	-10.6631
投資	-10.6632
引退	-10.6633
▁単式ホーム	-10.6634
アラブ	-10.6638
DE	-10.6643
滅亡	-10.6643
皇太子	-10.6644
復興	-10.6645
盛岡	-10.6646
威	-10.6648
レール	-10.6649
改修	-10.6649
徳島県	-10.665
黄金	-10.665
風の	-10.6651
聞	-10.6655
改称	-10.6657
マスター	-10.6657
仮名	-10.6657
資産	-10.6659
ヘッド	-10.6659
に生まれる	-10.6662
沈	-10.6662
受信	-10.6662
息子	-10.6665
川越	-10.6668
▁一般	-10.6669
審査	-10.6671
出張所	-10.6673
に沿って	-10.6673
等で	-10.6676
長崎県	-10.6683
疑	-10.6684
ヴェル	-10.6686
機会	-10.6686
練習	-10.6693
車内	-10.6696
東武鉄道	-10.6696
ステージ	-10.6696
フォーク	-10.6697
事例	-10.67
あと	-10.6701
82	-10.6704
ユーザー	-10.6705
東映	-10.6706
愛知	-10.6707
土佐	-10.671
の設定	-10.6711
、2022	-10.6715
CPU	-10.6715
近似	-10.6716
によるもの	-10.6716
アレ	-10.6719
語の	-10.672
日本語の	-10.672
高架化	-10.6723
バイト	-10.6723
まった	-10.6723
マンガ	-10.6724
発電	-10.6725
の僧	-10.6727
sp	-10.6728
ながらも	-10.6728
長らく	-10.6731
変形	-10.6737
フォード	-10.6738
高級	-10.6738
安政	-10.6739
の称号	-10.6739
んでいた	-10.6742
レストラン	-10.6744
の妻	-10.6744
ドーム	-10.6747
有限	-10.675
ヤー	-10.675
任務	-10.675
▁一方	-10.6753
意味で	-10.6753
レオ	-10.6754
国際連合	-10.6756
の例	-10.6758
アルコール	-10.676
(2004	-10.6761
使う	-10.6761
巻き	-10.6763
変動	-10.6768
墓	-10.6769
希	-10.677
を開催	-10.6772
作品を	-10.678
文芸	-10.6781
マシン	-10.679
ブレ	-10.6791
希望	-10.6794
レーベル	-10.6795
格子	-10.6796
考え方	-10.6797
半導体	-10.68
の状態	-10.6804
果実	-10.6805
に次ぐ	-10.6806
束	-10.6807
に従って	-10.6813
の流れ	-10.6815
ソロ	-10.6815
提出	-10.6816
センチメートル	-10.6817
漁	-10.6818
と称する	-10.682
姫路	-10.6822
述	-10.6822
和歌山県	-10.6822
飯田	-10.6823
近年は	-10.6823
の母	-10.6825
1952	-10.6826
場面	-10.6826
化し	-10.6827
互いに	-10.683
深く	-10.6832
胸	-10.6833
フライ	-10.6834
本州	-10.6834
管内	-10.6835
に伴って	-10.6837
エフ	-10.6837
した際に	-10.6837
SL	-10.6838
サム	-10.6838
それまでの	-10.6838
と結婚	-10.6841
ant	-10.6841
続いて	-10.6841
止め	-10.6842
やや	-10.6842
▁1958	-10.6842
▁Co	-10.6843
えい	-10.6845
父親	-10.6848
▁1928	-10.6851
▁千葉	-10.6851
山城	-10.6852
原子核	-10.6854
染	-10.6855
何らかの	-10.6857
に向かって	-10.6859
が起こる	-10.6862
同様	-10.6863
措置	-10.6863
実在	-10.6866
相模	-10.6867
スイス	-10.6868
炭	-10.6869
番目	-10.6872
遊び	-10.6874
ウィーン	-10.6874
山形県	-10.6875
伸び	-10.6875
単語	-10.6876
シュー	-10.6876
▁生い立ち	-10.6877
-7	-10.6878
爆	-10.6884
捕	-10.6884
ときは	-10.6886
極めて	-10.6886
淳	-10.6886
燃焼	-10.6887
条第	-10.6888
経過	-10.6889
庁舎	-10.6892
フィー	-10.6892
長岡	-10.6892
自殺	-10.6894
1500	-10.6894
朗	-10.6895
そば	-10.6896
消費	-10.6896
悪魔	-10.6897
▁[	-10.6897
が多数	-10.69
限界	-10.6906
SE	-10.6908
を通る	-10.6909
下で	-10.6909
巡	-10.691
▁ETC	-10.6912
を引き	-10.6915
扇	-10.6915
掛	-10.6918
アナログ	-10.6918
残り	-10.692
内では	-10.692
電源	-10.6921
そこから	-10.6925
消防	-10.6929
亭	-10.6929
模様	-10.693
に変更された	-10.693
の上に	-10.6935
愛媛県	-10.6937
体重	-10.6939
濃	-10.6941
私立	-10.6942
ディア	-10.6943
発表した	-10.6943
扉	-10.6944
ツー	-10.6946
違う	-10.6947
do	-10.6948
ちゅう	-10.6948
ce	-10.6948
徳川家	-10.695
年現在	-10.695
使われた	-10.6951
スカ	-10.6953
発生する	-10.6954
COM	-10.6955
広場	-10.6955
第二次	-10.6955
詰め	-10.6956
献	-10.6958
仙台市	-10.6958
織	-10.6959
激しい	-10.6959
▁d	-10.6963
情報を	-10.6964
部長	-10.6967
まん	-10.6968
流域	-10.6968
当駅の	-10.697
語で	-10.6971
▁1929	-10.6971
澄	-10.6972
探偵	-10.6973
ラグビー	-10.6973
の基礎	-10.6974
発見された	-10.6974
▁1940	-10.6974
物の	-10.6976
ゼロ	-10.6977
大分	-10.698
1944	-10.6985
荒川	-10.6986
スー	-10.6986
崇	-10.6987
好き	-10.6987
地に	-10.699
年からは	-10.699
岡田	-10.6992
、2015	-10.6992
論理	-10.6994
亜科	-10.6996
.1	-10.6996
は全て	-10.6999
フェン	-10.7
模型	-10.7005
商人	-10.7006
オリ	-10.7008
の原因	-10.701
触	-10.7012
全長	-10.7016
伴	-10.7018
とり	-10.7019
する事	-10.702
季	-10.702
歌詞	-10.702
キャラ	-10.7021
耐	-10.7021
ができる	-10.7022
▁新羅	-10.7024
亜目	-10.7026
寝	-10.7028
を与え	-10.703
に用いる	-10.7034
スク	-10.7035
亜種	-10.7035
hi	-10.7036
ボード	-10.7038
高速バス	-10.7039
評論家	-10.7039
数である	-10.7039
ィ	-10.704
92	-10.7042
優れた	-10.7042
▁フランス	-10.7043
該当	-10.7043
もり	-10.7044
1943	-10.7045
が強く	-10.7046
使い	-10.7046
公認	-10.7047
抜け	-10.7049
を用い	-10.705
(2003	-10.7052
終	-10.7052
伸	-10.7058
ho	-10.7059
乃	-10.7061
の多い	-10.7061
下記の	-10.7064
▁1923	-10.7064
関心	-10.7069
の首都	-10.707
。(1	-10.707
部族	-10.7072
EN	-10.7072
停車場線	-10.7073
以外に	-10.7074
腰	-10.7075
寛永	-10.7078
試み	-10.7079
口駅	-10.7083
ばん	-10.7084
書店	-10.7089
ホワイト	-10.709
野駅	-10.7092
育成	-10.7096
ビール	-10.7098
▁for	-10.7101
上田	-10.7102
マルチ	-10.7103
嗣	-10.7105
を置く	-10.7105
国土交通省	-10.7105
神奈川	-10.7106
宮城	-10.7106
勃発	-10.7107
の性質	-10.7108
鳥類	-10.7109
選手権	-10.7112
平成元年	-10.7115
琉球	-10.7117
亡命	-10.7121
又	-10.7122
恒星	-10.7123
秀吉	-10.7126
アート	-10.7128
ブレーキ	-10.7134
オオ	-10.7134
クー	-10.7134
害	-10.7135
ナル	-10.7136
ためである	-10.7136
輔	-10.7138
手続	-10.7139
はすべて	-10.7139
平行	-10.7142
午前	-10.7145
近畿日本鉄道	-10.7146
貝	-10.7147
ā	-10.7148
刃	-10.7149
ビア	-10.7151
民主	-10.7151
の女性	-10.7157
物理	-10.7159
化石	-10.7161
整理	-10.7164
山岳	-10.7164
反射	-10.7166
の高さ	-10.7167
国連	-10.7168
正規	-10.7168
ホームズ	-10.7169
の色	-10.7176
軍隊	-10.7177
投入	-10.7177
懐	-10.7178
(=	-10.718
1941	-10.718
日本に	-10.7182
▁小型	-10.7183
がん	-10.7183
使われていた	-10.7184
商業施設	-10.7184
▁女性	-10.7185
の放送	-10.7186
▁−	-10.7189
の一種である	-10.7189
戦前	-10.7189
貨物列車	-10.7191
邸	-10.7191
テキスト	-10.7194
age	-10.7195
合う	-10.7196
スタン	-10.7197
その結果	-10.7197
以南	-10.7198
1991	-10.7198
前期	-10.7206
取材	-10.721
夏の	-10.7218
参考	-10.722
ER	-10.7221
駅間で	-10.7223
2022	-10.7224
指揮者	-10.7224
定められた	-10.7225
書房	-10.7229
ツィ	-10.723
着工	-10.723
光学	-10.7231
を結成	-10.7231
="	-10.7231
▁19	-10.7233
船舶	-10.7239
ウェル	-10.7239
cc	-10.7245
勲	-10.7252
▁1953	-10.7254
2016	-10.7254
札幌市	-10.7254
ペルシア	-10.7258
であって	-10.726
夫人	-10.7261
研	-10.7262
ROM	-10.7263
まい	-10.7267
積分	-10.7267
om	-10.7269
年以上	-10.7269
合金	-10.7273
加入	-10.7273
依	-10.7274
その後の	-10.7275
下げ	-10.7275
占領	-10.7276
会館	-10.7278
人生	-10.728
環状	-10.7281
予備	-10.7282
都市圏	-10.7282
vi	-10.7283
津山	-10.7283
大韓民国	-10.7283
タクシー	-10.7284
信用組合	-10.7284
英語で	-10.7285
テロ	-10.7287
暴	-10.7289
の死後	-10.7289
現存する	-10.7292
奏	-10.7295
紛争	-10.7298
鷲	-10.7298
の中には	-10.7299
崩御	-10.7299
少なくとも	-10.7302
取る	-10.7303
▁g	-10.7308
福山	-10.7309
のお	-10.7311
ヘン	-10.7315
を見て	-10.7315
下部	-10.7321
▁平	-10.7322
早朝	-10.7322
英雄	-10.7322
ツアー	-10.7324
年代には	-10.7324
共産党	-10.7328
同社の	-10.733
▁イギリスの	-10.7331
、2016	-10.7331
ity	-10.7333
佐野	-10.7334
に対応する	-10.7336
夕方	-10.7336
ぶん	-10.7337
いつ	-10.7338
辻	-10.7343
各国	-10.7345
po	-10.7345
秘密	-10.7345
Web	-10.7345
そこに	-10.7348
2021	-10.7348
が開業	-10.7348
たら	-10.7349
体積	-10.7354
複雑な	-10.7356
テスト	-10.7357
徹	-10.7358
部分は	-10.7359
熊野	-10.7362
現役	-10.7364
かり	-10.7368
溶	-10.7368
供用	-10.7369
一致	-10.737
ナポレオン	-10.7372
が盛ん	-10.7372
ピア	-10.7372
以前に	-10.7373
チャールズ	-10.7374
完	-10.7376
伊賀	-10.7377
1979	-10.7378
方が	-10.7379
▁お	-10.738
町名	-10.7381
らい	-10.7385
全域が	-10.7386
みどりの窓口	-10.7389
オスマン帝国	-10.7389
麻雀	-10.7389
議長	-10.7389
の楽曲	-10.739
夕	-10.7396
刊	-10.7399
探	-10.7401
プラス	-10.7406
つけ	-10.7407
神宮	-10.7407
冊	-10.7409
防止	-10.7411
の影響で	-10.7412
山崎	-10.7412
なかったため	-10.7413
93	-10.7414
と表記	-10.7414
が発生する	-10.7415
巨	-10.7418
虚	-10.7419
小田急	-10.742
移	-10.7424
伝達	-10.7425
▁永	-10.7428
自体は	-10.7429
ハード	-10.7429
位の	-10.743
ペル	-10.7439
一連の	-10.7439
海底	-10.7441
ずに	-10.7442
ことによって	-10.7443
線は	-10.7443
川の	-10.7445
、2012	-10.7449
言う	-10.7451
カバー	-10.7451
▁隣	-10.7452
動詞	-10.7453
四日市	-10.7453
改札口は	-10.7455
送信	-10.7455
を発売	-10.7457
がそれぞれ	-10.7459
瀬戸	-10.7459
▁アル	-10.7461
松戸	-10.7462
最上	-10.7462
内側	-10.7463
ノルウェー	-10.7465
競争	-10.7465
弁護士	-10.7465
確率	-10.7466
原駅	-10.747
抜き	-10.747
鉄道路線	-10.7472
sh	-10.7476
得られる	-10.7476
橋駅	-10.7479
幼稚園	-10.748
繊維	-10.7481
159	-10.7481
知られている	-10.7482
大きさ	-10.7484
土曜日	-10.7484
万年前	-10.7486
スカイ	-10.7487
コンビ	-10.7487
▁京都	-10.7488
ストラ	-10.749
佐賀	-10.7491
旭川	-10.7491
を流れる	-10.7492
摩	-10.7492
ウクライナ	-10.7496
湘南	-10.7496
グループの	-10.7497
講師	-10.7497
働く	-10.7497
予	-10.7497
といわれている	-10.75
で行われた	-10.7501
快	-10.7502
修行	-10.7502
頃に	-10.7503
三浦	-10.7505
授	-10.7507
の記録	-10.7515
さえ	-10.7518
ジャック	-10.752
が多かった	-10.752
ダンス	-10.7524
にわたり	-10.7526
存命人物	-10.7526
都営地下鉄	-10.7527
保健	-10.753
通算	-10.7531
とある	-10.7536
吸	-10.7536
GI	-10.7539
皆	-10.7539
、1998	-10.754
▁Ch	-10.754
丈	-10.754
赤い	-10.7541
経由で	-10.7544
在来線	-10.7544
本土	-10.7545
ロール	-10.7546
払	-10.7548
食事	-10.7548
できなかった	-10.755
既	-10.7551
}	-10.7553
詳細	-10.7554
寮	-10.7557
トス	-10.7559
半径	-10.7559
改築	-10.756
1978	-10.7563
作中	-10.7563
加賀	-10.7565
奉	-10.7565
当駅で	-10.7568
用いる	-10.7568
載	-10.7568
釧路	-10.7568
ist	-10.7569
勅	-10.7569
を加えた	-10.7571
会計	-10.7572
ジェームズ	-10.7572
プロレス	-10.7575
に次いで	-10.7577
間を	-10.7577
えた	-10.7579
▁1942	-10.7583
などにより	-10.7585
されなかった	-10.7585
煙	-10.7587
続編	-10.7589
まれ	-10.759
車両の	-10.759
山陰本線	-10.7592
下に	-10.7595
台地	-10.7596
することは	-10.7599
に移行	-10.7599
ニック	-10.7603
さくら	-10.7603
日常	-10.7604
しかしながら	-10.7606
ハワイ	-10.7606
コア	-10.7607
全般	-10.7607
は存在しない	-10.7612
神戸市	-10.7618
寧	-10.7618
▁ブース数	-10.7619
援助	-10.7619
一般国道	-10.762
省略	-10.7621
Cl	-10.7621
使用されていた	-10.7621
最古の	-10.7622
テレビ東京	-10.7623
利用できる	-10.7624
チェーン	-10.7625
含む	-10.7626
▁埼玉県	-10.7631
収集	-10.7634
昆虫	-10.7634
リチャード	-10.7635
▁男性	-10.7635
ヨーロッパの	-10.7636
国名	-10.7637
白石	-10.7638
MI	-10.7638
後漢	-10.7641
の部分	-10.7642
ふく	-10.7643
▁白	-10.7647
明治時代	-10.7647
成果	-10.7648
対戦	-10.7648
腸	-10.765
▁1946	-10.7651
古代ローマ	-10.7652
洗	-10.7652
宇部	-10.7652
立体	-10.7653
を新設	-10.7653
天保	-10.7654
祝日	-10.7656
三角	-10.7657
1963	-10.7659
▁1926	-10.766
2017	-10.7661
▁|-	-10.7663
庵	-10.7666
ポテンシャル	-10.7666
北米	-10.7666
安芸	-10.7667
行事	-10.7668
指導者	-10.7669
設立された	-10.7669
▁1957	-10.767
人形	-10.767
賞受賞	-10.7671
元々は	-10.7672
ニング	-10.7672
博多	-10.7672
マイル	-10.7674
がその	-10.7674
おこ	-10.7675
ローマ帝国	-10.768
のみの	-10.7682
併合	-10.7682
、2020	-10.7682
▁エ	-10.7683
の地位	-10.7683
芸能	-10.7685
津駅	-10.7687
は日本	-10.7689
が可能である	-10.7693
協議会	-10.7694
パーソナリティ	-10.7696
挙	-10.7703
月末	-10.7704
呼	-10.7707
鑑	-10.7708
符	-10.7708
当て	-10.771
ジャンクション	-10.7713
実用	-10.7713
票	-10.7714
停車駅	-10.7714
するようになった	-10.7715
恋愛	-10.7715
すぐ	-10.7718
鶴見	-10.772
御所	-10.7722
ig	-10.7725
松江	-10.7726
綿	-10.7728
CA	-10.773
携帯電話	-10.773
▁安	-10.7731
人と	-10.7733
トランス	-10.7734
高知県	-10.7735
1983	-10.7736
飛行機	-10.7736
プラザ	-10.7739
が特徴	-10.7741
代表作	-10.7744
南方	-10.7744
の一環として	-10.7748
珠	-10.7756
完了	-10.7757
ここでは	-10.7758
イス	-10.7758
特殊な	-10.7759
緊急	-10.7761
降伏	-10.7762
天神	-10.7763
ほん	-10.7764
pi	-10.7766
▁トイレ	-10.7768
者を	-10.777
殻	-10.777
滑	-10.777
、1960	-10.777
コロ	-10.7771
再度	-10.7774
比率	-10.7778
免	-10.7778
めた	-10.7778
、2014	-10.778
ムー	-10.778
を始める	-10.7783
ひと	-10.7783
接近	-10.7784
なっている	-10.7784
示す	-10.7789
1942	-10.779
nd	-10.779
反乱	-10.7791
が始まった	-10.7791
開拓	-10.7792
としていた	-10.7792
なくなり	-10.7798
埼玉	-10.7799
駅間は	-10.7803
の二	-10.7803
さま	-10.7804
歩兵	-10.7805
ミュージシャン	-10.7807
区の	-10.781
たま	-10.7812
不可	-10.7813
フジ	-10.7817
歳の時に	-10.7818
OR	-10.782
皮膚	-10.7823
傘下	-10.7823
待ち	-10.7824
輸出	-10.7825
が存在した	-10.7828
長編	-10.7829
成人	-10.7829
三島	-10.7831
突	-10.7831
AD	-10.7831
対抗	-10.7832
以外にも	-10.7832
を意味し	-10.7837
消	-10.7837
鍵	-10.7838
臭	-10.7839
機種	-10.7839
世紀初頭	-10.7839
生物学	-10.7842
ターミナル	-10.7842
に加えて	-10.7842
一切	-10.7842
端末	-10.7844
▁正	-10.7844
日曜日	-10.7846
司馬	-10.7846
グラム	-10.7846
反発	-10.7846
朝鮮半島	-10.7846
EC	-10.7847
ex	-10.7848
山陽本線	-10.7851
高温	-10.7852
実況	-10.7854
パッケージ	-10.7854
の一つで	-10.7855
わない	-10.7856
日本語では	-10.7857
合意	-10.7858
NT	-10.7859
ゲート	-10.7861
食用	-10.7862
台風	-10.7863
スコ	-10.7863
設	-10.7864
アマチュア	-10.7864
があるため	-10.7868
続けた	-10.7868
が開通	-10.787
アルゴリズム	-10.787
されず	-10.7871
正月	-10.7872
戦で	-10.7873
ph	-10.7874
定める	-10.7877
才	-10.7882
道路施設	-10.7882
1926	-10.7882
AP	-10.7883
が始まり	-10.7884
横断	-10.7886
投稿	-10.7886
っていない	-10.7886
やすく	-10.7887
利用可能	-10.7887
歳の	-10.7891
パート	-10.7893
されたもの	-10.7893
▁高句麗	-10.7894
▁1922	-10.7895
待	-10.7896
代わりに	-10.7896
永禄	-10.7904
主催	-10.7904
制定された	-10.7905
ビッグ	-10.7906
文学部	-10.7906
ターン	-10.7912
、1994	-10.7913
▁百済	-10.7914
芽	-10.7915
を元に	-10.7917
いん	-10.7917
ないため	-10.7917
予算	-10.7918
破産	-10.7921
そこ	-10.7923
の整備	-10.7925
切れ	-10.7926
da	-10.7926
ment	-10.7932
ian	-10.7933
を持っていた	-10.794
ばかり	-10.7944
とおり	-10.7946
川口	-10.795
アテナイ	-10.795
異常	-10.795
が挙げられる	-10.7951
構築	-10.7952
当選	-10.7953
香川県	-10.7954
で知られる	-10.7956
、2019	-10.7959
ロウ	-10.796
伊予	-10.7961
セラ	-10.7962
最小	-10.7962
灘	-10.7966
コレクション	-10.7966
築	-10.7966
熊本県	-10.7967
一家	-10.7967
キャリア	-10.7969
ID	-10.7969
例として	-10.7971
RNA	-10.7972
1937	-10.7973
ect	-10.7975
昔	-10.798
侍	-10.7982
申請	-10.7983
に取り	-10.7983
打ち上げ	-10.7984
駅構内図	-10.7984
揚	-10.7985
%	-10.7987
われた	-10.7988
取扱	-10.7988
跡地	-10.7989
ギリシア語	-10.7993
1977	-10.7994
の内容	-10.7994
▁カ	-10.7994
褐色	-10.7996
看護	-10.7996
IS	-10.7997
本来は	-10.7997
辞典	-10.7999
▁行政	-10.8002
タワー	-10.8005
を認め	-10.8005
特許	-10.8006
年までは	-10.8007
率は	-10.8007
プラン	-10.8008
を使用している	-10.8008
村上	-10.8011
後述の	-10.8013
用に	-10.8013
釈迦	-10.8014
衰退	-10.8015
してしまう	-10.8015
ション	-10.8018
フラン	-10.8019
カット	-10.802
でデビュー	-10.802
梨	-10.8023
遅れ	-10.8024
で初めて	-10.8026
田川	-10.8027
アラビア語	-10.8027
翌日	-10.803
聖人	-10.803
Linux	-10.8031
RPG	-10.8031
▁–	-10.8032
豊田	-10.8035
課税	-10.8036
と異なり	-10.804
径	-10.8041
潜	-10.8044
順序	-10.8045
釣り	-10.8049
未満	-10.8049
NTT	-10.8052
求	-10.8053
が成立	-10.8055
市の一部	-10.8057
という名称	-10.8058
(2005	-10.806
あん	-10.806
の構造	-10.806
通路	-10.8062
石川県	-10.8063
コマ	-10.8063
ice	-10.8065
教養	-10.8066
複雑	-10.8066
上部	-10.8068
弘前	-10.8068
粒	-10.8068
愛称は	-10.8075
定義される	-10.8075
近江	-10.8076
番組の	-10.8076
1923	-10.8077
だろう	-10.8079
といえる	-10.8079
いくつか	-10.808
ようになっている	-10.808
ED	-10.8081
を卒業	-10.8081
を感じ	-10.8083
かかる	-10.8085
son	-10.8086
ハート	-10.8087
神々	-10.8088
神の	-10.809
ill	-10.8091
毎	-10.8092
盗	-10.8094
しよう	-10.8095
チーズ	-10.8096
ヶ丘	-10.8097
確保	-10.8098
水道	-10.8101
改元	-10.811
いたが	-10.8112
癌	-10.8112
収容	-10.8113
三国	-10.8113
実数	-10.8114
鴨	-10.8114
浜田	-10.8115
用いられている	-10.8116
定着	-10.8117
という説	-10.8118
が設置され	-10.8119
禅	-10.812
が無い	-10.812
曽	-10.8123
用いられた	-10.8126
演算	-10.8126
可能性がある	-10.8127
ファンタジー	-10.8128
飲料	-10.8129
1962	-10.8129
ショップ	-10.8129
の下に	-10.813
部は	-10.8134
に行	-10.8135
がい	-10.814
ツァ	-10.8142
きっかけ	-10.8143
トゥス	-10.8146
逃げ	-10.8148
促進	-10.815
に見られる	-10.8151
マラ	-10.8151
ッキー	-10.8152
di	-10.8152
吸収	-10.8157
くら	-10.8157
東京大学	-10.8164
福岡市	-10.8166
彼らは	-10.8167
激	-10.8168
即	-10.8169
を起こす	-10.8169
佐賀県	-10.8171
測	-10.8171
KO	-10.8174
贈	-10.8174
頂点	-10.8176
殺害	-10.8176
要件	-10.8176
の言葉	-10.8177
コムーネ	-10.8178
シャルル	-10.8179
卒	-10.818
東海旅客鉄道	-10.8181
なもの	-10.8182
が少なく	-10.8182
だん	-10.8183
(→	-10.8183
を出す	-10.8184
軍は	-10.8185
ばら	-10.8185
の支配	-10.8188
OH	-10.8188
、2013	-10.8189
戦線	-10.8189
▁1925	-10.819
扱う	-10.8191
磨	-10.8192
遠征	-10.8194
(2001	-10.8195
▁〜	-10.8197
アドレス	-10.8197
但し	-10.8198
江戸時代の	-10.8199
od	-10.8199
市制施行	-10.8201
の建築物	-10.8202
ごと	-10.8204
LD	-10.8205
は通常	-10.8207
アルファベット	-10.821
麺	-10.821
地域で	-10.821
ヨハン	-10.8212
感情	-10.8212
▁大型	-10.8215
ボックス	-10.8216
がいた	-10.8216
熱帯	-10.8218
駆動	-10.8219
子が	-10.8219
緑色	-10.8225
かし	-10.8225
コミュニティ	-10.8226
フィリピン	-10.8226
必ずしも	-10.8232
巨大	-10.8235
JO	-10.8235
出された	-10.8235
の値	-10.8236
荷	-10.8236
機関車	-10.824
かた	-10.824
ちなみに	-10.8243
謎	-10.8243
ベルギー	-10.8244
の管轄	-10.8245
完結	-10.8246
であるという	-10.8247
先行	-10.8248
(2000	-10.8249
移植	-10.8252
ミリ	-10.8253
を果たした	-10.8253
地元の	-10.8253
島町	-10.8253
参戦	-10.8254
確立	-10.8254
シート	-10.8254
幌	-10.8255
が中心	-10.8255
に設置	-10.8258
軟	-10.826
アミノ酸	-10.826
鎌倉幕府	-10.8261
目に	-10.8261
オンライン	-10.8262
浦和	-10.8265
マルクス	-10.8265
このほか	-10.8267
航海	-10.8268
数え	-10.8269
中退	-10.8269
SO	-10.8272
手紙	-10.8277
リウム	-10.8277
いだ	-10.8278
メガ	-10.8284
も含む	-10.8284
スパイ	-10.8285
の製造	-10.8285
登場する	-10.8285
一時期	-10.8286
東ローマ帝国	-10.8286
が存在し	-10.8288
に存在した	-10.8288
蘇	-10.8292
が主流	-10.8292
ガイ	-10.8293
若干	-10.8293
族の	-10.8293
(2006	-10.8296
ものが多い	-10.8296
観客	-10.8297
逮捕	-10.8297
のタイトル	-10.83
当主	-10.8301
日間	-10.8307
戒	-10.8308
最優秀	-10.831
チョウ	-10.831
征	-10.8313
168	-10.8314
が開始された	-10.8316
著作権	-10.8317
の場	-10.8318
本文	-10.8319
在住	-10.8321
言い	-10.8324
ナチス	-10.8326
住友	-10.8328
仁親王	-10.8328
垂直	-10.8329
療法	-10.8331
微分	-10.8332
狭い	-10.8333
に属し	-10.8336
ite	-10.8337
アメリカ軍	-10.8338
、1997	-10.8338
唱	-10.8338
小惑星	-10.834
▁気候	-10.8342
140	-10.8346
みどり	-10.8346
が生まれた	-10.8346
技法	-10.835
青山	-10.835
からである	-10.8355
楚	-10.8357
セブン	-10.8358
の小	-10.836
尿	-10.836
発表された	-10.836
マッ	-10.8364
にし	-10.8367
くなる	-10.8369
到着	-10.837
近郊	-10.8374
哲	-10.8376
スポンサー	-10.8376
爆弾	-10.8376
宮廷	-10.8376
カナ	-10.8376
250	-10.8378
▁名古屋	-10.8379
岐	-10.8382
を指し	-10.8385
意図	-10.8386
▁駐車場	-10.8388
世界初の	-10.8389
裂	-10.8389
同士の	-10.839
鳥羽	-10.8391
万石	-10.8392
授業	-10.8394
柴	-10.8394
1870	-10.8396
▁当駅	-10.8396
函館	-10.8399
安田	-10.8399
駅である	-10.8401
推定	-10.8401
市街	-10.8402
ペイ	-10.8406
性を	-10.8407
の字	-10.8407
オーバー	-10.8408
前面	-10.8409
日をもって	-10.8411
われる	-10.8411
モス	-10.8412
157	-10.8412
を始めた	-10.8413
必ず	-10.8417
紋	-10.8418
を行うこと	-10.842
組み合わせ	-10.842
年開業の	-10.842
線を	-10.8423
回の	-10.8425
の弟	-10.8426
和名	-10.8426
の駅として開業	-10.8426
功績	-10.8426
チャンピオン	-10.8426
南朝	-10.8427
総裁	-10.8427
ME	-10.8432
しやすい	-10.8432
の約	-10.8435
の子孫	-10.8436
ランキング	-10.8438
仲間	-10.8441
っと	-10.8441
オフィス	-10.8442
相談	-10.8445
方に	-10.8445
加茂	-10.8446
担	-10.8446
量子	-10.8448
葛	-10.845
発足した	-10.8451
幾何学	-10.8452
を採用した	-10.8454
▁ただし	-10.8456
にする	-10.8457
1981	-10.8458
-9	-10.8459
だったため	-10.846
、1999	-10.846
刺激	-10.846
▁イ	-10.8461
会社の	-10.8465
そのうち	-10.8465
消滅した	-10.8471
細菌	-10.8473
リアン	-10.8473
コミュニケーション	-10.8473
晩年	-10.8476
β	-10.8477
va	-10.8477
▁1924	-10.8477
の名称は	-10.8478
金融機関	-10.8479
の列車	-10.848
ソング	-10.8481
パワー	-10.8482
ang	-10.8483
を指して	-10.8484
ダブル	-10.8486
側が	-10.8488
スル	-10.8488
二丁目	-10.8489
人口は	-10.8489
育	-10.8491
木造	-10.8492
同士	-10.8494
▁1906	-10.8496
ーナ	-10.8496
連携	-10.8503
▁De	-10.8503
鉱	-10.8506
卿	-10.8508
者に	-10.8508
主導	-10.8508
容易に	-10.851
猛	-10.8511
足利義	-10.8512
宮殿	-10.8512
トム	-10.8513
続き	-10.8513
ハム	-10.8515
ース	-10.8515
アブ	-10.8518
ap	-10.8521
▁西日本旅客鉄道	-10.8521
菅	-10.8522
任命	-10.8523
の動き	-10.8523
世紀末	-10.8527
坪	-10.8527
ライセンス	-10.8528
東海道	-10.8532
こととなった	-10.8533
目的で	-10.8534
神道	-10.8537
できず	-10.854
ぼう	-10.8544
大学で	-10.8545
寅	-10.8545
1931	-10.8549
伏見	-10.8549
称号	-10.8554
最後	-10.8555
漁業	-10.8555
と称される	-10.8555
久保	-10.8556
1.5	-10.8556
ブラン	-10.8558
の北	-10.8558
▁ドイツ	-10.856
武田	-10.856
笹	-10.8562
りゅう	-10.8562
one	-10.8562
▁1931	-10.8563
、2017	-10.8563
に編入	-10.8564
学校法人	-10.8568
ていて	-10.8568
を満たす	-10.8568
▁1933	-10.8568
及	-10.8569
フェリー	-10.857
尼	-10.8578
舌	-10.8579
MP	-10.8581
、1996	-10.8582
go	-10.8583
論争	-10.8584
悪化	-10.8585
神田	-10.8589
白河	-10.8589
あき	-10.8589
文法	-10.8592
▁長野県	-10.8594
ファミリー	-10.8595
暮らし	-10.8595
頁	-10.8596
離婚	-10.8596
看板	-10.8596
違反	-10.8597
1936	-10.8597
ストア	-10.8598
▁1934	-10.86
以北	-10.8601
投げ	-10.8606
番台	-10.8607
でもあり	-10.8608
の記述	-10.861
監	-10.861
墨	-10.8612
ルス	-10.8612
訴訟	-10.8613
起こ	-10.8619
ておらず	-10.8619
この地	-10.862
訴え	-10.8621
垂	-10.8621
リュー	-10.8623
作画	-10.8623
かす	-10.8623
1929	-10.8625
▁1936	-10.8625
商店	-10.8626
北上	-10.8627
撤退	-10.863
スタンド	-10.8631
徳川家康	-10.8631
講座	-10.8633
に入って	-10.8634
数多くの	-10.8636
摂	-10.8638
錦	-10.8639
編集者	-10.8644
書かれた	-10.8644
支庁	-10.8644
行われている	-10.8645
ある程度	-10.8645
是	-10.8646
支局	-10.8647
に住む	-10.865
上皇	-10.8651
筒	-10.8653
当初から	-10.8655
は一致	-10.8656
研究会	-10.8658
兵士	-10.866
移民	-10.866
▁In	-10.866
マリー	-10.8661
▁人口	-10.8662
湊	-10.8663
プレート	-10.8664
四郎	-10.8669
巨大な	-10.8669
作品は	-10.8669
間が	-10.8671
▁サン	-10.8672
ラウ	-10.8674
次に	-10.8676
奪	-10.8677
の末	-10.8679
間隔	-10.8681
叔父	-10.8684
三角形	-10.8685
さと	-10.8688
決勝	-10.869
スピン	-10.8691
▁起点	-10.8691
千歳	-10.8693
同時期に	-10.8693
長距離	-10.8696
アーティスト	-10.8699
期に	-10.8701
の両方	-10.8702
本郷	-10.8703
1973	-10.8704
線形	-10.8705
わけ	-10.8708
ペー	-10.8712
原則として	-10.8712
第二次世界大戦後	-10.8715
葬	-10.8715
はそれぞれ	-10.8715
の差	-10.8716
ことや	-10.8717
グランプリ	-10.8717
上海	-10.8722
日本軍	-10.8723
食べる	-10.8724
名称は	-10.8726
▁Z	-10.873
狩	-10.8731
血液	-10.8732
午後	-10.8733
菩薩	-10.8734
US	-10.8737
前半	-10.8739
1956	-10.874
殺人	-10.874
勤	-10.8744
ブルク	-10.8744
学研究科	-10.8749
それ以外の	-10.875
条例	-10.8751
現場	-10.8751
右衛門	-10.8751
リック	-10.8753
地理	-10.8756
国語	-10.8756
裁	-10.8758
藩の	-10.8767
おん	-10.8768
ギャ	-10.8768
1928	-10.8768
急速に	-10.8769
頻繁に	-10.8769
名の由来	-10.8771
させること	-10.8771
習慣	-10.8772
銀座	-10.8772
で行われる	-10.8776
NS	-10.8777
を考える	-10.8779
蒸気	-10.878
に必要な	-10.878
専	-10.8781
として開業	-10.8782
テレビ放送	-10.8786
装飾	-10.8786
霧	-10.8792
売店	-10.8792
ソース	-10.8793
舞鶴	-10.88
1922	-10.88
レッ	-10.88
ロシアの	-10.8803
医科大学	-10.8804
いちらん	-10.8804
みつ	-10.8804
主として	-10.8805
暴力	-10.8806
越後	-10.8806
通学	-10.8807
の成立	-10.8809
すこと	-10.8813
終了後	-10.8814
基本的には	-10.8816
が登場する	-10.8817
コム	-10.8819
朝日放送	-10.8819
の大部分	-10.8821
謙	-10.8821
駅管理の無人駅	-10.8822
らしい	-10.8823
sa	-10.8825
(1868	-10.8827
助け	-10.8827
を多く	-10.8831
どこ	-10.8831
(1869	-10.8831
藤沢	-10.8832
研究科	-10.8832
主権	-10.8832
梅田	-10.8833
メント	-10.8833
ゆき	-10.8833
エリ	-10.8836
槍	-10.8839
。2005	-10.8839
硬	-10.8842
縮小	-10.8843
前田	-10.8846
吹	-10.8846
くり	-10.8849
買	-10.885
年後の	-10.8851
公社	-10.8853
▁交通	-10.8855
各駅	-10.8856
興行	-10.8857
の販売	-10.8859
冒険	-10.8861
リード	-10.8868
信長	-10.887
入社	-10.887
▁An	-10.8872
急行列車	-10.8872
にくい	-10.8876
小川	-10.8876
時点では	-10.8876
駅間が	-10.8877
の基本	-10.8878
弟の	-10.8879
アール	-10.888
▁1935	-10.888
フリ	-10.8884
▁赤	-10.8884
、2018	-10.8886
理想	-10.8888
繁	-10.889
が生じる	-10.889
らと	-10.8893
も見られる	-10.8895
元禄	-10.8895
前橋	-10.8895
マンション	-10.8896
徒	-10.8897
ドール	-10.8897
子は	-10.8898
抱	-10.8902
行く	-10.8903
エレ	-10.8903
を受賞	-10.8906
《	-10.8909
独占	-10.8909
予選	-10.891
自然数	-10.8916
編曲	-10.8917
国籍	-10.8918
は無い	-10.8925
西方	-10.8926
楠	-10.8926
の生産	-10.8926
監視	-10.8927
理念	-10.8928
に設置された	-10.8929
大将	-10.8931
郡山	-10.8933
フィン	-10.8936
はん	-10.8941
解消	-10.8941
の死	-10.8942
強度	-10.8944
イスラーム	-10.8944
消費者	-10.8946
西鉄	-10.8947
ゴム	-10.8947
審	-10.8951
個別	-10.8952
と考える	-10.8952
の他に	-10.8953
めい	-10.8955
行政区	-10.8957
ob	-10.8957
の普及	-10.8957
襲	-10.8958
*	-10.8959
シェル	-10.8959
東京地下鉄	-10.8962
全員	-10.8962
駅員	-10.8964
千里	-10.8967
敷地	-10.8971
数十	-10.8975
学位	-10.8976
岡崎	-10.8976
ーク	-10.8976
添	-10.8977
三原	-10.8978
北東部	-10.8978
内村	-10.8979
東山	-10.8979
》	-10.898
わず	-10.8981
明確に	-10.8982
赤坂	-10.8985
どちら	-10.8985
合戦	-10.899
が出	-10.8991
婚	-10.8991
路線名	-10.8992
一般には	-10.8992
IV	-10.8992
ことである	-10.8992
おく	-10.8994
区間は	-10.8995
概	-10.8995
検索	-10.8997
とされていた	-10.8999
1,000	-10.9
告	-10.9002
est	-10.9006
信濃	-10.9006
署名	-10.9007
早稲田大学	-10.9007
に達する	-10.9009
地中海	-10.901
わか	-10.9011
にかけての	-10.9011
大西洋	-10.9012
を担当した	-10.9014
自主	-10.9017
一体	-10.902
ネオ	-10.9021
入門	-10.9029
GO	-10.903
と述べている	-10.9031
幹部	-10.9034
▁当駅間	-10.9035
尾張	-10.9036
横須賀	-10.9037
上がり	-10.9037
西区	-10.9038
るが	-10.9038
放送時間	-10.9038
ヴィー	-10.904
唐の	-10.904
閣	-10.9042
に対応	-10.9042
序	-10.9044
大人	-10.9045
を備えた	-10.9046
mon	-10.9046
パイ	-10.905
猪	-10.905
ならびに	-10.9051
出来る	-10.9055
含まれ	-10.9057
▁歴代	-10.9059
県の	-10.9065
に向けて	-10.9069
相撲	-10.9069
▁現在の	-10.907
正面	-10.9074
の代表	-10.9077
判決	-10.9077
出走	-10.9078
併せて	-10.9078
で表される	-10.9078
およびその	-10.908
気動車	-10.908
訳語	-10.908
屈	-10.9087
PiTaPa	-10.9087
子ども	-10.9087
有料道路	-10.9089
征服	-10.909
熟	-10.9097
際には	-10.9099
印象	-10.9099
衛生	-10.9099
緒	-10.91
毎週	-10.9101
考	-10.9103
制約	-10.9104
アルゼンチン	-10.9105
魯	-10.9105
!(	-10.9106
東京駅	-10.911
進学	-10.9113
含	-10.912
後継者	-10.9121
の姿	-10.9125
もん	-10.9125
の強い	-10.9126
母体	-10.9128
ノス	-10.9128
BE	-10.9129
を発表した	-10.9129
の定理	-10.913
ネイ	-10.9131
待避	-10.9132
保持	-10.9132
を図る	-10.9133
たん	-10.9137
陸上競技	-10.9138
の文字	-10.9138
提携	-10.9139
ぜん	-10.9139
物理学者	-10.914
を機に	-10.914
ヴィン	-10.9141
駅前広場	-10.9142
東宝	-10.9143
1875	-10.9143
大塚	-10.9145
小山	-10.9145
研修	-10.9146
経済的	-10.9146
発祥	-10.9148
▁分類	-10.915
以前から	-10.9151
クリー	-10.9151
1932	-10.9153
1873	-10.9154
MC	-10.9154
▁l	-10.9155
ていなかった	-10.9159
する形で	-10.9159
ゾン	-10.9159
客車	-10.9161
移籍	-10.9163
閉店	-10.9164
直後	-10.9165
AS	-10.9165
ッター	-10.9166
美しい	-10.9166
鎌倉時代の	-10.9168
走る	-10.9169
と言われ	-10.917
めて	-10.9172
限り	-10.9172
者である	-10.9174
わら	-10.9174
戦隊	-10.9175
堤	-10.9176
▁広島	-10.9177
ことができ	-10.9178
増大	-10.9181
を持って	-10.9181
帰還	-10.9181
高野	-10.9183
しお	-10.9184
不要	-10.9184
コマンド	-10.9186
斎藤	-10.9186
起用	-10.9187
1935	-10.9189
コーヒー	-10.9191
得る	-10.9191
を有し	-10.9192
診断	-10.9193
使用され	-10.9194
ることで	-10.9195
共演	-10.9195
予測	-10.9196
の起源	-10.9197
民衆	-10.9199
の花	-10.9204
生じる	-10.9205
▁普通	-10.9211
Osaka	-10.9214
ラク	-10.9214
才能	-10.9214
初演	-10.9215
やす	-10.9216
光の	-10.9224
依存	-10.9224
が含まれる	-10.9226
以下のような	-10.9229
損	-10.923
(2002	-10.9231
実践	-10.9232
μ	-10.9232
直轄	-10.9232
代理	-10.9236
が廃止され	-10.9238
国会	-10.9238
1934	-10.9238
文政	-10.9239
大気	-10.9242
えない	-10.9243
の主	-10.9245
グランド	-10.9247
することになった	-10.925
プロセッサ	-10.925
佐々木	-10.9251
創建	-10.9252
1871	-10.9252
判定	-10.9253
宣伝	-10.9254
ニコ	-10.9258
易	-10.9262
目黒	-10.9263
るなど	-10.9266
シェア	-10.9266
レート	-10.9268
ヴェネツィア	-10.9268
厳しい	-10.9269
東西線	-10.9271
京急	-10.9271
下記	-10.9272
既存の	-10.9273
都市計画	-10.9275
の設計	-10.9275
熊谷	-10.9277
タール	-10.9279
麦	-10.9281
する必要がある	-10.9281
書いた	-10.9282
を採用し	-10.9284
財団	-10.9284
いていた	-10.9286
烈	-10.9287
決議	-10.9287
恐れ	-10.9288
複	-10.9289
寄りに	-10.9289
開放	-10.9289
に比べ	-10.9291
レーン	-10.9292
▁1920	-10.9296
ゴルフ	-10.9299
アメリカン	-10.9299
駅番号	-10.93
上京	-10.9304
揚げ	-10.9306
退職	-10.9308
データベース	-10.9308
空軍	-10.9311
TE	-10.9311
馬場	-10.9312
直通運転	-10.9312
しろ	-10.9314
線型	-10.9317
公国	-10.9318
所在	-10.9319
ティック	-10.9323
スピード	-10.9323
実業家	-10.9323
総督	-10.9324
相対	-10.9325
と言える	-10.9325
▁1937	-10.9327
▁全	-10.9327
全面	-10.9328
十三	-10.9328
UN	-10.9328
北部の	-10.9329
してから	-10.9329
鉱山	-10.9334
電池	-10.9334
軍を	-10.9335
を提供する	-10.9338
室内	-10.9339
という意味で	-10.934
暖	-10.9341
若い	-10.9341
あなた	-10.9342
幼少期	-10.9345
風俗	-10.9345
国有鉄道	-10.9347
を含めて	-10.9352
ba	-10.9354
、2021	-10.9355
真空	-10.9356
誕生した	-10.9356
満洲	-10.9357
おき	-10.9359
騎士	-10.936
欄	-10.936
パイロット	-10.936
受託	-10.9361
家に	-10.9362
▁Metro	-10.9362
共著	-10.9365
各国の	-10.9366
と語っている	-10.9367
正しい	-10.937
が即位	-10.9371
歴史的	-10.9372
一般の	-10.9373
▁上記	-10.9373
鉛	-10.9378
不可能	-10.9378
恭	-10.9379
分泌	-10.9379
引用	-10.938
南部の	-10.9381
ag	-10.9381
であろう	-10.9381
排	-10.9381
知られ	-10.9384
地位	-10.9386
南北に	-10.939
を進め	-10.9392
的なもの	-10.9392
テニス	-10.9392
の境界	-10.9393
保安	-10.9393
コンセプト	-10.9397
撰	-10.9397
オーディション	-10.9397
のデザイン	-10.9397
勉強	-10.9398
離脱	-10.9398
鉄道が	-10.9401
フォル	-10.9401
理事長	-10.9402
昼間	-10.9402
せき	-10.9403
日発売	-10.9405
に就任した	-10.9405
動画	-10.9407
設置された	-10.9407
ッグ	-10.9407
所属の	-10.9407
が発生	-10.9411
俣	-10.9413
長尾	-10.9414
ゲスト	-10.9416
冷却	-10.9416
餌	-10.9416
結び	-10.9418
解除	-10.9418
の実	-10.9419
がほとんど	-10.9421
段階で	-10.9421
拠	-10.9421
滞在	-10.9422
復旧	-10.9422
要請	-10.9424
は同じ	-10.9424
場所に	-10.9426
付近の	-10.9429
理事	-10.9431
湿	-10.9432
以下のように	-10.9433
部分を	-10.9435
モスクワ	-10.9435
インドの	-10.9435
貨幣	-10.9435
インチ	-10.9435
を参照のこと	-10.9435
吹き	-10.9439
LE	-10.9439
に生息する	-10.9441
置き換え	-10.9442
儀式	-10.9442
全米	-10.9444
玉川	-10.9445
であることを	-10.9446
幡	-10.9446
戦時	-10.9449
にそれぞれ	-10.945
移住	-10.9455
ミュ	-10.9458
阿波	-10.9458
日本一	-10.9461
灰	-10.9464
三次	-10.9464
bo	-10.9464
ないこと	-10.9465
著者	-10.9467
の機能	-10.9468
になること	-10.9468
特撮	-10.9471
僕	-10.9472
鄭	-10.9472
込	-10.9472
月現在	-10.9472
を見る	-10.9477
役者	-10.9477
体育	-10.9478
以外は	-10.948
評論	-10.9481
ack	-10.9482
北西部	-10.9483
トーク	-10.9483
工作	-10.9484
ロイド	-10.9484
周り	-10.9487
tion	-10.9487
出して	-10.9488
繋	-10.9489
実家	-10.949
の中間	-10.9491
フィンランド	-10.9491
カッ	-10.9492
ers	-10.9493
農民	-10.9494
語り	-10.9494
詰	-10.9495
になっており	-10.9496
検出	-10.9497
伊達	-10.9497
量産	-10.9497
品質	-10.9497
ome	-10.9498
ea	-10.9499
野生	-10.95
の番組	-10.9502
面で	-10.9503
駅となる	-10.9504
▁江戸時代	-10.9505
たけ	-10.9505
ES	-10.9507
粟	-10.9509
変わり	-10.951
リスク	-10.9513
ヨー	-10.9514
ゲー	-10.9514
侵入	-10.9516
広がり	-10.9516
シリーズの	-10.9518
が初めて	-10.9521
水平	-10.9521
生まれた	-10.9522
レル	-10.9522
OVA	-10.9524
ver	-10.9525
(2007	-10.9526
鶏	-10.9527
存在した	-10.9528
プロテスタント	-10.9528
オーケストラ	-10.9528
窒素	-10.9528
戦士	-10.9528
を走る	-10.9529
議席	-10.9529
▁李氏朝鮮	-10.9533
世界的に	-10.9535
嶺	-10.9539
AV	-10.9541
者として	-10.9545
に進学	-10.9545
1886	-10.9546
▁あらすじ	-10.9547
標識	-10.9547
株主	-10.9552
幅広い	-10.9552
Al	-10.9553
いわ	-10.9555
91	-10.9556
来る	-10.9556
ところが	-10.9559
グラン	-10.956
be	-10.956
炉	-10.9565
国歌	-10.9565
に至った	-10.9566
零	-10.9566
ニュータウン	-10.9566
視聴率	-10.9567
渡り	-10.9567
東南アジア	-10.9568
ive	-10.9569
還元	-10.9569
ドロ	-10.957
三木	-10.9571
数を	-10.9573
する際に	-10.9574
ide	-10.9575
座標	-10.958
条の	-10.9582
籠	-10.9583
‐	-10.9584
火星	-10.9584
モーニング	-10.9585
証拠	-10.9585
実績	-10.9585
を介して	-10.9586
ヤマト	-10.9592
波長	-10.9593
事実上の	-10.9594
弱い	-10.9603
隈	-10.9603
に昇格	-10.9604
具体的な	-10.9606
に分けられる	-10.9608
科の	-10.9609
固有	-10.9609
HD	-10.9609
彼が	-10.9611
日本における	-10.9612
映画監督	-10.9615
。2004	-10.9615
tic	-10.9617
をそれぞれ	-10.9617
坂本	-10.9617
RI	-10.962
橘	-10.9622
1925	-10.9623
相続	-10.9624
NA	-10.9625
首都圏	-10.9627
領主	-10.9627
位相	-10.9629
順に	-10.9629
可能である	-10.9631
にいた	-10.9631
みず	-10.9634
明らか	-10.9634
下関	-10.9635
単独で	-10.9636
気温	-10.9638
克	-10.9641
ドライブ	-10.9641
ペンネーム	-10.9642
媒体	-10.9643
影響力	-10.9644
挿入	-10.9647
みな	-10.9649
もあるが	-10.965
を含め	-10.9652
借	-10.9653
ほとんどが	-10.9653
有馬	-10.9654
太子	-10.9655
▁快速	-10.9656
を通過する	-10.9659
ET	-10.9661
マク	-10.9662
ジェット	-10.9664
ナンバー	-10.9664
ケーブルテレビ	-10.9666
選挙区	-10.9666
向けに	-10.9667
等を	-10.9668
エンド	-10.9669
モール	-10.967
ちゃ	-10.967
活動を	-10.9671
版の	-10.9672
拒否	-10.9674
の歌	-10.9676
闇	-10.9679
IBM	-10.9679
ハードウェア	-10.9679
行政区画	-10.968
たこと	-10.9682
石狩	-10.9682
この地域	-10.9684
に改組	-10.9684
以	-10.9686
の間の	-10.9686
風景	-10.969
com	-10.9694
、1991	-10.9695
倭	-10.9696
ロータリー	-10.9697
方面への	-10.9698
ことはない	-10.9698
が成立する	-10.97
砂糖	-10.97
実際	-10.9701
車の	-10.9704
若者	-10.9707
らせ	-10.9709
係	-10.9714
東アジア	-10.9715
監督の	-10.9716
プロトコル	-10.9718
疑問	-10.9718
▁作品リスト	-10.9718
短く	-10.9718
仮説	-10.972
に戻る	-10.9722
国府	-10.9723
大王	-10.9727
1939	-10.9729
、1993	-10.973
立地	-10.9731
の構成	-10.9731
巳	-10.9736
0°	-10.9737
削減	-10.9737
むしろ	-10.9738
移行	-10.9738
更	-10.9742
使われる	-10.9744
定められている	-10.9745
世紀後半	-10.9745
デモ	-10.9747
武将	-10.9749
残っている	-10.9751
su	-10.9752
ローマ教皇	-10.9752
附	-10.9753
形電車	-10.9754
法学	-10.9754
タカ	-10.9755
渋滞	-10.9756
負け	-10.9757
就職	-10.9757
取締役	-10.9758
▁w	-10.9758
ミング	-10.9761
事業所	-10.9761
に大きな	-10.9762
保証	-10.9762
過去の	-10.9762
▁定義	-10.9762
−	-10.9763
常磐線	-10.9763
張り	-10.9767
紀元	-10.9768
地上駅	-10.9768
したことで	-10.9771
賜	-10.9772
操	-10.9773
町が発足	-10.9773
の距離	-10.9774
スキ	-10.9775
鳳	-10.9775
スペイン語	-10.9778
はほぼ	-10.9778
▁1912	-10.9778
寛政	-10.9779
▁神戸	-10.9779
コス	-10.9781
LA	-10.9784
データを	-10.9785
管区	-10.9786
総会	-10.9787
将来	-10.9787
東京都立	-10.9789
点で	-10.9792
推薦	-10.9794
緩和	-10.9796
卓	-10.9797
▁愛知県	-10.9798
トリー	-10.9798
少数	-10.9799
直後に	-10.9799
▁Ar	-10.98
付ける	-10.98
▁大阪府	-10.9802
ひとり	-10.9803
1927	-10.9803
原町	-10.9804
に向かう	-10.9804
、1984	-10.9805
各社	-10.9807
マックス	-10.981
することもある	-10.9811
アカデミー	-10.9812
プロデュース	-10.9814
が発生し	-10.9814
▁NHK	-10.9815
が可能な	-10.9818
かない	-10.9818
あか	-10.9818
南区	-10.9819
ウルトラ	-10.9819
ニス	-10.9819
塁	-10.982
した際	-10.9825
想	-10.9827
ティア	-10.9829
の始まり	-10.9829
兵庫	-10.983
▁アン	-10.9833
室町幕府	-10.9833
瓦	-10.9833
クーデター	-10.9833
交易	-10.9833
両方	-10.9834
南西部	-10.9834
ーション	-10.9835
支所	-10.9837
1900	-10.9837
国立公園	-10.9838
非常	-10.9839
リエ	-10.9839
クター	-10.9842
東区	-10.9842
起こる	-10.9846
幕府領	-10.9851
青森	-10.9851
天国	-10.9852
泥	-10.9852
定期券	-10.9854
者たち	-10.9854
が使われる	-10.9858
▁ジョン	-10.9859
▁千葉県	-10.9859
豊橋	-10.986
落語	-10.9862
募集	-10.9863
ec	-10.9864
から約	-10.9865
共同体	-10.9867
建設された	-10.9868
オート	-10.9868
峡	-10.9869
バリ	-10.9869
大幅に	-10.9871
幻	-10.9871
秩序	-10.9872
楊	-10.9872
ギャラリー	-10.9872
ボクシング	-10.9872
作った	-10.9873
▁教育	-10.9874
176	-10.9874
のみを	-10.9875
こうして	-10.9877
一丁目にある	-10.9879
の生活	-10.988
)※	-10.988
▁のときの	-10.9883
所得	-10.9885
を占め	-10.9886
鈴	-10.9887
和泉	-10.9888
過程で	-10.989
就	-10.989
先端	-10.989
勾配	-10.9891
皿	-10.9891
予防	-10.9892
ウッド	-10.9894
の交通	-10.9895
本格的な	-10.9896
照明	-10.9896
先生	-10.9898
▁1914	-10.99
はあまり	-10.9901
伊那	-10.9901
のもとで	-10.9901
さか	-10.9902
部位	-10.9908
ことによる	-10.9909
放出	-10.991
顧問	-10.9911
アナウンス	-10.9911
フロント	-10.9911
棋士	-10.9911
世紀から	-10.9914
理由は	-10.9914
考案	-10.9917
(1999	-10.9917
すい	-10.9919
フロ	-10.992
前者	-10.9923
空中	-10.9925
sc	-10.9925
産地	-10.9926
キリスト	-10.9927
▁1921	-10.9927
110	-10.9928
1919	-10.9928
隋	-10.993
脱退	-10.9931
si	-10.9931
約束	-10.9938
バード	-10.9938
テス	-10.994
する際	-10.994
齢	-10.9943
イヤー	-10.9944
水準	-10.9945
前は	-10.9946
を伴う	-10.995
世紀頃	-10.995
農業協同組合	-10.995
バンク	-10.9951
年間の	-10.9951
桑	-10.9952
一般的	-10.9953
公開された	-10.9954
1924	-10.9955
代行	-10.9957
同国	-10.9957
ケット	-10.9958
個々の	-10.9958
を獲得した	-10.9959
力が	-10.996
見える	-10.996
小路	-10.996
ボタン	-10.9961
中東	-10.9961
連れ	-10.9963
ai	-10.9967
荷物	-10.9969
古事記	-10.997
課題	-10.997
ウラン	-10.9971
大社	-10.9972
家臣	-10.9973
終わる	-10.9973
メッセージ	-10.9973
付けられた	-10.9975
ェ	-10.9976
ton	-10.9977
との間で	-10.9977
コーン	-10.9981
の声	-10.9982
続け	-10.9982
三田	-10.9983
鉄道事業	-10.9983
打者	-10.9986
途中で	-10.9988
町役場	-10.9989
開校	-10.999
ひがし	-10.999
EP	-10.9991
とも言う	-10.9992
合流	-10.9994
最新	-10.9997
化され	-10.9998
春の	-10.9998
送り	-10.9999
採用された	-11
この時期	-11.0001
上流	-11.0005
付与	-11.0006
一次	-11.0007
政府の	-11.0009
▁Me	-11.001
ガラ	-11.001
ラジオ番組	-11.0013
亀山	-11.0016
海域	-11.0019
山頂	-11.0021
ass	-11.0022
ロイ	-11.0023
マケドニア	-11.0025
にち	-11.0025
という用語	-11.0026
流入	-11.0026
は当駅	-11.0027
班	-11.0028
▁兵庫県	-11.0034
ずれ	-11.0036
識	-11.0036
ならない	-11.0037
小学	-11.004
運行する	-11.0042
が必要である	-11.0043
もあって	-11.0043
バーン	-11.0047
▁1907	-11.0048
ダウン	-11.0049
の中から	-11.0049
貨	-11.0051
だけの	-11.0053
過去に	-11.0057
るために	-11.0058
ディオ	-11.0058
はないが	-11.0059
日本でも	-11.0063
中には	-11.0064
NK	-11.0067
音響	-11.0069
奏者	-11.007
本名は	-11.007
の区別	-11.007
終結	-11.0071
▁横浜	-11.0071
内戦	-11.0076
中心部	-11.0076
モンテ	-11.0078
債務	-11.0081
小田	-11.0081
スティ	-11.0082
▁形態	-11.0083
類似	-11.0084
の最初の	-11.0086
救	-11.0087
ついた	-11.0087
▁地名	-11.0087
鐘	-11.0088
蓋	-11.0088
修了	-11.0088
を担当する	-11.0089
国鉄分割民営化に伴い	-11.0089
に設置されている	-11.0089
二つ	-11.0089
の中の	-11.009
158	-11.009
されると	-11.009
諸侯	-11.0091
▁1939	-11.0092
1938	-11.0093
幹線	-11.0101
ノール	-11.0102
int	-11.0103
新設された	-11.0106
エク	-11.0106
OL	-11.0106
アフガニスタン	-11.0108
赤色	-11.0108
シンボル	-11.0109
ts	-11.011
が丘	-11.0111
改札内	-11.0111
するか	-11.0111
1933	-11.0113
以後は	-11.0114
祭り	-11.0116
山下	-11.0117
ウー	-11.0118
すら	-11.012
pe	-11.0122
が進められ	-11.0123
学派	-11.0123
ではなかった	-11.0125
苗	-11.0125
部分が	-11.0126
ボーカル	-11.013
留学	-11.0132
正統	-11.0134
▁1913	-11.0134
主流	-11.0134
▁当駅は	-11.0138
▁神	-11.0139
ウォー	-11.0139
主題	-11.0142
しなければならない	-11.0143
クロー	-11.0144
鎌	-11.0147
織田信長	-11.0149
割り	-11.015
HO	-11.0152
本尊	-11.0154
GP	-11.0154
を主	-11.0155
DO	-11.0158
電磁	-11.0158
の組み合わせ	-11.0161
アニ	-11.0162
各地で	-11.0163
欲	-11.0164
ヴィルヘルム	-11.0167
▁各	-11.0168
卯	-11.0168
ウェールズ	-11.0168
のとき	-11.0168
ハシ	-11.0171
ラテン文字	-11.0171
上にある	-11.0171
▁岡山県	-11.0172
メタ	-11.0173
写像	-11.0173
著名な	-11.0175
本格的に	-11.0176
▁||	-11.0176
アーサー	-11.018
備前	-11.018
だから	-11.0184
夷	-11.0188
ドラゴン	-11.0189
指数	-11.0189
増設	-11.0189
次々と	-11.0189
が主	-11.0191
と呼んだ	-11.0191
の規定	-11.0193
軍艦	-11.0194
駅として開業	-11.0195
任期	-11.0195
停車する	-11.0195
共用	-11.0196
天王寺	-11.0199
故	-11.0201
始まった	-11.0201
、1995	-11.0202
上げた	-11.0203
ゴル	-11.0204
松原	-11.0206
阪急電鉄	-11.0208
郊外	-11.0208
混雑	-11.0209
まえ	-11.0209
で放送された	-11.021
キュー	-11.021
ツール	-11.0211
氏が	-11.0212
として用いられる	-11.0212
識別	-11.0213
越前	-11.0213
会話	-11.0213
ow	-11.0216
技術者	-11.0216
の諸	-11.0217
新駅舎	-11.0218
シング	-11.0219
名義で	-11.022
現れた	-11.0222
側から	-11.0223
▁天正	-11.0223
コメディ	-11.0224
タイヤ	-11.0228
▁静岡県	-11.023
差し	-11.023
人材	-11.0231
に限定	-11.0231
施	-11.0233
はら	-11.0234
という名前	-11.0236
押し	-11.0236
トゥー	-11.0237
従って	-11.0238
さらには	-11.0238
路線である	-11.0238
1912	-11.0239
武帝	-11.024
ヌー	-11.0242
晶	-11.0242
まんが	-11.0245
と並んで	-11.0246
ミュー	-11.0247
最低	-11.0248
ゲイ	-11.0249
手掛け	-11.0249
数々の	-11.025
▁to	-11.0252
回数	-11.0253
に至るまで	-11.0253
金曜	-11.0254
同市	-11.0255
央	-11.0256
ビス	-11.0257
(1998	-11.0257
松島	-11.0258
ギリシャ語	-11.0261
障害者	-11.0264
随	-11.0264
れん	-11.0264
ここに	-11.0265
1887	-11.0266
日本貨物鉄道	-11.0268
スパルタ	-11.027
1910	-11.0271
を目的として	-11.0272
大坂	-11.0272
見え	-11.0274
燃	-11.0279
港湾	-11.028
眠	-11.0283
るように	-11.0283
三大	-11.0285
南北朝時代	-11.0285
よって	-11.0288
医薬品	-11.0289
our	-11.0292
大阪府大阪市	-11.0292
いう	-11.0293
完全な	-11.0294
刑法	-11.0297
▁1932	-11.0297
新井	-11.0297
実質	-11.0297
LO	-11.03
▁Le	-11.03
専用線	-11.0301
下位	-11.0301
稿	-11.0305
に対しては	-11.0307
の舞台	-11.0307
生息	-11.0308
近衛	-11.0309
▁郡域	-11.031
年代以降	-11.0312
に統合	-11.0316
の孫	-11.0318
系譜	-11.0318
縮	-11.0318
本作品	-11.0319
されたため	-11.032
KI	-11.032
ヒーロー	-11.0321
敗北	-11.0321
良く	-11.0322
残った	-11.0325
したい	-11.0327
事を	-11.0328
甲府	-11.0329
発酵	-11.0329
おおむね	-11.0329
ヒロイン	-11.033
方面行き	-11.0332
自由に	-11.0333
書体	-11.0335
へ向かう	-11.0337
広義の	-11.0338
分野で	-11.0338
多様な	-11.0339
に生まれた	-11.0339
ps	-11.034
ネコ	-11.0341
フィリップ	-11.0342
南極	-11.0343
日本の市町村	-11.0344
の木	-11.0344
上がる	-11.0345
に転換	-11.0345
ッサ	-11.0345
視点	-11.0348
雌	-11.0348
拳	-11.0349
邑	-11.0349
慣習	-11.0349
を挟んで	-11.035
ヶ所	-11.035
にちなんで	-11.035
日本橋	-11.035
に分割	-11.035
単線	-11.0352
指令	-11.0352
大谷	-11.0355
テーブル	-11.0356
らん	-11.0358
の発生	-11.0358
脱出	-11.0361
氏は	-11.0362
リオン	-11.0362
書かれている	-11.0363
駅が開業	-11.0363
となったが	-11.0364
順位	-11.0364
は少ない	-11.0364
の語	-11.0364
スイッチ	-11.0367
ぎょう	-11.037
恐怖	-11.037
狼	-11.037
に由来し	-11.037
ったり	-11.037
フォント	-11.037
ノート	-11.0371
サイン	-11.0372
競合	-11.0373
飛行場	-11.0375
が最も	-11.0375
▁自動販売機	-11.0381
能登	-11.0384
発車メロディ	-11.0384
西武鉄道	-11.0384
フェア	-11.0385
攻	-11.0385
が決定	-11.0385
ace	-11.0387
天文学者	-11.0388
手術	-11.0389
すぎ	-11.039
他人	-11.0391
改装	-11.0391
臨床	-11.0391
をもとに	-11.0392
せずに	-11.0393
天文学	-11.0393
漫画作品	-11.0395
武家	-11.0397
全身	-11.04
民主主義	-11.04
周囲の	-11.0406
九州旅客鉄道	-11.0411
仕組み	-11.0411
――	-11.0412
EX	-11.0412
東北自動車道	-11.0413
のひとつである	-11.0415
RS	-11.0416
と表記される	-11.042
演技	-11.042
面積は	-11.0421
殺し	-11.0422
継ぎ	-11.0427
耕	-11.0428
町内	-11.0429
携帯	-11.0429
▁複線区間	-11.0432
▁に所在	-11.0432
岩石	-11.0434
ラッ	-11.0434
呼吸	-11.0435
の人々	-11.0437
松尾	-11.0438
の導入	-11.0438
脈	-11.0442
手に	-11.0442
候	-11.0446
国内の	-11.0447
充	-11.0447
元来	-11.0448
しさ	-11.0449
を示し	-11.0453
しかない	-11.0453
必要な	-11.0455
ガリ	-11.0455
の漫画	-11.0456
範	-11.0457
されておらず	-11.0457
▁音楽	-11.0458
ip	-11.0459
▁本項では	-11.0459
マツ	-11.0461
人数	-11.0463
ユニ	-11.0463
作る	-11.0465
存在し	-11.0469
視覚	-11.0474
入場	-11.0475
磁	-11.0476
ホラー	-11.0481
台車	-11.0484
メタル	-11.0484
付加	-11.0486
使われている	-11.0487
隔	-11.0487
日までは	-11.049
三丁目	-11.0492
スペ	-11.0492
ナトリウム	-11.0493
でなく	-11.0494
流れる	-11.0494
ゾーン	-11.0496
牽引	-11.0496
したとき	-11.0499
▁終点	-11.0501
再現	-11.0503
明確な	-11.0504
信者	-11.0506
の小説	-11.0506
ズム	-11.0506
ポル	-11.0506
大分県	-11.0507
ひら	-11.0507
の線路	-11.051
the	-11.0511
塗装	-11.0514
Mac	-11.0516
を獲得	-11.0516
俗	-11.0517
人であり	-11.0519
臨時列車	-11.0523
▁呉	-11.0523
の目的	-11.0523
▁Mo	-11.0526
大量の	-11.0527
指名	-11.0527
運航	-11.0528
多くは	-11.0531
小泉	-11.0532
銘	-11.0534
兆	-11.0535
工学部	-11.0535
追い	-11.0535
アクセント	-11.0535
で唯一	-11.0536
の指導	-11.0536
れない	-11.054
ないように	-11.0543
為に	-11.0544
1893	-11.0546
ルト	-11.0547
位置づけ	-11.0551
並べ	-11.0551
スリー	-11.0552
態	-11.0553
等星	-11.0555
ニュージーランド	-11.0555
飼育	-11.0555
ni	-11.0557
などによって	-11.0557
透明	-11.0557
欧	-11.0557
意義	-11.056
▁唐	-11.0561
▁軌間	-11.0561
訴	-11.0566
ローズ	-11.0569
を基に	-11.0569
走り	-11.0571
q	-11.0573
を学ぶ	-11.0575
様子	-11.0575
有数の	-11.0575
は当初	-11.0576
クイズ	-11.0576
自身は	-11.0577
1888	-11.0578
襲撃	-11.0579
司令官	-11.0579
町長	-11.058
が生じ	-11.058
ボディ	-11.058
処刑	-11.0581
冒頭	-11.0581
101	-11.0582
▁映画	-11.0583
を担う	-11.0586
ものではない	-11.0588
の所属となる	-11.059
外観	-11.0594
ソル	-11.0596
FNN	-11.0597
操縦	-11.0597
仮想	-11.0598
日付で	-11.0599
角度	-11.0599
西宮	-11.06
▁旧暦	-11.06
ラフ	-11.0601
見られる	-11.0603
設置されている	-11.0603
大使	-11.0604
エース	-11.0605
のではないか	-11.0606
吉川	-11.0606
づけ	-11.0606
▁1938	-11.0606
が設置される	-11.0609
に関わる	-11.0609
去	-11.0609
イングランドの	-11.061
の次男	-11.0612
前後の	-11.0615
タス	-11.0616
索	-11.0616
烏	-11.0617
付近で	-11.0617
つつある	-11.0621
ud	-11.0621
▁Y	-11.0622
は基本的に	-11.0622
ようである	-11.0629
ランク	-11.0632
レーザー	-11.0633
優等列車	-11.0633
8:00	-11.0633
オープニング	-11.0633
毛利	-11.0633
、1987	-11.0635
内陸	-11.0636
に所属する	-11.0638
絶滅	-11.0639
次府県統合により	-11.0639
を務めていた	-11.0639
途	-11.064
SD	-11.064
アマ	-11.0641
0.0	-11.0641
動物の	-11.0642
電気軌道	-11.0642
日本海軍	-11.0644
ペリ	-11.0645
狭義の	-11.0646
が担当	-11.0646
NE	-11.0649
の変更	-11.0652
に使用される	-11.0652
に収録	-11.0652
と呼ばれることもある	-11.0653
大井	-11.0653
影響を受けた	-11.0653
NET	-11.0654
社が	-11.0654
1874	-11.0655
鋭	-11.0655
ティン	-11.0655
ティス	-11.0657
各地の	-11.0658
豊臣秀吉	-11.066
晩	-11.0661
王国の	-11.0661
夏季	-11.0661
▁駅名の由来	-11.0662
現存	-11.0662
通過する	-11.0664
▁cm	-11.0664
強力な	-11.0664
石井	-11.0666
機動	-11.067
人たち	-11.0672
日高	-11.0673
を大きく	-11.0673
局の	-11.0675
キャン	-11.0675
の前に	-11.0678
続ける	-11.0679
開館	-11.0679
神学	-11.068
同線	-11.0681
騒動	-11.0682
ブラウン	-11.0682
実力	-11.0684
原稿	-11.0684
は大きく	-11.0685
の一部を	-11.0686
根本	-11.0687
アリス	-11.0689
映	-11.0689
カーブ	-11.0691
タイプの	-11.0695
▁開業	-11.0696
多摩川	-11.0698
利用客	-11.0699
の調査	-11.0699
慈	-11.07
高岡	-11.0701
-10	-11.0702
珍しい	-11.0703
年代前半	-11.0704
神奈川県横浜市	-11.0704
サンデー	-11.0706
とは別に	-11.0707
陸奥	-11.0709
積極的に	-11.0709
回収	-11.071
ふじ	-11.0712
を示した	-11.0712
いき	-11.0713
再開発	-11.0713
放映	-11.0713
祥	-11.0713
世界で	-11.0716
融合	-11.0716
up	-11.0718
近くの	-11.0719
教義	-11.0719
地区の	-11.0721
しているため	-11.0722
古川	-11.0722
連合軍	-11.0724
EL	-11.0724
ギャグ	-11.0725
カレッジ	-11.0725
を起こし	-11.0725
熱力学	-11.0726
カフェ	-11.0726
の領域	-11.0728
金剛	-11.073
貢献	-11.0732
転写	-11.0732
有料	-11.0733
ビュー	-11.0734
東京府	-11.0735
出現	-11.0736
ru	-11.0737
線内	-11.0737
感じ	-11.0738
開店	-11.074
子音	-11.0742
貧	-11.0744
ラッシュ	-11.0745
日本国内で	-11.0745
年代後半	-11.0747
中性子	-11.075
の開催	-11.0752
の一部が	-11.0753
レム	-11.0753
南東部	-11.0754
描かれた	-11.0755
コント	-11.0758
▁&	-11.0758
階に	-11.0759
沿いに	-11.076
と言い	-11.0762
の理論	-11.0763
窪	-11.0765
肺	-11.0765
官設鉄道	-11.0766
▁車椅子用	-11.0766
の運転	-11.0766
砂漠	-11.0766
ore	-11.0767
近くに	-11.0767
仮称	-11.0768
バイオ	-11.0768
民放	-11.0769
を使い	-11.0771
1918	-11.0771
▁1910	-11.0773
登場人物	-11.0774
を継承	-11.0774
種別	-11.0777
えて	-11.0777
度目の	-11.0779
並びに	-11.0782
呼ぶ	-11.0784
Be	-11.0786
瓶	-11.0787
に入学	-11.079
ルイス	-11.0791
町田	-11.0792
軍団	-11.0792
大部分	-11.0793
以西	-11.0793
一般化	-11.0794
人権	-11.0795
日本においては	-11.0795
立法	-11.0796
新宿駅	-11.0797
高架駅	-11.0798
停車場	-11.0799
リク	-11.0799
900	-11.0806
を作った	-11.0806
ていたため	-11.0806
らは	-11.0806
拓	-11.0807
(2008	-11.0807
▁駅数	-11.0808
を知る	-11.0808
Java	-11.0809
インタビュー	-11.0811
統制	-11.0812
きり	-11.0812
家が	-11.0813
てしまった	-11.0814
ee	-11.0815
、1992	-11.082
量は	-11.082
祖先	-11.0821
南町	-11.0821
この作品	-11.0821
与えられた	-11.0822
交通量	-11.0824
、1988	-11.0825
来日	-11.0826
源氏	-11.0827
ヲ	-11.0829
にわたる	-11.083
by	-11.083
シカゴ	-11.0831
心理	-11.0832
ata	-11.0832
何か	-11.0832
駅長	-11.0833
単なる	-11.0833
イスラム教	-11.0833
架空の	-11.0834
司教	-11.0834
向かい	-11.0834
の自由	-11.0835
、1989	-11.0835
歳以上	-11.0836
175	-11.0837
の向上	-11.0837
表紙	-11.0839
早い	-11.0839
1880	-11.0842
本数	-11.0846
lu	-11.0846
単純な	-11.0846
賞金	-11.0847
宮崎県	-11.0849
対称	-11.0849
を食べる	-11.085
混同	-11.085
田辺	-11.085
ことが出来る	-11.085
シロ	-11.0853
津村	-11.0854
▁通過	-11.0855
が入る	-11.0857
に帰	-11.0858
編入	-11.0862
接続する	-11.0863
国防	-11.0863
ライター	-11.0865
表す	-11.0866
▁中世	-11.0867
買い	-11.0868
名で	-11.0869
逸	-11.087
歌舞伎	-11.0873
東西に	-11.0874
併用	-11.0874
内にある	-11.0877
チップ	-11.088
うた	-11.088
関東地方	-11.0881
最後に	-11.0881
art	-11.0881
ショウ	-11.0881
end	-11.0883
もない	-11.0883
コピー	-11.0885
あさ	-11.0885
ガール	-11.0886
中でも	-11.0888
を迎え	-11.0888
品川	-11.089
桜井	-11.0891
総称	-11.0892
幾	-11.0892
肝	-11.0894
おい	-11.0895
▁イタリア	-11.0896
答え	-11.0896
にほん	-11.0897
的である	-11.0899
れい	-11.0901
地域では	-11.0901
改札外	-11.0903
色彩	-11.0905
が非常に	-11.0906
の中心地	-11.0913
決め	-11.0915
を下	-11.0915
地方公共団体	-11.0916
快速列車	-11.0916
●	-11.0916
逸話	-11.0917
▁岩	-11.0918
の技術	-11.092
星の	-11.0921
No	-11.0926
米軍	-11.0928
置き	-11.0929
1884	-11.0932
に師事	-11.0933
旧高旧領取調帳	-11.0937
独裁	-11.0937
侵略	-11.0938
方の	-11.0938
ポンド	-11.0939
▁1919	-11.0941
じゃ	-11.0942
観光客	-11.0942
佐渡	-11.0942
ネーム	-11.0944
誰	-11.0948
▁分布	-11.0949
(1990	-11.095
参入	-11.0951
が設けられている	-11.0952
描いた	-11.0952
長女	-11.0952
好きな	-11.0952
駅ビル	-11.0952
の増加	-11.0956
サウンド	-11.0958
以下に	-11.0959
フト	-11.0961
庄内	-11.0962
攻め	-11.0963
特別な	-11.0963
1・2	-11.0963
後継	-11.0964
国際空港	-11.0967
中断	-11.0968
播磨	-11.097
青木	-11.0976
が低い	-11.0976
運送	-11.0977
祀	-11.0979
SM	-11.0979
芸名	-11.0981
エルサレム	-11.0981
スケール	-11.0981
終着駅	-11.0982
後ろ	-11.0983
海戦	-11.0984
神殿	-11.0985
東京市	-11.0987
ka	-11.0989
アメリカで	-11.0991
横山	-11.0991
チュー	-11.0991
ジム	-11.0992
協議	-11.0993
有機	-11.0994
を発行	-11.0995
▁現代	-11.0996
炭酸	-11.0997
麗	-11.0997
する方法	-11.0998
ンス	-11.0999
プール	-11.0999
直後の	-11.1
ak	-11.1001
政区画として発足した当時の郡域は	-11.1002
討ち	-11.1003
署	-11.1004
死刑	-11.1004
皇女	-11.1006
、1985	-11.1006
と考え	-11.1006
教団	-11.1008
平地	-11.1009
DI	-11.1009
クレー	-11.1011
pp	-11.1012
アイヌ	-11.1013
源流	-11.1015
ーノ	-11.1018
貸	-11.1019
伯爵	-11.1022
1882	-11.1022
金曜日	-11.1023
ビタミン	-11.1024
柿	-11.1024
最長	-11.1025
国有化	-11.1025
▁x	-11.1025
▁周辺	-11.1026
▁真	-11.1027
食材	-11.1027
島駅	-11.1028
有人	-11.1032
に入ると	-11.1033
京成電鉄	-11.1033
▁秦	-11.1037
られない	-11.1037
死後	-11.1037
縄	-11.1041
生駒	-11.1041
の武将	-11.1042
1881	-11.1044
蜀	-11.1046
潤	-11.1046
インターナショナル	-11.1046
激しく	-11.1047
世紀には	-11.1051
169	-11.1051
車種	-11.1051
出身者	-11.1051
が停車する	-11.1052
内容は	-11.1053
気圧	-11.1054
ドラム	-11.1057
。2000	-11.1057
緯度	-11.1058
独自	-11.106
▁1918	-11.1062
石炭	-11.1063
捨て	-11.1063
母の	-11.1063
ga	-11.1064
ショート	-11.1064
巡洋艦	-11.1065
移管	-11.1065
碁	-11.1068
ヴァイオリン	-11.1068
は比較的	-11.1068
達成	-11.1069
那須	-11.1069
▁岐阜県	-11.107
▁1897	-11.1071
支流	-11.1072
移動する	-11.1072
陽子	-11.1073
ライバル	-11.1073
文化財	-11.1074
▁本社	-11.1075
が起こり	-11.1075
DS	-11.1075
同名の	-11.1075
貨物の取り扱いを廃止	-11.1076
に限り	-11.1078
にとっては	-11.108
▁Ca	-11.1081
自体が	-11.1081
津島	-11.1081
水上	-11.1082
支部	-11.1083
預金	-11.1083
やく	-11.1085
の最終	-11.1085
1921	-11.1086
を掲げ	-11.1089
多項式	-11.109
コンビニエンスストア	-11.109
シナリオ	-11.109
修道院	-11.1091
1600	-11.1091
戦後の	-11.1091
網走	-11.1092
インディアン	-11.1092
みられる	-11.1094
受賞者	-11.1095
古来	-11.1098
高圧	-11.1099
てつ	-11.1099
書物	-11.1102
用地	-11.1102
。2010	-11.1103
KA	-11.1103
。2007	-11.1107
pro	-11.1108
各地	-11.1109
が同じ	-11.1109
で約	-11.111
DC	-11.111
コンクリート	-11.1112
囲碁	-11.1112
カレー	-11.1112
の管理	-11.1112
単純	-11.1114
事業を	-11.1114
赤穂	-11.1117
しようとする	-11.1118
磁場	-11.112
▁上り線	-11.1121
通じ	-11.1126
斗	-11.1126
。2006	-11.1126
壊	-11.1126
鮮	-11.1127
明らかに	-11.1128
かね	-11.1129
スパ	-11.113
見られ	-11.1131
陶	-11.1132
駅間を	-11.1132
定員	-11.1133
老朽化	-11.1134
トロン	-11.1134
合わせて	-11.1134
と同様の	-11.1134
▁1900	-11.1135
レーダー	-11.1136
フェル	-11.1137
全部	-11.1138
の象徴	-11.1139
バラエティ番組	-11.1142
を与えた	-11.1143
出店	-11.1148
▁1915	-11.1152
金山	-11.1152
ポリス	-11.1155
置かれ	-11.1156
双方	-11.1156
二郎	-11.1156
くらい	-11.1158
たく	-11.1161
防御	-11.1163
科学者	-11.1164
終日	-11.1164
迷	-11.1166
中央本線	-11.1168
推	-11.1168
もなく	-11.1168
▁五	-11.1169
鉄道省	-11.1176
戦場	-11.1177
設定されている	-11.1178
打撃	-11.1179
1885	-11.118
入手	-11.118
▁ザ	-11.1181
認め	-11.1181
乗降	-11.1182
ボルト	-11.1184
影響を与えた	-11.1186
(1997	-11.1187
と比べて	-11.1187
調べ	-11.1188
イド	-11.1189
8000	-11.119
流体	-11.1191
で構成される	-11.1192
器具	-11.1192
分かれ	-11.1193
海水	-11.1197
2・3	-11.1199
持株会社	-11.12
年中行事	-11.12
高麗	-11.1201
メカ	-11.1201
志摩	-11.1202
精度	-11.1202
動脈	-11.1203
作品である	-11.1208
乗り入れる	-11.121
年頃から	-11.1212
器官	-11.1213
東北地方	-11.1214
の要素	-11.1218
的で	-11.1218
が困難	-11.1219
▁k	-11.122
甥	-11.1222
詠	-11.1222
首都高速	-11.1223
ウェブサイト	-11.1223
両国	-11.1223
ろく	-11.1223
グラス	-11.1224
応永	-11.1225
▁Pro	-11.1226
電気通信	-11.1229
ヴィル	-11.123
?」	-11.1231
薄い	-11.1231
中京	-11.1233
代数	-11.1235
盛り	-11.1237
として活動	-11.1238
されることもある	-11.1239
青春	-11.1239
複線化	-11.124
年頃に	-11.1242
哉	-11.1245
鈴鹿	-11.1246
白鳥	-11.1248
貨車	-11.1249
広大な	-11.1249
TB	-11.1249
コーチ	-11.1252
共有	-11.1256
新町	-11.1258
ことはなかった	-11.1258
1868	-11.1261
バッ	-11.1261
洪	-11.1262
モノレール	-11.1263
を採用している	-11.1264
蒸気機関車	-11.1265
雀	-11.1266
驚	-11.1266
〔	-11.1267
潟	-11.1267
ているため	-11.1268
(1996	-11.1268
しも	-11.1269
も含めて	-11.1271
私鉄	-11.1273
番線が	-11.1273
Ch	-11.1275
でありながら	-11.1277
を宣言	-11.1279
託	-11.1279
上下線	-11.1279
競	-11.1281
利用する	-11.1281
あら	-11.1281
あて	-11.1281
婦	-11.1282
複線	-11.1285
べく	-11.1285
の登場	-11.1287
枕	-11.1289
することにより	-11.129
ルーマニア	-11.129
の選手	-11.129
ワーク	-11.1291
ase	-11.1291
嵐	-11.1294
交番	-11.1296
無視	-11.1297
ance	-11.1299
飼	-11.1299
高速鉄道	-11.1301
削	-11.1302
空襲	-11.1303
シチリア	-11.1305
余り	-11.1306
これも	-11.1307
クラシック	-11.1309
プロイセン	-11.131
アウ	-11.131
の一つとして	-11.1311
、1986	-11.1311
娯楽	-11.1312
畳	-11.1312
PASMO	-11.1312
倶楽部	-11.1312
ではないが	-11.1313
特有の	-11.1313
引き継がれ	-11.1313
野球場	-11.1313
養老	-11.1313
いま	-11.1315
(1993	-11.1315
ボス	-11.1316
同一の	-11.132
わる	-11.1321
具体的には	-11.1322
養子	-11.1325
TS	-11.1326
タッチ	-11.1327
▁*	-11.133
北条氏	-11.133
連載された	-11.133
終了した	-11.1331
を重ね	-11.1334
出家	-11.1334
衆議院	-11.1334
▁1911	-11.1334
呼び名	-11.1334
凡	-11.1334
田原	-11.1336
特例	-11.1337
したものの	-11.1337
小島	-11.1337
以降に	-11.1337
運休	-11.1337
を形成し	-11.1339
大型の	-11.1339
の総称である	-11.134
社会学	-11.1341
ない限り	-11.1342
販	-11.1345
正確な	-11.1347
スピ	-11.1349
時期に	-11.1349
に所在する	-11.135
ナポリ	-11.1352
与えられる	-11.1352
浜松	-11.1355
斜	-11.1356
財閥	-11.1356
〕	-11.1357
所管	-11.1357
商標	-11.1358
工程	-11.1358
食べ	-11.1362
チェス	-11.1362
の君主	-11.1365
芦	-11.1366
城主	-11.1367
▁日本における	-11.1368
寄りの	-11.1369
利用されている	-11.137
を見せ	-11.1371
さわ	-11.1372
いし	-11.1374
名古屋鉄道	-11.1376
を達成	-11.1376
関与	-11.1377
順次	-11.1377
JNN	-11.1379
抽象	-11.1379
▁の値とみたとき	-11.1379
に従う	-11.138
折り	-11.138
摂取	-11.138
学士	-11.1381
藤田	-11.1382
練	-11.1386
ガイド	-11.1388
内閣総理大臣	-11.1388
製造された	-11.1392
ローマの	-11.1394
路線は	-11.1394
ae	-11.1395
した上で	-11.1395
後者	-11.1396
の形状	-11.1399
類の	-11.14
埋め	-11.1401
バリエーション	-11.1402
必須	-11.1402
登場した	-11.1403
踊り	-11.1404
ファイ	-11.1405
差異	-11.1405
栃木	-11.1406
宇治	-11.1406
碑	-11.1406
に関する法律	-11.1408
することによって	-11.1409
するのは	-11.141
終わり	-11.141
衝撃	-11.1411
富士山	-11.1412
に成功	-11.1413
直結	-11.1415
と言って	-11.1416
黒田	-11.1421
結果として	-11.1423
(2009	-11.1424
はなかった	-11.1424
月曜	-11.1425
茶屋	-11.1427
教科書	-11.1429
ひとつ	-11.143
開き	-11.1431
百済	-11.1432
の設立	-11.1435
ニウム	-11.1436
の対立	-11.1436
イェ	-11.1436
歯科	-11.1437
前提	-11.1439
を通過	-11.144
ってきた	-11.144
con	-11.1443
ND	-11.1444
ft	-11.1444
中原	-11.1446
年時点で	-11.1446
哺乳類	-11.1447
想定	-11.1447
を取って	-11.1448
ベリー	-11.1448
5,000	-11.1449
の名は	-11.1449
シナ	-11.1449
わった	-11.145
陰陽	-11.145
はいずれも	-11.145
かる	-11.1451
トール	-11.1451
-1)	-11.1453
慶応	-11.1455
国家の	-11.1456
切る	-11.1457
やその	-11.1457
することとなった	-11.1458
ium	-11.1459
SH	-11.146
なぜ	-11.1461
AB	-11.1462
大久保	-11.1463
来た	-11.1464
水を	-11.1465
AI	-11.1466
IA	-11.1467
靴	-11.147
通称は	-11.147
Apple	-11.147
に本社を置く	-11.147
内には	-11.147
八木	-11.1471
番ホーム	-11.1471
廃駅	-11.1471
女性の	-11.1471
枚の	-11.1473
朝倉	-11.1475
キーボード	-11.1475
スマート	-11.1475
初出	-11.1476
後方	-11.1476
性的	-11.1477
キリスト教の	-11.1479
井村	-11.1481
を立て	-11.1481
の不	-11.1482
の変	-11.1485
プス	-11.1485
正義	-11.1488
ギー	-11.1489
1913	-11.1492
を残した	-11.1494
あくまで	-11.1494
ニッポン放送	-11.1495
らし	-11.1495
(2010	-11.1496
▁ゲーム	-11.15
平等	-11.1503
彼らの	-11.1503
有利	-11.1503
ヶ谷	-11.1504
pa	-11.1505
上げる	-11.1507
地球の	-11.1509
こん	-11.1512
危	-11.1513
。1990	-11.1514
寿命	-11.1516
乗務員	-11.1516
一色	-11.1517
ジュニア	-11.1518
ロング	-11.152
策定	-11.152
岩手	-11.1521
ペア	-11.1522
伊東	-11.1523
リン酸	-11.1524
棚	-11.1524
日立	-11.1526
ファル	-11.1526
天下	-11.1527
BO	-11.1531
多くの場合	-11.1533
駅発着	-11.1534
oc	-11.1538
コンパクト	-11.1539
財団法人	-11.1539
矛盾	-11.1539
不詳	-11.1539
相手の	-11.154
ホームページ	-11.1541
167	-11.1542
じた	-11.1542
仮定	-11.1544
渡し	-11.1546
成立した	-11.155
105	-11.155
地域に	-11.1551
松竹	-11.1551
浄	-11.1553
公園駅	-11.1555
で生まれた	-11.1556
プレス	-11.1558
包囲	-11.156
ことに由来する	-11.1561
週刊少年サンデー	-11.1562
鎮圧	-11.1563
並行	-11.1564
を最後に	-11.1567
の代わりに	-11.1568
区別される	-11.1568
事象	-11.1569
種目	-11.157
用いられていた	-11.157
福田	-11.157
トヨタ	-11.1574
はまだ	-11.1574
クライ	-11.1575
不満	-11.1575
尼崎	-11.1577
境内	-11.1577
生放送	-11.1578
テレビ局	-11.1579
国旗	-11.158
にあって	-11.1582
に渡って	-11.1583
トラン	-11.1585
に及ぶ	-11.1585
苑	-11.1585
▁電化区間	-11.1585
戦国時代の武将	-11.1585
幼児	-11.1585
運行開始	-11.1586
十六	-11.1588
取り扱う	-11.159
ソウル	-11.1591
▁System	-11.1592
min	-11.1593
麓	-11.1594
これに対して	-11.1595
ペット	-11.1595
番線は	-11.1599
焼失	-11.16
実質的に	-11.16
北九州	-11.1601
移設	-11.1602
誤り	-11.1603
1872	-11.1603
リャ	-11.1606
讃	-11.1607
修士課程	-11.1608
応援	-11.1608
甲子園	-11.1608
一時的に	-11.1611
大森	-11.1611
消え	-11.1613
ゼル	-11.1613
作目	-11.1613
レーション	-11.1614
の変遷	-11.1617
ーニ	-11.1618
血液型	-11.1619
モリ	-11.162
ハリー	-11.162
還	-11.1621
年までの	-11.1623
回線	-11.1623
民法	-11.1626
調印	-11.1626
しようと	-11.1626
オレンジ	-11.1627
プログラミング	-11.163
バーグ	-11.163
拘束	-11.1631
北海道旅客鉄道	-11.1631
▁路線距離	-11.1632
染色体	-11.1632
競技場	-11.1633
ABC	-11.1633
ウェア	-11.1634
特集	-11.1636
今後	-11.1637
の立場	-11.1637
童	-11.1637
図形	-11.1638
地獄	-11.1639
教徒	-11.1639
無かった	-11.164
THE	-11.164
区役所	-11.1641
しかった	-11.1642
の経緯	-11.1642
芸人	-11.1642
世に	-11.1643
現行の	-11.1643
賛	-11.1643
願い	-11.1644
建立	-11.1645
村が合併し	-11.1646
ord	-11.1647
ke	-11.1647
沿い	-11.1649
年以降は	-11.1649
の再	-11.165
プー	-11.165
単体	-11.1654
★	-11.1654
トウ	-11.1654
混ぜ	-11.1655
側線	-11.1655
ロシア語	-11.1657
に参加した	-11.1657
塩基	-11.1657
文脈	-11.1658
土木	-11.1658
を使用し	-11.1659
スペインの	-11.1661
ヘイ	-11.1662
ツェ	-11.1663
うら	-11.1664
単式ホーム	-11.1664
▁イタリアの	-11.1668
に見える	-11.1668
市営バス	-11.1672
流出	-11.1673
tor	-11.1674
転じて	-11.1675
誓	-11.1675
採用されている	-11.1677
公立	-11.1677
廟	-11.1677
(1994	-11.1677
シベリア	-11.1677
▁初代	-11.1678
勲章	-11.1679
サークル	-11.1679
怪	-11.1681
近年の	-11.1681
っか	-11.1682
ーゼ	-11.1684
ジェイ	-11.1684
挙げられ	-11.1686
バス停留所	-11.1687
セミ	-11.1688
十勝	-11.1688
軍に	-11.1692
上方	-11.1693
で用いられる	-11.1695
死去した	-11.1697
越え	-11.1697
メダル	-11.1701
高崎	-11.1701
潜水艦	-11.1702
フランク	-11.1702
トーマス	-11.1702
形成された	-11.1703
政府は	-11.1706
新庄	-11.1707
放射線	-11.1708
なかったが	-11.1709
創業者	-11.1709
統括	-11.1709
に参加し	-11.171
▁THE	-11.171
che	-11.1711
これによって	-11.1712
地質	-11.1713
入植	-11.1713
ディス	-11.1714
の多くが	-11.1715
の主人公	-11.1717
が一般的	-11.1717
を打ち	-11.1719
Re	-11.172
そんな	-11.1722
大公	-11.1722
狩猟	-11.1724
の企業	-11.1724
として生まれる	-11.1724
明るい	-11.1724
相対式ホーム	-11.1725
ホン	-11.1726
付く	-11.1726
公卿	-11.1728
その一方で	-11.1728
ナレーション	-11.1728
に似た	-11.173
興味	-11.1737
優秀	-11.1739
甲斐	-11.174
ビジョン	-11.1742
ヒュー	-11.1743
こちら	-11.1746
▁慶応	-11.1746
の拠点	-11.1747
を行って	-11.1747
▁e	-11.1748
プログラミング言語	-11.1749
充実	-11.175
国土	-11.1751
表記は	-11.1754
桑名	-11.1755
Se	-11.1755
突き	-11.1757
さず	-11.1757
残る	-11.1758
1917	-11.1759
島式	-11.176
朝日新聞	-11.1762
を受けている	-11.1762
都合	-11.1764
を取得	-11.1764
みなみ	-11.1766
対馬	-11.1768
藻	-11.1768
▁1917	-11.177
中学生	-11.1771
内蔵	-11.1771
コンテンツ	-11.1771
仮面ライダー	-11.1771
書記	-11.1771
終着	-11.1771
を書き	-11.1772
グラウンド	-11.1772
界の	-11.1773
認められ	-11.1776
前から	-11.178
知られる	-11.178
実用化	-11.1782
という言葉は	-11.1783
手続き	-11.1785
につき	-11.1785
後藤	-11.1787
ブログ	-11.1789
ごとの	-11.1791
覆	-11.1793
請求	-11.1793
刊行された	-11.1794
ニュ	-11.1794
涙	-11.1794
訪問	-11.1795
知名度	-11.1795
総合振興局	-11.1795
ラント	-11.1796
に移り	-11.1799
橋梁	-11.1799
傾斜	-11.1801
mi	-11.1803
高校時代	-11.1803
行っていた	-11.1805
南宋	-11.1805
駅付近	-11.1806
待避線	-11.1806
近接	-11.1811
浅野	-11.1816
シカ	-11.1817
出演者	-11.1817
ロサンゼルス	-11.1818
葛飾	-11.1819
愛知県名古屋市	-11.1823
を追加	-11.1824
保管	-11.1826
の長男	-11.1827
続けている	-11.1827
企業の	-11.1829
事が	-11.1837
壬	-11.1837
主役	-11.1841
オペレーティングシステム	-11.1842
のほかに	-11.1842
牝馬	-11.1842
意味合い	-11.1845
山陰	-11.1845
だけが	-11.1846
▁語源	-11.1846
周年記念	-11.1847
の割合	-11.1848
自身も	-11.1849
〜』	-11.1849
もあったが	-11.185
の権利	-11.185
阿部	-11.1851
出た	-11.1852
運行される	-11.1852
イチ	-11.1852
国外	-11.1854
用意	-11.1854
するも	-11.186
脂肪	-11.186
豚	-11.1862
主要地方道	-11.1864
で行う	-11.1864
敦	-11.1865
塊	-11.1865
考古学	-11.1866
【	-11.1866
駆逐艦	-11.1866
享保	-11.1866
国内で	-11.1868
名人	-11.1869
最近	-11.1872
江戸時代には	-11.1879
の主要	-11.1879
が成立した	-11.1879
僧侶	-11.188
cy	-11.1882
165	-11.1883
館林	-11.1883
を決定	-11.1883
フロー	-11.1885
脚本家	-11.1885
つである	-11.1886
ニウス	-11.1886
珍	-11.1887
佳	-11.1888
建築物	-11.1888
まったく	-11.1888
ディレクター	-11.1889
唄	-11.1889
⇒	-11.1889
爪	-11.1889
を失った	-11.189
罰	-11.1891
駅舎改築	-11.1891
爆撃機	-11.1891
二十	-11.1891
155	-11.1892
法定	-11.1893
公式戦	-11.1895
の営業	-11.1895
医学部	-11.1896
積み	-11.1896
1869	-11.1897
の祖	-11.19
若手	-11.1905
ゴールド	-11.1906
末期	-11.1908
1911	-11.1909
▁米国	-11.1909
が開発した	-11.1909
町大字	-11.191
ものに	-11.191
黒人	-11.1911
攻略	-11.1911
▁日本で	-11.1912
シンガポール	-11.1913
リゾート	-11.1913
番線ホーム	-11.1914
石田	-11.1914
主人公の	-11.1914
マイケル	-11.1914
夫婦	-11.1914
バスターミナル	-11.1917
近藤	-11.1917
校長	-11.192
王位	-11.192
発売した	-11.1923
養成	-11.1924
▁花	-11.1924
デルタ	-11.1925
に入社	-11.1928
続いた	-11.1928
必	-11.193
活躍した	-11.1931
なくても	-11.1931
亡くなった	-11.1932
を加えて	-11.1934
稼働	-11.1935
していなかった	-11.1936
に所在	-11.1936
闘争	-11.1937
ジャーナリスト	-11.1937
故郷	-11.1938
▁1896	-11.1938
出来ない	-11.1939
(1992	-11.1939
アンリ	-11.1942
考えられ	-11.1945
入院	-11.1947
兄の	-11.1948
が出る	-11.195
魚類	-11.1952
2.5	-11.1953
んじ	-11.1954
出る	-11.1954
後には	-11.1956
までの間	-11.1956
配線	-11.1956
地面	-11.1958
を開始する	-11.1958
渓	-11.1958
ポップ	-11.1959
王朝の	-11.196
砕	-11.196
▁【	-11.1961
プラットフォーム	-11.1961
に復帰	-11.1961
千代	-11.1961
産物	-11.1961
南海電気鉄道	-11.1962
配備	-11.1962
王妃	-11.1963
出版された	-11.197
最寄り	-11.197
月曜日	-11.1971
池袋	-11.1971
作品が	-11.1973
を考え	-11.1974
加えて	-11.1974
門前	-11.1975
学専攻	-11.1976
懸	-11.1976
々と	-11.1976
BI	-11.1977
増刊	-11.1977
コウ	-11.1977
遣	-11.1978
がよく	-11.1979
に加盟	-11.198
佐倉	-11.1982
高校生	-11.1983
In	-11.1983
が得られる	-11.1984
権威	-11.1984
拾	-11.1984
世帯	-11.1984
亥	-11.1985
プトレマイオス	-11.1985
改編	-11.1987
集まり	-11.1988
イロ	-11.199
人種	-11.1991
ary	-11.1991
近隣	-11.1992
新道	-11.1994
▁h	-11.1995
(1991	-11.1995
による分類	-11.1996
釈	-11.1997
みち	-11.1998
を繰り返し	-11.1999
村山	-11.2004
木材	-11.2005
謀	-11.2006
CC	-11.2008
楕円	-11.2008
らなかった	-11.2008
パキスタン	-11.2009
胃	-11.2009
マネジメント	-11.2009
負荷	-11.2009
ウラ	-11.2009
こととなる	-11.2011
新川	-11.2011
組み	-11.2011
所沢	-11.2011
セメント	-11.2011
年ぶりに	-11.2014
アラビア	-11.2014
だという	-11.2015
釜	-11.2017
を執筆	-11.2017
ダービー	-11.202
はち	-11.202
村が発足	-11.2022
地域は	-11.2022
大量	-11.2024
獄	-11.2025
と同一	-11.2025
フランス革命	-11.2025
島田	-11.203
家康	-11.203
イカ	-11.2031
最終的には	-11.2032
コンテナ	-11.2033
ダイヤモンド	-11.2033
というもの	-11.2035
しつつ	-11.2035
川水系	-11.2036
草津	-11.2036
イタリア語	-11.2037
アイランド	-11.2038
ロシア帝国	-11.2038
次のような	-11.2039
か国	-11.204
手前	-11.2044
栄町	-11.2045
することがある	-11.2046
奈良時代	-11.2046
紀伊	-11.2047
綴	-11.2052
太陽系	-11.2054
すみ	-11.2054
もいる	-11.2056
曹操	-11.2057
餅	-11.2057
選抜	-11.2058
同位体	-11.2058
アルバイト	-11.206
千葉市	-11.206
も用いられる	-11.206
職人	-11.2062
ものだった	-11.2062
架	-11.2062
方面へ	-11.2062
たのは	-11.2062
139	-11.2064
上科	-11.2065
という語	-11.2066
監修	-11.2067
ペルー	-11.2069
姿を	-11.2069
0.5	-11.2071
テイ	-11.2071
CG	-11.2072
するよう	-11.2072
上りホーム	-11.2072
在学中	-11.2073
共産主義	-11.2074
駐	-11.2076
水中	-11.2076
で開催された	-11.2076
寺村	-11.2078
をつける	-11.2079
クイーン	-11.2079
科学技術	-11.2081
殷	-11.2081
靖	-11.2081
静止	-11.2082
を得	-11.2083
ale	-11.2083
キア	-11.2085
反映	-11.2085
ことがあり	-11.2085
講義	-11.2085
真理	-11.2086
日現在	-11.2087
伝来	-11.2089
に出る	-11.2092
キリ	-11.2093
ニル	-11.2095
古代の	-11.2097
が広がる	-11.2101
るもの	-11.2102
市交通局	-11.2103
ザル	-11.2104
に渡り	-11.2104
ローマ皇帝	-11.2105
物理的	-11.2105
浸透	-11.2106
を除いた	-11.2106
叙	-11.2106
に位置している	-11.2107
ョ	-11.211
が運営する	-11.211
見られた	-11.211
司祭	-11.2111
しら	-11.2112
併	-11.2113
ボーイ	-11.2114
咲	-11.2117
大量に	-11.2118
をそのまま	-11.2118
だけではなく	-11.2121
つる	-11.2121
▁下り線	-11.2122
彫刻	-11.2123
といわれ	-11.2123
は他の	-11.2124
ユダヤ教	-11.2124
のことを指す	-11.2124
到達	-11.2128
があること	-11.2128
週刊少年ジャンプ	-11.213
例もある	-11.213
菊池	-11.2132
配布	-11.2132
鉄道車両	-11.2132
筋肉	-11.2133
夕刊	-11.2133
に再	-11.2135
別に	-11.2135
ゲルマン	-11.2135
できるように	-11.2135
あげ	-11.2136
部分に	-11.2137
を出した	-11.2138
陸奥国	-11.2138
行使	-11.214
賞を受賞した	-11.2141
まつり	-11.2142
スン	-11.2144
象徴	-11.2144
を果たす	-11.2144
駆け	-11.2144
属の	-11.2145
市内の	-11.2146
綾	-11.2146
度々	-11.2148
▁†	-11.2148
信頼	-11.2148
生え	-11.2149
を見た	-11.2149
劣	-11.2151
披露	-11.2151
られており	-11.2151
ぜ	-11.2153
の通称	-11.2156
等に	-11.2158
トマス	-11.2161
赤字	-11.2161
記述する	-11.2162
ics	-11.2163
CI	-11.2164
戸田	-11.2164
警	-11.2165
当地	-11.2166
後者は	-11.2167
食物	-11.2167
立方	-11.2168
他社	-11.2172
ve	-11.2173
それでも	-11.2176
加速	-11.2178
を占領	-11.2178
ムハンマド	-11.2179
胤	-11.2179
使徒	-11.218
嫌	-11.218
ウェブ	-11.218
広まった	-11.2181
機能を	-11.2181
ron	-11.2182
てる	-11.2182
のいずれか	-11.2182
現行	-11.2183
広義には	-11.2185
、1972	-11.2186
▁t	-11.2187
▁Con	-11.219
ポンプ	-11.219
▁Ma	-11.2191
▁{	-11.2191
の保護	-11.2192
郡役所	-11.2193
正式名称は	-11.2194
入線	-11.2195
マルコ	-11.2196
瀬村	-11.2201
道場	-11.2202
を合併	-11.2203
サッカー選手	-11.2203
嘴	-11.2203
阿蘇	-11.2204
ペンギン	-11.2204
に代表される	-11.2204
師範学校	-11.2204
、1950	-11.2205
運河	-11.2207
村が町制施行して	-11.2207
以内	-11.2208
ニール	-11.221
ok	-11.2211
演説	-11.2212
教室	-11.2213
落成	-11.2214
左側	-11.2219
仕事を	-11.2219
次のように	-11.2219
動員	-11.222
自然科学	-11.2221
同人	-11.2223
されることが多い	-11.2224
量が	-11.2226
亮	-11.2228
戦国大名	-11.2228
ネズミ	-11.2228
衆議院議員	-11.2228
に到達	-11.2231
当然	-11.2231
▁声	-11.2232
新羅	-11.2235
ジェン	-11.2235
西欧	-11.2236
エッ	-11.2236
ストン	-11.2239
ウォ	-11.2241
コート	-11.2242
号機	-11.2242
を制定	-11.2243
▁1898	-11.2243
記念日	-11.2244
観光地	-11.2244
に代わって	-11.2245
発症	-11.2245
容器	-11.2246
中国では	-11.2248
等が	-11.2252
方面の	-11.2253
指標	-11.2254
町域	-11.2254
異なっている	-11.2254
ジオ	-11.2254
介護	-11.2254
上川	-11.2256
に掲載された	-11.2256
豊かな	-11.2259
奥羽本線	-11.226
に分かれ	-11.2262
上では	-11.2262
の扱い	-11.2263
大会で	-11.2264
を終了	-11.2264
とも言われる	-11.2265
とく	-11.2267
災	-11.227
桐	-11.2271
ない場合	-11.2271
が導入され	-11.2272
変わる	-11.2272
という名	-11.2272
外国語	-11.2272
dy	-11.2275
廻	-11.2277
遺産	-11.2277
▁日本のインターチェンジ一覧	-11.2277
エフエム	-11.2277
量子力学	-11.2278
ind	-11.228
塩化	-11.2281
八代	-11.2282
寄せ	-11.2282
付けた	-11.2282
発車	-11.2283
青色	-11.2284
の誕生	-11.2284
公用語	-11.2288
毎日放送	-11.2288
刈	-11.229
片側	-11.229
建築家	-11.2292
の際には	-11.2294
やはり	-11.2296
の人口	-11.2296
神戸線	-11.2296
国産	-11.2299
対応する	-11.23
地表	-11.2301
改題	-11.2303
郷村	-11.2304
にあたって	-11.2305
数百	-11.2306
込め	-11.2309
の弟子	-11.231
書く	-11.231
をきっかけに	-11.2312
西日本旅客鉄道の鉄道駅	-11.2312
セガ	-11.2314
がち	-11.2314
をなす	-11.2316
の運営	-11.2316
冬の	-11.2317
と呼称	-11.232
吹田	-11.2321
戦術	-11.2321
の運用	-11.2321
目を	-11.2321
ことを示す	-11.2322
マッチ	-11.2323
本項では	-11.2324
全通	-11.2325
ヴァイ	-11.2325
▁World	-11.2325
に接続	-11.2325
敗戦	-11.2326
そもそも	-11.2327
を築いた	-11.2327
丙	-11.2327
包括	-11.2327
もこの	-11.2327
要塞	-11.2327
新線	-11.2328
ゴールデン	-11.2328
人間が	-11.233
ぴ	-11.2331
父が	-11.2331
女神	-11.2334
と並ぶ	-11.2335
十八	-11.2335
上映	-11.2336
大聖堂	-11.2336
が残っている	-11.2337
▁群馬県	-11.2338
文久	-11.234
島津	-11.234
としており	-11.234
はま	-11.2342
代藩主	-11.2343
るという	-11.2344
測量	-11.2344
定住	-11.2345
gu	-11.2346
などによる	-11.2346
上演	-11.2348
シマ	-11.2351
▁閉塞方式	-11.2352
観念	-11.2353
は以下の	-11.2353
大ヒット	-11.2355
▁京都府	-11.2356
あお	-11.2357
考慮	-11.2358
搭乗	-11.2358
作られる	-11.2359
現代では	-11.236
山内	-11.2361
全区間	-11.2361
科学的	-11.2361
立候補	-11.2363
という概念	-11.2363
ワード	-11.2364
するように	-11.2364
比例	-11.2364
▁co	-11.2368
そうした	-11.2368
グレー	-11.2369
年の第	-11.2369
穀	-11.2369
流派	-11.2375
奴	-11.2375
篤	-11.2377
に従い	-11.2377
信徒	-11.2379
摂政	-11.2379
が発生した	-11.238
の試合	-11.2381
不正	-11.2386
▁di	-11.2387
の経営	-11.2389
割引	-11.2389
小屋	-11.2396
豊富	-11.2396
方法で	-11.2399
カクテル	-11.2402
も含め	-11.2402
階建て	-11.2402
態度	-11.2405
広報	-11.2406
で表す	-11.2407
に所属していた	-11.2407
国分寺	-11.2407
送った	-11.2408
所蔵	-11.2408
吉備	-11.241
の伝統	-11.241
が成り立つ	-11.241
悲	-11.2411
階層	-11.2412
応募	-11.2414
NC	-11.2415
出される	-11.2416
の意味で	-11.2416
ブルース	-11.2417
中華	-11.2419
たという	-11.242
クタ	-11.2425
に合併	-11.2425
笛	-11.2426
フォーマット	-11.2426
裸	-11.2426
バランス	-11.2427
予言	-11.2428
まれた	-11.2429
を目的に	-11.243
るべき	-11.243
くろ	-11.243
0.1	-11.243
認められた	-11.2431
頻度	-11.2432
競走馬	-11.2435
建造物	-11.2436
特色	-11.2436
呼び	-11.2436
翔	-11.2436
生存	-11.2437
瞬間	-11.2437
開業した	-11.2438
することになる	-11.2439
辞書	-11.244
ロッ	-11.2445
史記	-11.2445
固め	-11.2445
1883	-11.2445
行われていた	-11.2448
自動車の	-11.2449
萬	-11.2451
アルメニア	-11.2452
丑	-11.2452
過剰	-11.2452
さいたま市	-11.2453
動く	-11.2455
活性化	-11.2457
シップ	-11.2458
とされるが	-11.2458
ないもの	-11.2458
ノキ	-11.246
149	-11.2462
のほうが	-11.2463
書かれる	-11.2465
ディン	-11.2465
言語学	-11.2466
を目的とした	-11.2467
ルーム	-11.2468
城下町	-11.2468
スミス	-11.247
小学生	-11.247
▁同名	-11.247
すり	-11.2472
券売機	-11.2477
死体	-11.2477
重い	-11.2477
公的	-11.2477
ern	-11.2477
除去	-11.2478
ハンド	-11.2478
反対側	-11.2479
ファースト	-11.248
付いた	-11.2481
が残る	-11.2483
延伸開業	-11.2484
ッパー	-11.2485
音楽家	-11.2485
頂	-11.2486
を問わず	-11.2487
ゲームソフト	-11.2488
1907	-11.2489
エム	-11.2489
日目である	-11.2491
定め	-11.2492
の制作	-11.2493
、1973	-11.2493
ループ	-11.2494
無理	-11.2495
富士見	-11.2495
乗降人員	-11.2495
使用を開始	-11.2495
改称して	-11.2498
水分	-11.2498
▁1879	-11.2498
運搬	-11.2503
mer	-11.2503
タキ	-11.2503
出自	-11.2504
芝居	-11.2505
ノル	-11.2505
に該当する	-11.2507
譲位	-11.2508
洪水	-11.2508
騎兵	-11.2509
不定期	-11.251
ドライバー	-11.2511
元は	-11.2512
頃には	-11.2512
豊岡	-11.2516
提唱	-11.2517
エビ	-11.2517
廃止され	-11.2519
ピーク	-11.2523
汎用	-11.2524
稀	-11.2525
体内	-11.2526
昇格	-11.2526
落下	-11.2527
擬	-11.2527
ピアニスト	-11.2528
突然	-11.2528
これに対し	-11.2528
ナショナル	-11.253
ナイター	-11.2531
住所	-11.2533
音を	-11.2534
タム	-11.2534
下流	-11.2535
New	-11.2535
もまた	-11.2535
自分が	-11.2535
ina	-11.2536
人々の	-11.2538
の頭文字	-11.2539
▁International	-11.2539
信用	-11.2539
が行われていた	-11.254
新宮	-11.254
保全	-11.2541
校舎	-11.2542
交点	-11.2542
フード	-11.2543
を再開	-11.2544
産出	-11.2547
バッハ	-11.2552
聖職者	-11.2553
▲	-11.2553
PlayStation	-11.2553
ガソリンスタンド	-11.2553
ッラ	-11.2554
の有無	-11.2555
住居	-11.2555
が合併して	-11.2559
新書	-11.2559
領地	-11.256
が増え	-11.2561
経歴	-11.2561
▁La	-11.2561
どのような	-11.2562
に改元	-11.2568
は現在	-11.2568
山麓	-11.2568
という呼称	-11.2572
をもたらす	-11.2573
警備	-11.2576
たびたび	-11.2578
詔	-11.2578
飛騨	-11.2578
クジラ	-11.2579
方式の	-11.258
用いた	-11.2581
別冊	-11.2582
中区	-11.2583
とする説もある	-11.2584
ニュートン	-11.2584
済み	-11.2587
▁福岡	-11.2589
。2003	-11.259
▁ドイツの	-11.2591
に移籍	-11.2591
シラ	-11.2594
作品に	-11.2598
代々	-11.2599
ゴス	-11.2599
Si	-11.26
。2008	-11.2602
両端	-11.2602
に行く	-11.2603
的存在	-11.2603
赤道	-11.2603
自動車専用道路	-11.2604
線を持つ地上駅	-11.2605
を迎えた	-11.2605
題材	-11.2605
雇用	-11.2606
進歩	-11.2607
植物の	-11.2607
職務	-11.2608
くま	-11.261
以東	-11.2612
ラーメン	-11.2613
トイレは	-11.2613
▁誕生日	-11.2613
開業当初	-11.2614
act	-11.2614
ue	-11.2616
と呼ばれるようになった	-11.2616
ことになり	-11.2618
変遷	-11.262
硫黄	-11.2621
出て	-11.2622
1914	-11.2622
せつ	-11.2625
九条	-11.2625
債	-11.2626
まとめ	-11.2627
石巻	-11.263
ぶつ	-11.263
ステップ	-11.2631
いか	-11.2631
着用	-11.2631
艇	-11.2632
東海道線	-11.2632
酸化物	-11.2632
セレ	-11.2634
描き	-11.2635
Te	-11.2636
あわせて	-11.2636
鉄道線	-11.2636
テオ	-11.2637
宇野	-11.2637
の独立	-11.2637
海岸線	-11.2639
見方	-11.2639
白山	-11.2639
ウマ	-11.2642
かける	-11.2642
管理駅	-11.2643
本拠地	-11.2643
事務局	-11.2644
難しい	-11.2645
崎村	-11.2647
のシングル	-11.2648
リカ	-11.2648
の移動	-11.265
花園	-11.2651
ていること	-11.2653
ence	-11.2653
繁栄	-11.2654
誇	-11.2654
ピュ	-11.2654
夜行	-11.2655
ーネ	-11.2655
心臓	-11.2655
モンゴル帝国	-11.2657
降板	-11.2657
北極	-11.2658
本願寺	-11.2659
コメント	-11.266
。2009	-11.266
立つ	-11.2661
首長	-11.2661
弾性	-11.2662
の街	-11.2662
描かれている	-11.2663
屋村	-11.2665
TI	-11.2668
ひとつの	-11.2669
岡村	-11.267
市販	-11.2671
ラテン語の	-11.2672
蝦夷	-11.2672
淀	-11.2675
金額	-11.2676
排除	-11.2676
ジア	-11.2678
tri	-11.2678
級の	-11.2678
前作	-11.2679
とすると	-11.2679
を切り	-11.268
▁1878	-11.268
プリン	-11.268
万部	-11.2681
平安時代の公卿	-11.2681
瑞穂	-11.2682
エロ	-11.2683
低く	-11.2684
短編集	-11.2685
ノベル	-11.2686
旅客営業	-11.2686
主宰	-11.2687
全集	-11.269
位である	-11.2693
1892	-11.2694
奇数	-11.2698
谷駅	-11.2698
台駅	-11.27
悟	-11.2701
視聴者	-11.2701
衝	-11.2703
1877	-11.2705
bi	-11.2706
曾	-11.2706
巧	-11.2706
左衛門	-11.2706
スペクトル	-11.2707
顧客	-11.2707
珍しく	-11.2707
RC	-11.2708
で使われる	-11.2708
低地	-11.2708
年法律第	-11.271
マウス	-11.2711
てくる	-11.2712
存在していた	-11.2712
チリ	-11.2713
gen	-11.2714
外見	-11.2716
南線	-11.2718
▁フランスの	-11.2719
浸	-11.272
イングランド王	-11.2724
なみ	-11.2726
かさ	-11.2726
戦国時代の	-11.2727
生体	-11.2729
IR	-11.2729
隊長	-11.2732
フットボール	-11.2732
紙幣	-11.2733
ピエール	-11.2734
、2023	-11.2734
支え	-11.2734
主題歌	-11.2734
自衛隊	-11.2735
わけではなく	-11.2735
チー	-11.2735
ッパ	-11.2735
の主な	-11.2736
ピーター	-11.2736
なき	-11.2737
▁Al	-11.2738
冷戦	-11.2738
を理由に	-11.2738
飲み	-11.2738
運行されていた	-11.274
、1979	-11.274
▁宮城県	-11.2741
確か	-11.2742
他方	-11.2745
因子	-11.2746
マレー	-11.2746
認証	-11.2748
王立	-11.2748
ブリッジ	-11.275
ビーム	-11.275
一本	-11.2752
市の交通	-11.2753
チェコ	-11.2753
沢駅	-11.2756
しまう	-11.2757
従業員	-11.2758
白泉社	-11.2758
トーナメント	-11.2758
に記載されている	-11.2759
1867	-11.2759
2,000	-11.2759
行い	-11.2759
とはいえ	-11.2761
この他	-11.2763
嘉永	-11.2763
久米	-11.2763
開催される	-11.2764
経典	-11.2765
その際	-11.2766
多様性	-11.277
香り	-11.277
厳密には	-11.2771
主義者	-11.2771
駅間に	-11.2772
手がけ	-11.2773
Co	-11.2776
。(2	-11.2777
こともできる	-11.2778
期間中	-11.2779
製法	-11.2779
アダム	-11.2779
.,	-11.278
緩	-11.2781
の形態	-11.2781
に改名	-11.2782
伝統的に	-11.2783
漆	-11.2783
宛	-11.2784
バイエルン	-11.2784
フィレンツェ	-11.2784
の廃止市町村	-11.2784
失われ	-11.2785
を直接	-11.2786
避難	-11.2786
事から	-11.2789
タンク	-11.279
創設された	-11.2791
手で	-11.2791
▁演	-11.2791
導入された	-11.2791
交差	-11.2791
介入	-11.2792
▁最高速度	-11.2795
カタ	-11.2797
老人	-11.2797
と言った	-11.2798
司会者	-11.2799
に多く	-11.2799
審議会	-11.28
加えられ	-11.28
村の一部	-11.2801
生じた	-11.2802
実体	-11.2803
バカ	-11.2803
松田	-11.2805
ハーン	-11.2805
はこれ	-11.2807
規模の	-11.2807
オランダの	-11.2807
徴	-11.2808
提示	-11.2808
公会議	-11.2809
曖昧	-11.281
SU	-11.281
スカウト	-11.281
四条	-11.2811
フラワー	-11.2811
伝播	-11.2811
セルビア	-11.2811
車両基地	-11.2816
グレード	-11.2816
、1962	-11.2816
灰色	-11.2817
番号は	-11.2818
星雲	-11.2821
ニコラ	-11.2822
ときには	-11.2822
定めた	-11.2825
助手	-11.2825
とも呼ばれ	-11.2825
に所属	-11.2827
繰り返し	-11.2829
由来の	-11.283
360	-11.2832
小型の	-11.2833
ようとする	-11.2833
総選挙	-11.2836
條	-11.2836
コントロール	-11.2837
玩具	-11.2837
売買	-11.2837
ical	-11.2837
MB	-11.2837
PL	-11.2837
改良工事	-11.2837
が存在しない	-11.2838
庭園	-11.2839
役所	-11.2842
hy	-11.2845
というのは	-11.2849
と考えた	-11.285
ッティ	-11.2851
道徳	-11.2851
などにも	-11.2852
rd	-11.2853
▁三重県	-11.2855
アルプス	-11.2857
1876	-11.286
植え	-11.2861
朝鮮民主主義人民共和国	-11.2863
思考	-11.2863
2.0	-11.2863
休刊	-11.2864
地盤	-11.2864
バスストップ	-11.2865
新見	-11.2867
共通の	-11.2868
▁1916	-11.287
ぞう	-11.2872
りつ	-11.2872
中央アジア	-11.2874
を発見	-11.2877
そのほか	-11.2879
期には	-11.288
瀬戸内海	-11.2881
ハロー	-11.2881
堆積	-11.2884
第五	-11.2884
取った	-11.2885
○○	-11.2886
を学び	-11.2888
を出し	-11.2888
用として	-11.2888
筑波	-11.2888
土壌	-11.2889
起終点駅含む	-11.2889
ブルガリア	-11.289
不安定	-11.2891
▁University	-11.2891
コンテスト	-11.2891
高木	-11.2892
と比較して	-11.2893
描かれ	-11.2893
立った	-11.2896
譲り	-11.2899
民営化	-11.2901
人以上	-11.2902
駅舎の	-11.2903
適切な	-11.2903
ens	-11.2904
の面積	-11.2905
倒れ	-11.2907
見た	-11.2908
CV	-11.2908
VI	-11.291
川上	-11.291
▁生態	-11.2915
家庭用	-11.2915
を名乗る	-11.2915
抗争	-11.2915
唇	-11.2915
UNIX	-11.2915
ica	-11.2916
増え	-11.2917
っぱ	-11.2919
改定	-11.2919
ギン	-11.2922
次いで	-11.2923
環状線	-11.2926
鉄道部	-11.2926
てから	-11.2927
日向	-11.2928
の北側	-11.2929
いな	-11.293
抑制	-11.2931
変身	-11.2931
パッ	-11.2932
規	-11.2934
血液型は	-11.2935
直前に	-11.2937
北野	-11.2937
不安	-11.2937
掌	-11.2939
遅	-11.2941
を目指し	-11.2941
とくに	-11.2941
酢	-11.2941
壮	-11.2942
降水量	-11.2942
エリザベス	-11.2943
持つ	-11.2943
LED	-11.2945
が置かれた	-11.2945
貨物線	-11.2946
故障	-11.2946
この時代	-11.2947
国造	-11.2949
学長	-11.2951
起こった	-11.2955
実際は	-11.2955
山中	-11.2956
各地に	-11.2957
ty	-11.296
祖母	-11.296
選手権大会	-11.296
パズル	-11.2961
瀬川	-11.2962
を求め	-11.2963
川西	-11.2966
素子	-11.2966
の旅	-11.2966
アリー	-11.2967
父親は	-11.2967
酷	-11.2967
ハルト	-11.2968
渕	-11.2968
死亡した	-11.2968
デバイス	-11.2968
稲荷	-11.2969
メチル	-11.2969
都心	-11.297
ゼウス	-11.2971
牛乳	-11.2971
補佐	-11.2972
と命名	-11.2973
町交差点	-11.2974
プライ	-11.2974
対象となる	-11.2974
人々が	-11.2976
ナウ	-11.2977
を変え	-11.2978
寛文	-11.2978
推移	-11.2978
柔道	-11.298
発達した	-11.2981
製作所	-11.2982
に相当	-11.2986
況	-11.2986
を記録した	-11.2987
Sa	-11.2988
並ぶ	-11.2988
リップ	-11.2991
を中心として	-11.2991
を求めて	-11.2994
っ子	-11.2994
吐	-11.2994
料金所	-11.2994
逃亡	-11.2994
推奨	-11.2995
損失	-11.2995
師団	-11.2996
(2011	-11.2996
自立	-11.2996
典型的な	-11.3
離れている	-11.3003
が進み	-11.3005
▁中華民国	-11.3005
新築	-11.3008
役員	-11.3008
溶け	-11.301
1.2	-11.3012
前方	-11.3012
つけた	-11.3013
を書く	-11.3014
不動	-11.3014
寸	-11.3014
大変	-11.3016
改訂	-11.3017
語では	-11.3018
徐	-11.3019
現れ	-11.3022
いった	-11.3022
倉庫	-11.3023
東北新幹線	-11.3023
ミラノ	-11.3023
を果たし	-11.3025
今日の	-11.3026
育った	-11.3027
カリウム	-11.3028
リレー	-11.3029
排出	-11.3029
並み	-11.303
の東側	-11.3031
em	-11.3031
得意	-11.3032
外れ	-11.3033
キャスト	-11.3033
制作の	-11.3036
英文	-11.3039
ダート	-11.3039
Or	-11.3042
ことができた	-11.3043
に触れ	-11.3044
FIFA	-11.3045
ハリ	-11.3046
彼女の	-11.3047
ポジション	-11.3048
カンパニー	-11.3048
カリフォルニア州	-11.3048
UEFA	-11.3048
杭	-11.3048
きげんぜん	-11.3048
1897	-11.3048
日本鉄道	-11.3049
世界遺産	-11.3053
牧場	-11.3054
を学んだ	-11.3054
氏族	-11.3054
活性	-11.3054
州都	-11.3055
ハラ	-11.3056
白人	-11.3057
思想家	-11.3057
原題	-11.3057
スケ	-11.3059
ナッ	-11.306
わた	-11.3061
アメ	-11.3061
食堂	-11.3061
享年	-11.3062
淀川	-11.3063
マグ	-11.3063
下院	-11.3064
使用している	-11.3065
日のダイヤ改正	-11.3067
WA	-11.3068
ile	-11.307
誘	-11.3071
したもので	-11.3071
抄	-11.3075
指定席券売機	-11.3075
公募	-11.3075
骨格	-11.3078
交付	-11.3078
有明	-11.3079
3.5	-11.3079
三好	-11.3079
両側	-11.308
カ国	-11.3081
欠点	-11.3081
ミステリー	-11.3083
粘	-11.3084
どちらも	-11.3085
上越	-11.3085
の鉄道路線	-11.3085
の大半	-11.3089
悲劇	-11.3091
夜の	-11.3092
述べる	-11.3093
中央線	-11.3095
ギア	-11.3097
人名	-11.3098
東京都交通局	-11.3101
柵	-11.3102
1896	-11.3103
キャンプ	-11.3103
(1989	-11.3104
の軍人	-11.3104
口径	-11.3105
yn	-11.3106
のイメージ	-11.3106
渡来	-11.3107
全線が	-11.3111
DOS	-11.3112
宗家	-11.3112
第二次世界大戦中	-11.3113
学ぶ	-11.3114
后	-11.3115
心の	-11.3116
▁一般に	-11.3118
port	-11.3119
岡山市	-11.312
れて	-11.3121
郡が発足	-11.3122
争	-11.3124
CE	-11.3127
OP	-11.3127
乗用車	-11.3128
樺太	-11.3129
劉邦	-11.3129
に登場した	-11.313
VHS	-11.313
和歌	-11.3131
伝送	-11.3132
続いている	-11.3134
工夫	-11.3135
重視	-11.3135
として生まれた	-11.3136
ここから	-11.3136
構	-11.3136
わし	-11.3137
平方	-11.3138
春秋	-11.3138
発生した	-11.3139
殺人事件	-11.3141
と合併	-11.3141
fr	-11.3143
偶数	-11.3144
sk	-11.3144
大文字	-11.3144
同県	-11.3144
旧称	-11.3146
売れ	-11.3149
干	-11.315
旧道	-11.3151
本塁打	-11.3154
ベリ	-11.3154
暑	-11.3155
ミュンヘン	-11.3155
の観点から	-11.3155
返還	-11.3155
血管	-11.3157
1890	-11.3157
は全く	-11.3157
シオ	-11.3157
本編	-11.3159
ラスト	-11.3159
上村	-11.316
▁新潟県	-11.3161
と称した	-11.3162
を迎える	-11.3163
盛んに	-11.3164
。1970	-11.3165
og	-11.3166
形式の	-11.3168
ずる	-11.3168
慶應義塾大学	-11.3168
飲	-11.3171
ることになった	-11.3172
発展し	-11.3172
▁建	-11.3174
大師	-11.3175
対比	-11.3176
井原	-11.3177
(1872	-11.3177
発掘	-11.3178
世界観	-11.3178
挑戦	-11.3179
宇宙船	-11.318
崖	-11.3182
エクスプレス	-11.3182
に続く	-11.3183
戯曲	-11.3184
直通列車	-11.3184
溶解	-11.3184
フリーアナウンサー	-11.3185
代謝	-11.3185
1915	-11.3187
個人の	-11.3189
置換	-11.3189
視聴	-11.3192
として知られている	-11.3192
▁上記の	-11.3193
ou	-11.3193
五輪	-11.3194
と共通	-11.3195
怒	-11.3196
駆	-11.3198
ユーロ	-11.3199
触れ	-11.3201
任意	-11.3204
NG	-11.3205
理由で	-11.3205
加盟国	-11.3206
に基づいた	-11.3209
削除	-11.3209
記す	-11.321
変わった	-11.321
家畜	-11.3211
虐殺	-11.3211
がなかった	-11.3212
踏み	-11.3212
の項を参照	-11.3213
アルカリ	-11.3214
iv	-11.3215
の原理	-11.3215
下りホーム	-11.3216
最高峰	-11.3216
出入り	-11.3218
融	-11.3218
繰り	-11.3219
しようとした	-11.322
扱	-11.3222
マリン	-11.3223
を使用して	-11.3224
用水	-11.3225
普通の	-11.3226
飾	-11.3227
複素数	-11.323
▁福島	-11.323
うちに	-11.3231
の思想	-11.3233
幅広く	-11.3234
グマ	-11.3234
雰囲気	-11.3236
▁廃藩置県により	-11.3237
ss	-11.3238
日本において	-11.3238
届	-11.3238
伊丹	-11.3238
パーセント	-11.3239
を要する	-11.3239
関連の	-11.3239
パネル	-11.3241
独自に	-11.3242
をかけて	-11.3248
審判	-11.3249
正式名称	-11.3249
平安時代の	-11.3249
ルン	-11.325
1908	-11.3254
ラテン語で	-11.3256
の質量	-11.3257
載せ	-11.3258
エウ	-11.3258
降車	-11.3258
音節	-11.3261
期限	-11.3262
の原型	-11.3263
丼	-11.3263
誘致	-11.3264
あらかじめ	-11.3264
訪れる	-11.3267
変わって	-11.3267
庶民	-11.3267
犯人	-11.3268
二代目	-11.3268
このころ	-11.3268
ya	-11.3269
定められ	-11.3271
技師	-11.3272
を抱え	-11.3272
カロ	-11.3273
の後継	-11.3274
oo	-11.3274
出され	-11.3275
KK	-11.3276
に初めて	-11.3277
フィル	-11.3279
が必要となる	-11.328
リアル	-11.3282
方は	-11.3282
南北線	-11.3283
益田	-11.3284
朝夕	-11.3285
へい	-11.3285
組成	-11.3286
▁1908	-11.3286
二条	-11.3288
留置	-11.3288
編集長	-11.3288
富田	-11.3289
に大きく	-11.3289
つける	-11.329
捕虜	-11.3291
把握	-11.3291
利便性	-11.3291
東日本大震災	-11.3291
ゃ	-11.3291
宰相	-11.3292
鋳造	-11.3292
承継	-11.3292
検証	-11.3292
十字	-11.3293
を呼び	-11.3293
あま	-11.3294
ータ	-11.3294
駅開業	-11.3295
ゲーム機	-11.3296
関西本線	-11.3296
、1983	-11.3297
に立ち	-11.3298
松山市	-11.33
金銭	-11.33
に着手	-11.3302
厚木	-11.3303
に転	-11.3306
日米	-11.3306
低温	-11.3308
サウ	-11.3308
立大学	-11.3309
施工	-11.3309
ゼー	-11.331
エール	-11.3311
恋人	-11.3311
換	-11.3312
集め	-11.3313
区別する	-11.3313
標本	-11.3316
粛	-11.3317
に設立された	-11.3317
相手に	-11.3318
クライアント	-11.3318
膨張	-11.3318
被災	-11.3319
硫酸	-11.3319
木曽	-11.332
水田	-11.3321
語彙	-11.3322
ゲージ	-11.3322
かえ	-11.3323
当駅始発	-11.3323
非難	-11.3326
この際	-11.3326
士官	-11.333
歴史家	-11.3332
以来の	-11.3332
現れる	-11.3334
駿河	-11.3334
高島	-11.3335
胞	-11.3337
南京	-11.3337
メジャー	-11.3338
グラフィック	-11.3339
嫁	-11.334
の妹	-11.3341
売上	-11.3341
青い	-11.3342
公家	-11.3345
協同組合	-11.3345
何度も	-11.3346
御家人	-11.3346
重要文化財	-11.3346
カルタゴ	-11.3347
試作	-11.3348
▁忌日	-11.3348
を廃止し	-11.3349
倫	-11.3349
武蔵野	-11.335
修理	-11.335
として設立	-11.335
無人	-11.335
悪い	-11.3352
結成された	-11.3352
クイ	-11.3353
、1975	-11.3353
▁style	-11.3357
▁大学院	-11.3357
単式	-11.3359
払い	-11.336
中立	-11.336
禄	-11.3361
これに伴い	-11.3361
を続け	-11.3362
催	-11.3363
無い	-11.3363
されたこと	-11.3364
されることがある	-11.3365
を編入	-11.3366
た場合	-11.3371
を選択	-11.3371
勘	-11.3372
ユダヤ	-11.3372
▁%	-11.3373
フィクション	-11.3374
営団地下鉄	-11.3374
カウント	-11.3374
徴収	-11.3374
ができ	-11.3374
を率いて	-11.3376
安全性	-11.3376
古墳	-11.3376
次男	-11.3377
の時代に	-11.3377
沼津	-11.3378
売却	-11.3379
コイ	-11.3381
灯台	-11.3381
を加え	-11.3382
著しく	-11.3382
されていなかった	-11.3385
に対応した	-11.3386
の西側	-11.3386
の遺	-11.3387
効	-11.3387
じょ	-11.3389
に開業した	-11.3389
は不明である	-11.3389
▁性質	-11.3391
根室	-11.3391
所領	-11.3395
郭	-11.3397
法では	-11.3397
対応の	-11.3398
物性	-11.34
ぼく	-11.3401
子孫	-11.3402
販売されている	-11.3405
合併により	-11.3405
として扱われる	-11.3406
正常	-11.3408
政務	-11.3408
無く	-11.3411
に乗り	-11.3412
蒸	-11.3413
抜	-11.3413
藩士	-11.3413
An	-11.3413
国民の	-11.3415
用品	-11.3417
原子力	-11.3417
EF	-11.3417
コンピューター	-11.3419
クール	-11.342
パイプ	-11.342
臨海	-11.3422
返し	-11.3422
と呼ぶこともある	-11.3423
農村	-11.3424
開通した	-11.3427
人員	-11.3428
博覧会	-11.3428
まって	-11.3429
槓	-11.3429
薫	-11.3429
顕微鏡	-11.3429
圭	-11.3429
▁後黎朝	-11.3429
意思	-11.343
学生時代	-11.343
キル	-11.343
アシ	-11.3431
▁秋田	-11.3432
オロ	-11.3432
音源	-11.3433
ture	-11.3435
一門	-11.3436
108	-11.3438
が置かれ	-11.3438
場所で	-11.3439
に分かれる	-11.3439
ヨン	-11.3442
を守る	-11.3442
とん	-11.3442
長調	-11.3444
が形成され	-11.3445
やり	-11.3446
インディ	-11.3448
ヴェー	-11.3449
ヶ崎	-11.3452
直営駅	-11.3453
Pr	-11.3454
遺伝	-11.3455
津田	-11.3456
の停車駅となる	-11.3456
添え	-11.3456
宇宙戦艦ヤマト	-11.3457
月下旬	-11.3457
地理的	-11.3457
水産	-11.3458
res	-11.3458
▁石川県	-11.346
テラ	-11.346
停車駅となる	-11.346
簡単に	-11.3461
親交	-11.3463
もっと	-11.3463
山手線	-11.3465
カナダの	-11.3465
。2019	-11.3469
局長	-11.347
石見	-11.3473
みん	-11.3474
ッキ	-11.3478
群馬	-11.3481
とは別	-11.3483
棲	-11.3484
アーキテクチャ	-11.3484
旧約聖書	-11.3484
アンテナ	-11.3485
通し	-11.3485
飛鳥	-11.3486
勤め	-11.3486
実は	-11.3488
食い	-11.349
大蔵	-11.3492
フランツ	-11.3492
を搭載した	-11.3494
ANN	-11.3494
net	-11.3497
高度な	-11.3497
の著作	-11.3499
期間は	-11.3501
に置かれた	-11.3501
if	-11.3502
規範	-11.3502
互換性	-11.3502
利根川	-11.3503
預	-11.3506
一貫	-11.3506
衡	-11.3508
最高速度	-11.3508
調和	-11.3509
を超え	-11.351
6000	-11.351
進み	-11.3511
おそらく	-11.3512
咸	-11.3512
串	-11.3512
閉塞	-11.3513
とりわけ	-11.3513
麻呂	-11.3514
焦点	-11.3514
指輪	-11.3515
に成功した	-11.3516
▁->	-11.3518
を設立し	-11.3519
クリーム	-11.3522
ius	-11.3522
配慮	-11.3523
景観	-11.3524
水路	-11.3525
図書	-11.3525
怒り	-11.3526
翌年の	-11.3526
の主要な	-11.3526
映画化	-11.3527
結城	-11.3529
胴	-11.3531
単位で	-11.3531
商号	-11.3532
NEC	-11.3533
北魏	-11.3534
ast	-11.3534
長門	-11.3534
肥	-11.3536
遷	-11.3538
描かれる	-11.354
藍	-11.354
普遍	-11.354
癸	-11.354
日刊	-11.3541
セントラル	-11.3541
抗議	-11.3541
1909	-11.3542
感染症	-11.3542
キス	-11.3544
岡本	-11.3545
新宿線	-11.3546
土休日	-11.3546
を組み合わせた	-11.3546
ear	-11.3547
を連載	-11.3548
していたため	-11.3548
。2020	-11.3549
東芝	-11.355
Ph	-11.3551
平安	-11.3554
魔女	-11.3555
ニッ	-11.3556
科目	-11.3558
が広く	-11.3559
▁ここで	-11.3561
▁Pa	-11.3562
を発見した	-11.3564
ana	-11.3564
FA	-11.3564
の公式	-11.3564
出身で	-11.3565
天武天皇	-11.3568
聖公会	-11.3569
単独村制	-11.3569
1905	-11.3571
曽根	-11.3571
東京都港区	-11.3571
宗派	-11.3573
落合	-11.3576
当局	-11.3578
五十	-11.358
ンダ	-11.3581
早期	-11.3581
伝える	-11.3582
等級	-11.3584
ヒー	-11.3585
日平均	-11.3586
▁r	-11.3587
ベア	-11.3587
ラート	-11.3591
こちらは	-11.3591
と表記する	-11.3592
マイクロソフト	-11.3593
アース	-11.3593
錯	-11.3593
異なり	-11.3593
津町	-11.3594
を離れ	-11.3594
マーガレット	-11.3597
大阪市高速電気軌道	-11.3597
▁備考	-11.3597
腺	-11.3597
遮断	-11.3597
UFJ	-11.3597
指す	-11.3598
ようやく	-11.3599
努力	-11.3599
As	-11.3599
ものではなく	-11.3601
にともない	-11.3602
茨城	-11.3603
1864	-11.3603
同作	-11.3603
利用される	-11.3604
この時点で	-11.3606
駅舎が	-11.3611
イブン	-11.3611
を開始し	-11.3612
切り替え	-11.3614
。2016	-11.3615
年までに	-11.3615
の拡大	-11.3615
切断	-11.3616
西条	-11.3616
るか	-11.3616
▁ジャン	-11.3617
(1995	-11.3617
絡	-11.3619
説もある	-11.362
大阪線	-11.3621
リコ	-11.3624
警視庁	-11.3625
高等学校卒業	-11.3625
を発表し	-11.3625
モチーフ	-11.3626
アイスランド	-11.3626
アルト	-11.3626
礼拝	-11.3626
▁1899	-11.3626
クマ	-11.3626
倫理	-11.3627
傍ら	-11.3628
ウイ	-11.3628
連合国	-11.3629
豪族	-11.3632
総延長	-11.3632
セックス	-11.3633
文化放送	-11.3635
ock	-11.3636
賀茂	-11.3639
快速急行	-11.3639
らす	-11.3639
酒田	-11.364
負傷	-11.3641
じま	-11.3641
美作	-11.3643
キューバ	-11.3644
大学教授	-11.3644
したことから	-11.3645
はしばしば	-11.3645
へん	-11.3646
例としては	-11.3648
今日では	-11.3649
ようと	-11.365
彰	-11.3651
大地	-11.3651
エッセイ	-11.3652
』・『	-11.3652
凶	-11.3653
収穫	-11.3653
コーラ	-11.3653
を必要とする	-11.3654
グローバル	-11.3654
建てられた	-11.3655
開かれた	-11.3657
石橋	-11.3662
▁青森	-11.3663
に含まれ	-11.3664
を形成している	-11.3664
コミ	-11.3666
able	-11.3668
1.0	-11.3669
撤去された	-11.3669
ところで	-11.367
駅行	-11.367
小文字	-11.367
ことをいう	-11.367
活発	-11.3671
造り	-11.3672
の内部	-11.3672
実質的な	-11.3672
の兄	-11.3673
木町	-11.3673
▁記念日	-11.3675
を境に	-11.3676
ベラ	-11.3678
、1964	-11.3678
大沢	-11.3678
一致する	-11.3681
自民党	-11.3682
哀	-11.3682
ムスリム	-11.3682
喰	-11.3682
割合	-11.3682
を越えて	-11.3684
和了	-11.3684
上野駅	-11.3686
転送	-11.3687
バトル	-11.3687
残りの	-11.3689
Fe	-11.3689
コロンビア	-11.369
どちらか	-11.369
ローン	-11.3691
留置線	-11.3692
最初	-11.3694
車両は	-11.3695
武力	-11.3695
上陸	-11.3695
選考	-11.3695
深川	-11.3696
越し	-11.3696
を経由する	-11.3697
諸語	-11.3699
の形で	-11.37
人事	-11.3704
インク	-11.3704
アプリ	-11.3705
西村	-11.3707
放送されている	-11.3709
耶	-11.371
電動機	-11.371
力士	-11.371
古代ギリシア	-11.3711
換算	-11.3711
語族	-11.3711
ゴシック	-11.3711
佐久	-11.3712
トラブル	-11.3713
通用	-11.3714
新興	-11.3715
モア	-11.3716
目撃	-11.3717
債権	-11.3721
の時点で	-11.3721
グラフィ	-11.3722
こともあって	-11.3722
シリ	-11.3724
経済学部	-11.3726
と読む	-11.3727
に引き	-11.3727
変化し	-11.373
下村	-11.3731
ハナ	-11.3731
討	-11.3732
南米	-11.3732
授与	-11.3734
日本国外	-11.3734
に勤務	-11.3735
を出版	-11.3735
否	-11.3735
斑	-11.3736
ハーフ	-11.3737
熙	-11.3737
荻	-11.3738
レオン	-11.3738
橿原	-11.3739
変更された	-11.3739
上杉	-11.374
開戦	-11.374
デッキ	-11.3742
チェック	-11.3742
......	-11.3742
人格	-11.3744
親会社	-11.3744
であることが	-11.3744
の最高	-11.3746
、1974	-11.3748
1906	-11.3749
路線を	-11.3751
クサ	-11.3751
が誕生	-11.3752
シエ	-11.3752
が特徴である	-11.3754
味方	-11.3755
を設置し	-11.3755
本格	-11.3755
運転開始	-11.3755
翻	-11.3755
を実現	-11.3758
この間	-11.3758
確実	-11.3761
らく	-11.3761
1,0	-11.3764
スティック	-11.3764
に出場	-11.3764
実態	-11.3764
閉じ	-11.3765
してしまった	-11.3766
粗	-11.3767
カリフォルニア	-11.3767
蓄積	-11.3767
ess	-11.3768
浦村	-11.3768
ギュ	-11.3769
四季	-11.377
北線	-11.3771
▁その他の	-11.3771
使者	-11.3772
佐伯	-11.3772
詳しくは	-11.3776
工房	-11.3779
が最初	-11.378
亡	-11.3782
を維持し	-11.3782
うつ	-11.3782
伝わる	-11.3784
波動	-11.3784
天平	-11.3785
国勢調査	-11.3787
が設置されていた	-11.3792
東端	-11.3793
ラウンド	-11.3794
生地	-11.3795
を設置する	-11.3796
参謀	-11.3796
ミュージカル	-11.3796
占	-11.3797
獅子	-11.3797
を図った	-11.3797
と呼んでいる	-11.3797
同人誌	-11.3797
が認められ	-11.38
婦人	-11.38
ロックバンド	-11.38
109	-11.3802
日本語訳	-11.3803
川崎市	-11.3803
の南側	-11.3804
宇和島	-11.3804
法的	-11.3806
の活躍	-11.3808
没後	-11.3809
府県	-11.3809
版では	-11.3809
歌う	-11.381
sion	-11.3812
を設定	-11.3813
を決める	-11.3814
最小の	-11.3816
ight	-11.3817
入間	-11.3817
へ移転	-11.3819
永正	-11.3819
に直接	-11.3819
十分	-11.382
同行	-11.382
分ける	-11.382
存在している	-11.382
を掲載	-11.3821
工芸	-11.3822
Ca	-11.3824
駅名は	-11.3824
ゴジラ	-11.3825
触媒	-11.3825
▁斉	-11.3825
消防署	-11.3825
▁Press	-11.3825
カルシウム	-11.3826
ニカ	-11.3828
家督	-11.3828
に戻り	-11.3829
歩道	-11.383
隅	-11.383
緑地	-11.3831
row	-11.3831
新生	-11.3832
を設け	-11.3832
直営	-11.3834
で使用される	-11.3834
などでも	-11.3834
を目指して	-11.3839
に譲渡	-11.3842
を構え	-11.3844
ub	-11.3844
の別名	-11.3844
スズメ	-11.385
原田	-11.385
しかも	-11.3851
をつけ	-11.3851
(1988	-11.3851
こども	-11.3853
干渉	-11.3853
グレイ	-11.3854
彗星	-11.3854
スーパーマーケット	-11.3855
を誇る	-11.3855
磐	-11.3855
マラソン	-11.3856
守備	-11.3856
証言	-11.3856
相対式	-11.3857
ダイヤ改正により	-11.3857
違法	-11.3858
じる	-11.3859
に分布する	-11.3859
使用した	-11.3859
ハマ	-11.3861
定義されている	-11.3861
全国の	-11.3861
が起き	-11.3861
ran	-11.3861
のモデル	-11.3862
など様々な	-11.3862
選挙で	-11.3864
ヴォル	-11.3864
同誌	-11.3864
によって異なる	-11.3867
物資	-11.3871
年ごろ	-11.3871
もつ	-11.3871
優位	-11.3871
生み	-11.3872
進む	-11.3872
ゆえに	-11.3872
連隊	-11.3873
責	-11.3873
川内	-11.3873
オペ	-11.3878
江戸時代に	-11.3878
わり	-11.3879
ウリ	-11.3879
チャート	-11.3879
企	-11.388
350	-11.3881
クレジット	-11.3881
軽便鉄道	-11.3883
妊娠	-11.3883
偶然	-11.3883
いろ	-11.3883
の子会社	-11.3884
添加	-11.3885
ハイウェイ	-11.3885
ホモ	-11.3886
▁高麗	-11.3888
受け入れ	-11.389
みる	-11.3893
女子大学	-11.3895
数学的	-11.3897
整備された	-11.3898
ヨーク	-11.3898
が与えられ	-11.3899
ホット	-11.39
▁Com	-11.39
設定された	-11.3901
松浦	-11.3907
大仏	-11.3907
ストーン	-11.3908
入団	-11.3908
日産	-11.3909
本庄	-11.391
浅井	-11.391
捉え	-11.3911
性別	-11.3911
町の一部	-11.3911
庚	-11.3912
毅	-11.3912
カンボジア	-11.3912
北アメリカ	-11.3912
文部省	-11.3912
匹	-11.3912
樹脂	-11.3912
角川書店	-11.3912
退任	-11.3914
ib	-11.3914
兼任	-11.3915
ドメイン	-11.3915
芸術家	-11.3915
sch	-11.3916
ラジ	-11.3916
Qu	-11.3917
正室	-11.3918
ダイヤ改正	-11.3919
(2013	-11.3919
テレビジョン	-11.3921
狩り	-11.3921
ことがあった	-11.3922
調節	-11.3923
華族	-11.3923
の名で	-11.3924
正しく	-11.3925
ドス	-11.3925
135	-11.3927
HE	-11.3927
歳の時	-11.3932
除く	-11.3934
奥州	-11.3935
大戦	-11.3936
▁1901	-11.3937
安藤	-11.3937
▁天保	-11.3938
の発見	-11.394
月からは	-11.3941
音階	-11.3941
にちなむ	-11.3941
フレーム	-11.3942
に達し	-11.3942
世紀前半	-11.3943
計測	-11.3943
参加者	-11.3943
貝塚	-11.3944
例がある	-11.3945
河口	-11.3947
を定める	-11.3947
格闘	-11.3949
。2021	-11.3949
東線	-11.3952
控え	-11.3955
写本	-11.3955
文字列	-11.3956
英語圏	-11.3956
車輪	-11.3957
名乗り	-11.3958
ワル	-11.3959
グー	-11.3961
合わせる	-11.3963
割り当て	-11.3964
薩摩	-11.3965
Do	-11.3966
溶液	-11.3966
000	-11.3967
タケ	-11.3968
淡路	-11.397
漫才	-11.397
遷移	-11.397
東名高速道路	-11.3971
壊滅	-11.3971
短期間	-11.3971
ris	-11.3973
スクリーン	-11.3974
MHz	-11.3975
微生物	-11.3975
タービン	-11.3975
登場し	-11.3977
3%	-11.3978
漬け	-11.3978
名古屋駅	-11.3979
大内	-11.3979
参加した	-11.398
表示される	-11.398
シネマ	-11.3981
コミュニティバス	-11.3982
順番	-11.3983
新型	-11.3985
書かれ	-11.3985
PO	-11.3986
出荷	-11.3987
タナ	-11.3987
するとともに	-11.3988
肉体	-11.3989
そく	-11.3992
▁東京都道	-11.3992
。2015	-11.3993
請	-11.3995
原始	-11.3995
トーン	-11.3995
新作	-11.3997
限りで	-11.3998
浄土	-11.3999
遇	-11.3999
挟	-11.3999
に関連する	-11.3999
ヘリコプター	-11.4
キログラム	-11.4
HA	-11.4001
正確に	-11.4003
起動	-11.4003
▁道の駅	-11.4004
儒学者	-11.4004
gr	-11.4005
回送	-11.4007
につれて	-11.4008
ワンマン運転	-11.4008
動物園	-11.4008
カラス	-11.401
を加える	-11.401
現状	-11.4011
となったため	-11.4011
エド	-11.4011
を結び	-11.4012
布施	-11.4012
の友人	-11.4017
日平均乗降	-11.4017
日々	-11.4018
を買収	-11.4019
ff	-11.4019
ハッ	-11.4019
伝記	-11.4019
に統一	-11.4019
ラッシュ時	-11.4021
していること	-11.4021
樽	-11.4021
後述する	-11.4022
が製造	-11.4023
が使用される	-11.4023
の一部は	-11.4023
動機	-11.4027
サロ	-11.4027
教派	-11.4028
大日本	-11.4028
酉	-11.4028
ko	-11.4029
尾村	-11.4029
の計	-11.4029
望遠鏡	-11.4029
所要時間	-11.4029
を停止	-11.4029
アルミニウム	-11.4029
▁郡区町村編制法の	-11.4031
桐生	-11.4031
縁起	-11.4031
すべく	-11.4032
進んだ	-11.4033
方面に	-11.4034
大東	-11.4034
説がある	-11.4035
略して	-11.4036
革	-11.4039
、1968	-11.4039
▁山形県	-11.404
りぼん	-11.4041
ei	-11.4042
等しい	-11.4042
政治学	-11.4044
慎	-11.4045
込まれ	-11.4047
傍	-11.4047
行っている	-11.4048
あわせ	-11.405
出てくる	-11.4054
隠れ	-11.4054
エピ	-11.4055
邪	-11.4055
lus	-11.4055
の中で最も	-11.4056
檜	-11.4057
警戒	-11.4058
新選組	-11.4058
なかよし	-11.406
集積	-11.4061
から成る	-11.4061
天王	-11.4061
form	-11.4066
両分	-11.4066
▁慶長	-11.4069
を備え	-11.4073
定着した	-11.4073
を挙げ	-11.4073
を続ける	-11.4077
プト	-11.4077
高地	-11.4079
寄与	-11.4079
列島	-11.4079
マキ	-11.4079
▁v	-11.408
化学者	-11.4081
ソート	-11.4083
入選	-11.4084
開学	-11.4086
それ以降	-11.4086
軽量	-11.4087
住み	-11.4087
胆	-11.4087
ドラえもん	-11.4088
みどりの窓口の営業を終了	-11.4088
スポット	-11.4088
数列	-11.4089
はこれを	-11.409
海賊	-11.409
育ち	-11.4091
加古川	-11.4092
均一	-11.4093
意志	-11.4094
藤岡	-11.4096
GE	-11.4096
128	-11.4096
であったことから	-11.4097
ことが多かった	-11.4098
コフ	-11.4099
かけて	-11.41
政令	-11.41
ホームと	-11.41
ミルク	-11.4101
手形	-11.4102
元和	-11.4102
大原	-11.4102
バブル	-11.4105
av	-11.4106
谷川	-11.4107
は少なく	-11.4107
▁Mar	-11.4109
親子	-11.4109
流山	-11.4111
old	-11.4112
固有の	-11.4113
ざん	-11.4113
ったもの	-11.4113
Pa	-11.4114
を歴任	-11.4115
1800	-11.4115
戊	-11.4118
渦	-11.4118
高速自動車国道	-11.4118
考察	-11.4118
閲覧	-11.4118
ステレオ	-11.4118
山陽新幹線	-11.4119
ブロー	-11.412
に等しい	-11.412
SR	-11.4121
改訂版	-11.4123
党首	-11.4124
ることもある	-11.4125
鳥居	-11.4125
直交	-11.4126
かき	-11.4128
1860	-11.4128
特徴的な	-11.4131
7000	-11.4132
He	-11.4133
の積	-11.4135
▁愛媛県	-11.4137
末期に	-11.4138
一級	-11.4138
拍	-11.4139
自称	-11.4139
年設立の	-11.414
月までは	-11.4142
民事	-11.4142
に敗れ	-11.4144
も含まれる	-11.4145
イヌ	-11.4145
が整備され	-11.4145
■	-11.4146
クリア	-11.4146
鋳	-11.4146
漫画雑誌	-11.4146
噂	-11.4147
総務省	-11.4148
ショック	-11.415
魅力	-11.415
島嶼	-11.415
弾圧	-11.4151
、1969	-11.4151
明治維新	-11.4152
柏原	-11.4153
欠番	-11.4153
羽毛	-11.4154
専門家	-11.4155
設立した	-11.4155
変調	-11.4155
する場合は	-11.4157
大小	-11.4157
好み	-11.4157
メリ	-11.4159
楽章	-11.416
しておらず	-11.416
は既に	-11.416
彼を	-11.4161
されるため	-11.4163
モンド	-11.4164
入居	-11.4165
終了し	-11.4167
忘れ	-11.4167
十一	-11.4167
以外では	-11.4168
9:00	-11.4168
ix	-11.4168
りする	-11.417
ワール	-11.4173
本質	-11.4174
ついに	-11.4174
ロープ	-11.4176
ボート	-11.4176
討伐	-11.4177
笑い	-11.4177
ハインリヒ	-11.4177
現在まで	-11.4177
任天堂	-11.4178
年代初頭	-11.4178
剣術	-11.4181
放送されていた	-11.4181
た後	-11.4183
鶴岡	-11.4184
フン	-11.4186
ボリ	-11.4187
復元	-11.419
する者	-11.419
岩崎	-11.4191
をベースに	-11.4192
部下	-11.4192
選ばれ	-11.4193
右側	-11.4196
役職	-11.4197
藩領	-11.4198
夫妻	-11.4198
以上に	-11.4198
が現れる	-11.42
初めての	-11.4206
の減少	-11.4206
(2020	-11.4206
生育	-11.4206
佐世保	-11.4207
戦力	-11.4207
鱗	-11.4208
ser	-11.4208
リンゴ	-11.4208
ならず	-11.4208
飲食店	-11.4208
(1986	-11.421
担保	-11.421
八千代	-11.4212
着陸	-11.4213
本作の	-11.4213
断層	-11.4214
▁神奈川県	-11.4214
屋町	-11.4216
(※	-11.4216
アイヌ語	-11.4216
管理者	-11.4217
埼玉県道	-11.4217
TR	-11.4218
二丁目にある	-11.4219
高砂	-11.422
偶	-11.422
▁過去の	-11.4221
UR	-11.4221
させている	-11.4221
ほく	-11.4222
ガーデン	-11.4222
上述の	-11.4222
なのか	-11.4224
らによって	-11.4225
開業に伴い	-11.4225
国宝	-11.4225
名前の由来	-11.4226
分配	-11.4228
確認できる	-11.4228
が生まれ	-11.4231
を創設	-11.4231
の里	-11.4232
、1982	-11.4232
川流域	-11.4232
を挙げる	-11.4232
その中で	-11.4234
ロマン	-11.4234
総数	-11.4235
1903	-11.4236
回避	-11.4236
が生じた	-11.4236
化して	-11.4237
キャッシュ	-11.4237
滑走路	-11.4238
パック	-11.4238
収益	-11.4238
を求めた	-11.4239
孤立	-11.4239
円形	-11.4239
妻は	-11.424
に貢献	-11.4243
4000	-11.4245
テク	-11.4245
西端	-11.4246
販売する	-11.4247
永遠	-11.4248
ラマ	-11.4249
1,2	-11.4249
ブス	-11.4251
南下	-11.4252
長浜	-11.4252
工学科	-11.4253
ire	-11.4253
役で	-11.4253
を送り	-11.4254
商用	-11.4254
が無く	-11.4256
が開設され	-11.4257
に変え	-11.4257
宝石	-11.426
の発行	-11.4262
(1984	-11.4263
の発達	-11.4263
帆	-11.4265
開幕	-11.4266
▁登場人物	-11.4266
胎	-11.4267
もっぱら	-11.4267
世と	-11.4267
路面電車	-11.4267
▁with	-11.4268
定期列車	-11.4268
NEWS	-11.4268
タク	-11.4268
農耕	-11.4268
スマートインターチェンジ	-11.4268
(2018	-11.4269
を継続	-11.427
紋章	-11.427
エステル	-11.4271
兵庫県神戸市	-11.4271
常温	-11.4271
PR	-11.4272
最初は	-11.4272
人口が	-11.4273
ないので	-11.4273
補給	-11.4274
という説もある	-11.4275
ソス	-11.4276
、1981	-11.4277
から分離	-11.4277
傘下の	-11.4277
従軍	-11.4278
題名	-11.4278
適応	-11.4279
ki	-11.4282
したことにより	-11.4282
ber	-11.4283
年代まで	-11.4285
いなかった	-11.4285
学んだ	-11.4286
無し	-11.4288
が就任	-11.4288
内部に	-11.4288
三郷	-11.4289
大国	-11.429
菱	-11.4291
業務を	-11.4291
ようとした	-11.4293
純粋	-11.4296
を読み	-11.4296
幣	-11.4296
幽	-11.4296
杜	-11.4298
縫	-11.4298
奨励	-11.4298
婆	-11.4298
冪	-11.4298
岩波書店	-11.4298
に限らず	-11.4298
マスコミ	-11.4298
イラストレーター	-11.4298
サクラ	-11.4298
Dr	-11.4298
。2011	-11.4299
合唱	-11.4299
生殖	-11.43
伸ばし	-11.43
をリリース	-11.4301
シフト	-11.4302
が進んだ	-11.4303
▁No	-11.4303
へのアクセス	-11.4304
十分な	-11.4304
ムラ	-11.4311
さく	-11.4312
上級	-11.4312
伝え	-11.4314
一貫して	-11.4315
宗教的	-11.4315
直前の	-11.4317
ach	-11.4317
宮古	-11.4317
(2019	-11.4318
ure	-11.4319
大船	-11.432
ジル	-11.4321
Wi	-11.4323
四丁目	-11.4323
ムス	-11.4323
初期には	-11.4325
が配置され	-11.4325
泡	-11.4326
に隣接する	-11.4327
夏に	-11.4327
椿	-11.4327
変化する	-11.4328
最盛期	-11.4328
惟	-11.4328
溶媒	-11.4328
安全保障	-11.4328
室町時代の武将	-11.4329
系列局	-11.4333
施行された	-11.4334
アオ	-11.4335
▁近畿日本鉄道	-11.4336
皇室	-11.4338
ることとなった	-11.4338
ニョ	-11.4339
ial	-11.4339
の使用を開始	-11.4342
に移住	-11.4346
東大	-11.4346
ウルス	-11.4348
小牧	-11.4349
先頭	-11.4351
かぜ	-11.4352
世紀以降	-11.4353
架線	-11.4354
月時点で	-11.4354
の寺院	-11.4358
推測	-11.4358
斜面	-11.4358
爾	-11.4358
見直し	-11.4358
ザクセン	-11.4359
中国自動車道	-11.4359
に戻った	-11.4359
事で	-11.436
区画	-11.436
ました	-11.4361
当日	-11.4363
迎え	-11.4363
表面に	-11.4364
が終了	-11.4364
全世界	-11.4364
簡	-11.437
Vol	-11.437
するとき	-11.4371
理由として	-11.4373
息子の	-11.4373
ルカ	-11.4374
。1960	-11.4374
の養子	-11.4376
cal	-11.4377
が容易	-11.4378
ゆく	-11.4378
トリオ	-11.4378
パルス	-11.4381
チェン	-11.4381
県立	-11.4382
アメリカでは	-11.4383
全体が	-11.4383
1889	-11.4385
登場している	-11.4387
プレミアム	-11.4389
労働組合	-11.4389
東京都道	-11.4389
ビートルズ	-11.4389
勧告	-11.4389
を失い	-11.4389
防災	-11.439
切符	-11.439
表彰	-11.4391
Ex	-11.4391
Go	-11.4393
飽和	-11.4394
遡	-11.4394
ドリーム	-11.4395
大火	-11.4398
▁Windows	-11.4399
第六	-11.4399
呼び方	-11.4399
を伝える	-11.4403
黒色	-11.4403
いつも	-11.4405
考える	-11.4406
運動量	-11.4406
クシ	-11.4409
はじめて	-11.441
St	-11.441
覧	-11.441
交響曲	-11.4411
▁石川	-11.4411
、1978	-11.4411
全線開通	-11.4411
テック	-11.4413
樹木	-11.4413
跡地に	-11.4414
span	-11.4415
敵対	-11.4415
メロディ	-11.4416
戯	-11.4417
を継いだ	-11.4418
彫	-11.4419
黙	-11.4419
周辺は	-11.4419
オットー	-11.442
収束	-11.442
為替	-11.442
理学	-11.4421
ウォーター	-11.4421
寄付	-11.4422
構内踏切	-11.4423
石余	-11.4423
を使用	-11.4425
国際的な	-11.4427
端子	-11.4427
質問	-11.4428
LAN	-11.4429
前後に	-11.443
をかけ	-11.4433
Br	-11.4433
命名された	-11.4433
類型	-11.4435
宮内	-11.4436
の裏	-11.4437
うどん	-11.4439
用語として	-11.4443
つい	-11.4445
Vi	-11.4446
▁伊予	-11.4447
TH	-11.4447
診療	-11.4447
相馬	-11.4448
日本代表	-11.4449
開閉	-11.445
ユーラシア大陸	-11.445
ロケ	-11.4451
蘇我	-11.4451
挿絵	-11.4452
厳しく	-11.4452
大学校	-11.4454
過ごし	-11.4454
に発生した	-11.4455
中枢	-11.4455
文化的	-11.4458
近代化	-11.4458
神学者	-11.4458
父親の	-11.4459
公理	-11.4459
困難な	-11.4459
志向	-11.446
したところ	-11.446
ネン	-11.4461
製薬	-11.4461
落とし	-11.4463
を避けるため	-11.4464
に面する	-11.4466
椎	-11.447
連載開始	-11.4471
親族	-11.4472
情報番組	-11.4473
広瀬	-11.4475
利点	-11.4476
とよ	-11.4478
トライ	-11.4479
(1985	-11.4479
東京帝国大学	-11.448
暁	-11.4481
貼	-11.4481
天然記念物	-11.4481
カエサル	-11.4481
3,000	-11.4481
を置いた	-11.4481
筑紫	-11.4481
が起こった	-11.4481
サリ	-11.4482
須磨	-11.4482
大崎	-11.4483
閏年では	-11.4483
有力な	-11.4483
ケア	-11.4485
スプ	-11.4485
大江	-11.4485
ox	-11.4486
ザイ	-11.4489
分立	-11.449
が使われている	-11.4491
洗礼	-11.4491
っち	-11.4492
南北朝時代の	-11.4492
ナール	-11.4494
知られた	-11.4495
概念である	-11.4498
際の	-11.45
HI	-11.45
互	-11.4503
1200	-11.4504
対称性	-11.4505
織田	-11.4508
徹底	-11.451
歌謡	-11.4511
ゲノム	-11.4512
普段	-11.4513
が現れ	-11.4513
プリンセス	-11.4514
格納	-11.4514
読売新聞	-11.4515
予讃線	-11.4515
戦死	-11.4516
室蘭	-11.4516
裁判官	-11.4516
円盤	-11.452
ぐち	-11.452
天理	-11.4521
Ma	-11.4522
アルファ	-11.4523
マール	-11.4523
それ以外	-11.4524
と合併し	-11.4525
切った	-11.4527
の形成	-11.453
傑	-11.4531
簡単な	-11.4531
了	-11.4534
にかけては	-11.4535
業務委託駅	-11.4535
まき	-11.4538
カント	-11.4538
るようになり	-11.454
の企画	-11.454
砲塔	-11.4541
ove	-11.4542
溜	-11.4542
救済	-11.4543
バレーボール	-11.4543
1865	-11.4544
AF	-11.4545
電磁波	-11.4545
直前	-11.4545
左翼	-11.4547
使用していた	-11.4548
回る	-11.4548
天才	-11.4549
永久	-11.4551
という表現	-11.4552
僅か	-11.4554
1863	-11.4555
守り	-11.4555
Ba	-11.4555
容易	-11.4556
を起こした	-11.4556
かつて存在した	-11.4557
売り上げ	-11.4558
帰り	-11.4561
の意向	-11.4562
ラリー	-11.4563
いっ	-11.4563
公団	-11.4564
関白	-11.4565
いずれの	-11.4566
に掲載	-11.4566
成田空港	-11.4567
バート	-11.4567
鴨川	-11.4569
ひめ	-11.457
全体を	-11.4572
ノース	-11.4572
水域	-11.4573
醤油	-11.4573
免疫	-11.4574
so	-11.4574
拡散	-11.4574
が廃止	-11.4574
かせ	-11.4576
吾妻	-11.4576
天井	-11.4576
芸能界	-11.4576
も同じ	-11.4578
チル	-11.4579
日本での	-11.4579
対岸	-11.458
107	-11.458
に参加する	-11.458
の間には	-11.4581
慢性	-11.4582
を超えた	-11.4582
中線	-11.4585
にくく	-11.4586
、1967	-11.4587
のアナウンサー	-11.4589
ik	-11.459
摩擦	-11.459
平塚	-11.4592
ルズ	-11.4593
タラ	-11.4593
デジタル放送	-11.4594
として活躍	-11.4595
のキャラクター	-11.4596
の指揮	-11.4598
本人は	-11.4598
align	-11.4599
終戦	-11.4599
同地	-11.46
するようになる	-11.4601
召	-11.4602
として知られ	-11.4603
鵜	-11.4605
虹	-11.4605
線のホームを持つ地上駅	-11.4605
潰	-11.4605
何も	-11.4605
Lo	-11.4605
を獲得し	-11.4605
ウィル	-11.4606
じり	-11.4607
100%	-11.4608
双子	-11.4609
▁全長	-11.461
高齢者	-11.4611
を経由し	-11.4613
に残る	-11.4614
ヘブライ語	-11.4616
難しく	-11.4616
du	-11.4616
豊島	-11.4617
劇場版	-11.4618
、1971	-11.4619
騎	-11.4619
締め	-11.4619
例である	-11.462
天気	-11.4621
勝負	-11.4621
三宮	-11.4622
バット	-11.4622
ラジオ放送	-11.4624
いけ	-11.4624
注目	-11.4625
。2002	-11.4625
かれた	-11.4626
中将	-11.4627
シャル	-11.4627
バリアフリー	-11.4628
歴史上	-11.4629
る事	-11.463
小樽	-11.4631
年末	-11.4632
製作された	-11.4632
を集め	-11.4633
直し	-11.4633
朴	-11.4635
DF	-11.4635
袖	-11.4636
もちろん	-11.4636
飢	-11.4636
の列車が	-11.4636
休憩	-11.4636
租税	-11.4636
婚姻	-11.4636
ライダー	-11.4636
症候群	-11.4636
鹿児島本線	-11.4639
の平均乗車人員は以下の通りである	-11.4641
が開始され	-11.4641
進め	-11.4641
NI	-11.4646
取り組み	-11.4646
をつけた	-11.4647
を取った	-11.465
つくば	-11.4652
明和	-11.4652
行政機関	-11.4652
ギリシア神話	-11.4652
使える	-11.4653
パーソナルコンピュータ	-11.4655
三宅	-11.4655
長州藩	-11.4655
原案	-11.4656
▁To	-11.4657
解明	-11.4657
津波	-11.4658
結論	-11.4659
受ける	-11.466
社会党	-11.4664
FF	-11.4664
アラン	-11.4667
マリオ	-11.4667
宍	-11.4668
花とゆめ	-11.4668
ステークス	-11.4668
倒産	-11.467
が続く	-11.4671
千人	-11.4674
ボウ	-11.4675
新潟市	-11.4675
畠山	-11.4676
逆転	-11.4677
水野	-11.4677
穀物	-11.4677
死んだ	-11.4678
を置き	-11.4678
週末	-11.468
豊川	-11.4681
届け	-11.4682
離れ	-11.4682
缶	-11.4683
四国旅客鉄道	-11.4683
ノード	-11.4683
劇作家	-11.4687
体操	-11.4688
メイド	-11.469
1901	-11.469
値を	-11.469
らせる	-11.4691
▁978-4	-11.4692
群れ	-11.4694
提	-11.4698
ガソリン	-11.4698
聡	-11.4698
フランソワ	-11.4699
請願	-11.4699
県境	-11.4699
高層	-11.47
キリスト教徒	-11.47
東京都千代田区	-11.4701
日からは	-11.4701
体育館	-11.4702
ick	-11.4702
崎駅	-11.4703
造形	-11.4703
占い	-11.4704
楽譜	-11.4705
予約	-11.4706
重臣	-11.4707
Mi	-11.4707
大佐	-11.4709
ばね	-11.471
が誕生した	-11.4711
を防ぐため	-11.4711
遅く	-11.4714
になってから	-11.4714
、1963	-11.4714
旅館	-11.4716
ルネサンス	-11.4716
臼	-11.4717
ラテン	-11.4718
わずかに	-11.4719
畠	-11.4721
の仲間	-11.4722
現金	-11.4724
キック	-11.4726
fer	-11.4726
放棄	-11.4727
の女神	-11.4728
学院大学	-11.4729
公務員	-11.4729
伽	-11.473
のなかで	-11.4731
龍造寺	-11.4731
装着	-11.4731
ja	-11.4732
並列	-11.4732
持続	-11.4732
大都市	-11.4734
せた	-11.4735
の平均	-11.4735
下田	-11.4735
重複区間	-11.4736
線の駅となる	-11.4736
先祖	-11.4737
を越える	-11.4737
系列の	-11.4737
実施された	-11.4737
即位した	-11.4738
歩行者	-11.4739
同法	-11.474
ひこ	-11.474
ウォル	-11.4742
ラード	-11.4742
英語版	-11.4742
をとり	-11.4744
進んで	-11.4745
。(3	-11.4745
別府	-11.4747
は一般に	-11.4747
陥落	-11.4747
が追加され	-11.4748
未だ	-11.4748
と考えられ	-11.4749
どり	-11.4749
を防ぐ	-11.475
聞き	-11.475
の名前は	-11.475
に従事	-11.475
原点	-11.4751
くう	-11.4751
ONE	-11.4752
したとされる	-11.4753
小野田	-11.4753
後任	-11.4754
で呼ばれる	-11.4754
(2022	-11.4754
ミア	-11.4754
ぼし	-11.4755
平原	-11.4757
王族	-11.4758
様々	-11.4758
備え	-11.4759
柴田	-11.476
ミラー	-11.4761
イレブン	-11.4762
殆ど	-11.4762
長寿	-11.4763
アレクサンドロス	-11.4763
を採用する	-11.4764
北九州市	-11.4764
運転される	-11.4765
評議会	-11.4765
を備える	-11.4766
ロマ	-11.4767
は異なる	-11.4768
▁978-4-	-11.4769
京浜	-11.4771
山梨	-11.4771
一緒に	-11.4772
les	-11.4772
号交点	-11.4774
の表面	-11.4774
極限	-11.4774
下車	-11.4775
イソ	-11.4776
となるため	-11.4776
。2001	-11.4777
ものも	-11.4778
毎時	-11.4778
に強い	-11.478
東晋	-11.4781
普	-11.4782
を刊行	-11.4783
レジスタ	-11.4784
(1987	-11.4784
シアン	-11.4785
仰	-11.4786
れている	-11.4787
を認める	-11.4787
ダラ	-11.4788
絞	-11.4788
毎に	-11.479
倉敷	-11.479
顕著	-11.4793
二酸化炭素	-11.4794
晃	-11.4794
磁性	-11.4795
位置に	-11.4797
典型	-11.4798
戸籍	-11.4798
▁楚	-11.4798
分から	-11.4799
トゥル	-11.4799
新人賞	-11.4802
インテル	-11.4802
主教	-11.4802
の先端	-11.4806
ガロ	-11.4807
ホンダ	-11.4807
が完了	-11.4807
MT	-11.4807
年廃止の	-11.4807
あたりの	-11.4808
がなされた	-11.4811
1858	-11.4811
形式で	-11.4811
寺社	-11.4812
の低い	-11.4813
Di	-11.4815
に達した	-11.4816
辞任	-11.4818
▁°	-11.4819
福音	-11.482
尾崎	-11.4821
▁Li	-11.4821
食性	-11.4823
漫	-11.4823
酔	-11.4825
盲	-11.4825
洞窟	-11.4826
グレゴリオ暦で年始から	-11.4826
就航	-11.4826
敦賀	-11.4827
ってくる	-11.4828
選ばれた	-11.4828
にいる	-11.4829
専属	-11.483
▁Ro	-11.4832
▁福島県	-11.4832
幅員	-11.4832
行き違い	-11.4832
没した	-11.4832
社会福祉	-11.4832
▁Sh	-11.4833
ster	-11.4834
いわき	-11.4834
半ば	-11.4835
につながる	-11.4835
を支える	-11.4836
くない	-11.4836
南端	-11.4837
をとった	-11.484
土浦	-11.4841
ler	-11.4843
1904	-11.4844
UT	-11.4845
した結果	-11.4845
符号化	-11.4846
と改名	-11.4847
描く	-11.4847
遠い	-11.4847
(2012	-11.4849
ねじ	-11.4852
フォース	-11.4854
主たる	-11.4855
察	-11.4855
銚子	-11.4857
鉢	-11.4857
錠	-11.4857
牙	-11.4858
γ	-11.4858
城下	-11.4858
楼	-11.4858
の名称で	-11.4858
鎌倉時代の武将	-11.4859
の間は	-11.4859
ためには	-11.486
勢力を	-11.4862
撤去	-11.4862
立命館大学	-11.4863
CR	-11.4864
▁池田	-11.4864
ng	-11.4865
の一つであり	-11.4866
を想定し	-11.4867
受けた	-11.4867
処女	-11.4868
代わり	-11.4868
金庫	-11.4868
明治元年	-11.4869
認められる	-11.4869
号車	-11.487
リティ	-11.4871
あし	-11.4871
革新	-11.4871
▁1903	-11.4872
ざる	-11.4872
北見	-11.4873
明王	-11.4873
不在	-11.4876
の中核	-11.4877
所持	-11.4878
内での	-11.4878
武蔵国	-11.4878
▁湖沼	-11.4878
じゅん	-11.4882
の停車駅	-11.4883
航空会社	-11.4885
サンド	-11.4886
uc	-11.4887
食料	-11.4888
同局	-11.4889
レコーディング	-11.489
絹	-11.489
オートバイ	-11.4891
遠隔	-11.4891
付随	-11.4891
間開通	-11.4892
山川	-11.4894
もともとは	-11.4894
普及した	-11.4897
初版	-11.4897
太平	-11.4897
平衡	-11.49
側近	-11.4901
えば	-11.4901
プリンス	-11.4901
書簡	-11.4902
数少ない	-11.4902
話者	-11.4903
前線	-11.4904
送電	-11.4906
(2015	-11.4908
レーシング	-11.4911
中央競馬	-11.4911
と一緒に	-11.4912
に対しても	-11.4912
決して	-11.4912
数多く	-11.4915
(2014	-11.4916
が比較的	-11.4916
エクス	-11.4916
1916	-11.4918
慣性	-11.4921
惣	-11.4921
の上で	-11.4921
キャプテン	-11.4922
▁町村制の施行により	-11.4922
を営む	-11.4922
財務	-11.4922
低迷	-11.4923
評判	-11.4923
総主教	-11.4923
当駅と	-11.4924
陸地	-11.4924
廃棄物	-11.4925
col	-11.4929
備中	-11.4931
沼田	-11.4931
CP	-11.4932
射撃	-11.4932
十分に	-11.4933
イタリア共和国	-11.4936
常陸	-11.4938
とも表記される	-11.4938
狭山	-11.4939
学び	-11.4939
ーレ	-11.494
擁立	-11.4941
に合わせ	-11.4942
De	-11.4945
合流する	-11.4949
の区域	-11.495
国々	-11.4951
方面から	-11.4951
爆撃	-11.4952
されたり	-11.4953
榎	-11.4954
琵琶湖	-11.4954
嘆	-11.4954
風土記	-11.4954
脅威	-11.4954
淡水	-11.4955
損傷	-11.4955
プレーヤー	-11.4955
ホルモン	-11.4956
を残す	-11.4956
駅北側	-11.4956
と思い	-11.4957
ということで	-11.4957
造営	-11.4957
に分類され	-11.4957
光明	-11.4958
島々	-11.4958
歌唱	-11.4959
西側に	-11.4965
des	-11.4966
体長	-11.4966
-16	-11.4967
ホスト	-11.4967
に貢献した	-11.4968
決まる	-11.4969
メラ	-11.4969
今井	-11.497
島原	-11.4971
高句麗	-11.4972
療養	-11.4973
各種の	-11.4974
を高める	-11.4974
ブリー	-11.4974
総社	-11.4977
資本金	-11.4978
レンジャー	-11.4979
私は	-11.4979
ov	-11.4981
名残	-11.4984
貢	-11.4984
ep	-11.4985
を描き	-11.4985
で表せる	-11.4986
1902	-11.4986
那珂	-11.4987
TOKYO	-11.4987
駅方面	-11.4987
パロディ	-11.4988
▁福岡県	-11.4988
世紀半ば	-11.4988
頃まで	-11.4988
喜劇	-11.4988
生まれの	-11.499
各々	-11.499
後輩	-11.4991
外伝	-11.4992
ヒトラー	-11.4993
正平	-11.4993
サス	-11.4994
人口は約	-11.4995
乗換駅	-11.4997
が使用されている	-11.4997
みずほ	-11.4998
狭義には	-11.4998
総長	-11.4998
逃	-11.4999
入れた	-11.5
の由来	-11.5003
の語源	-11.5003
こともあるが	-11.5004
山上	-11.5004
のあった	-11.5005
たちに	-11.5006
に成立した	-11.5007
かぶ	-11.5009
ティウス	-11.5009
第三セクター	-11.501
見られない	-11.5012
近隣の	-11.5012
と並び	-11.5013
が好き	-11.5014
147	-11.5015
農林	-11.5015
小規模な	-11.5017
本作は	-11.5018
肌	-11.5019
テクノロジー	-11.5019
神聖ローマ皇帝	-11.5019
刑罰	-11.5019
を表現する	-11.502
京王電鉄	-11.502
自由民主党	-11.5021
▁群馬県道	-11.5021
十字軍	-11.5021
erv	-11.5022
上がった	-11.5022
シャトル	-11.5022
▁FIFA	-11.5022
に似ている	-11.5023
呼ばれる	-11.5023
存在しない	-11.5023
短期	-11.5024
戦前の	-11.5027
サンタ	-11.5028
秋に	-11.503
▁茨城県	-11.5031
崩れ	-11.5031
ドゥー	-11.5031
満足	-11.5031
▁1905	-11.5031
ムーン	-11.5034
▁1902	-11.5035
に影響	-11.5035
模	-11.5035
Le	-11.5037
ッジ	-11.5038
が完成し	-11.5039
に指定	-11.5041
使用できる	-11.5044
能代	-11.5045
の墓	-11.5045
が用いられている	-11.5047
基底	-11.5048
一般駅	-11.5049
髄	-11.505
鯨	-11.5051
勧	-11.5051
ドキュメンタリー	-11.5051
キャンペーン	-11.5052
ベック	-11.5052
温暖	-11.5052
ライオン	-11.5053
少年時代	-11.5054
核兵器	-11.5054
ヴォー	-11.5054
西ドイツ	-11.5054
ong	-11.5056
毎日新聞	-11.5057
オイラー	-11.5057
ピッチ	-11.5059
筑後	-11.506
駅中	-11.506
どれ	-11.5062
qu	-11.5062
特記	-11.5063
宣教師	-11.5063
が進む	-11.5066
志村	-11.5067
などが挙げられる	-11.5068
ベッ	-11.5068
log	-11.5069
すう	-11.5069
yl	-11.507
が発表された	-11.507
月にかけて	-11.507
励	-11.5072
iz	-11.5073
手段として	-11.5073
148	-11.5073
アレンジ	-11.5074
ナガ	-11.5077
このことから	-11.5077
稚	-11.5078
家屋	-11.5079
大きく異なる	-11.508
港区	-11.508
Hz	-11.5081
アリストテレス	-11.5084
出演した	-11.5084
剥	-11.5084
つながり	-11.5084
パレスチナ	-11.5084
ステンレス	-11.5084
内務省	-11.5084
アルバニア	-11.5085
嫡男	-11.5085
フランス語で	-11.5085
波動関数	-11.5085
法に基づく	-11.5087
センス	-11.5087
ニャ	-11.5088
0.2	-11.509
、1966	-11.509
支払い	-11.5091
湯沢	-11.5091
綴り	-11.5092
Ver	-11.5094
PP	-11.5095
コーラス	-11.5096
学芸	-11.5096
が設定されている	-11.5096
喜多	-11.5096
イオ	-11.5097
公衆	-11.51
との境界	-11.5105
▁1904	-11.5106
から独立	-11.5108
改め	-11.5109
商法	-11.5112
浜町	-11.5112
ことができない	-11.5113
を作って	-11.5114
保障	-11.5116
櫛	-11.5117
トマト	-11.5117
京橋	-11.5117
子内親王	-11.5117
独立行政法人	-11.5117
探索	-11.5117
責任者	-11.5118
チャイ	-11.5118
軌間	-11.5118
生誕	-11.5118
オルガン	-11.512
目立つ	-11.5121
周囲に	-11.5121
運命	-11.5122
ax	-11.5122
マスク	-11.5124
アイス	-11.5124
ger	-11.5124
養父	-11.5126
熱海	-11.5128
▁千葉県道	-11.5129
へ移行	-11.5129
飛ば	-11.513
セス	-11.513
リット	-11.513
はそのまま	-11.5131
MF	-11.5132
が続いた	-11.5133
簡易委託駅	-11.5133
DJ	-11.5135
ヴェーダ	-11.5135
といって	-11.5136
規定されている	-11.5139
ウシ	-11.5141
電信	-11.5141
藤井	-11.5141
律令制	-11.5142
塗	-11.5143
漢字表記	-11.5145
再興	-11.5146
市に編入	-11.5149
解く	-11.5149
GHQ	-11.515
レク	-11.515
にならない	-11.515
リトアニア	-11.515
を続けた	-11.5151
夕張	-11.5151
秋田書店	-11.5151
重要である	-11.5152
自由主義	-11.5152
まもなく	-11.5152
先住民	-11.5154
分間隔	-11.5157
ヨハネス	-11.5158
西晋	-11.5159
は不明	-11.5159
交響曲第	-11.516
調達	-11.516
最高の	-11.516
対外	-11.516
市営	-11.516
別称	-11.5162
ニュース番組	-11.5164
が行う	-11.5164
方式で	-11.5165
番艦	-11.5166
福知山	-11.5166
会議で	-11.5166
換え	-11.5167
vol	-11.5169
ワット	-11.5169
れき	-11.5169
西岸	-11.5169
全土	-11.517
も可能	-11.517
▁1895	-11.517
入った	-11.5171
薬物	-11.5171
の規模	-11.5173
右手	-11.5175
公式に	-11.5175
上から	-11.5175
を目指した	-11.5182
惨	-11.5183
マイク	-11.5183
の前身である	-11.5183
パフォーマンス	-11.5183
回衆議院議員総選挙	-11.5183
軽井沢	-11.5183
宿泊	-11.5183
カメ	-11.5184
をつけて	-11.5187
プラトン	-11.5189
世襲	-11.5189
が合併し	-11.5189
登記	-11.5189
駅前に	-11.519
割り当てられ	-11.519
帝国大学	-11.519
妙見	-11.5191
の影響を受け	-11.5194
羽後	-11.5195
YA	-11.5197
維新	-11.5197
ツォ	-11.5198
Mon	-11.5198
ことが多いが	-11.5199
-17	-11.5199
を統合し	-11.5199
RT	-11.5199
中宮	-11.52
重点	-11.52
org	-11.5201
取り付け	-11.5201
ないまま	-11.5201
ビーチ	-11.5202
ニコライ	-11.5205
が知られている	-11.5205
といえば	-11.5205
が登場し	-11.5206
が良い	-11.5206
彼女は	-11.5208
されるなど	-11.5208
関係にある	-11.5211
護衛	-11.5214
が小さい	-11.5215
急性	-11.5215
凝	-11.5216
\	-11.5216
真言宗	-11.5217
写真家	-11.5217
世界一	-11.5219
進路	-11.5219
ラインカラー	-11.522
進入	-11.522
尽く	-11.5221
蒲	-11.5222
オレ	-11.5223
tal	-11.5225
のもとに	-11.5226
開港	-11.5226
・・・	-11.523
活字	-11.523
加速度	-11.523
反面	-11.5231
同意	-11.5232
っても	-11.5232
鉄道の鉄道駅	-11.5233
付きの	-11.5234
ホーム有効長は	-11.5235
発売されている	-11.5236
尽	-11.5237
EU	-11.5238
宮本	-11.5238
の評価	-11.524
バイク	-11.524
川沿い	-11.524
るようになる	-11.5241
史跡	-11.5242
1862	-11.5244
三人	-11.5245
ペース	-11.5245
韻	-11.5246
連合会	-11.5246
その名	-11.5246
日中は	-11.5248
間接	-11.5249
里村	-11.5249
皇太后	-11.5249
NEXCO	-11.5249
待合所	-11.5249
妖怪	-11.5249
二等	-11.525
平均気温	-11.5253
ルーツ	-11.5254
間もなく	-11.5254
武道	-11.5254
自国	-11.5254
』)。	-11.5255
リーグ戦	-11.5256
老中	-11.5256
ラオス	-11.5256
鳴門	-11.5256
ざわ	-11.5261
地上波	-11.5262
内部の	-11.5263
弥生	-11.5263
car	-11.5263
郡域	-11.5263
見て	-11.5264
じて	-11.5264
TY	-11.5264
出来	-11.5264
状態を	-11.5266
農家	-11.5266
を多数	-11.5267
摂津	-11.5268
水面	-11.5268
、1977	-11.5268
でいう	-11.5269
八重	-11.5269
1.1	-11.5269
将来の	-11.527
7:00	-11.5271
深さ	-11.5271
安倍	-11.5273
勧め	-11.5275
事もある	-11.5277
の一種で	-11.5277
浴	-11.5277
聖堂	-11.5277
失われた	-11.5277
の適用	-11.5278
米原	-11.5278
最終回	-11.5279
米沢	-11.5279
子供の	-11.528
回目の	-11.528
塞	-11.5281
の多く	-11.5282
准	-11.5282
アーカイブ	-11.5283
リメイク	-11.5283
蹴	-11.5283
ストリート	-11.5283
ぁ	-11.5283
に際し	-11.5283
クリスマス	-11.5283
ラップ	-11.5283
ブドウ	-11.5284
白川	-11.5284
の停車	-11.5287
友好	-11.5287
太祖	-11.5288
歳から	-11.5288
漁港	-11.5289
プラグ	-11.529
大いに	-11.5293
親友	-11.5293
ブレー	-11.5293
計算機	-11.5294
内陸部	-11.5296
俗に	-11.5297
と合併して	-11.5297
霞	-11.53
安価	-11.5302
und	-11.5305
を受け入れ	-11.5308
北朝	-11.5308
基幹	-11.5309
リアス	-11.5311
を表明	-11.5312
キー局	-11.5312
疎	-11.5312
地球上	-11.5314
▁Bo	-11.5316
サイエンス	-11.5316
メリット	-11.5316
▁伊藤	-11.5317
が立ち	-11.5317
全線単線	-11.5317
準拠	-11.5317
クラーク	-11.5317
情勢	-11.5318
学説	-11.5318
シャーロック	-11.5318
から見て	-11.532
塗り	-11.5322
探検家	-11.5322
江村	-11.5325
の合計	-11.5327
戸村	-11.5327
政界	-11.5329
増刊号	-11.5329
今治	-11.5332
ダス	-11.5333
land	-11.5334
最寄駅	-11.5336
JRA	-11.5339
を再	-11.5339
(1889	-11.5339
を与えられ	-11.5341
子供たち	-11.5342
とも呼ばれた	-11.5343
建武	-11.5343
IL	-11.5344
LP	-11.5345
応力	-11.5345
1899	-11.5345
ライブラリ	-11.5346
の起点	-11.5347
日本映画	-11.5348
ァ	-11.5349
アインシュタイン	-11.5349
文藝春秋	-11.535
雛	-11.535
帝都高速度交通営団	-11.535
蜂起	-11.535
赴任	-11.535
立体交差	-11.535
リアルタイム	-11.535
師匠	-11.5351
劉備	-11.5351
場合でも	-11.5351
列車が停車する	-11.5351
という形で	-11.5352
採択	-11.5352
が描かれている	-11.5352
ところに	-11.5352
テール	-11.5355
周防	-11.5355
を集めた	-11.5356
土砂	-11.5357
割れ	-11.5357
に所属し	-11.5357
告げ	-11.5358
読書	-11.5358
王座	-11.5359
拍子	-11.536
抽出	-11.536
支払	-11.5361
軌	-11.5361
有線	-11.5361
立てた	-11.5361
活動した	-11.5362
ノイ	-11.5364
傾向がある	-11.5365
KS	-11.5366
だったという	-11.5372
官庁	-11.5373
結果的に	-11.5373
アイデア	-11.5374
直通する	-11.5375
させるため	-11.5375
106	-11.5379
満州	-11.5379
透	-11.538
先輩	-11.5381
慧	-11.5383
エチオピア	-11.5383
を引き起こす	-11.5383
オブジェクト	-11.5383
の支配下	-11.5383
幻想	-11.5384
京阪電気鉄道	-11.5384
対決	-11.5385
自由通路	-11.5385
クレイ	-11.5386
を受賞した	-11.5386
福音書	-11.5387
落選	-11.5387
改札機	-11.5389
地下道	-11.539
小規模	-11.539
選んだ	-11.539
暗黒	-11.539
物理量	-11.5391
肢	-11.5392
ドイツ人	-11.5393
ともいわれる	-11.5394
実証	-11.5394
複素	-11.5394
の反乱	-11.5395
していて	-11.5395
リヤ	-11.5396
お笑い	-11.5396
年度から	-11.5397
一条	-11.5397
ガード	-11.5398
GB	-11.5398
腐	-11.5399
宮中	-11.5401
肥後	-11.5402
普通車	-11.5402
宝暦	-11.5402
浜村	-11.5402
若松	-11.5405
137	-11.5405
記載されている	-11.5406
を建て	-11.5406
嵐山	-11.5409
午	-11.541
遺体	-11.5411
ner	-11.5411
部村	-11.5411
谷町	-11.5412
マニア	-11.5413
コンピュータゲーム	-11.5414
仮設	-11.5414
駄	-11.5415
ガモ	-11.5416
日本の小説家	-11.5416
信託	-11.5417
国際単位系	-11.5419
text	-11.5422
OT	-11.5422
火薬	-11.5423
死ぬ	-11.5423
堀川	-11.5423
連絡通路	-11.5427
を残している	-11.5428
ハト	-11.5429
アニメ化	-11.5431
貫通	-11.5431
レジ	-11.5434
初期に	-11.5436
他国	-11.5436
くじ	-11.5437
のすぐ	-11.5437
日のダイヤ改正で	-11.5437
の提供	-11.5437
ガリア	-11.5437
海面	-11.5438
営業開始	-11.5439
有限会社	-11.5439
いったん	-11.5441
王者	-11.5441
bu	-11.5441
アジ	-11.5444
にかかる	-11.5446
マップ	-11.5449
▁Man	-11.5451
汚染	-11.5451
mb	-11.5452
明確	-11.5452
人工衛星	-11.5452
EE	-11.5452
断絶	-11.5453
本種	-11.5455
とも呼ぶ	-11.5455
貞観	-11.5455
歴史的に	-11.5456
あれ	-11.5456
途中駅となる	-11.5457
フラッシュ	-11.5458
てしまい	-11.5458
の治世	-11.5458
ave	-11.5459
区内	-11.5462
cl	-11.5463
分断	-11.5466
ふる	-11.5468
が設けられ	-11.5469
を入れる	-11.547
けた	-11.5472
を掛け	-11.5473
離れて	-11.5473
筆頭	-11.5473
商事	-11.5474
ミックス	-11.5474
傾向にある	-11.5475
戦国	-11.5476
ヨハネ	-11.5477
(2016	-11.5478
梶	-11.5478
似た	-11.5479
ING	-11.5479
国立大学	-11.5479
被害者	-11.548
都営	-11.5481
PE	-11.5482
不良	-11.5482
国際関係	-11.5483
社会科学	-11.5483
末期の	-11.5484
於	-11.5484
郵政	-11.5485
ソナタ	-11.5485
オプション	-11.5485
ロイヤル	-11.5485
別れ	-11.5486
小田急電鉄	-11.5486
マニ	-11.5487
有田	-11.5488
gi	-11.5488
細長い	-11.5488
シギ	-11.5489
放送していた	-11.5489
受け入れられ	-11.5493
発電所	-11.5494
融資	-11.5498
SY	-11.5499
オイル	-11.5499
を押し	-11.55
を設置した	-11.5504
要望	-11.5504
古代エジプト	-11.5506
史上初の	-11.5507
突入	-11.5507
化学反応	-11.5508
語っている	-11.5509
などといった	-11.5509
たて	-11.5509
関節	-11.5512
ライス	-11.5513
ゴリ	-11.5513
新しく	-11.5517
寝台	-11.5517
ETC	-11.5518
大学大学院	-11.5519
匈奴	-11.5519
線を有する高架駅	-11.5519
John	-11.5519
マネージャー	-11.5519
芋	-11.5519
喪失	-11.5519
対局	-11.552
同僚	-11.552
オーディオ	-11.5521
記念館	-11.5521
渋	-11.5521
メアリー	-11.5522
本山	-11.5522
憲章	-11.5523
の一角	-11.5523
という意味である	-11.5523
総務	-11.5524
水溶液	-11.5525
福寺	-11.5525
飾り	-11.5526
ブッシュ	-11.5526
出土	-11.5527
東京都中央区	-11.5527
見ることができる	-11.5527
多少	-11.5528
はできない	-11.5528
近畿地方	-11.5529
だけである	-11.5529
改組	-11.5531
終わ	-11.5532
ジョイ	-11.5533
社屋	-11.5533
絶え	-11.5534
ath	-11.5535
mit	-11.5536
の命令	-11.5536
安房	-11.5536
がみられる	-11.5537
艦船	-11.5537
レア	-11.5538
を吸収合併	-11.5542
の家臣	-11.5543
フランス王	-11.5544
めん	-11.5545
井駅	-11.5546
ことを意味する	-11.5547
クロム	-11.5547
追分	-11.5549
では唯一	-11.555
単一	-11.5552
鉄道駅	-11.5552
退社	-11.5552
まえき	-11.5552
1848	-11.5552
上院	-11.5553
に登場する架空の	-11.5553
叡	-11.5553
をめぐる	-11.5553
執政官	-11.5553
Microsoft	-11.5553
とされており	-11.5554
ディスプレイ	-11.5554
黒川	-11.5554
マーケット	-11.5554
古代から	-11.5556
外交官	-11.5556
発行の	-11.5557
右翼	-11.5557
が低く	-11.5557
初となる	-11.5557
開祖	-11.5558
可変	-11.556
面では	-11.5563
がなされ	-11.5564
南アフリカ	-11.5567
延期	-11.5568
並び	-11.5569
警察官	-11.557
を追い	-11.5571
の住民	-11.5573
少女漫画	-11.5574
は必ずしも	-11.5576
wa	-11.5577
ウイング	-11.5577
相模原	-11.5579
を変える	-11.5579
レンス	-11.5579
わい	-11.5581
王女	-11.5583
目録	-11.5583
ことなど	-11.5584
それほど	-11.5584
様な	-11.5585
濁	-11.5585
汲	-11.5587
かもしれない	-11.5588
捕獲	-11.5588
ぱ	-11.5588
再放送	-11.5589
と区別するため	-11.559
浜駅	-11.559
対面	-11.559
あや	-11.559
ノイズ	-11.5591
ものだ	-11.5593
人質	-11.5593
法華	-11.5594
ano	-11.5595
!!』	-11.5595
たことで	-11.5595
""	-11.5597
中世の	-11.5597
オーナー	-11.5597
dr	-11.5597
出産	-11.5599
カニ	-11.5599
は常に	-11.56
を合わせた	-11.56
を行うため	-11.5601
ATS	-11.5601
全体で	-11.5603
自作	-11.5603
づき	-11.5603
全列車が	-11.5604
得られた	-11.5604
説得	-11.5606
崎町	-11.5606
描	-11.5607
古く	-11.5608
法により	-11.5608
西山	-11.5612
▁Na	-11.5616
ans	-11.5616
謝	-11.5617
踏	-11.5617
。1998	-11.562
松井	-11.5621
活動していた	-11.5622
儒	-11.5622
を使用していた	-11.5622
リポーター	-11.5622
Po	-11.5622
Japan	-11.5622
最高値を記録した年度	-11.5622
廣	-11.5622
悦	-11.5622
当事者	-11.5623
マレーシア	-11.5623
年代半ば	-11.5623
DD	-11.5624
の確保	-11.5625
が導入された	-11.5626
鑑賞	-11.5626
イト	-11.5629
あさひ	-11.5631
彦根	-11.5637
パラメータ	-11.5637
内外	-11.5639
木星	-11.564
kW	-11.5644
一種の	-11.5644
の最寄り駅	-11.5647
天塩	-11.5647
北端	-11.5648
回大会	-11.5648
履	-11.5652
発見されている	-11.5653
人体	-11.5653
イア	-11.5656
物である	-11.5656
刑務所	-11.5657
とは限らない	-11.5657
すぎる	-11.5657
転移	-11.5659
に仕え	-11.566
スポ	-11.5661
横綱	-11.5664
大村	-11.5664
除外	-11.5665
ミック	-11.5666
六甲	-11.5666
と言われた	-11.5667
▁かつて存在した	-11.5667
中央自動車道	-11.5668
シオン	-11.5669
ピース	-11.567
噴出	-11.5673
組み込まれ	-11.5675
てつどう	-11.5675
rus	-11.5675
営業再開	-11.5678
トルク	-11.5678
Gu	-11.5678
加算	-11.5678
ぽ	-11.5679
アドルフ	-11.5679
炭鉱	-11.568
っていく	-11.568
パール	-11.568
の列車は	-11.5681
発電機	-11.5681
生前	-11.5682
役として	-11.5682
高架下	-11.5682
のサッカー選手	-11.5683
同郡	-11.5683
述べている	-11.5683
の語源は	-11.5683
▁人名	-11.5684
方位	-11.5684
嫌い	-11.5685
の一員	-11.5685
制作された	-11.5687
艦艇	-11.5688
忌	-11.5688
▁前漢	-11.5689
大平	-11.5689
キシ	-11.569
征夷大将軍	-11.5691
それらを	-11.5691
糸魚川	-11.5692
エンタテインメント	-11.5692
ハリウッド	-11.5692
受け継がれ	-11.5692
崇拝	-11.5692
ではないか	-11.5692
にまたがる	-11.5692
立山	-11.5692
博士課程	-11.5693
修復	-11.5693
プラットホーム	-11.5693
採取	-11.5693
電気機関車	-11.5694
利き	-11.5694
を歴任した	-11.5695
せない	-11.5695
が起きた	-11.5696
市道	-11.5697
に使う	-11.5697
門下	-11.5697
を用いている	-11.5698
ポルトガル語	-11.5698
太刀	-11.5698
に分けられ	-11.5699
ナビ	-11.5699
極楽	-11.5701
議会議員	-11.5702
想像	-11.5702
が発売された	-11.5703
ることになる	-11.5703
台頭	-11.5704
田園	-11.5704
Ar	-11.5705
一面	-11.5706
へ移	-11.5707
ug	-11.5708
に置く	-11.5708
時刻表	-11.5708
1898	-11.5708
答	-11.5709
を書いた	-11.571
が必要な	-11.5711
の成績	-11.5713
映画館	-11.5714
信頼性	-11.5715
とみられる	-11.5717
約数	-11.5717
Pe	-11.5717
ich	-11.5717
することが可能	-11.572
互換	-11.572
に使用する	-11.5721
。1996	-11.5722
無効	-11.5725
デビュー作	-11.5725
慰	-11.5726
閑	-11.5726
小笠原	-11.5726
墜落	-11.5726
があれば	-11.5727
拡幅	-11.5727
フジテレビ系列	-11.5727
十五	-11.5727
山陽自動車道	-11.5728
ポケット	-11.5728
不通	-11.5729
砂丘	-11.5729
、1976	-11.5729
ショッピングセンター	-11.573
行政区画としての	-11.573
文禄	-11.573
自由な	-11.573
着手	-11.5731
木曜	-11.5732
付いて	-11.5734
扱われる	-11.5734
が制定され	-11.5735
と異なる	-11.5736
半数	-11.5736
駅まで延伸	-11.5737
lin	-11.5739
三和	-11.574
プラスチック	-11.574
中継局	-11.5743
IX	-11.5743
絵本	-11.5743
新橋	-11.5743
松前	-11.5743
空知	-11.5743
英米	-11.5743
造成	-11.5744
渋川	-11.5745
であったこと	-11.5745
法学者	-11.5746
と合わせて	-11.5747
とほぼ同じ	-11.5747
ケルト	-11.5748
スターリン	-11.5749
ミヤ	-11.575
コイル	-11.5751
が一般的である	-11.5751
批評	-11.5754
説明する	-11.5754
それから	-11.5754
ココ	-11.5756
pt	-11.5756
呼びかけ	-11.5756
少なく	-11.5758
バスケットボール	-11.576
枚目	-11.5761
となっていたが	-11.5761
沿岸部	-11.5761
ギタリスト	-11.5761
煎	-11.5762
1866	-11.5762
話し	-11.5762
信越本線	-11.5762
御殿場	-11.5762
取扱い	-11.5763
凍結	-11.5764
辞職	-11.5764
豊臣	-11.5765
融点	-11.5765
アンナ	-11.5766
有楽町線	-11.5769
連動	-11.577
電機	-11.5771
本国	-11.5771
清朝	-11.5772
ピク	-11.5772
高浜	-11.5773
開け	-11.5774
tu	-11.5776
ガム	-11.5776
イワ	-11.5776
不能	-11.5777
chi	-11.5778
ple	-11.5778
に囲まれた	-11.5778
が含まれている	-11.5779
ヤード	-11.5779
スキー場	-11.5779
よこ	-11.578
消化	-11.5781
解剖学	-11.5782
長谷川	-11.5782
薄く	-11.5782
セリ	-11.5783
ジョゼフ	-11.5783
法学部	-11.5784
(2021	-11.5785
1859	-11.5787
出雲市	-11.5789
嵯峨	-11.5791
上空	-11.5792
自衛	-11.5793
取り扱い	-11.5794
に指定された	-11.5794
に広がる	-11.5794
▁Tr	-11.5795
栖	-11.5795
塵	-11.5796
助教授	-11.5796
湿地	-11.5796
ヵ	-11.5796
á	-11.5796
の可能性	-11.5796
梵	-11.5797
眞	-11.5797
▁接続する道路	-11.5797
豆腐	-11.5797
盟	-11.5797
駅ナンバリングが導入され	-11.5797
ラジオ局	-11.5797
累計	-11.5797
散乱	-11.5798
荘園	-11.5799
異なった	-11.5799
なくなって	-11.58
ように見える	-11.58
旧駅舎	-11.5801
産卵	-11.5801
千代田	-11.5801
コマ漫画	-11.5803
野党	-11.5803
便利	-11.5804
風習	-11.5804
野川	-11.5805
ウミ	-11.5806
留め	-11.5807
噴	-11.5808
So	-11.5808
tre	-11.5813
▁re	-11.5813
物流	-11.5816
者数	-11.5817
と呼んで	-11.5818
局所	-11.5819
ヒンドゥー教	-11.5819
大泉	-11.5823
開成	-11.5823
ラール	-11.5824
種類がある	-11.5825
御前	-11.5826
その時	-11.5828
ヒメ	-11.5829
脂	-11.5829
家電	-11.5831
年代後半から	-11.5831
ユーゴスラビア	-11.5831
腫	-11.5832
生年不詳	-11.5832
食糧	-11.5832
複製	-11.5832
コールサイン	-11.5832
正体	-11.5833
沸点	-11.5833
を背景に	-11.5834
ロット	-11.5835
車掌	-11.5835
ちょ	-11.5835
掲げ	-11.5836
エジプトの	-11.5837
平日の	-11.5837
調布	-11.5838
NNN	-11.5839
が登場した	-11.584
CT	-11.5841
天文台	-11.5841
するような	-11.5842
水蒸気	-11.5842
京都線	-11.5842
室町時代の	-11.5843
ベンチ	-11.5844
水銀	-11.5845
傑作	-11.5845
北欧	-11.5845
たことから	-11.5848
その場合	-11.5849
で開催	-11.5851
論理学	-11.5851
ヶ原	-11.5852
チア	-11.5852
物体の	-11.5852
発信	-11.5853
大館	-11.5853
名寄	-11.5854
青梅	-11.5854
大学附属	-11.5855
与党	-11.5855
を訪れ	-11.5855
位階	-11.5856
岡山駅	-11.586
前者は	-11.586
との合併	-11.5861
日常生活	-11.5861
遊園地	-11.5866
に迎え	-11.5866
ディズニー	-11.5866
自動閉塞式	-11.5867
クロアチア	-11.5867
欽	-11.5867
戊辰戦争	-11.5867
ソ連の	-11.5868
液晶	-11.5868
左手	-11.5868
祭祀	-11.5868
運転されていた	-11.587
をかける	-11.587
渓谷	-11.587
づくり	-11.5871
ボストン	-11.5871
ささ	-11.5872
六角	-11.5872
三江線	-11.5873
ッポ	-11.5873
ホルン	-11.5874
hu	-11.5876
チオ	-11.5879
なす	-11.5883
することが多い	-11.5883
。2022	-11.5886
の間では	-11.5886
と呼ぶことがある	-11.5887
ざい	-11.5888
内野	-11.5888
は無く	-11.5892
が採用された	-11.5893
生理学	-11.5894
丸山	-11.5895
エンディング	-11.5896
サッ	-11.5897
時代劇	-11.5901
戌	-11.5902
ミュージアム	-11.5902
当駅もその所属となる	-11.5902
アレクサンドル	-11.5903
旋律	-11.5903
演じる	-11.5903
曜日	-11.5903
おはよう	-11.5904
審査員	-11.5905
慣例	-11.5905
東亜	-11.5905
香取	-11.5909
すき	-11.5909
トキ	-11.5909
相互に	-11.5909
ぞく	-11.591
フス	-11.5912
判例	-11.5912
レント	-11.5913
ish	-11.5915
に行われる	-11.5917
配下	-11.592
水系	-11.592
を繰り返す	-11.5921
ah	-11.5921
が出た	-11.5922
断面	-11.5925
飛ぶ	-11.5925
連絡している	-11.5926
講演	-11.5926
の一部として	-11.5927
続けて	-11.5931
コレ	-11.5931
ことに伴い	-11.5931
自動的に	-11.5932
が発達し	-11.5933
学的	-11.5933
出席	-11.5934
を定め	-11.5934
の良い	-11.5934
に生まれ	-11.5935
と考えられていた	-11.5936
権現	-11.5937
工業地帯	-11.5937
日本語で	-11.5937
を皮切りに	-11.5938
ボヘミア	-11.5938
セキュリティ	-11.5938
航空母艦	-11.5938
新約聖書	-11.5938
往来	-11.5939
る形で	-11.5939
スワ	-11.5939
新潮社	-11.594
眼鏡	-11.594
コリ	-11.5941
麻生	-11.5942
ホーク	-11.5943
下り列車	-11.5943
ケーブルテレビ局	-11.5943
逃れ	-11.5944
アルミ	-11.5944
原子番号	-11.5946
ユリ	-11.5947
決定戦	-11.5948
あつ	-11.5948
を始めとする	-11.5949
年国勢調査	-11.5949
資本主義	-11.595
大垣	-11.595
渡り線	-11.595
。1991	-11.5952
アキ	-11.5952
ツル	-11.5952
ラト	-11.5956
を設立した	-11.5956
高尾	-11.5956
これらを	-11.5958
戦う	-11.5958
領有	-11.5959
北側に	-11.5961
NP	-11.5963
丹後	-11.5963
に由来している	-11.5963
青葉	-11.5965
在学中に	-11.5967
チック	-11.5967
伸びる	-11.5969
停	-11.597
1/2	-11.597
cr	-11.597
宴	-11.5971
運行されている	-11.5973
文部科学省	-11.5974
プロモーション	-11.5974
滝川	-11.5974
救援	-11.5974
残存	-11.5975
構造物	-11.5977
童話	-11.5977
ものを指す	-11.5977
招き	-11.5978
ビュ	-11.598
に立つ	-11.5981
国税	-11.5982
への移行	-11.5982
1,4	-11.5983
最後まで	-11.5984
誕生日	-11.5984
ain	-11.5985
カリフ	-11.5986
歴史的な	-11.5987
芦屋	-11.5987
前漢	-11.5988
ade	-11.5988
名付けられた	-11.5993
ino	-11.5995
Cr	-11.5996
マジック	-11.5996
の推移	-11.5996
方面からの	-11.5997
密教	-11.5997
に応じた	-11.5998
角川	-11.5998
Uni	-11.5999
スイスの	-11.6001
農地	-11.6001
アメリカ海軍	-11.6002
愛媛	-11.6005
乙女	-11.6005
エキ	-11.6006
死に	-11.6007
褒	-11.6009
JAPAN	-11.601
偉大な	-11.601
フェルミ	-11.601
崩	-11.601
仕掛け	-11.601
貨物取扱廃止	-11.6011
祭神	-11.6011
ism	-11.6013
主任	-11.6014
近郊の	-11.6015
ジュール	-11.6016
誤差	-11.6017
は以下の通りである	-11.6022
平定	-11.6024
テュ	-11.6025
方面と	-11.6028
理性	-11.603
柏崎	-11.6031
開花	-11.6032
日本政府	-11.6033
ちょうど	-11.6034
。2017	-11.6038
オラ	-11.6038
読んで	-11.6039
関西テレビ	-11.604
酒井	-11.6041
の少ない	-11.6041
チェル	-11.6042
上限	-11.6042
に代わり	-11.6043
各ホーム	-11.6043
改名	-11.6044
紹	-11.6045
をめぐって	-11.6045
過ごす	-11.6045
モーツァルト	-11.6046
を帯び	-11.6046
駐輪場	-11.6046
硬貨	-11.6046
調味料	-11.6046
を擁する	-11.6046
補完	-11.6047
尾道	-11.6048
ナレーター	-11.6048
帯広	-11.6049
空手	-11.605
造語	-11.6051
にしか	-11.6051
樹立	-11.6052
首都高速道路	-11.6052
リーフ	-11.6052
行為を	-11.6054
秘書	-11.6055
改札階	-11.6055
工業団地	-11.6056
ジョンソン	-11.6057
工業大学	-11.6063
が継承	-11.6063
せば	-11.6066
との間の	-11.6066
豊富な	-11.6066
ていたこと	-11.6067
pl	-11.6068
鉱業	-11.6073
▁北海道道	-11.6073
帝政	-11.6074
程度で	-11.6074
が長く	-11.6074
ze	-11.6074
取締	-11.6075
を決定する	-11.6076
見せ	-11.6078
行える	-11.6081
使い分け	-11.6081
HTML	-11.6082
跨	-11.6082
太田市	-11.6082
救急	-11.6083
過去には	-11.6083
▁1890	-11.6083
での施行により	-11.6084
阪神電気鉄道	-11.6084
を行なう	-11.6084
男爵	-11.6087
指向	-11.6087
並行する	-11.6087
阿仁	-11.6088
▁料金所	-11.6089
石垣	-11.609
としての活動	-11.6092
の指導者	-11.6092
万博	-11.6093
を目的とする	-11.6094
ヴェン	-11.6094
に分けて	-11.6094
最も古い	-11.6095
行われており	-11.6096
La	-11.6096
の役割	-11.6097
大川	-11.6098
どんな	-11.6098
起工	-11.6099
握	-11.6101
歩く	-11.6102
がないため	-11.6102
南側に	-11.6103
En	-11.6104
山手	-11.6105
本番組	-11.6105
テーション	-11.6106
となること	-11.6106
解説する	-11.6107
本人の	-11.6108
のりば	-11.6112
侵	-11.6113
みんな	-11.6115
を指す言葉	-11.6115
っこ	-11.6117
遥	-11.6118
教諭	-11.6118
を失う	-11.6118
醸造	-11.6118
を破り	-11.6118
対空	-11.6119
KE	-11.612
下野	-11.6121
幕張	-11.6121
ょ	-11.6122
一括	-11.6122
長安	-11.6122
str	-11.6122
も少なくない	-11.6123
京都大学	-11.6124
長時間	-11.6125
配給	-11.6125
工法	-11.6126
微小	-11.613
誤解	-11.6136
周辺に	-11.6136
を見つけ	-11.6137
くさ	-11.6137
大司教	-11.6138
に選ばれた	-11.6142
カツ	-11.6143
解読	-11.6144
レディ	-11.6144
動作する	-11.6146
に変更した	-11.6147
残された	-11.6148
アメリカ大陸	-11.6148
考案された	-11.615
三つ	-11.6151
クン	-11.6151
キラ	-11.6153
に耐え	-11.6153
どのように	-11.6154
読まれ	-11.6154
FT	-11.6154
形容詞	-11.6155
乗員	-11.6155
天台宗	-11.6155
共和制	-11.6156
モジュール	-11.6156
共鳴	-11.6157
純粋な	-11.6157
典礼	-11.6158
陸上競技場	-11.6159
千代田線	-11.6159
修士	-11.6159
バス事業	-11.616
LL	-11.616
生きる	-11.616
のひとつで	-11.6161
所属事務所	-11.6161
広範囲	-11.6161
集約	-11.6162
英名	-11.6163
作物	-11.6164
育つ	-11.6164
山寺	-11.6165
知多	-11.6165
終え	-11.6167
成ると	-11.6168
効力	-11.6168
軽い	-11.6169
に乗って	-11.617
を訪れた	-11.6173
三つの	-11.6173
発行された	-11.6175
ark	-11.6175
合体	-11.6176
ミナ	-11.6177
したのが	-11.618
の無い	-11.6181
現生	-11.6182
斬	-11.6184
長野市	-11.6184
ソウ	-11.6186
温泉駅	-11.6186
aw	-11.6187
孔子	-11.6189
を探し	-11.6189
監査	-11.6191
款	-11.6191
▁運行形態	-11.6191
を上回る	-11.6191
固有名詞	-11.6191
東海道新幹線	-11.6192
堤防	-11.6192
寒冷	-11.6192
北陸新幹線	-11.6192
藤本	-11.6192
繁殖期	-11.6193
シアター	-11.6197
セリフ	-11.6199
、1956	-11.6203
をもち	-11.6207
走者	-11.6211
ust	-11.6213
無機	-11.6214
があったため	-11.6215
大阪駅	-11.6215
明示	-11.6217
これ以降	-11.6218
スコア	-11.6219
新田村	-11.622
ハンス	-11.6221
ウェー	-11.6222
に任じられ	-11.6223
として扱われ	-11.6223
紀州	-11.6223
グア	-11.6223
レフ	-11.6224
0.3	-11.6224
イング	-11.6224
述べた	-11.6226
結ぶ	-11.6226
ミッション	-11.6227
アプローチ	-11.6227
ヴィクトリア	-11.6227
週刊少年マガジン	-11.6227
瀧	-11.6227
対義語	-11.6227
灌	-11.6227
可動式ホーム柵	-11.6227
世界的な	-11.6228
系図	-11.6228
ヤコブ	-11.6228
ハイビジョン	-11.6229
ければ	-11.6229
極性	-11.6229
同級生	-11.6229
サンフランシスコ	-11.6229
独立して	-11.6229
はあるが	-11.623
無尽	-11.623
意匠	-11.623
南北戦争	-11.6232
代数的	-11.6234
がそのまま	-11.6234
接している	-11.6236
航行	-11.6237
を搭載し	-11.6237
rea	-11.6237
あた	-11.6239
胴体	-11.6239
と訳される	-11.6239
地殻	-11.6239
石原	-11.6244
デュー	-11.6245
せて	-11.6246
に始まる	-11.6247
適切	-11.6247
アダルトゲーム	-11.6248
法上の	-11.6249
▁con	-11.625
常設	-11.6252
アポロ	-11.6254
の終わり	-11.6256
ボイ	-11.6257
覇	-11.6259
との戦い	-11.626
日露戦争	-11.626
に由来	-11.6263
TT	-11.6264
ī	-11.6264
悠	-11.6264
ハロゲン	-11.6265
知的	-11.6265
吹き替え	-11.6265
のみこと	-11.6267
くれ	-11.6267
はかなり	-11.6268
命題	-11.6269
可決	-11.6269
を深め	-11.627
もち	-11.6271
成熟	-11.6273
に終わった	-11.6274
かけた	-11.6274
らと共に	-11.6274
に編入され	-11.6274
旅客列車	-11.6274
日放送分	-11.6275
138	-11.6276
LS	-11.6278
を超えて	-11.6279
人であった	-11.6279
退学	-11.628
されたものである	-11.6281
を挙げた	-11.6284
思われ	-11.6285
伊勢崎市	-11.6286
450	-11.6288
信金	-11.6288
仙北	-11.6288
末端	-11.6288
改修工事	-11.6288
カセット	-11.6289
バク	-11.629
小浜	-11.6291
エルフ	-11.6293
つもり	-11.6297
化されている	-11.6298
関わり	-11.6298
らとともに	-11.6299
永井	-11.6301
モバイル	-11.6301
大幅な	-11.6301
出品	-11.6301
を巡って	-11.6302
脂質	-11.6302
有効長	-11.6303
ノア	-11.6303
簡易郵便局	-11.6303
定期的に	-11.6304
酸性	-11.6304
ってしまう	-11.6304
細かい	-11.6305
松阪	-11.6306
山口組	-11.6308
がつく	-11.631
として知られていた	-11.631
みると	-11.6311
短距離	-11.6311
一時は	-11.6312
多重	-11.6312
を有している	-11.6312
乗り入れている	-11.6312
ボロ	-11.6313
服部	-11.6314
電位	-11.6314
を付けた	-11.6314
言えば	-11.6315
けば	-11.6316
馬車	-11.6316
フィート	-11.6316
景気	-11.6316
出身地	-11.6317
が存在していた	-11.6317
演算子	-11.6318
負の	-11.6319
Ge	-11.6319
それらは	-11.632
特徴がある	-11.6321
安定した	-11.6322
RAM	-11.6322
DX	-11.6322
を合わせて	-11.6322
京都駅	-11.6324
源義	-11.6326
事が多い	-11.6327
アメリカ人	-11.6329
一気に	-11.6331
賛成	-11.6333
はっきり	-11.6333
の駅として	-11.6334
ric	-11.6335
ハチ	-11.6336
を記述する	-11.6336
旧姓	-11.6337
事前に	-11.6337
諱は	-11.6338
洗濯	-11.6338
アレクサンドリア	-11.6338
妨害	-11.6338
フランシスコ	-11.6339
Trans	-11.634
初等	-11.634
-15	-11.6341
マクロ	-11.6341
vers	-11.6342
を生み出し	-11.6342
イザー	-11.6344
ることがある	-11.6344
VA	-11.6345
について述べる	-11.6346
を研究する	-11.6346
帰国後	-11.6347
衣装	-11.6348
Ne	-11.635
新日本	-11.6351
唐代	-11.6351
静岡市	-11.6351
音程	-11.6352
顎	-11.6352
務めた	-11.6352
(1979	-11.6353
中毒	-11.6353
燃え	-11.6355
JC	-11.6355
伊予鉄道	-11.6355
が発表され	-11.6355
三輪	-11.6356
名声	-11.6357
語派	-11.6357
毎月	-11.6358
を走行する	-11.636
を立ち上げ	-11.6361
がおり	-11.6362
上郡	-11.6362
ロマンス	-11.6362
Mar	-11.6363
エヌ	-11.6365
高野山	-11.6365
元服	-11.6367
常盤	-11.6367
代表作に	-11.6368
に移行した	-11.6368
譚	-11.6371
掃	-11.6373
設計された	-11.6374
嚢	-11.6375
逢	-11.6375
バルセロナ	-11.6375
外務省	-11.6375
水泳	-11.6375
蒼	-11.6375
名古屋市営地下鉄	-11.6375
尖	-11.6375
駅南側	-11.6377
プロレスラー	-11.6379
を取り入れ	-11.6379
BSD	-11.6379
捕食	-11.6379
旧来の	-11.638
記法	-11.638
として初めて	-11.6383
と同じように	-11.6384
が広がっている	-11.6384
ys	-11.6384
fi	-11.6384
を利用し	-11.6385
tro	-11.6387
官職	-11.6389
たところ	-11.6392
宇和	-11.6393
筑	-11.6393
の起源は	-11.6393
働	-11.6393
tra	-11.6394
されたのは	-11.6395
背中	-11.6395
返り	-11.6397
郷土	-11.6397
欠け	-11.6398
ラック	-11.64
大統領選挙	-11.6401
長田	-11.6401
円錐	-11.6401
徳山	-11.6405
東京湾	-11.6405
を設ける	-11.6407
アンドレ	-11.6408
偵察	-11.641
極東	-11.641
滞	-11.6411
we	-11.6412
阻止	-11.6412
近縁	-11.6412
撫	-11.6412
蟹	-11.6412
ユニバーサル	-11.6412
公民館	-11.6413
紐	-11.6413
手塚治虫	-11.6413
坐	-11.6413
懲役	-11.6413
ワラ	-11.6413
超伝導	-11.6413
リム	-11.6413
参拝	-11.6414
ソースコード	-11.6414
コンクール	-11.6414
パートナー	-11.6415
ショット	-11.6416
構成員	-11.6416
村に合併	-11.6416
かかり	-11.6416
北緯	-11.6417
SK	-11.6418
教育学部	-11.642
迂回	-11.6423
述べ	-11.6425
スロープ	-11.6426
tan	-11.6427
市統計書	-11.6428
震	-11.6429
務め	-11.6431
ake	-11.6433
1.4	-11.6433
駅東側	-11.6434
掛川	-11.6436
世界各国	-11.6436
掲載された	-11.6436
最近では	-11.6437
式内社	-11.6438
リバー	-11.6438
駅西側	-11.6439
バレー	-11.6444
みなと	-11.6445
ティブ	-11.6446
を強く	-11.6446
其	-11.6449
繁華街	-11.645
粕	-11.645
を結んだ	-11.645
選帝侯	-11.645
埋葬	-11.645
フェスティバル	-11.645
鷺	-11.645
左派	-11.6451
わなかった	-11.6452
ユリウス	-11.6452
失脚	-11.6452
係員	-11.6452
スカパー	-11.6452
最高裁判所	-11.6453
をあげ	-11.6453
献上	-11.6454
本拠	-11.6454
箕面	-11.6454
全員が	-11.6454
適合	-11.6455
汎	-11.6455
智頭	-11.6457
志望	-11.6458
FL	-11.6458
いずみ	-11.6459
が開かれ	-11.6461
として使われる	-11.6463
入れ替え	-11.6467
女の子	-11.6469
(1982	-11.6469
分化	-11.6471
以内に	-11.6473
ッシング	-11.6473
ロボ	-11.6474
MBS	-11.6475
おらず	-11.6476
たものである	-11.6477
の様子	-11.6479
悩	-11.6479
こい	-11.6482
アカデミー賞	-11.6483
ハウ	-11.6485
集会	-11.6485
を終了した	-11.6487
世間	-11.6487
変わらない	-11.6487
炊	-11.6487
メソポタミア	-11.6488
コーポレーション	-11.6488
きわめて	-11.6488
内容を	-11.6488
蛍光	-11.6489
ウエスト	-11.649
出会い	-11.649
出兵	-11.649
に属していた	-11.6491
名門	-11.6492
頭取	-11.6493
ドライ	-11.6495
されることになった	-11.6497
支配者	-11.6498
化される	-11.6499
増加した	-11.6499
▁1894	-11.6502
を維持する	-11.6503
すず	-11.6504
に限られ	-11.6505
ari	-11.6506
じゅ	-11.6508
活躍する	-11.6509
と接続	-11.651
すけ	-11.651
平田	-11.6511
側には	-11.6513
狩野	-11.6514
によるものである	-11.6515
SIC	-11.6515
精神的	-11.6516
富岡	-11.6516
数千	-11.6516
その間	-11.6518
が流れ	-11.6518
っこう	-11.6518
ort	-11.6518
が原因	-11.652
ジャワ	-11.6523
トレーニング	-11.6525
カテゴリー	-11.6526
西線	-11.6528
陣営	-11.6528
元帥	-11.6528
司令部	-11.6529
駅名標	-11.653
海抜	-11.653
住宅街	-11.653
藩領が	-11.653
理由から	-11.653
になるため	-11.6531
されるまで	-11.6531
簿	-11.6531
を持たせ	-11.6531
JST	-11.6533
公共施設	-11.6533
函数	-11.6535
出している	-11.6536
きら	-11.6538
を食べ	-11.6538
県庁所在地	-11.6538
日比谷線	-11.6539
のほとんどは	-11.6539
メイト	-11.654
することも	-11.654
特別区	-11.654
標的	-11.6543
ジオン	-11.6544
配当	-11.6545
を結成し	-11.6549
かれる	-11.6551
訪	-11.6552
撤去され	-11.6553
が流れる	-11.6554
標準化	-11.6555
赤城	-11.6556
の著書	-11.6557
三陸	-11.6558
Air	-11.6561
に移る	-11.6561
▁1891	-11.6563
ヶ岳	-11.6563
ベートーヴェン	-11.6563
に代わる	-11.6563
淡路大震災	-11.6563
免除	-11.6564
のが一般的である	-11.6564
駐在所	-11.6565
コモ	-11.6565
で構成され	-11.6568
総統	-11.6568
GNU	-11.6568
ホイ	-11.6569
がほぼ	-11.657
を対象に	-11.657
レイン	-11.6571
するようになり	-11.6571
カレ	-11.6572
Fi	-11.6575
両社	-11.6578
実務	-11.6579
翌年に	-11.6579
空港線	-11.6579
線ホーム	-11.6579
イースト	-11.6583
延暦	-11.6584
決済	-11.6584
ヨーロッパでは	-11.6585
示唆	-11.6585
も多かった	-11.6585
ていたという	-11.6586
3.0	-11.6586
カウ	-11.6587
うまく	-11.6589
竹内	-11.659
一行	-11.659
に囲まれ	-11.6591
わかる	-11.6592
川原	-11.6592
を止め	-11.6592
細い	-11.6592
埋	-11.6593
ことなどから	-11.6594
駅東口	-11.6594
と見られる	-11.6594
bit	-11.6594
まっている	-11.6596
など多くの	-11.6597
新政府	-11.6599
レベルの	-11.66
FR	-11.66
点数	-11.66
俺	-11.6601
エルンスト	-11.6601
年末まであと	-11.6601
σ	-11.6601
Open	-11.6601
警告	-11.6601
▁約数の和	-11.6601
Power	-11.6601
王室	-11.6602
恐竜	-11.6602
放送される	-11.6603
つつも	-11.6603
Sch	-11.6604
バター	-11.6605
取り入れられ	-11.6605
アフリカ大陸	-11.6606
1895	-11.6606
知られており	-11.6607
映画祭	-11.6608
石器	-11.6608
合った	-11.6609
都市である	-11.661
ケーキ	-11.6611
設置されていた	-11.6611
河北	-11.6611
改正により	-11.6612
将校	-11.6613
ランダム	-11.6614
ブレイク	-11.6614
荒木	-11.6615
だし	-11.6615
My	-11.6615
転用	-11.6616
ヒロ	-11.6617
せられ	-11.6617
注釈	-11.6619
江戸川	-11.662
ばれ	-11.6621
日本列島	-11.6621
相生	-11.6622
計量	-11.6622
出馬	-11.6623
内田	-11.6624
検定	-11.6625
ホス	-11.6625
字形	-11.6628
バト	-11.6628
懸念	-11.6628
洛	-11.6629
ウルフ	-11.6629
法による	-11.6631
Li	-11.6633
Ad	-11.6634
に行った	-11.6635
(1876	-11.6635
は極めて	-11.6636
分校	-11.6637
を重視し	-11.6638
期生	-11.6639
潔	-11.6639
発行部数	-11.6639
▁20:00)	-11.6639
政令指定都市	-11.664
警報	-11.664
俗称	-11.6641
接合	-11.6641
英語表記	-11.6642
入試	-11.6643
スクエア	-11.6643
認められている	-11.6644
足柄	-11.6645
1.3	-11.6645
注目を集め	-11.6647
スープ	-11.6648
を攻め	-11.6648
マーン	-11.6649
路線として	-11.665
替	-11.665
本館	-11.6652
河原町	-11.6653
国体	-11.6655
ベール	-11.6655
レモン	-11.6656
カート	-11.6656
に現れる	-11.6657
が設立された	-11.6658
自動販売機	-11.6658
均	-11.6658
MAN	-11.6658
土器	-11.6662
矢野	-11.6667
ターミナル駅	-11.6668
線路名称制定	-11.667
を言う	-11.6672
ビック	-11.6672
法案	-11.6676
という名称は	-11.6676
斯	-11.6676
犠牲	-11.6677
蝶	-11.6677
瓜	-11.6677
大友	-11.6678
喉	-11.6678
圓	-11.6678
冷凍	-11.6678
運転台	-11.6678
源頼朝	-11.6678
掲示板	-11.6678
英語の語句	-11.6679
没収	-11.6679
ウサギ	-11.6679
潜水	-11.668
精算	-11.668
鉄道敷設	-11.6681
経営者	-11.6681
疑い	-11.6682
遠く	-11.6683
サッカークラブ	-11.6684
ny	-11.6684
陸前	-11.6685
同番組	-11.6685
巡回	-11.6687
地村	-11.6688
の持つ	-11.6688
nn	-11.6689
ビッグコミック	-11.6691
現在地	-11.6691
に分ける	-11.6693
奈良時代の	-11.6696
回戦	-11.6697
長期間	-11.6698
アーケード	-11.6698
API	-11.67
ことが知られている	-11.67
通っている	-11.6701
ピンク	-11.6702
米国の	-11.6702
商品名	-11.6704
十郎	-11.6705
八郎	-11.6706
are	-11.6708
転落	-11.6709
開発した	-11.6711
腔	-11.6714
播	-11.6715
招待	-11.6716
平凡社	-11.6716
日本国	-11.6716
カワ	-11.6716
tes	-11.6717
気象庁	-11.6718
飯田線	-11.6719
真実	-11.6719
作成した	-11.672
分間	-11.6721
園芸	-11.6721
ぷ	-11.6721
を広げ	-11.6722
代表取締役	-11.6722
その際に	-11.6722
AO	-11.6723
合併後	-11.6723
鉱石	-11.6723
ぎん	-11.6724
に完成した	-11.6724
が適用され	-11.6726
バナ	-11.6727
Gra	-11.6728
ポス	-11.6729
通商	-11.6729
の取り扱い	-11.6729
販売していた	-11.6729
が竣工	-11.6729
では最も	-11.673
中山道	-11.6732
八尾	-11.6732
延喜式	-11.6732
その中に	-11.6734
犬山	-11.6738
横川	-11.674
かかった	-11.6741
コンゴ	-11.6741
から派生した	-11.6743
仮面	-11.6744
公爵	-11.6745
開始された	-11.6747
郡役所が	-11.6749
自由度	-11.6752
であるとされる	-11.6753
ファミコン	-11.6754
に就く	-11.6755
デビューした	-11.6755
を題材とした	-11.6755
パナソニック	-11.6755
脊椎動物	-11.6755
旗本領	-11.6756
東急電鉄	-11.6756
対照	-11.6758
取り入れ	-11.6759
365	-11.6759
クルー	-11.676
カーネル	-11.676
急激に	-11.6761
発売され	-11.6763
付けられる	-11.6763
人が死亡	-11.6769
今川	-11.677
編集部	-11.6772
pr	-11.6772
間違い	-11.6773
と評され	-11.6774
港線	-11.6775
戦った	-11.6775
昇進	-11.6776
が図られ	-11.6777
とほぼ	-11.6777
信越	-11.6778
発光	-11.6778
標準的な	-11.6779
作られている	-11.678
の原則	-11.678
につれ	-11.6783
築地	-11.6784
場合も	-11.6784
tin	-11.6784
格闘技	-11.6785
ペルシア語	-11.6785
を展開し	-11.6786
旅客駅	-11.6786
ten	-11.6787
設定されていた	-11.6789
占有	-11.679
妖	-11.6793
碧	-11.6793
壁画	-11.6793
を踏まえ	-11.6793
Ζ	-11.6794
ジョヴァンニ	-11.6794
間が開通	-11.6794
暮らす	-11.6794
シーア派	-11.6794
▁乗り入れ路線	-11.6794
していたこと	-11.6794
ナム	-11.6794
山陽電気鉄道	-11.6795
大蔵省	-11.6795
鳥栖	-11.6795
ネパール	-11.6796
異性体	-11.6797
美少女	-11.6797
我々	-11.6798
かま	-11.6798
大江戸線	-11.6799
が生まれる	-11.6801
を付け	-11.6801
養成所	-11.6802
立憲	-11.6803
国際的に	-11.6804
ばし	-11.6804
辺り	-11.6806
GS	-11.6807
座標系	-11.6809
ung	-11.681
ker	-11.681
バロック	-11.6812
クション	-11.6817
が設立され	-11.682
も同様	-11.6822
ゴロ	-11.6823
メタン	-11.6824
コイン	-11.6824
敷地内	-11.6825
CL	-11.6827
に追い	-11.6827
襄	-11.6828
書類	-11.6829
ローム	-11.6829
博多駅	-11.683
業務委託化	-11.6833
元老院	-11.6833
多機能トイレ	-11.6833
キャッチフレーズ	-11.6833
讃岐	-11.6833
SEED	-11.6833
亜鉛	-11.6834
県域	-11.6834
1861	-11.6834
当路線	-11.6835
理科	-11.6836
以降も	-11.6836
工具	-11.6837
ダグラス	-11.6837
児玉	-11.6837
信号機	-11.6837
バンダイ	-11.6837
運び	-11.684
決戦	-11.6841
を象徴する	-11.6841
主催の	-11.6841
宝永	-11.6842
打ち切り	-11.6842
速さ	-11.6843
交際	-11.6844
用例	-11.6847
収め	-11.6849
番出入口	-11.6849
教育機関	-11.6849
文学賞	-11.6849
らしく	-11.685
有用	-11.685
を表している	-11.685
キット	-11.6852
位置付け	-11.6853
鉄道事業者	-11.6855
が発着する	-11.6855
ヶ島	-11.6856
南海鉄道	-11.6858
第三次	-11.6858
上総	-11.686
卒業生	-11.6861
注文	-11.6862
出現する	-11.6862
を組み	-11.6863
大雪	-11.6865
接近メロディ	-11.6865
日本共産党	-11.6865
中心市街地	-11.6866
大学卒業後	-11.6866
は一切	-11.6869
さいたま	-11.6869
を移し	-11.6869
牟	-11.6871
征伐	-11.6871
坑	-11.6872
もあれば	-11.6872
名神高速道路	-11.6872
胚	-11.6872
木曜日	-11.6872
参議院議員	-11.6872
不可欠	-11.6872
感謝	-11.6872
ぐる	-11.6873
と推定されている	-11.6874
玄関	-11.6875
カブ	-11.6876
捧げ	-11.6876
どん	-11.6877
(1983	-11.6877
路線が乗り入れ	-11.6878
言い換え	-11.6878
異動	-11.6879
設けられ	-11.6882
つけられた	-11.6884
から始まった	-11.6885
伝えた	-11.6885
ゆめ	-11.6885
海老	-11.6887
の関係で	-11.6888
ドイツ語で	-11.6889
倉村	-11.689
ene	-11.689
星団	-11.6891
鉄道会社	-11.6892
廃線	-11.6892
この番組	-11.6893
交換設備	-11.6894
FS	-11.6894
障	-11.6895
以外で	-11.6895
放送事業者	-11.6895
飛車	-11.6896
同名	-11.6899
関連会社	-11.69
DH	-11.69
実現した	-11.6901
ばかりの	-11.6903
リース	-11.6904
ッコ	-11.6906
が終結	-11.6906
意味を持つ	-11.6907
ユーザ	-11.6909
全列車	-11.6909
(1981	-11.691
展望	-11.691
汗	-11.6911
括弧	-11.6911
ふれあい	-11.6911
侵害	-11.6911
モンスター	-11.6911
日立製作所	-11.6911
ふるさと	-11.6911
浴び	-11.6911
とみなす	-11.6912
奇跡	-11.6913
に加入	-11.6913
我が	-11.6914
麻布	-11.6914
ッセ	-11.6914
山陽鉄道	-11.6915
こうえん	-11.6915
城山	-11.6916
を重視する	-11.6919
岐阜市	-11.6919
程度である	-11.692
私立大学	-11.692
平山	-11.692
ホッ	-11.6921
盛ん	-11.6921
大学文学部	-11.6922
としてデビュー	-11.6923
おおよそ	-11.6924
羽田	-11.6924
法律上	-11.6926
そん	-11.6927
縄文時代	-11.6928
地下駅	-11.6929
1.6	-11.6929
レベルで	-11.6929
を積極的に	-11.693
も行っている	-11.693
運行していた	-11.6931
河野	-11.6931
厳密に	-11.6932
で放送されていた	-11.6933
探検	-11.6934
を上げ	-11.6934
りく	-11.6935
ジロ	-11.6937
ユース	-11.6937
交通機関	-11.6937
高かった	-11.6939
から構成される	-11.6939
正確には	-11.694
四天王	-11.6941
ral	-11.6941
ません	-11.6942
天明	-11.6943
入る	-11.6944
二度	-11.6944
ノ宮	-11.6946
が難しい	-11.6949
を全て	-11.6949
天気予報	-11.695
葬儀	-11.6951
を開発した	-11.6951
ソフトバンク	-11.6951
違	-11.6952
と名付けられた	-11.6952
採用される	-11.6952
発想	-11.6953
遺構	-11.6953
VTR	-11.6954
レポート	-11.6954
石灰	-11.6955
うじ	-11.6955
と伝えられる	-11.6956
成長した	-11.6956
駅構内に	-11.6956
材質	-11.6956
ベータ	-11.6958
風呂	-11.6958
集まって	-11.6959
得た	-11.696
▁Gr	-11.696
隠居	-11.6963
宮島	-11.6963
がなされている	-11.6971
世話	-11.6971
する場合もある	-11.6972
開場	-11.6972
次官	-11.6973
キム	-11.6975
旧跡	-11.6975
キリストの	-11.6975
ウェスト	-11.6977
名阪	-11.698
らせた	-11.698
駅西口	-11.6981
赤羽	-11.6981
ママ	-11.6981
狭く	-11.6983
(2017	-11.6983
サバ	-11.6985
気持ち	-11.6985
妙高	-11.6986
10%	-11.6988
武蔵野線	-11.6989
復讐	-11.6989
安土桃山時代	-11.6989
砦	-11.6989
庸	-11.699
百科事典	-11.699
青い森鉄道	-11.699
巴	-11.699
総武本線	-11.699
習志野	-11.699
エチレン	-11.699
森田	-11.699
を以て	-11.699
BASIC	-11.699
▁秋田県道	-11.6991
建て替え	-11.6992
共和政ローマ	-11.6992
大相撲	-11.6993
飛鳥時代	-11.6994
Ti	-11.6994
1850	-11.6996
通説	-11.6997
なって	-11.6997
含め	-11.6997
交差する	-11.6998
プリント	-11.6999
を支配する	-11.7
込まれた	-11.7002
湾岸	-11.7003
本堂	-11.7004
両親は	-11.7005
と命名された	-11.7006
実戦	-11.7007
両者の	-11.7007
坂村	-11.7007
生母	-11.7007
改められ	-11.7009
柔	-11.701
社内	-11.701
無人駅である	-11.701
日平均乗降人員	-11.7011
掲載されている	-11.7011
と結婚した	-11.7011
したりする	-11.7012
中日新聞	-11.7012
を通って	-11.7013
oll	-11.7014
観光バス	-11.7017
筆記	-11.7018
サロン	-11.7019
まれに	-11.7019
のりば番号	-11.702
ッテ	-11.7021
言われ	-11.7022
br	-11.7022
Su	-11.7023
完成した	-11.7025
直下	-11.7026
が持つ	-11.7027
当時から	-11.7027
理論的	-11.7028
峯	-11.7029
に移った	-11.7029
蜜	-11.7029
ミャンマー	-11.7029
に当たって	-11.703
で表記している	-11.703
間が開業	-11.7031
勅令	-11.7032
飛来	-11.7033
取手	-11.7033
との関連	-11.7033
掘り	-11.7035
草原	-11.7035
立花	-11.7035
[...]
